{"vocab_size": 10000, "learned_tokens": 9271, "reserved_tokens": 729, "byte_to_unicode": {"0": "Ā", "1": "ā", "2": "Ă", "3": "ă", "4": "Ą", "5": "ą", "6": "Ć", "7": "ć", "8": "Ĉ", "9": "ĉ", "10": "Ċ", "11": "ċ", "12": "Č", "13": "č", "14": "Ď", "15": "ď", "16": "Đ", "17": "đ", "18": "Ē", "19": "ē", "20": "Ĕ", "21": "ĕ", "22": "Ė", "23": "ė", "24": "Ę", "25": "ę", "26": "Ě", "27": "ě", "28": "Ĝ", "29": "ĝ", "30": "Ğ", "31": "ğ", "32": "Ġ", "33": "!", "34": "\"", "35": "#", "36": "$", "37": "%", "38": "&", "39": "'", "40": "(", "41": ")", "42": "*", "43": "+", "44": ",", "45": "-", "46": ".", "47": "/", "48": "0", "49": "1", "50": "2", "51": "3", "52": "4", "53": "5", "54": "6", "55": "7", "56": "8", "57": "9", "58": ":", "59": ";", "60": "<", "61": "=", "62": ">", "63": "?", "64": "@", "65": "A", "66": "B", "67": "C", "68": "D", "69": "E", "70": "F", "71": "G", "72": "H", "73": "I", "74": "J", "75": "K", "76": "L", "77": "M", "78": "N", "79": "O", "80": "P", "81": "Q", "82": "R", "83": "S", "84": "T", "85": "U", "86": "V", "87": "W", "88": "X", "89": "Y", "90": "Z", "91": "[", "92": "\\", "93": "]", "94": "^", "95": "_", "96": "`", "97": "a", "98": "b", "99": "c", "100": "d", "101": "e", "102": "f", "103": "g", "104": "h", "105": "i", "106": "j", "107": "k", "108": "l", "109": "m", "110": "n", "111": "o", "112": "p", "113": "q", "114": "r", "115": "s", "116": "t", "117": "u", "118": "v", "119": "w", "120": "x", "121": "y", "122": "z", "123": "{", "124": "|", "125": "}", "126": "~", "127": "ġ", "128": "Ģ", "129": "ģ", "130": "Ĥ", "131": "ĥ", "132": "Ħ", "133": "ħ", "134": "Ĩ", "135": "ĩ", "136": "Ī", "137": "ī", "138": "Ĭ", "139": "ĭ", "140": "Į", "141": "į", "142": "İ", "143": "ı", "144": "Ĳ", "145": "ĳ", "146": "Ĵ", "147": "ĵ", "148": "Ķ", "149": "ķ", "150": "ĸ", "151": "Ĺ", "152": "ĺ", "153": "Ļ", "154": "ļ", "155": "Ľ", "156": "ľ", "157": "Ŀ", "158": "ŀ", "159": "Ł", "160": "ł", "161": "¡", "162": "¢", "163": "£", "164": "¤", "165": "¥", "166": "¦", "167": "§", "168": "¨", "169": "©", "170": "ª", "171": "«", "172": "¬", "173": "Ń", "174": "®", "175": "¯", "176": "°", "177": "±", "178": "²", "179": "³", "180": "´", "181": "µ", "182": "¶", "183": "·", "184": "¸", "185": "¹", "186": "º", "187": "»", "188": "¼", "189": "½", "190": "¾", "191": "¿", "192": "À", "193": "Á", "194": "Â", "195": "Ã", "196": "Ä", "197": "Å", "198": "Æ", "199": "Ç", "200": "È", "201": "É", "202": "Ê", "203": "Ë", "204": "Ì", "205": "Í", "206": "Î", "207": "Ï", "208": "Ð", "209": "Ñ", "210": "Ò", "211": "Ó", "212": "Ô", "213": "Õ", "214": "Ö", "215": "×", "216": "Ø", "217": "Ù", "218": "Ú", "219": "Û", "220": "Ü", "221": "Ý", "222": "Þ", "223": "ß", "224": "à", "225": "á", "226": "â", "227": "ã", "228": "ä", "229": "å", "230": "æ", "231": "ç", "232": "è", "233": "é", "234": "ê", "235": "ë", "236": "ì", "237": "í", "238": "î", "239": "ï", "240": "ð", "241": "ñ", "242": "ò", "243": "ó", "244": "ô", "245": "õ", "246": "ö", "247": "÷", "248": "ø", "249": "ù", "250": "ú", "251": "û", "252": "ü", "253": "ý", "254": "þ", "255": "ÿ"}, "vocab": ["Ā", "ā", "Ă", "ă", "Ą", "ą", "Ć", "ć", "Ĉ", "ĉ", "Ċ", "ċ", "Č", "č", "Ď", "ď", "Đ", "đ", "Ē", "ē", "Ĕ", "ĕ", "Ė", "ė", "Ę", "ę", "Ě", "ě", "Ĝ", "ĝ", "Ğ", "ğ", "Ġ", "!", "\"", "#", "$", "%", "&", "'", "(", ")", "*", "+", ",", "-", ".", "/", "0", "1", "2", "3", "4", "5", "6", "7", "8", "9", ":", ";", "<", "=", ">", "?", "@", "A", "B", "C", "D", "E", "F", "G", "H", "I", "J", "K", "L", "M", "N", "O", "P", "Q", "R", "S", "T", "U", "V", "W", "X", "Y", "Z", "[", "\\", "]", "^", "_", "`", "a", "b", "c", "d", "e", "f", "g", "h", "i", "j", "k", "l", "m", "n", "o", "p", "q", "r", "s", "t", "u", "v", "w", "x", "y", "z", "{", "|", "}", "~", "ġ", "Ģ", "ģ", "Ĥ", "ĥ", "Ħ", "ħ", "Ĩ", "ĩ", "Ī", "ī", "Ĭ", "ĭ", "Į", "į", "İ", "ı", "Ĳ", "ĳ", "Ĵ", "ĵ", "Ķ", "ķ", "ĸ", "Ĺ", "ĺ", "Ļ", "ļ", "Ľ", "ľ", "Ŀ", "ŀ", "Ł", "ł", "¡", "¢", "£", "¤", "¥", "¦", "§", "¨", "©", "ª", "«", "¬", "Ń", "®", "¯", "°", "±", "²", "³", "´", "µ", "¶", "·", "¸", "¹", "º", "»", "¼", "½", "¾", "¿", "À", "Á", "Â", "Ã", "Ä", "Å", "Æ", "Ç", "È", "É", "Ê", "Ë", "Ì", "Í", "Î", "Ï", "Ð", "Ñ", "Ò", "Ó", "Ô", "Õ", "Ö", "×", "Ø", "Ù", "Ú", "Û", "Ü", "Ý", "Þ", "ß", "à", "á", "â", "ã", "ä", "å", "æ", "ç", "è", "é", "ê", "ë", "ì", "í", "î", "ï", "ð", "ñ", "ò", "ó", "ô", "õ", "ö", "÷", "ø", "ù", "ú", "û", "ü", "ý", "þ", "ÿ", "an", "th", "in", "the", "Ġthe", "re", "on", "st", "ed", "ĠI", "nd", "Ġan", "er", "Ġa", "Ġo", "Ġin", "en", "it", "al", "Ġand", "ĠInd", "at", "is", "ing", "or", "ic", "Ġs", "Ġw", "Ġof", "Ġc", "ar", "ia", "ion", "Ġt", "Ġp", "om", "Ġb", "Ġm", "Ġe", "Ġf", "ou", "Ġh", "ĠB", "Ġl", "Ġn", "ĠIndia", "as", "es", "ly", "ĠA", "Ġto", "ent", "Ġre", "Ġd", "iv", "ur", "ce", "ol", "Ġr", "ist", "ian", "ig", "ĠS", "ec", "id", "il", "le", "ra", "ĠM", "Th", "ation", "du", "us", "ĠE", "ĠTh", "00", "ĠC", "est", "mp", "op", "rit", "rom", "ts", "ĠThe", "Ġar", "am", "ast", "ally", "ch", "et", "os", "Ġg", "Ġis", "Ġit", "Ġfor", "ang", "ere", "if", "im", "ire", "ul", "Ġ1", "ĠH", "Ġon", "Ġth", "ad", "ers", "ith", "ism", "oc", "outh", "ub", "um", "ure", "ĠD", "ĠAs", "Ġfrom", "Ġnor", "CE", "a,", "ag", "con", "ern", "ity", "mpire", "ut", "ĠP", "ĠBCE", "Ġby", "Ġits", "Ġor", "Ġwith", "ak", "ans", "ical", "ill", "ish", "od", "s,", "ther", "ud", "Ġ(", "Ġst", "ĠIndian", "Ġint", "and", "e,", "em", "ir", "igh", "istan", "ro", "s.", "ted", "ult", "ĠEmpire", "Ġex", "Ġreg", "Ġwas", "ain", "ame", "angu", "anguag", "el", "ence", "gh", "indu", "nt", "oci", "ri", "thern", "ĠG", "ĠAsia", "ĠHindu", "Ġhas", "Ġinto", "Ġlanguag", "Ġpl", "Ġregion", "Ġwh", "000", "ac", "ay", "ansk", "anskrit", "ary", "dh", "ear", "erg", "ich", "iver", "merg", "ord", "ry", "y.", "Ġv", "ĠIn", "ĠIndus", "ĠIndia,", "ĠSanskrit", "ĠSouth", "Ġag", "Ġcon", "Ġemerg", "Ġhad", "Ġnorthern", "Ġsoci", ",000", "==", "ab", "av", "akistan", "conom", "duc", "enn", "enni", "ennium", "ett", "ies", "illennium", "ince", "ld", "ow", "omp", "pt", "used", "ver", "vid", "Ġ==", "ĠCh", "ĠIndo", "ĠIndia'", "ĠPakistan", "Ġas", "Ġbec", "Ġeconom", "Ġinc", "Ġmo", "Ġrel", "Ġsub", "Ġwere", "Ġwest", "aj", "ajor", "arg", "ate", "cc", "cont", "contin", "continent", "een", "ef", "ep", "ears", "ed,", "ens", "etw", "ised", "ivers", "nc", "ok", "ot", "odern", "omin", "ough", "ound", "pp", "red", "ritish", "ter", "un", "uddh", "ulture", "uring", "ury", "wo", "years", "Äģ", "ĠN", "ĠR", "Ġyears", "Ġ19", "ĠBritish", "ĠBuddh", "ĠMa", "Ġago", "Ġarch", "Ġbecame", "Ġcent", "Ġch", "Ġexp", "Ġhum", "Ġlif", "Ġmid", "Ġmillennium", "Ġne", "Ġnorth", "Ġriver", "Ġrelig", "Ġsince", "Ġsouth", "Ġsubcontinent", "Ġtwo", "Ġwhich", "a.", "ased", "ass", "ativ", "cri", "ea", "ean", "eg", "end", "ect", "ied", "ically", "ism,", "istor", "ks", "led", "lic", "lud", "og", "olv", "ome", "ong", "opul", "ose", "oss", "our", "ous", "qu", "rat", "ric", "ravid", "ravidian", "ree", "res", "ule", "ublic", "âĢ", "Ġ2", "ĠO", "ĠV", "ĠAf", "ĠBh", "ĠBy", "ĠBCE,", "ĠDravidian", "ĠIt", "ĠIndia.", "Ġbut", "Ġcou", "Ġcre", "Ġculture", "Ġeast", "Ġemerged", "Ġform", "Ġgra", "Ġhigh", "Ġlanguages", "Ġlife", "Ġmodern", "Ġmost", "Ġnon", "Ġpar", "Ġpopul", "Ġpr", "Ġris", "Ġrule", "Ġref", "Ġreligion", "Ġsu", "Ġsocial", "Ġvar", "Ġwestern", "),", "0,000", "400", "Ary", "Aryan", "Eur", "Europ", "European", "athe", "alist", "anted", "anges", "arat", "arly", "asin", "assical", "ated", "ater", "ation,", "ban", "cript", "day", "dle", "dually", "eop", "equ", "ev", "econ", "ell", "eople", "eri", "ered", "etween", "ient", "iol", "iff", "ights", "imal", "ings", "itect", "ities", "ition", "ity.", "kn", "lassical", "lin", "lish", "ley", "luding", "ment", "ncient", "ntry", "oose", "olog", "olved", "ominion", "ompos", "pic", "ppl", "rew", "rica", "roduc", "sl", "stem", "t,", "ty", "unt", "urban", "urya", "ution", "viol", "west", "wn", "ystem", "á¹", "Ġ3", "Ġ400", "Ġ5", "ĠJ", "Ġed", "Ġun", "Ġurban", "Ġused", "ĠAncient", "ĠAfrica", "ĠBharat", "ĠChin", "ĠDuring", "ĠGree", "ĠIsl", "ĠIts", "ĠMaurya", "ĠSanskrit,", "Ġad", "Ġare", "Ġat", "Ġago.", "Ġanimal", "Ġarchitect", "Ġbasin", "Ġbord", "Ġcities", "Ġco", "Ġcompos", "Ġcountry", "Ġdiff", "Ġdivers", "Ġdominion", "Ġeth", "Ġeconomy", "Ġext", "Ġhistor", "Ġhuman", "Ġincre", "Ġlater", "Ġlong", "Ġloose", "Ġmajor", "Ġname", "Ġocc", "Ġover", "Ġpeople", "Ġpol", "Ġplain", "Ġrise", "Ġsett", "Ġsp", "Ġsystem", "Ġtim", "Ġthat", "Ġthis", "Ġwor", ");", "0,", "19", "200", "23", "47", "47,", "5,000", "500", "Ind", "India", "US", "ace", "aem", "aic", "ap", "are", "aË", "ade", "aemen", "ages", "ainism", "ajority", "aking", "alley", "anm", "ant", "any", "andar", "anding", "ands", "andard", "andardised", "anmar", "ara", "arh", "arl", "arge", "argin", "argins", "arli", "arliest", "athere", "atherer", "atherers,", "ationalist", "ations", "ative", "ativity", "ave", "avi", "avira", "aËĲ", "cluding", "cord", "cean", "chaemen", "corded", "dep", "div", "dom", "depend", "doms", "eaking", "eat", "ever", "ex", "ech", "eclin", "echn", "echnolog", "econd", "edi", "eli", "ement", "emoc", "eng", "ently", "equal", "erm", "eriod", "ersian", "es.", "ettled", "etwor", "etworks", "ever,", "fter", "gatherers,", "glish", "ghal", "hm", "hok", "hÄģ", "hoka", "hÄģrat", "i,", "ially", "ik", "icts", "iddle", "ide", "ified", "ild", "ilis", "illion", "imm", "including", "ined", "ing,", "ingdoms", "irst", "isen", "istic", "isting", "itary", "ite", "itution", "ity,", "ivilis", "iving", "jab", "jo", "kingdoms", "knit", "lim", "ling", "lour", "low", "lement", "lourish", "majority", "nglish", "och", "oth", "ov", "olation", "olid", "omen", "orted", "out", "outhe", "outheast", "owever,", "pation,", "pplanted", "ral", "rough", "rac", "solid", "stan", "stitution", "tition", "tym", "uc", "ughal", "upation,", "unjab", "unter", "ure,", "ures", "uslim", "vement", "volved", "vidence", "violence", "west.", "yanmar", "¸Î", "¸Î½", "¸Î½Î", "¸Î½Î´", "¼¸Î½Î´", "Äģy", "ËĪ", "á¼¸Î½Î´", "á¹ĩ", "âĢĵ", "âĢĶ", "Ġ\"", "Ġ7", "ĠF", "ĠK", "ĠL", "ĠUS", "Ġer", "Ġimm", "Ġkingdoms", "Ġ(including", "Ġ(á¼¸Î½Î´", "Ġ1200", "Ġ1947,", "Ġ195", "Ġ55,000", "Ġ===", "ĠAchaemen", "ĠAshoka", "ĠAsia.", "ĠBCE.", "ĠBuddhism", "ĠCent", "ĠCivilis", "ĠClassical", "ĠChr", "ĠChina,", "ĠEarly", "ĠEnglish", "ĠEmpire.", "ĠGanges", "ĠGreek", "ĠHinduism", "ĠHindustan", "ĠIslam", "ĠJainism", "ĠMiddle", "ĠMughal", "ĠMuslim", "ĠMyanmar", "ĠOcean", "ĠPersian", "ĠPunjab", "ĠTheir", "ĠValley", "Ġab", "Ġafter", "Ġadop", "Ġago,", "Ġarisen", "Ġaround", "Ġart,", "Ġarchaic", "Ġarchitecture,", "Ġbeen", "Ġbeg", "Ġbetween", "Ġborders", "Ġcast", "Ġcentur", "Ġcentury", "Ġcomposed", "Ġconduc", "Ġconsolid", "Ġcont", "Ġcreativity", "Ġcultures", "Ġdat", "Ġdeclin", "Ġdemoc", "Ġduring", "Ġdiffused", "Ġearliest", "Ġempire", "Ġepic", "Ġeconomic", "Ġedicts", "Ġethical", "Ġexpanding", "Ġextens", "Ġfac", "Ġfirst", "Ġflourish", "Ġfound", "Ġgr", "Ġgrew", "Ġgradually", "Ġhered", "Ġhis", "Ġhub", "Ġhunter", "Ġhighly", "Ġhistorical", "Ġhumans", "Ġindepend", "Ġinequal", "Ġinf", "Ġincreased", "Ġisolation", "Ġland", "Ġlarge", "Ġloss", "Ġlanguage", "Ġlanguage,", "Ġmade", "Ġmain", "Ġmargins", "Ġmig", "Ġmult", "Ġmovement", "Ġnationalist", "Ġnear", "Ġnew", "Ġnorthwest.", "Ġoccupation,", "Ġperiod", "Ġpo", "Ġpre", "Ġpro", "Ġprom", "Ġpublic", "Ġpartition", "Ġplace", "Ġplan", "Ġpopulous", "Ġrights", "Ġrecorded", "Ġres", "Ġrefer", "Ġregions.", "Ġreligions", "Ġscript", "Ġsecond", "Ġsh", "Ġsouth.", "Ġstandardised", "Ġstat", "Ġsupplanted", "Ġtechnolog", "Ġthough", "Ġthrough", "Ġthere", "Ġtoday", "Ġtook", "Ġvari", "Ġvarn", "Ġwomen", "Ġwrit", "Ġwhat", "Ġworld", "%.", "')", "'.", "'E", "'the", "'Eigh", "'Eight", ",\"", ",6", ",60", ",601", ",601,", ".4", ".6", ".6%", "023", "023.", "1900", "2,601,", "20", "20,", "232", "4%.", "58", "58.", "6.6%", "61", "64", "68", "80,000", "858.", "9,000", "BhÄģrat", "BhÄģrat;", "E,", "India\"", "India,", "NA", "Zor", "Zoro", "Zoroast", "Zoroastr", "Zoroastrian", "Zoroastrianism", "[É", "[ËĪ", "[É¦", "[É¦É", "[É¦Éª", "[É¦Éªnd", "[É¦ÉªndÊ", "[É¦ÉªndÊĬ", "[É¦ÉªndÊĬËĪ", "[É¦ÉªndÊĬËĪst", "[É¦ÉªndÊĬËĪstaËĲ", "[É¦ÉªndÊĬËĪstaËĲn", "[É¦ÉªndÊĬËĪstaËĲn]", "[ËĪb", "[ËĪbÊ", "[ËĪbÊ±", "[ËĪbÊ±aËĲ", "[ËĪbÊ±aËĲÉ", "[ËĪbÊ±aËĲÉ¾", "[ËĪbÊ±aËĲÉ¾É", "[ËĪbÊ±aËĲÉ¾ÉĻ", "[ËĪbÊ±aËĲÉ¾ÉĻt", "[ËĪbÊ±aËĲÉ¾ÉĻt]", "ach", "ail", "aim", "aism,", "apt", "ared", "ares", "aused", "awn", "aá¹ĩ", "abil", "abit", "able", "ablish", "ability", "abitat", "abitats.", "ablished", "ack", "acr", "acter", "acy", "acy.", "ached", "ackd", "ackdr", "ackdrop", "acrif", "acrific", "acrifices", "acteristic", "ades", "adivers", "adesh", "adiverse", "agara", "ailand", "aiming", "ained", "aken", "akh", "akhig", "akhigarh", "akhigarhi,", "ala,", "aldiv", "ale", "ales", "aling", "alised", "all", "alled", "aln", "aloch", "als,", "aldives.", "alesc", "alescence", "alinga,", "alistic", "alistic,", "alleng", "allenges", "alnut", "alnutrit", "alnutrition", "alnutrition,", "alochistan", "alochistan,", "aman", "ami", "amm", "amily", "amma", "anagara", "anate", "ance", "anied", "anised", "anism,", "anistan", "ank", "anks", "anw", "andson", "andson,", "ange", "angl", "angladesh", "anka", "ansion", "antly", "anweri", "anweriw", "anweriwala,", "api", "apit", "apiens", "apita", "apters", "apters')", "aracteristic", "arit", "arley", "aro", "ars", "arapp", "arappa,", "are.", "argest", "aritim", "aritime", "arley)", "aro,", "arsh", "arsha,", "ary,", "arying", "ashm", "asing", "ass.", "ashmir", "assing", "asting", "astor", "asts.", "astoral", "ate,", "atical", "atin", "ating", "atom", "att", "ately", "athes", "atomically", "attle", "attle)", "avarsha,", "aving", "avira,", "awnings", "ayanagara", "aá¹ĩa,", "bar", "bes", "bhÄģrat", "bian", "bour", "bu", "bhÄģrata", "bours,", "ca.", "cale", "ced", "ces", "comp", "cr", "ccomp", "ccord", "ccompanied", "ccording", "ce,", "cept", "cedent", "cedented", "chability", "ching", "chings", "compassing", "cross", "crip", "cripts", "cription", "criptions,", "daro,", "def", "ders", "dition", "dri", "defined", "dhu", "dhy", "dhu,", "dhyÄģy", "dhyÄģyÄ", "dhyÄģyÄ«", "ditionally", "divid", "divide,", "drial", "duced", "e.", "eages", "eals,", "ebu", "eep", "eh", "eights", "eing", "emp", "eog", "eth", "ew", "eace,", "eachings", "eap", "eaning", "eapon", "eatite", "eatures", "ecif", "ected", "ecifically", "econom", "economic", "ecting", "eda", "eder", "ederal", "ediately", "ediev", "edieval", "ef.", "efly", "efo", "eft", "efore", "eforest", "eforested,", "egacy.", "egadiverse", "ehr", "ehrg", "ehrgarh", "eights,", "elf", "elh", "els", "elfare.", "elhi", "elief.", "elih", "eliho", "elihood", "ellen", "elling", "ellenistic", "empor", "emporary", "encompassing", "enet", "enjo", "enth", "ender", "endit", "enditure", "enditure.", "enetic", "engal", "ense", "ensl", "enslaving", "ention", "entire", "entioned", "entiret", "entirety.", "eogra", "eograp", "eograph", "eographically", "epal", "epublic", "equently", "er'", "eracy", "erance", "ering", "eriv", "erous", "errac", "ere.", "ereig", "eren", "erent", "ereignt", "ereignty.", "erence", "erenti", "erentiation", "erives", "ermit", "ermitt", "ermittently", "erned", "erracot", "erracott", "erracotta", "es,", "ese", "esia", "esia.", "estic", "estication", "etry", "ety.", "ethn", "ethnic", "ettes.", "evels", "eventh", "ewed", "existing", "exts", "exts,", "fic", "ford", "fts", "ficially", "ganised", "gro", "ghanistan", "grow", "growing", "hamma", "havira", "henjo", "hered", "hich", "hism", "hol", "hmanism,", "holavira,", "hÄģbhÄģrata", "i.", "ial", "iewed", "ij", "imp", "iod", "ious", "ix", "iament", "iamentary", "ianity,", "ians", "icling", "ico", "ict", "icy", "ically,", "icobar", "iction", "ictionary,", "ideas", "idely", "ife,", "igin", "igures", "ighbours,", "iginally", "ijayanagara", "ikelihood", "ikhism", "iling", "ilitary", "ils", "ildl", "ildlife,", "ilingu", "ilingual", "illages", "illar", "imary", "implement", "implements,", "indhu,", "ineages", "ini.", "ining", "inn", "innings", "iodivers", "iodiversity", "ioning", "ird", "iron", "irth", "ires,", "isation", "isp", "iss", "isput", "isputes", "issioning", "isters", "istianity,", "istance", "istory", "itan", "iteracy", "itially", "itical", "itoch", "ithic", "itochon", "itochondrial", "ive", "ived", "iver,\"", "ixed", "jecting", "jure", "joining", "jured", "ked", "ks,", "know", "known", "laiming", "largest", "lass.", "lasting", "lerance", "les,", "liamentary", "lo", "ls", "lu", "lution", "ldest", "lear", "linked", "loy", "lowing", "lowly", "lowly,", "loying", "lso", "luence", "luded", "lution.", "m.", "matical", "mation", "mies", "millennium", "missioning", "mmatical", "mn", "mong", "mop", "mÄģy", "mns", "mopol", "mopolitan", "mped", "mploying", "mÄģyaá¹ĩa,", "ned", "ning,", "nu", "nced", "ncy", "ndaman", "ndering", "nding", "nually", "ohenjo", "oot", "oted", "ots", "ock", "oclaiming", "ociated", "odified", "oken", "olithic", "olled", "ollowing", "olon", "ology", "olonial", "olving", "omestication", "ommissioning", "omo", "ominal", "ominantly", "ompany", "onesia.", "onicling", "onou", "ons", "onstitution", "onounced", "oot.", "oper", "orally", "ormation", "orth", "ory", "oryt", "orytelling", "osmopolitan", "osome", "ossils", "otable", "ote", "otter", "ots.", "otsp", "otspots.", "ottery", "ouchability", "ould", "oun", "outhern", "oughly", "ounded", "outheast,", "overeignty.", "overned", "ower", "pared", "pastoral", "peaking", "pre", "pres", "produc", "public", "pported", "pplied", "precedented", "present", "producing", "pta", "quest", "ran", "ration", "ring", "rived", "river,\"", "riving", "rolled", "rabian", "raditionally", "radually", "rafts", "rahmanism,", "racy.", "ratic", "rating", "ream", "rency", "ret", "redominantly", "reex", "reexisting", "resolved", "ress", "ressed", "retching", "ribes", "riefly", "riculture", "riculture.", "road", "rown", "roduced", "roduced,", "romosome", "scale", "scriptions,", "se", "sequently", "settled", "sociated", "speaking", "stablished", "stream", "stitutionalised", "tected", "ten", "tified", "ting", "tor", "teries", "tymology", "tymons", "uettes.", "umped", "upta", "ucation", "uclear", "udaism,", "ultanate", "ulting", "umerous", "untouchability", "ural", "uralistic,", "urned", "urred", "urrency", "urther", "ushered", "utan", "vince", "volving", "verty", "violent", "violence,", "wathes", "weapon", "which", "west,", "wns", "xford", "xt", "y,", "yles,", "ymns", "zebu", "£á¹", "£á¹Ń", "£á¹ŃÄģ", "£á¹ŃÄģdhyÄģyÄ«", "¯Î", "¯Î±", "¯Î±);", "ÄģmÄģyaá¹ĩa,", "Äģá¹ĩ", "Äģá¹ĩini.", "Î¯Î±);", "ÏĤ", "ÏĮ", "ÏĤ),", "ÏĮÏĤ),", "á¹£á¹ŃÄģdhyÄģyÄ«", "Ġ'the", "Ġ)", "Ġ),", "Ġ80,000", "Ġ9,000", "ĠY", "ĠZoroastrianism", "Ġ[ËĪbÊ±aËĲÉ¾ÉĻt]", "Ġencompassing", "Ġenslaving", "Ġentirety.", "Ġideas", "Ġimplements,", "Ġiron", "Ġknown", "Ġuntouchability", "Ġushered", "Ġzebu", "Ġ\"India\"", "Ġ\"river,\"", "Ġ('Eight", "Ġ(BhÄģrat;", "Ġ([É¦ÉªndÊĬËĪstaËĲn]", "Ġ(an", "Ġ(ca.", "Ġ(present", "Ġ(á¼¸Î½Î´Î¯Î±);", "Ġ(á¼¸Î½Î´ÏĮÏĤ),", "Ġ1.4", "Ġ13", "Ġ1500", "Ġ16.6%", "Ġ1858.", "Ġ1920,", "Ġ1950,", "Ġ1951", "Ġ2023.", "Ġ2500", "Ġ268", "Ġ30,000", "Ġ300", "Ġ361", "Ġ50,000", "Ġ7000", "Ġ74%.", "ĠAccording", "ĠAmong", "ĠAndaman", "ĠArabian", "ĠAá¹£á¹ŃÄģdhyÄģyÄ«", "ĠAchaemenian", "ĠAchaemenid", "ĠAfghanistan", "ĠAsians", "ĠAsia,", "ĠBalochistan,", "ĠBangladesh", "ĠBased", "ĠBay", "ĠBengal", "ĠBetween", "ĠBoth", "ĠBounded", "ĠBrahmanism,", "ĠBCE),", "ĠBhutan", "ĠBharatavarsha,", "ĠBuddha", "ĠBuddha.", "ĠBuddhism,", "ĠCE,", "ĠCompany", "ĠConstitution", "ĠCrown", "ĠCentral", "ĠCentred", "ĠChromosome", "ĠChina.", "ĠChristianity,", "ĠChronicling", "ĠCivilisation", "ĠCivilisation,", "ĠDNA", "ĠDelhi", "ĠDholavira,", "ĠDictionary,", "ĠDomestication", "ĠEast", "ĠEpic", "ĠEtymology", "ĠEvidence", "ĠEmpire);", "ĠEmpires.", "ĠFollowing", "ĠFurther", "ĠGanweriwala,", "ĠGradually", "ĠGupta", "ĠGreeks", "ĠHarappa,", "ĠHellenistic", "ĠHistory", "ĠHomo", "ĠHowever,", "ĠHinduism,", "ĠIndonesia.", "ĠIndos", "ĠIndians", "ĠIndoi,", "ĠIndus'.", "ĠIndus;", "ĠIslands", "ĠIslam,", "ĠIslam.", "ĠJudaism,", "ĠKalinga,", "ĠKashmir", "ĠLanka", "ĠLatin", "ĠMaldives.", "ĠMehrgarh", "ĠMitochondrial", "ĠModern", "ĠMohenjo", "ĠMahavira", "ĠMahÄģbhÄģrata", "ĠMyanmar,", "ĠNepal", "ĠNetworks", "ĠNicobar", "ĠNorth", "ĠNoted", "ĠOld", "ĠOxford", "ĠOcean,", "ĠPÄģá¹ĩini.", "ĠPakistan)", "ĠPakistan,", "ĠPakistan.", "ĠPunjab,", "ĠRakhigarhi,", "ĠRepublic", "ĠRig", "ĠRiver", "ĠRÄģmÄģyaá¹ĩa,", "ĠSea", "ĠSettled", "ĠSikhism", "ĠSindhu,", "ĠSoutheast", "ĠSri", "ĠSultanate", "ĠSanskrit.", "ĠThailand", "ĠThese", "ĠVeda", "ĠVijayanagara", "Ġaccompanied", "Ġacross", "Ġair", "Ġalso", "Ġapplied", "Ġabjured", "Ġabout", "Ġadjoining", "Ġadopted", "Ġadopting", "Ġagriculture.", "Ġagro", "Ġanatomically", "Ġannually", "Ġand,", "Ġanimals", "Ġarmies", "Ġarrived", "Ġarteries", "Ġarts", "Ġarchitectural", "Ġare:", "Ġarea,", "Ġarisen,", "Ġarisen:", "Ġassociated", "Ġbackdrop", "Ġbarley)", "Ġbased", "Ġbeing", "Ġbelief.", "Ġbillion", "Ġbiodiversity", "Ġbirth", "Ġboth", "Ġbriefly", "Ġbroad", "Ġbasin,", "Ġbasin.", "Ġbecome", "Ġbegan", "Ġbeginnings", "Ġborder", "Ġcalled", "Ġcapita", "Ġcattle)", "Ġcaused", "Ġclass.", "Ġclassical", "Ġcodified", "Ġcolonial", "Ġcommissioning", "Ġcosmopolitan", "Ġcrafts", "Ġcurrency", "Ġcaste", "Ġcaste,", "Ġcentral", "Ġcenturies", "Ġcentury.", "Ġcentury,", "Ġchallenges", "Ġchanges", "Ġchapters')", "Ġcharacteristic", "Ġchild", "Ġcities,", "Ġcoalescence", "Ġcoasts.", "Ġcost", "Ġcomposite", "Ġconquest", "Ġconduct,", "Ġconducted", "Ġconsolidated", "Ġconsolidations", "Ġcontemporary", "Ġcontrolled", "Ġcould", "Ġcreated", "Ġcreating", "Ġculture,", "Ġculture.", "Ġdate", "Ġdawnings", "Ġdeep", "Ġdeforested,", "Ġderives", "Ġdhamma", "Ġdisputes", "Ġdrew", "Ġdriving", "Ġdata,", "Ġdates", "Ġdeclined,", "Ġdeclining", "Ġdemocracy.", "Ġdemocratic", "Ġdifferentiation", "Ġdiverse,", "Ġdiverse.", "Ġdiversity.", "Ġdominions,", "Ġearly", "Ġemploying", "Ġending", "Ġestablished", "Ġetymons", "Ġevidence", "Ġevolved", "Ġevolving", "Ġeast.", "Ġeastern", "Ġeconomy.", "Ġeducation", "Ġemerge", "Ġemerged,", "Ġemergence", "Ġemerged.", "Ġempire'", "Ġepics,", "Ġera", "Ġera,", "Ġethically,", "Ġexcept", "Ġexpansion", "Ġexpenditure.", "Ġexported", "Ġextant", "Ġextension", "Ġextensive", "Ġfamily", "Ġfast", "Ġfeatures", "Ġfederal", "Ġfigures", "Ġfires,", "Ġfixed", "Ġfossils", "Ġfour", "Ġfaces", "Ġfactor", "Ġflourished", "Ġflourishing", "Ġforces", "Ġfortified", "Ġforms", "Ġfounder'", "Ġgained", "Ġgave", "Ġgender", "Ġgenetic", "Ġgeographically", "Ġgoverned", "Ġgrandson,", "Ġgranted", "Ġgrain", "Ġgrammatical", "Ġhabitats.", "Ġhave", "Ġhere.", "Ġhotspots.", "Ġhowever,", "Ġhumped", "Ġhymns", "Ġhereditary", "Ġheredity.", "Ġhistory", "Ġhubs", "Ġimmediately", "Ġimmense", "Ġinitially", "Ġinscriptions,", "Ġinstitutionalised", "Ġinvolved", "Ġincluded", "Ġincluding", "Ġincome", "Ġincreasing", "Ġindependence", "Ġindependent", "Ġinequality,", "Ġinequality.", "Ġinfluence", "Ġinformation", "Ġintermittently", "Ġintroduced,", "Ġlay", "Ġleft", "Ġlegacy.", "Ġlevels", "Ġlikelihood", "Ġlineages", "Ġliteracy", "Ġliving", "Ġlanguages.", "Ġlife,", "Ġloosely", "Ġmalnutrition,", "Ġmany", "Ġmaritime", "Ġmay", "Ġmeaning", "Ġmedieval", "Ġmegadiverse", "Ġmentioned", "Ġmilitary", "Ġmillion", "Ġmorally", "Ġmainly", "Ġmainstream", "Ġmiddle", "Ġmigrating", "Ġmigration", "Ġmillennium,", "Ġmovements.", "Ġmulti", "Ġmultilingual", "Ġnative", "Ġnetworks", "Ġno", "Ġnominal", "Ġnotable", "Ġnoun", "Ġnuclear", "Ġnumerous", "Ġneighbours,", "Ġneolithic", "Ġnext", "Ġnonviolent", "Ġnorth,", "Ġnorth;", "Ġoldest", "Ġother", "Ġout", "Ġoccurred", "Ġofficially", "Ġonly", "Ġoral", "Ġorders", "Ġorganised", "Ġoriginally", "Ġoverran", "Ġpeace,", "Ġper", "Ġpillar", "Ġpottery", "Ġpower", "Ġpredominantly", "Ġpreexisting", "Ġproduced", "Ġparliamentary", "Ġparts", "Ġpartition.", "Ġpartitioned", "Ġpluralistic,", "Ġplain.", "Ġplains.", "Ġplanning,", "Ġplants", "Ġpoetry", "Ġpoverty", "Ġpolicy", "Ġpolitical", "Ġpollution.", "Ġpopular", "Ġpopulation", "Ġprimary", "Ġproclaiming", "Ġpronounced", "Ġproper", "Ġprepared", "Ġprotected", "Ġprovince", "Ġpromised", "Ġpromote", "Ġrange", "Ġranks", "Ġrate", "Ġrate,", "Ġrich", "Ġrock", "Ġroot.", "Ġroughly", "Ġreached", "Ġreduced", "Ġrejecting", "Ġrendering", "Ġrepublic", "Ġreference", "Ġrefined", "Ġreferred", "Ġreferring", "Ġregisters", "Ġregion.", "Ġregions", "Ġrelative", "Ġreligious", "Ġreligion.", "Ġreligions.", "Ġresistance", "Ġresulting", "Ġrising", "Ġriver,", "Ġrule.", "Ġsacrifices", "Ġsapiens", "Ġscripts", "Ġseals,", "Ġseventh", "Ġslowly,", "Ġsome", "Ġsoutheast,", "Ġsouthern", "Ġsovereignty.", "Ġswathes", "Ġscript,", "Ġscripture", "Ġsetting", "Ġsettlement", "Ġsettling", "Ġshare", "Ġshares", "Ġsocially", "Ġsociety.", "Ġsocio", "Ġsouth,", "Ġsouthwest,", "Ġspeaking", "Ġspecifically", "Ġspoken", "Ġstate", "Ġsteatite", "Ġstorytelling", "Ġstressed", "Ġstretching", "Ġstyles,", "Ġstatuettes.", "Ġstatus", "Ġsuch", "Ġsupported", "Ġsubsequently", "Ġsubcontinent,", "Ġsystem'", "Ġsystem.", "Ġsystems", "Ġtaken", "Ġteachings", "Ġterm", "Ġterracotta", "Ġtexts,", "Ġtraditionally", "Ġtribes", "Ġturned", "Ġtechnological", "Ġtechnology,", "Ġthan", "Ġthird", "Ġthose", "Ġthem.", "Ġthese", "Ġthought", "Ġthroughout", "Ġtime", "Ġtime,", "Ġtimes", "Ġtolerance", "Ġtowns", "Ġunlinked", "Ġunprecedented", "Ġunresolved", "Ġurbanisation", "Ġvarying", "Ġviewed", "Ġvillages", "Ġvariations", "Ġvaried,", "Ġvarna,", "Ġvarna.", "Ġweights,", "Ġwelfare.", "Ġwell", "Ġwidely", "Ġwildlife,", "Ġwould", "Ġwest,", "Ġwest;", "Ġwhen", "Ġwithin", "Ġworks,", "Ġworld'", "Ġwriting,", "Ġwritten", "à¤", "à°", "à®", "Ġà¤", "Ġà°", "Ġà®", "à¥", "à±", "à¯", "à¤¾", "à±į", "à¯į", "à¤°", "à±įà°", "à¯įà®", "à¥į", "à°¾", "à¯ģ", "à¥įà¤", "à°¾à°", "à®¿", "à¥ĩ", "à°¿", "à®¿à®", "à¤¾à¤", "à°Ĥ", "à¯ģà®", "à¤¿", "à±ģ", "à®¾", "Ġà¤ķ", "à°Ĥà°", "à®¾à®", "à¤¿à¤", "à°¿à°", "à®¤", "à¤Ĥ", "à°¤", "à¯įà®¤", "à¥Ģ", "à°¨", "à®°", "à¤¤", "à°°", "à¯įà®ķ", "à¤¨", "à°²", "à¯Ī", "Ġà¤¸", "Ġà°ª", "Ġà®ª", "Ġà¤®", "à±ĩ", "à®¿à®¯", "Ġà¤ª", "à±ĭ", "à®ķ", "à¥ĭ", "à±įà°°", "Ġà®ĩ", "à¤ķ", "à°ķ", "à®Ł", "à¥įà¤°", "à°¾à°°", "à®³", "à¤¾à¤°", "à°¦", "¨à¯įà®¤", "à¥ģ", "à°¾à°²", "à®¤à¯ģ", "Ġà¤¹", "Ġà°¸", "à¯įà®ª", "à¥ĩà¤Ĥ", "à±Ģ", "Ġà®®", "à¥įà¤¯", "à±įà°¯", "à®®", "Ġà¤Ń", "Ġà°ķ", "à®ª", "Ġà¤®à¥ĩà¤Ĥ", "à±ĩà°", "à¯įà®Ł", "à¥¤", "Ġà°µ", "à®©", "à¤¸", "à°Ĥà°¦", "à®±", "à¤®", "Ġà°®", "Ġà®ķ", "à¤°à¥įà¤", "à°µ", "Ġà®µ", "à¥ģà¤", "à°¿.", "à®¯", "Ġà¤ķà¥ĩ", "à°®", "à®¿à®²", "à¤¾à¤°à¤¤", "Ġà°Ń", "à¯įà®±", "à¥Ī", "à±ĩà°¶", "à®²", "Ġà¤Ńà¤¾à¤°à¤¤", "Ġà°ªà±įà°°", "à¯ģà®ķ", "Ġà¤ľ", "Ġà°ħ", "à¯ģà®®", "Ġà¤µ", "²à±ĭ", "à®¨à¯įà®¤", "à¥įà¤¤", "à°ª", "Ġà®¤", "Ġà¤ħ", "à°²à±ģ", "à®¾à®©", "¯à¤¾", "à±įà°¨", "à®¿à®©", "à¤¹", "Ġà°°", "à®¾à®ķ", "à¥Ĥ", "à°°à±įà°", "Ġà®ħ", "Ġà¤¤", "à°¿à°ķ", "Ġà®ļ", "Ġà¤¨", "¸à±įà°", "à®£", "à¤Ĥà¤", "à°¾à°°à°¤", "à®ªà¯įà®ª", "Ġà¤¬", "à±Ĥ", "Ġà®¨", "Ġà¤¦", "à°¾à°¨", "à®µ", "¥à¤¾", "à±Ī", "à¯Ĭ", "Ġà¤ªà¥įà¤°", "à±Ĩ", "à¯ģà®®à¯į", "à¤¾à¤ľ", "Ġà°¦", "à®¿à®²à¯į", "Ġà¤¹à¥Ī", "Ġà°Ńà°¾à°°à°¤", "à®¤à¯įà®¤", "à¤¦", "à°Ĺ", "à®¤à¯ģ.", "à¤¼", "à°¾à°²à±ģ", "à¯ĩ", "à¤¾à¤¨", "Ġà°ī", "à¯įà®ķà®³", "à¥ĭà¤Ĥ", "à°Ł", "à¯Ĩ", "à¤¶", "à±įà°µ", "à®±à¯įà®±", "à¤¿à¤¯à¤¾", "à°Ĥà°¦à°¿.", "à¯ģà®¤", "Ġà¤°", "à°¿à°¨", "à®¿à®©à¯į", "à¥Ģà¤", "à°¡", "à®¿à®ķ", "Ġà¤¶", "à°¨à±įà°¨", "à¯Īà®¯", "Ġà¤ī", "à°¾à°¤", "à®¿à®°", "Ġà¤¸à¥ĩ", "à°¯", "Ġà®ĩà®¨à¯įà®¤", "Ġà¤ķà¤¾", "à°¦à±ĩà°¶", "à®ķà¯įà®ķ", "à¥įà¤·", "à°¾à°¯", "Ġà®Ĩ", "Ġà¤Ĺ", "à°§", "à®ļ", "à¤¾à¤®", "à°Ĥà°²à±ĭ", "à®Ļ", "à¤ª", "Ġà°¨", "à®Łà¯įà®Ł", "Ġà¤Ķ", "Ġà°ľ", "à®£à¯įà®Ł", "à¤§", "à°¿à°Ĥà°", "Ġà®ī", "Ġà¤Ķà¤°", "à±įà°Ł", "Ġà®ĩà®¨à¯įà®¤à®¿à®¯", "à¤²", "à°¨à±ģ", "à®¾à®²", "à¤¿à¤ķ", "Ġà°ļ", "à®ªà¯į", "à¤µ", "à°¾à°Ĥ", "à®®à¯į", "Ġà¤ķà¥Ģ", "à°ķà±įà°", "à®°à¯ģà®", "à¤¾à¤²", "à°Ń", "à®¾à®µ", "à¤¿à¤¤", "à°²à±ĭ", "à¯ĭ", "Ġà¤Ĩ", "Ġà°Ńà°¾à°°à°¤à°¦à±ĩà°¶", "à®±à¯įà®±à¯ģà®®à¯į", "Ġà¤ĩ", "à°¸à±įà°", "Ġà®®à®±à¯įà®±à¯ģà®®à¯į", "à¤¾à¤¸", "à°¿à°Ĥà°¦à°¿.", "à®¾à®Ł", "Ġà¤²", "à°Ĥà°¡", "à¯ģà®ķà¯įà®ķ", "Ġà¤¤à¤", "à°Ĥà°Ĺ", "à¯Ģ", "à¤Ĺ", "Ġà°ĩ", "à®¿à®¤", "à¤¾à¤ľà¥įà¤¯", "à°ķà±ģ", "à®Ļà¯įà®ķà®³", "à¤¿à¤¨", "Ġà°°à°¾à°", "à®¿à®±", "à¥įà¤µ", "¤à±įà°°", "Ġà®İ", "Ġà¤ı", "à°¿à°Ĥà°ļ", "Ġà®Ĵ", "Ġà¤¤à¤¥à¤¾", "à±įà°²", "à®ªà¯įà®ªà®Łà¯įà®Ł", "Ġà¤¨à¥ĩ", "Ġà°Ĺ", "à®¾à®©à®¤à¯ģ", "Ġà¤§", "à°°à±ģ", "Ġà®ªà¯Ĩ", "Ġà¤ªà¤°", "à±Ĭ", "à®°à¯į", "Ġà¤ķà¥ĭ", "à°ļ", "à®¿à®ª", "Ġà¤¹à¥ģà¤", "Ġà°¦à±ĩà°¶", "à®ķà¯į", "¡à¤¼", "à°¸", "à¯Ĥ", "à¤¨à¥ĩ", "à±ģà°²à±ģ", "à¯ģà®ª", "à¤¿à¤¸", "à¯ģà®Ł", "à¤ķà¥įà¤·", "à°£", "à¯įà®ļ", "Ġà¤ļ", "à°¹", "à®±à¯įà®ķ", "Ġà¤ķà¤°", "Ġà°¤", "à®¾à®°", "à¤£", "à°¿à°Ĺ", "à¯ģà®±", "à¤°à¥įà¤®", "à¯ģà®ķà®³", "à¤°à¥įà¤µ", "à°¾à°¯à°¿.", "à®´", "à¤¿à¤£", "à°ķà±įà°·", "à®©à¯įà®±", "à¤Ĥà¤Ĺ", "à±ģ.", "à¯įà®³", "à¥Ģà¤¨", "à±ģà°¤", "à®©.", "à¤¬", "à±įà°ļ", "à®°à¯ģ", "à¤¸à¥įà¤", "à®¿à®¤à¯įà®¤", "à¤ķà¥įà¤·à¤¿à¤£", "Ġà°İ", "à®°à®ļ", "à¥įà¤¦", "à°¦à±įà°", "à®¿à®ªà¯įà®ª", "Ġà¤¯", "Ġà°Ĩ", "à®¿à®ķà¯įà®ķ", "Ġà¤¦à¤ķà¥įà¤·à¤¿à¤£", "Ġà°µà°¿à°", "Ġà®¤à¯Ĭ", "à¤¡à¤¼", "Ġà°īà°¨à±įà°¨", "Ġà®ļà®®", "à¤¤à¥įà¤°", "à°¿,", "¨à¯įà®¤à¯ģ", "à¤¨à¤¾", "à°Ĥ,", "à®©à¯į", "à¥ĥ", "à±Īà°¨", "Ġà®ķà®¾à®²", "à¥Į", "Ġà°¬", "à®²à¯įà®", "à¥Ģà¤¯", "à°Ĥà°Ł", "à®¿à®Ł", "à¥Ĥà¤°à¥įà¤µ", "à°Ĥà°Ĺà°¾", "à®Ļà¯įà®ķ", "à¥įà¤¥", "à±Ģà°¯", "à¯ģà®³", "Ġà¤¥à¤¾", "Ġà°¶", "à¯ģà®¤à¯įà®¤", "Ġà¤§à¤°à¥įà¤®", "Ġà°¹", "Ġà®ªà¯Ĭ", "Ġà¤¸à¤®", "Ġà°°à°¾à°ľ", "à®µà¯Ī", "Ġà¤ıà¤ķ", "à±ģà°²", "Ġà®Ĵà®°à¯ģ", "à¤Ń", "à°¨à°¿", "à®²à¯į", "à¤¾à¤¤", "à°¾à°®", "à®¾à®ķà¯įà®ķ", "à¥ĩà¤", "à°Ĥà°¤à±įà°°", "à¯ĩà®°", "Ġà¤¸à¤¾à¤®", "à°Ĺà°¾", "à¯Īà®ªà¯įà®ª", "Ġà¤ħà¤¨", "à°¾à°¦", "à¯įà®ķà®³à¯į", "Ġà¤īà¤¤", "à°¿à°¤", "Ġà®ĩà®¤à¯ģ", "Ġà¤Ĺà¤", "à°¿à°ª", "Ġà®ĩà®¨à¯įà®¤à®¿à®¯à®¾à®µ", "à¤¯", "à°ļà±įà°ļ", "Ġà®ķà¯Ĭ", "à¤¤à¤¾", "à±įà°¤", "Ġà®ªà®ķ", "à¤¿à¤®", "Ġà®ħà®¤", "à¤¿à¤²", "Ġà°Ī", "à®Ĩ", "à°¿à°¯", "à®¤à¯į", "Ġà¤Ī", "à°¿à°²", "à®Łà¯ģà®ķ", "Ġà¤¸à¥įà¤¥", "Ġà®µà®Ł", "à¥įà¤¤à¤°", "Ġà°ªà±ĩ", "à®¤à¯įà®¤à®¿à®©à¯į", "à¥įà¤°à¤¾à¤ľà¥įà¤¯", "Ġà°¸à°Ĥà°", "à®¾à®£", "Ġà¤¨à¤¾à¤®", "·à±įà°Ł", "à®¿à®µ", "Ġà¤ªà¥Ĥà¤°à¥įà¤µ", "à°ĸ", "à¯ģà®³à¯įà®³", "Ġà¤µà¤¿à¤", "à°§à°¿à°ķ", "Ġà®ĩà®°à¯ģà®", "Ġà¤¸à¤¾à¤®à¥įà¤°à¤¾à¤ľà¥įà¤¯", "à°¿à°Ĥà°¦", "Ġà®ķà¯Ĭà®£à¯įà®Ł", "à°¿à°¸à±įà°", "à®®à®¾à®ķ", "à¤ļ", "à±į,", "à®°à¯ģà®µ", "à¤¾à¤¦", "âĢĮ", "à¯ģà®ķà¯įà®ķà¯ģ", "à¤¾à¤ª", "Ġà°®à±Ĭ", "à¯įà®©", "à¤¾à¤ļ", "Ġà°ľà°¨", "Ġà®¤à¯Ĩ", "à¤¿à¤¸à¥įà¤¤", "Ġà°Ńà°¾à°°à°¤à°¦à±ĩà°¶à°Ĥ", "Ġà®¨à®¿à®²", "à¤ķà¤°", "¥à°¾à°¨", "Ġà®ªà®ķà¯ģà®¤", "à¥ĩà¤¤à¥įà¤°", "à°¾à°¬", "Ġà®µà®°", "à¥įà¤·à¥ĩà¤¤à¥įà¤°", "Ġà®µà¯ĩ", "à°¾à°Ĺ", "Ġà®īà®°à¯ģà®µ", "Ġà¤°à¤¾à¤ľ", "à°¾à°°à±ģ.", "Ġà®ķà¯ģà®±", "Ġà¤¶à¤¾à¤¸", "à°¾à°Ĥà°¤", "Ġà¤ĩà¤¸", "à±ĥ", "à®²à¯įà®²", "Ġà¤Īà¤¸", "à±Į", "à®¾à®¤", "Ġà¤ķà¤¿à¤¯à¤¾", "Ġà°²", "à®¾à®Łà¯įà®Ł", "Ġà¤ķà¥įà¤·à¥ĩà¤¤à¥įà¤°", "Ġà°²à±ĭ", "Ġà®Ĭ", "à¤¶à¥įà¤", "Ġà°ı", "Ġà®®à¯ģà®", "à¤¿à¤¨à¥įà¤¦", "Ġà°ªà°¾à°°", "Ġà®ħà®®", "à¥ĥà¤¤", "Ġà°°à±Ī", "Ġà®Ĩà®ķ", "à¥įà¤ª", "Ġà°¸à±įà°", "Ġà®ĩà®°", "Ġà¤¤à¤ķ", "Ġà°¸à±įà°µ", "à®°à¯įà®", "Ġà¤®à¤¹", "·à±įà°Łà±įà°°", "à®¿à®ķà®³", "Ġà¤µà¤°à¥įà¤", "à°¬", "à®Łà¯ģà®¤à¯įà®¤", "Ġà¤¹à¤¿à¤¨à¥įà¤¦", "à°³", "à®Łà¯Īà®¯", "Ġà¤īà¤¤à¥įà¤¤à¤°", "à°¤à±įà°¤", "à¯ģà®µ", "Ġà¤Ńà¥Ģ", "à°¨à±ĩ", "Ġà¤Ńà¤¾à¤°à¤¤à¥Ģà¤¯", "à°¿à°ķà°¿", "Ġà®ªà¯Ĭ.", "¢à¤¼", "à±įà°¯à°µ", "Ġà®Ĭ.", "à¤¢à¤¼", "à®¤à¯įà®¤à®¿à®²à¯į", "à¤§à¥įà¤¯", "Ġà°İà°¨à±įà°¨", "à®¤à¯įà®¤à¯Ī", "à¤¶à¥įà¤ļ", "à°ľ", "à®ªà¯įà®ªà®Łà¯ģà®ķ", "à¤¶à¥įà¤ļà¤¿à¤®", "à°¦à±įà°¦", "à®¿à®¨à¯įà®¤", "à¤¸à¥įà¤ķ", "à°ªà±ģ", "à®¿à®±à®¤à¯ģ.", "à¤¸à¥įà¤ķà¥ĥà¤¤", "à°®à±ģ", "à®Ĩà®®à¯į", "à¤¾à¤¨à¤¾", "à°¸à±įà°¥", "à¯ģà®³à¯įà®³à®¤à¯ģ.", "à¤¾à¤ļà¥Ģà¤¨", "à°¾à°¸", "Ġà®¤à¯Ĭà®Ł", "à¤ķà¤¾", "à°¾à°ķ", "Ġà®ĩà®¤", "à¥Ģà¤°", "à°¾à°²à±ģ,", "Ġà®ļà¯Ĩ", "Ġà¤¥", "à°¿à°°", "à®®à®¾à®©à®¤à¯ģ", "Ġà¤¯à¤¹", "à°Łà±įà°Ł", "à®¾à®ļ", "Ġà¤¸à¤Ĥ", "à±Ĥà°¡", "à®¿à®¯à®¤à¯ģ.", "Ġà¤¹à¥ĭ", "Ġà°ªà°°", "à®¿à®°à¯ģà®", "Ġà¤¹à¥ģà¤Ĩ", "Ġà°ªà±ĩà°°à±ģ", "à®ķà®³", "Ġà¤Ĺà¤¯à¤¾", "Ġà°®à°§", "à®ļà¯į", "Ġà°°à°¾à°·à±įà°Łà±įà°°", "à¯Īà®¨à¯įà®¤", "à¤¸à¥ĩ", "Ġà°°à°¾à°ľà±įà°¯", "à¯įà®®", "à¤¾à¤ķ", "Ġà°µà°ļà±įà°ļ", "à¯įà®ļà®¿à®¯", "à¥ĩà¤¶", "Ġà°ħà°¤", "à¥Īà¤¦", "Ġà°īà°¨à±įà°¨à°¾à°¯à°¿.", "Ġà®ªà®°", "à°¶", "Ġà®ªà¯ĭ", "Ġà¤ªà¥įà¤°à¤¾à¤ļà¥Ģà¤¨", "à°·", "Ġà®ħà®®à¯Īà®ªà¯įà®ª", "Ġà¤¬à¤¢à¤¼", "à°¦à±įà°§", "Ġà®Ĩà®£à¯įà®Ł", "Ġà¤®à¤§à¥įà¤¯", "à°®à±Īà°¨", "à®©à¯įà®ª", "Ġà¤¶à¤¾à¤¸à¤¨", "à°¾à°µ", "à®°à®¿à®¯", "Ġà¤¸à¤Ĥà¤¸à¥įà¤ķà¥ĥà¤¤", "à°¾à°Ĥà°Ĺ", "à®°à¯įà®ķà®³à¯į", "Ġà¤Īà¤¸à¤¾", "à°¿à°¸à±įà°¤", "à®¿à®¯à®¾à®µ", "ĵà¤Ĥ", "à°ķà±įà°ķ", "à¯ĩà®°à®°à®ļ", "à¤·", "à°Łà°¿", "Ġà®®à¯ĩ", "à¤ľ", "à±Ģ,", "Ġà®ħà®¤à®¿à®ķ", "à¤°à¥Ģ", "à±ģà°µ", "Ġà®Ĩà®ķà®¿à®¯", "à¤¶à¤¿à¤¯à¤¾", "à±ģà°ķ", "Ġà®ĩà®¨à¯įà®¤à®¿à®¯à®¾", "à¤¾à¤£", "à±ģà°²à±ģ,", "Ġà®İà®©à¯įà®±", "à¤¾à¤¬", "à±įà°¯à°µà°¸à±įà°¥", "Ġà®ļà®®à®¯", "à¤¾à¤ĵà¤Ĥ", "Ġà°Ĵ", "à®£à¯įà®ª", "à¤ķà¥ĩ", "Ġà°ªà°¾à°°à±įà°Ł", "à®¿à®©à¯įà®±", "à¥ģà¤°", "Ġà°ªà±įà°°à°¾à°Ĥà°¤", "à¯Īà®ķà®³", "à¥ģà¤ª", "Ġà°®à°¤", "à¯Īà®ķà¯į", "à¥ģà¤Ĺ", "Ġà°®à°§à±įà°¯", "à¯Īà®ķà¯įà®ķ", "à¥Ĥà¤ª", "Ġà°¹à°¿à°Ĥà°¦", "Ġà®®à¯ģà®©", "à¥ĭà¤²", "Ġà°ħà°§à°¿à°ķ", "Ġà®µà®¨à¯įà®¤", "à¥įà¤®", "Ġà°īà°Ĥà°¦à°¿.", "à®©à®°à¯į", "Ġà¤ªà¤¶à¥įà¤ļà¤¿à¤®", "Ġà°Ĵà°ķ", "à®ªà¯įà®ªà®Łà¯ģà®ķà®¿à®±à®¤à¯ģ.", "Ġà¤ªà¥įà¤°à¤®", "Ġà°ķà°²", "à®³à®µ", "Ġà¤°à¤¾à¤ľà¥įà¤¯", "Ġà°ķà±ĭ", "à®¾à®®", "Ġà¤īà¤¨", "à°¤à±ĭ", "à®¾à®±", "Ġà¤ľà¤¾à¤¤", "à°°à±įà°ª", "à®¾à®³", "Ġà¤ľà¤¿à¤¨", "à°¾à°Ł", "à®¾à®©à®µà¯Ī", "à¤¦à¥įà¤", "à°¾à°Ń", "à®¾à®²à¯į", "à¤°à¥įà¤¯", "à°¾à°¤à±įà°°", "à®¾à®ķà®ķà¯į", "à¤¾à¤Ĺ", "à°¿à°®", "à®¿à®´", "à¤¿à¤ı", "à°¿à°µ", "à®¿à®¤à¯įà®¤à¯ģ", "à¤¿à¤¸à¥įà¤¤à¤¾à¤¨", "à°¿à°¨à±įà°¨", "à®Ļà¯įà®ķà®³à¯į", "à¤Ĥà¤¡", "à°¿à°²à±įà°²", "à®Łà®¿à®ªà¯įà®ª", "à¤Ĥà¤¶", "à°Ĥà°ļ", "à¯ģ.", "à¤Ĥà¤Ĺà¤¾", "à±Ĩà°¸", "à¯ģà®ªà¯į", "à¥Ģà¤ª", "à±įà°ª", "à¯įà®µ", "à¥Ģà¤°à¥ĩ", "à±įà°®", "Ġà®ªà®£à¯įà®ª", "à¥ģà¤¸", "Ġà°¦à°ķà±įà°·", "Ġà®ªà®¿à®°", "à¥ģà¤ĸ", "Ġà°®à±ģ", "Ġà®ªà¯ĩà®°à®°à®ļ", "à¥įà¤¹", "Ġà°¸à°Ń", "Ġà®®à®ķ", "à¥įà¤µà¥Ģà¤ª", "Ġà°Ńà°¾à°°à°¤à°¦à±ĩà°¶à°Ĥà°²à±ĭ", "Ġà®®à¯ģ.", "Ġà¤¥à¥Ģ", "à°¦à°¿", "Ġà®®à¯Ĭ", "Ġà¤¦à¤¿à¤¯à¤¾", "à°§à°¾à°¨", "Ġà®ħà®°à®ļ", "Ġà¤ªà¥įà¤°à¤®à¥ģà¤ĸ", "à°¸à±įà°¤", "Ġà®ĩà®°à¯ģà®¨à¯įà®¤à¯ģ", "Ġà¤¬à¤¡à¤¼", "à°¾,", "à®©à®°à¯į.", "Ġà¤¬à¤¨", "à°¾à°£", "à®³à¯įà®³", "Ġà¤¯à¥ģà¤Ĺ", "à°¾à°·", "à®¾à®¯", "Ġà¤¸à¥įà¤¥à¤¾à¤ª", "à°¾à°¸à±įà°", "à®¾à®´", "Ġà¤¹à¥ģà¤Ī", "à°¾à°ľ", "à®¾à®£à¯įà®Ł", "Ġà¤¹à¥Īà¤Ĥ", "à°¾à°²à°²à±ĭ", "à®¾à®©à¯į", "Ġà¤ħà¤¨à¥įà¤¯", "à°¿à°£", "à®¿à®¯à®¾à®©", "Ġà¤ıà¤¶à¤¿à¤¯à¤¾", "à°¿à°Ĥà°ļà°¿à°Ĥà°¦à°¿.", "à®¿à®¯à®¾à®ķ", "Ġà¤ķà¤¾à¤²", "à°Ĥà°¦à±įà°°", "à®¿à®°à¯ģà®¨à¯įà®¤", "Ġà¤ľà¤¾à¤¤à¤¾", "à°Ńà±ģà°¤", "à®¿à®Łà¯įà®Ł", "à¤¤à¤¾à¤¬", "à°Ńà±ģà°¤à±įà°µ", "à®ķà®°", "à¤¤à¤¿à¤", "à±Ĩà°Ĥà°¡", "à®Łà¯Īà®¨à¯įà®¤", "à¤¤à¥Ģ", "à±ĩà°Ĥà°¦à±įà°°", "à¯ģà®ķà¯į", "à¤¤à¥ĩ", "à±įà°²à±ĭ", "à¯ģà®Łà¯Īà®¯", "à¤¤à¤¾à¤¬à¥įà¤¦", "à±įà°¯à°Ĥ", "à¯Ĩà®³", "à¤¤à¤¾à¤¬à¥įà¤¦à¥Ģ", "Ġà°¦à°ķà±įà°·à°¿à°£", "à¯Īà®ªà¯į", "à¤¦à¥įà¤§", "Ġà°ªà°¾à°°à±įà°Łà±Ģ", "à¯Īà®¯à¯ģà®®à¯į", "à¤¬à¤¸à¥ĩ", "Ġà°ªà±įà°°à°§à°¾à°¨", "Ġà®¤à¯Ĩà®±à¯įà®ķ", "à¤®à¥įà¤", "Ġà°ªà±įà°°à°Ńà±ģà°¤à±įà°µ", "Ġà®¨à®¾à®Ł", "à¤®à¥įà¤Ń", "Ġà°µà±įà°¯à°µà°¸à±įà°¥", "Ġà®ªà¯Ĩà®¯", "à¤¼à¥Ģ", "Ġà°¹à°¿à°Ĥà°¦à±Ĥ", "Ġà®®à¯ģà®©à¯įà®©", "à¤¾à¤µ", "Ġà°ħà°¯", "Ġà®ĩà®¨à¯įà®¤à®¿à®¯à®¾à®µà®¿à®©à¯į", "à¤¾à¤¹", "Ġà°ķà°¾à°²", "à¤¾à¤ģ", "Ġà°ķà±ĩà°Ĥà°¦à±įà°°", "à®ĩ", "à¤¾à¤Ĥ", "Ġà°ľà°¨à°¾à°Ń", "à®°à¯įà®ķà®³", "à¤¾à¤¨à¥Ģ", "à°¬à°¡", "à®²à¯Ī", "à¤¾à¤²à¥Ģ", "à°°à±ģà°µ", "à®¾à®±à¯įà®±", "à¤¾à¤ķà¤¿à¤¸à¥įà¤¤à¤¾à¤¨", "à°°à±ģà°µà°¾à°¤", "à®¿à®©à¯įà®±à®©.", "à¥Ģà¤Ĥ", "à°°à±įà°µ", "à®¿à®´à®ķà¯įà®ķ", "à¥Ģà¤µ", "à°¾à°µà°°", "à¯ģà®®à¯įà®ª", "à¥ģà¤ªà¥įà¤¤", "à°¾à°Ĥà°Ĺà±įà°°", "à¯ģà®®à¯į.", "à¥ĭà¤¡à¤¼", "à°¾à°Ĥà°Ĺà±įà°°à±Ĩà°¸", "à¯ģà®Łà®©à¯į", "à¥įà¤¨", "à°¿à°ļ", "à¥įà¤²", "à±ģà°ķà±ģ", "Ġà®¤à®©", "à¥įà¤¤à¤¿", "à±ģà°ķà±ĭ", "Ġà®¤à¯ģà®", "Ġà¥", "à±įà°¦", "Ġà®¤à¯ĭ", "à±įà°°à±Ģ", "Ġà®¨à¯Ĥ", "Ġà¤¦à¥ĩà¤¶", "Ġà®ªà®¾à®°", "Ġà¤¦à¥ĭ", "Ġà°¯", "Ġà®ªà®ķà¯ģà®¤à®¿à®ķà®³", "Ġà¤¨à¤¿", "Ġà°¤à°°à±ģà°µà°¾à°¤", "Ġà®®à®©", "Ġà¤ªà¤¾à¤ķà¤¿à¤¸à¥įà¤¤à¤¾à¤¨", "Ġà°¦à±įà°µ", "Ġà®®à¯ĩà®±à¯įà®ķ", "Ġà¤®à¤¿à¤²", "Ġà°ªà°¾à°ķ", "Ġà®®à¯Ĭà®´", "Ġà¤®à¥Īà¤¦", "Ġà°®à±Ĭà°¦", "Ġà®µà®¾à®´", "Ġà¤°à¥Ĥà¤ª", "Ġà°°à±Īà°²à±ģ", "Ġà®īà®³à¯įà®³", "Ġà¤²à¤¿à¤¯à¤¾", "Ġà°µà°ļà±įà°ļà°¿à°Ĥà°¦à°¿.", "Ġà®İà®©à¯įà®±à¯ģ", "Ġà¤²à¤¿à¤ı", "Ġà°¸à±įà°¥à°¾à°¨", "Ġà®ķà®Łà¯įà®Ł", "Ġà¤µà¤¿à¤¸à¥įà¤¤", "Ġà°ħà°§à°¿à°ķà°¾à°°", "Ġà®ķà¯ģà®Ł", "Ġà¤µà¥įà¤¯", "Ġà°ıà°°à±įà°ª", "Ġà®ķà¯ģà®±à®¿à®ªà¯įà®ª", "Ġà¤¶à¤¤à¤¾à¤¬à¥įà¤¦à¥Ģ", "Ġà°ķà°¾à°Ĥà°Ĺà±įà°°à±Ĩà°¸", "£à¯Īà®ķà¯įà®ķ", "Ġà¤¸à¤¬à¤¸à¥ĩ", "Ġà°ķà±Ĥà°¡", "à®ªà¯įà®ªà®Łà¯įà®Łà®¤à¯ģ.", "Ġà¤¸à¤Ń", "Ġà°Ńà°¾à°°à°¤à±Ģà°¯", "à®°à®ª", "Ġà¤¸à¥įà¤µ", "à®±à¯įà®ª", "Ġà¤¸à¤®à¤¯", "à°¤à±įà°µ", "à®±à¯įà®±à®¾à®£à¯įà®Ł", "Ġà¤¸à¤Ĥà¤¸à¥įà¤ķà¥ĥà¤¤à¤¿", "à°¤à±įà°¤à°°", "à®²à¯įà®µ", "Ġà¤¸à¥įà¤¥à¤¿à¤¤", "à°°à°¿à°", "à®¾à®©à®¤à¯ģ.", "Ġà¤¹à¥ģà¤ı", "à°°à°¿à°Ĺ", "à®ķà¯įà®ķà®¾à®²", "Ġà¤ħà¤ª", "à°°à±įà°¯", "à®Ļà¯įà®ķà¯Ī", "Ġà¤Ĩà¤§", "à°²à±ģ,", "à®Łà®¿à®ªà¯įà®ªà®Łà¯Īà®¯", "Ġà¤ĩà¤Ĥà¤¡", "à°¾à°ĸ", "à¯Į", "Ġà¤ĩà¤¸à¥Ģ", "à°¾à°¨à°¿à°ķà°¿", "à¯ģà®¤à®²à¯į", "Ġà¤ķà¥ģà¤", "à°¾à°¨à±įà°¨", "à¯ģà®ªà®Łà¯įà®Ł", "Ġà¤Ĺà¤Ĥà¤Ĺà¤¾", "à°¾à°¨à±įà°¨à°¿", "à¯ģà®ķà®³à¯į", "Ġà¤Ĺà¥ģà¤ªà¥įà¤¤", "à°¾à°¬à±įà°¦", "à¯Īà®¤à¯įà®¤", "Ġà¤ľà¤¾à¤¨à¤¾", "à°¿à°²à±ĭ", "à¯Īà®¯à¯ģà®Łà¯Īà®¯", "Ġà¤ľà¤¿à¤¸", "à°¿à°Ł", "à¯įà®®à¯Īà®¯", "à°¿à°Ĺà°¾", "¹à¤¾à¤¸", "à°Ĥà°¬", "Ġà®¤à¯Ĭà®Łà®ķà¯įà®ķ", "à¤«", "à°ķà±Ģà°¯", "Ġà®¨à¯Ģ", "à¤Ł", "à°ĸà±įà°¯", "Ġà®¨à¯Ĥà®±à¯įà®±à®¾à®£à¯įà®Ł", "à¤¤à¤®", "à±ĩà°¸", "Ġà®ªà®¯", "à¤¤à¥įà¤¯", "à±ĭà°°", "Ġà®ªà®²", "à¤¤à¤¿à¤¹à¤¾à¤¸", "à±įà°¸", "Ġà®ªà®£à¯įà®ªà®¾à®Łà¯įà®Ł", "à¤§à¤¿", "à±įà°ķ", "Ġà®ªà¯Ĩà®°", "à¤¨à¥Ģ", "Ġà°¦à±ĩà°¶à°Ĥà°²à±ĭ", "Ġà®ªà¯Ĩà®¯à®°", "à¤ªà¤®", "Ġà°ªà±įà°°à°¤", "Ġà®ªà¯Ĭà®°à¯ģà®", "à¤ªà¤®à¤¹", "Ġà°ªà±įà°°à°ľ", "Ġà®ªà¯ĭà®¤à¯ģ", "à¤ªà¤®à¤¹à¤¾à¤¦", "Ġà°°à±Ĩà°Ĥà°¡", "Ġà®µà¯ĩà®¤", "à¤ªà¤®à¤¹à¤¾à¤¦à¥įà¤µà¥Ģà¤ª", "Ġà°¸à°®", "Ġà®ħà®±", "à¤°à¤¾", "Ġà°¸à°¾à°®", "Ġà®ħà®Łà®¿à®ªà¯įà®ªà®Łà¯Īà®¯", "à¤°à¤¾à¤ľà¥įà¤¯", "Ġà°ħà°¨à±ĩ", "Ġà®ĩà®ķà¯įà®ķà®¾à®²", "à¤²à¥ĩ", "Ġà°ħà°¯à°¿à°¨", "Ġà®ĩà®¤à®©à¯į", "à¤µà¤Ĥà¤¶", "Ġà°Ĩà°°à±įà°", "Ġà®ĩà®°à¯ģà®¨à¯įà®¤", "à¤¾à¤Ī", "Ġà°ĩà°¦à°¿", "Ġà®īà®¯", "à¤¾à¤Ł", "Ġà°īà°ª", "Ġà®īà®²", "à¤¾à¤¨à¤µ", "Ġà°Ĺà°²", "Ġà®ļà¯Ĩà®¯", "à¤¾à¤°à¤®à¥įà¤Ń", "Ġà°ļà±Ĩ", "à®©à¯įà®ªà®Łà¯ģà®¤à¯įà®¤", "à¤¿à¤¶", "Ġà°ľà°°à°¿à°Ĺ", "à®°à®¿à®¤à¯įà®¤à¯ģ", "à¤¿à¤Ĥ", "Ġà°ľà°¾à°¤", "à®°à¯įà®¨à¯įà®¤", "à¤¿à¤Ł", "Ġà°Ńà°¾à°·", "à®±à¯ģà®¤", "à¤¿à¤Łà¤¿à¤¶", "à®¾à®°à¯į", "à¤Ĥà¤¬", "¢à°¿à°²à±įà°²", "à®¿à®©.", "à¤Ĥà¤Ĺà¥įà¤°", "à°¤à°Ĥà°¤à±įà°°", "à®¿à®¯à®²à¯į", "à¥ģà¤ķ", "à°ªà°¤", "à®¿à®¯à®¾", "à¥ĩà¤·", "à°ªà°Ĥà°ļ", "à®¿à®¯à®¿à®²à¯į", "à¥ĩà¤ĸ", "à°ªà±įà°ª", "à®¿à®¯à®¾à®µà®¿à®²à¯į", "à¥ĩà¤ľ", "à°°à±įà°£", "à®¿à®±à¯įà®ķ", "à¥ĩà¤ľà¤¼à¥Ģ", "à°°à±įà°¤", "à®ķà¯įà®ķà®¿à®¯", "à¥Įà¤°à¥įà¤¯", "à°°à±įà°²", "à®Ļà¯įà®ķà®³à®¿à®²à¯į", "à¥įà¤Ł", "à°°à±įà°Ł", "à¯Ģà®¤", "à¥įà¤¯à¤¤à¤¾", "à°¾à°§", "à¯ģà®²", "à¥įà¤¯à¥ĭà¤Ĥ", "à°¾à°ª", "à¯ģà®¤à¯į", "à¥įà¤°à¤¿à¤Łà¤¿à¤¶", "à°¾à°²à±ĭ", "à¯ģà®®à¯į,", "Ġ$", "à°¾à°²à±įà°²à±ĭ", "à¯įà®¤à¯įà®¤", "à°¿à°§", "à¯įà®ªà¯įà®ª", "Ġ20", "à°¿à°¶", "à°¿à°¯à°¾", "Ġà®¨à®ķà®°", "Ġà¤«", "à°Ĥ.", "Ġà®¨à®Ł", "Ġà¤§à¥Ģà¤°à¥ĩ", "à±Ģà°¨", "Ġà®ªà®¯à®©à¯įà®ªà®Łà¯ģà®¤à¯įà®¤", "Ġà¤ªà¥įà¤°à¤¾à¤°à¤®à¥įà¤Ń", "à±Ģà°ª", "Ġà®®à®¿à®ķ", "Ġà¤¬à¥įà¤°à¤¿à¤Łà¤¿à¤¶", "à±ģà°Ĺ", "Ġà®®à¯ģà®¤à®²à¯į", "Ġà¤¬à¤¢à¤¼à¤ķà¤°", "à±Ĥà°ª", "Ġà®µà®³", "Ġà¤®à¥Įà¤°à¥įà¤¯", "à±ĥà°¤", "Ġà®µà®¿à®°", "Ġà¤®à¥Īà¤¦à¤¾à¤¨à¥Ģ", "à±ĩà°°", "Ġà®ħà®¤à®¿à®ķà®°à®¿à®¤à¯įà®¤à¯ģ", "Ġà¤°à¤¹", "à±įà°Ĺ", "Ġà®Ĩà®Ł", "Ġà¤°à¤¾à¤ľà¤µà¤Ĥà¤¶", "à±įà°°à°®", "Ġà®ĩà®¨à¯įà®¤à®¿à®¯à®¤à¯į", "Ġà¤°à¤¾à¤ľà¥įà¤¯à¥ĭà¤Ĥ", "Ġà°ªà°¾à°²", "Ġà®īà®°à¯ģà®µà®¾à®ķà¯įà®ķ", "Ġà¤²à¤Ĺ", "Ġà°ªà±įà°°à°ªà°Ĥà°ļ", "Ġà®īà®²à®ķ", "Ġà¤µà¤°à¥įà¤·", "Ġà°ªà±įà°°à°¾à°Ĥà°¤à°¾à°²à±ģ", "Ġà®İà®©à¯įà®ª", "Ġà¤µà¤¿à¤¶", "Ġà°¬à±įà°°", "Ġà®ķà®¿à®´à®ķà¯įà®ķ", "Ġà¤µà¤¿à¤¸à¥įà¤¤à¤¾à¤°", "Ġà°°à°¾à°ľà°ķà±Ģà°¯", "Ġà®ķà¯ģà®±à®¿à®ķà¯įà®ķ", "Ġà¤¶à¤¹", "Ġà°µà°¿à°µ", "Ġà®ķà¯ģà®Łà®¿à®¯", "Ġà¤¶à¥ģà¤°", "Ġà°ĩà°Ĥà°¡", ",00", "Ġà¤¸à¤Ńà¥įà¤¯à¤¤à¤¾", "Ġà°īà°¤à±įà°¤à°°", "Ġà¤¸à¥įà¤¥à¤¾à¤ªà¤¨à¤¾", "Ġà°ıà°°à±įà°ªà°¡", "£à¯Īà®ķà¯įà®ķà®£à¯įà®Ł", "Ġà¤¹à¤¿à¤¨à¥įà¤¦à¥Ĥ", "Ġà°ķà°¾à°°", "à®¨", "Ġà¤ħà¤µ", "Ġà°ľà°¨à°¾à°Ńà°¾", "à®¤à®¿à®²", "Ġà¤Ĩà¤Ĺ", "¥à°¿à°ķ", "à®¤à¯įà®¤à®¿à®±à¯įà®ķ", "Ġà¤ĩà¤¤à¤¿à¤¹à¤¾à¤¸", "µà°¾à°®", "à®©à®¾à®²à¯į", "Ġà¤ĩà¤Ĥà¤¡à¤¿à¤¯à¤¾", "¹à°¦à±įà°¦", "à®®à¯įà®ª", "Ġà¤īà¤ªà¤®à¤¹à¤¾à¤¦à¥įà¤µà¥Ģà¤ª", "à°¤à°¾à°¬à±įà°¦", "à®°à¯įà®µ", "Ġà¤Ĺà¤Ī", "à°¦à±ģ", "à®±à¯ģà®ªà®Łà¯įà®Ł", "Ġà¤ľà¥ĭ", "à°¨à±ģà°ķ", "à®²à¯įà®²à®¤à¯ģ", "Ġà¤ľà¤¿à¤¨à¥įà¤¹", "à°®à°Ĥà°¤à±įà°°", "à®µà®±à¯įà®±", "Ġà¤Ńà¥Ĥ", "à°®à±ģà°ĸ", "à®µà¯Ĩà®³", "21", "à°°à°¿à°ķ", "à®¾à®ª", "4%", "à°°à°¿à°¹à°¦à±įà°¦", "à®¾à®ķà®°", "50", "à°°à±įà°·", "à®¾à®ļà¯įà®ļà®¿à®¯", "¦à¥", "à°µà°¾à°£", "à®¿à®£", "¬à¥", "à°µà°¿", "à®¿à®¨à¯įà®¤à¯ģ", "à¤Ī", "à°µà°¾à°£à°¾", "à®Łà¯ģà®ķà¯į", "à¤¤à¤°", "à°¸à±įà°¤à±ģà°¤", "à¯Ģà®©", "à¤¤à¤¿", "à°¾à°¹", "à¯Ģà®ķ", "à¤¤à¤Ĥ", "à°¾à°¤à°Ĥà°¤à±įà°°", "à¯ģà®ªà¯įà®ª", "à¤¤à¥įà¤¤à¤¿", "à°¾à°¬à°¾à°¦", "à¯ģà®³à¯į", "à¤¤à¤Ĥà¤¤à¥įà¤°", "à°¾à°¯à°ķ", "à¯ģà®ķà®³à¯Ī", "à¤§à¥ģ", "à°¾à°¸à±įà°¤à±įà°°", "à¯Ĭà®²à¯įà®²", "à¤ªà¥Ĥà¤°à¥įà¤µ", "à°¿à°°à±įà°µ", "à¯įà®¨à¯įà®¤", "à¤®à¤¾", "à°¿à°Ĥà°§", "à¯įà®ļà®¿", "à¤®à¤¾à¤¨", "à°Ĥà°¤", "Ġ6", "à¤°à¥ĭà¤Ĥ", "à°Ĥà°ª", "Ġà®ĵ", "à¤°à¥įà¤£", "à°Ĥà°Ĺà±įà°²", "Ġà®¤à¯ģà®£à¯Īà®ķà¯įà®ķà®£à¯įà®Ł", "à¤°à¥įà¤¥", "à°ķà±įà°ķà±ģà°µ", "Ġà®¤à¯Ĩà®©", "à¤°à¥įà¤¶", "à°Łà±įà°²", "Ġà®¤à¯Ĭà®ķ", "à¤°à¥įà¤·", "à±ģà°Ĥà°¦à°¿.", "Ġà®¤à¯Ĭà®Łà®Ļà¯įà®ķ", "à¤·à¤£", "à±ģà°ķà±ĭà°µ", "Ġà®¤à¯ĭà®©à¯įà®±", "à¤·à¥įà¤Ł", "à±Ĩà°¦à±įà°¦", "Ġà®¨à®Łà¯ģà®ķà¯į", "à¤¸à¥įà¤¤", "à±ĩ,", "Ġà®¨à®¿à®²à¯Īà®¯", "à¤¸à¥įà¤²", "à±ĩà°¤", "Ġà®ªà®Ł", "à¤¼à¤°", "à±Įà°ķ", "Ġà®ªà¯Ĩà®±à¯įà®±", "à¤¾,", "à±įà°¡", "Ġà®ªà¯Ĩà®°à¯ģà®®à¯įà®ª", "à¤¾à¤·", "à±įà°¯à°§à°¿à°ķ", "Ġà®®à®°à®ª", "à¤¾à¤¨,", "Ġà®®à®ķà¯įà®ķà®³à¯į", "à¤¾à¤°à¤¿à¤ķ", "Ġ8", "Ġà®µà®´", "à¤¾à¤Ĺà¤°", "Ġ197", "Ġà®µà®°à®²", "à¤¾à¤ľà¤¿à¤¤", "Ġà°¨à±ģ", "Ġà®µà®¿à®°à®¿à®µ", "à¤¿à¤ª", "Ġà°ªà°Łà±įà°Ł", "Ġà®µà®Łà®¿à®µ", "à¤¿à¤µ", "Ġà°ªà±Ĥ", "Ġà®µà®Łà®ķà¯įà®ķ", "à¤¿à¤¨à¥įà¤¤", "Ġà°ªà±įà°°à°®à±ģà°ĸ", "Ġà®µà¯ĩà®±à¯ģà®ªà®Łà¯įà®Ł", "à¤¿à¤¨à¥įà¤¤à¥ģ", "Ġà°ªà±įà°°à°¸à±įà°¤à±ģà°¤", "Ġà®ħà®²à¯įà®²à®¤à¯ģ", "à¤¿à¤Ĥà¤§à¥ģ", "Ġà°ªà±įà°°à°§à°¾à°¨à°®à°Ĥà°¤à±įà°°", "Ġà®ħà®±à®¿à®¯", "à¤¿à¤ķà¥įà¤·", "Ġà°¬à±įà°°à°¿à°Ł", "Ġà®ħà®Łà®¿à®ªà¯įà®ªà®Łà¯Īà®¯à®¾à®ķà®ķà¯į", "à¤Ĥà¤ª", "Ġà°®à°¾à°°", "Ġà®Ĩà®±à¯įà®±", "à¤Ĥà¤Ĺà¥įà¤°à¥ĩà¤ľà¤¼à¥Ģ", "Ġà°°à°¾à°·à±įà°Łà±įà°°à°ªà°¤", "Ġà®Ĩà®ķà®¿à®¯à®µà®±à¯įà®±", "à¤ķà¤¾à¤²", "Ġà°¶à°¤à°¾à°¬à±įà°¦", "Ġà®ĩà®¯", "à¤ļà¤²", "Ġà°¶à°¾à°¸à±įà°¤à±įà°°", "Ġà®ĩà®²", "à¥Ģà¤¸", "Ġà°¸à°°à°¿à°¹à°¦à±įà°¦", "Ġà®ĩà®Ł", "à¥Ģà¤¬", "Ġà°¸à°¾à°Ĥ", "Ġà®ĩà®¨à¯įà®¤à¯ģ", "à¥Ģà¤ļ", "Ġà°¸à°¿à°Ĥà°§", "Ġà®ĩà®¨à¯įà®¤à®¿à®¯à®¾à®µà®¿à®²à¯į", "à¥Ģà¤µà¤¨", "Ġà°¸à±įà°¥", "Ġà®ĩà®°à®£à¯įà®Ł", "à¥ģà¤¤", "Ġà°¸à±įà°µà°¾à°¤à°Ĥà°¤à±įà°°", "Ġà®ĩà®°à®¾à®ļà¯įà®ļà®¿à®¯", "à¥ģà¤¦", "Ġà°ħà°¤à±įà°¯à°§à°¿à°ķ", "Ġà®īà®±à¯ģà®¤", "à¥ģà¤¸à¤¾à¤°", "Ġà°İà°¨à±įà°¨à±ĭ", "Ġà®īà®°à¯ģà®µà®¾à®©à®¤à¯ģ.", "à¥Īà¤¦à¤¿à¤ķ", "Ġà°ķà°²à°¿à°Ĺ", "Ġà®īà®°à¯ģà®µà®¾à®ķ", "à¥ĭà¤Ĺ", "Ġà°ķà°¾à°²à°Ĥà°²à±ĭ", "Ġà®ļà®®à®µà¯Ĩà®³", "à¥Įà¤¦à¥įà¤§", "Ġà°ķà°¾à°Ĥà°Ĺà±įà°°à±Ĩà°¸à±ģ", "°à¯Ģà®¤", "à¥įà¤ªà¤¤à¥įà¤¤à¤¿", "Ġà°ļà°¿à°¨à±įà°¨", "³à®¾à®¤", "Ġà°ļà±ĩà°¸", "³à®¾à®¤à®¾à®°", "Ġà¤ĸ", "Ġà°ļà±Īà°¨", "à®ŀ", "Ġà¤ĺ", "Ġà°ľà°°à°¿à°Ĺà°¿à°¨", "à®¤à®¾à®°", "Ġà¤Ľ", "Ġà°Ńà°¾à°Ĺ", "à®ªà¯įà®ªà®¿à®°", "Ġà¤¤à¥Ģà¤¸", "%),", "à®ªà¯įà®ªà®¿à®°à®¿à®ķà¯įà®ķ", "Ġà¤¥à¥ĩ", "01", "à®ªà¯įà®ªà®¿à®°à®¿à®ķà¯įà®ķà®¾à®µ", "Ġà¤ªà¤¹", "¢à°¿à°²à±įà°²à±Ģ", "à®ªà¯įà®ªà®Łà¯įà®Łà®©.", "Ġà¤ªà¥įà¤°à¤ķ", "µà°¤", "à®®à®¾à®©", "Ġà¤ªà¥įà¤°à¤ļà¤²", "µà°¾à°®à±įà°¯", "à®®à¯įà®ªà®°à®¿à®¯", "Ġà¤ªà¥įà¤°à¤¾à¤ļà¥Ģà¤¨à¤¤à¤®", "¸à±įà°ķ", "à®°à¯ģà®Ļ", "Ġà¤¬à¥Ģà¤ļ", "à°¡à°¿à°ª", "à®°à¯ģà®Ļà¯įà®ķ", "Ġà¤¬à¥Įà¤¦à¥įà¤§", "à°£à°Ĥ", "à®³à®µà®¿à®²à¯į", "Ġà¤¬à¤¡à¤¼à¤¾", "à°¤à±įà°°", "à®µà®°à¯įà®ķà®³", "Ġà¤¬à¤¡à¤¼à¥ĩ", "à°¤à±įà°¤à°Ĥ", "à®µà®°à¯įà®ķà®³à¯į", "Ġà¤®à¤¾à¤¨à¤µ", "à°¦à°¾", "à®µà®²", "Ġà¤®à¤¾à¤¨à¤¾", "à°¦à±įà°°", "à®µà¯Ģà®©", "Ġà¤®à¤¿à¤²à¤¾", "à°¦à±ĩà°¶à°Ĥ", "à®¾à®ķà¯ģà®®à¯į.", "Ġà¤®à¥ĩà¤Ĥ,", "à°ªà°¾à°²", "à®¾à®ķà®°à®¿à®ķ", "Ġà¤°à¤ļ", "à°ªà±Ĥ", "à®¾à®ķà¯įà®ķà®¿à®¤à¯įà®¤", "Ġà¤°à¤¹à¤¾", "à°ªà°¾à°²à°¿à°¤", "à®¾à®ķà¯įà®ķà®¿à®²à¯į", "Ġà¤µà¤¿à¤Ń", "à°®à±ĩ", "à®¾à®ķà¯įà®ķà®¿à®¤à¯įà®¤à®¾à®©à¯į", "Ġà¤µà¥įà¤¯à¤¾à¤ª", "à°®à±Ī", "à®¾à®Łà¯ģ", "Ġà¤¶à¤¹à¤°à¥Ģ", "à°°à°¾à°²à±ģ", "à®¿à®®", "Ġà¤¶à¥ģà¤°à¥Ĥ", "à°°à°¾à°¸", "à®¿à®¤à¯įà®¤à®¾à®©", "Ġà¤¸à¤¿à¤Ĥà¤§à¥ģ", "à°°à°¾à°¸à±įà°¯", "à®¿à®¨à¯įà®¤à¯ģà®", "Ġà¤¸à¤Ĥà¤Ĺ", "à°°à°¾à°¸à±įà°¯à°¤", "à®¿à®ªà¯į", "Ġà¤¸à¤®à¥įà¤ª", "à°°à±įà°Ĺ", "à®¿à®¯à¯Ī", "Ġà¤¸à¤¾à¤®à¥įà¤°à¤¾à¤ľà¥įà¤¯à¥ĭà¤Ĥ", "à°²à°¤à±ĭ", "à®¿à®°à¯ģà®¨à¯įà®¤à¯ģ", "Ġà¤¸à¥įà¤µà¤¤à¤Ĥà¤¤à¥įà¤°", "à°²à±į", "à®¿à®°à¯ģà®¨à¯įà®¤à®¤à¯ģ.", "Ġà¤¹à¥Ī,", "à°²à±įà°µ", "à®¿à®±à¯ģà®µ", "Ġà¤ħà¤°à¥įà¤¥", "à°¶à±įà°ļ", "à®¿à®ķà®³à¯į", "Ġà¤ħà¤Ĥà¤Ĺà¥įà¤°à¥ĩà¤ľà¤¼à¥Ģ", "à°¶à±įà°ļà°¿à°®", "à®¿à®ķà¯įà®ķà®ªà¯įà®ªà®Łà¯įà®Ł", "Ġà¤ħà¤¨à¥ģà¤¸à¤¾à¤°", "à°·à±įà°", "à®ĩà®²à¯į", "Ġà¤ħà¤¨à¥įà¤¤", "à°·à±įà°£", "à®ķà¯Ī", "Ġà¤ħà¤ªà¤¨à¥ĩ", "à°¸à±įà°²", "à®Ļà¯įà®ķà®³à®¿à®©à¯į", "Ġà¤Ĩà¤¦", "à°¾à°ļ", "à®Ļà¯įà®ķà¯Īà®ļà¯į", "Ġà¤Ĩà¤§à¤¾à¤°", "à°¾à°¤à°¾à°µà°°", "à®Łà®¿à®¯à®¾à®ķ", "Ġà¤ĩà¤¸à¤ķà¥ĩ", "à°¾à°¤à°¾à°µà°°à°£à°Ĥ", "à¯ģà®ļ", "Ġà¤ķà¤¿à¤¨à¥įà¤¤à¥ģ", "à°¾à°°à°Ĥ", "à¯ģà®³à¯įà®³à®©.", "Ġà¤ķà¤°à¤¨à¤¾", "à°¾à°°à±ģ", "à¯ģà®ķà®¿à®©à¯įà®±à®©.", "Ġà¤ķà¤°à¤¨à¥ĩ", "à°¾à°²à°¤à±ĭ", "à¯ģà®ķà®³à®¿à®©à¯į", "Ġà¤ķà¤°à¥ĭà¤¡à¤¼", "à°¾à°²à°¨à±ģ", "à¯ģà®ķà®³à¯ģà®ķà¯įà®ķà¯ģ", "Ġà¤ķà¥ģà¤Ľ", "à°¾à°²à±ģà°Ĺà°¾", "à¯ģà®ķà¯įà®ķà®¿à®¯", "Ġà¤Ĺà¤£", "à°¾à°¸à±įà°µà°¾à°®à±įà°¯", "à¯ģà®ķà¯įà®ķà¯ģà®ªà¯į", "Ġà¤ļà¤²", "à°¾à°Łà±ģ", "à¯Ĥà®ķ", "Ġà¤ľà¤¨", "à°¿à°¤à±įà°°", "à¯ĩà®°à®¤à¯įà®¤à®¿à®²à¯į", "Ġà¤ľà¤¬", "à°¿à°·", "à¯įà®¨", "Ġà¤ľà¥Ģà¤µà¤¨", "à°¿à°¸", "à¯įà®ķà®³à®¿à®²à¯į", "Ġà¤ľà¥Ī", "à°¿à°¨à°¿", "Ġà¤Ńà¥Ĥà¤®", "à°¿à°°à±įà°µà°¹", "Ġà¥¬à¥", "à°¿à°µà±ĥ", "à°¿à°µà±ĥà°¦à±įà°§", "Ġà®°à¯Ģà®¤", ".1", "à°¿à°¸à±įà°¤à°¾à°¨", "Ġà®¹", "à°¿à°Ĥà°ļà°¿,", "Ġà®¨à®µà¯Ģà®©", "In", "à°¿à°ķ,", "Ġà®¨à®¿à®°", "à°Ĥà°ķ", "Ġà®¨à®¿à®±à¯ģà®µ", "Indi", "à°Ĥà°¡à°¿", "Ġà®ªà®£à¯įà®Ł", "à°Ĥà°¦à°¿", "Ġà®ªà®¤", "£à¤¿à¤¤", "à°Ĥà°Łà°¾à°°à±ģ.", "Ġà®ªà®²à¯įà®µ", "¤à¤®à¤¾à¤¨", "à°ķà±į", "Ġà®ªà®¾à®ķà¯įà®ķà®¿à®¤à¯įà®¤à®¾à®©à¯į", "¦à¥¦", "à°ķà±įà°·à°°à°¾à°¸à±įà°¯à°¤", "Ġà®ªà®¿à®±", "§à¥", "à°ĸà°Ĥà°¡", "Ġà®ªà¯ģà®", "µà¤¾à¤¦", "à°Ĺà±ģ", "Ġà®ªà®°à®ªà¯įà®ª", "à¤¡", "à°Łà°¿à°ķ", "Ġà®ªà®¾à®°à®®à¯įà®ªà®°à®¿à®¯", "à¤¥", "à°Ńà°¿à°µà±ĥà°¦à±įà°§", "Ġà®ªà®¿à®°à®¿à®¤à¯įà®¤à®¾à®©", "à¤¥à¤¾", "à±Ģà°°à±įà°£", "Ġà®ªà®Łà®¿", "à¤ĥ", "à±Ģà°Ł", "Ġà®ªà¯Ĩà®°à®¿à®¯", "à¤Ĩ", "à±ģà°¨à±įà°¨", "Ġà®ªà¯ĩà®°à®°à®ļà¯ģ", "à¤£à¤¾à¤²à¥Ģ", "à±ģà°²à°ķà±ģ", "Ġà®®à¯ģà®±", "à¤¤à¤¿à¤ķ", "à±Ĩà°¨", "Ġà®®à¯Īà®¯", "à¤¤à¤ĥ", "à±ĩà°¯", "Ġà®®à®©à®¿à®¤", "à¤¦à¥Ģ", "à±Īà°Ĺà°¾", "Ġà®®à¯ģà®©à¯įà®©à®°à¯į", "à¤¦à¥įà¤¯", "à±ĭà°³", "Ġà®µà®¾à®ķà¯įà®ķà®¿à®²à¯į", "à¤¦à¥įà¤°", "à±Įà°ķà°°à±įà°¯", "Ġà®µà¯Īà®¤à¯įà®¤", "à¤¦à¥įà¤µà¥Ģà¤ª", "à±įà°¯à°¾à°¯", "Ġà®µà®³à®°", "à¤¦à¥įà¤¯à¥ĭà¤Ĺ", "à±įà°°à°¾à°ľ", "Ġà®µà®¾à®´à¯įà®µ", "à¤¦à¥įà¤¯à¥ĭà¤Ĺà¤¿à¤ķ", "à±įà°²à°¨à±ģ", "Ġà®ħà®¤à®©à¯į", "à¤¦à¥įà¤¯à¥ĭà¤Ĺà¤¿à¤ķà¥Ģ", "Ġ199", "Ġà®Ĩà®ªà¯įà®ªà®¿à®°à®¿à®ķà¯įà®ķà®¾à®µ", "à¤§à¥Ģà¤°à¥ĩ", "Ġà°Ĳ", "Ġà®Ĩà®£à¯įà®Łà¯ģ", "à¤§à¤¿à¤°à¤¾à¤ľà¥įà¤¯", "Ġà°¦à°ķà±įà°·à°¿à°£à°¾à°¨", "Ġà®Ĩà®£à¯įà®Łà¯ģà®ķà®³à¯ģà®ķà¯įà®ķà¯ģ", "à¤¨à¥ĭà¤Ĥ", "Ġà°¦à±ĩà°¶à°¾à°²à°²à±ĭ", "Ġà®Ĩà®ķà®¿à®¯à®µà¯Ī", "à¤¨à¥įà¤¨", "Ġà°¦à±įà°µà±Ģà°ª", "Ġà®Ĩà®Łà¯įà®ļà®¿à®¯", "à¤¨à¥Ģà¤¤à¤¿à¤ķ", "Ġà°¨à°¡à°¿à°ª", "Ġà®ĩà®£à¯įà®Ł", "à¤ªà¤¶à¥įà¤ļà¤¿à¤®", "Ġà°¨à°¿à°°à±įà°µà°¹", "Ġà®ĩà®°à¯ģ", "à¤®à¤¨", "Ġà°¨à±įà°¯à°¾à°¯", "Ġà®ĩà®µà¯Ī", "à¤®à¥ĩà¤Ĥ", "Ġà°ªà°¶à±įà°ļà°¿à°®", "Ġà®ĩà®ļ", "à¤¯à¤¾à¤¸", "Ġà°ªà°¾à°¤à±įà°°", "Ġà®ĩà®¨à¯įà®¤à®¿à®¯à®ªà¯į", "à¤°à¤¬", "Ġà°ªà°Ĥà°¡", "Ġà®īà®²à®ķà®¿à®©à¯į", "à¤°à¥Ĥà¤ª", "Ġà°ªà±ģ", "Ġà®Ĵà®©à¯įà®±", "à¤°à¥ĩ", "Ġà°ªà±Īà°Ĺà°¾", "Ġà®ķà®¾à®Łà¯įà®Ł", "à¤°à¥ĭ", "Ġà°ªà±įà°°à°¤à°¿à°ª", "Ġà®ķà¯Ĥ", "à¤°à¥ĭà¤§", "Ġà°ªà±įà°°à°ªà°Ĥà°ļà°Ĥà°²à±ĭ", "Ġà®ķà®¾à®²à®ªà¯į", "à¤°à¥įà¤®à¤¾à¤£", "Ġà°¬à°¹", "Ġà®ķà¯ģà®±à®¿à®ªà¯įà®ªà®¿à®Ł", "à¤²à¥įà¤²", "Ġà°®à°¹", "Ġà®ķà¯Ĭà®£à¯įà®Łà¯ģà®³à¯įà®³à®¤à¯ģ.", "à¤µà¤¸à¥įà¤", "Ġà°®à°¾à°¤à±įà°°", "Ġà®ļà®¿à®¨à¯įà®¤à¯ģ", "à¤µà¥Ģ", "Ġà°®à±ģà°ĸà±įà°¯", "Ġà®ļà®¿à®±", "à¤µà¥įà¤¯", "Ġà°®à±Ĭà°¤à±įà°¤à°Ĥ", "Ġà®ļà®ķ", "à¤µà¤¸à¥įà¤¥à¤¾", "Ġà°°à°µà°¾à°£à°¾", "Ġà®ļà¯ĩà®°", "à¤µà¥įà¤¯à¤µà¤¸à¥įà¤¥à¤¾", "Ġà°°à±Īà°²à±įà°µ", "Ġà®ļà¯Ĭà®²à¯įà®²", "à¤¶à¤¾à¤¸", "Ġà°²à±ĩ", "Ġà®ļà®®à¯Ĥà®ķ", "à¤¶à¥ĩà¤·", "Ġà°²à±ĭà°ķà±į", "Ġà®ļà¯Ĩà®¯à¯įà®¤", "à¤·à¤£,", "Ġà°µà°¹", ",5", "à¤¸à¤Ĥà¤", "Ġà°µà°¾à°¤à°¾à°µà°°à°£à°Ĥ", "à¤¸à¤Ĥà¤ĸ", "Ġà°µà°¿à°¶", "à¤¸à¤Ĥà¤ĸà¥įà¤¯", "Ġà°µà°¿à°µà°¿à°§", "li", "à¤¸à¤Ĥà¤ĸà¥įà¤¯à¤¾", "Ġà°¶à°¤à°¾à°¬à±įà°¦à°Ĥ", "à¤¸à¥įà¤²à¤¾à¤®", "Ġà°¸à°¾à°°", "à¤¼à¤°à¥Ģà¤¬", "Ġà°¸à±Įà°ķà°°à±įà°¯", "à¤¼à¤°à¥Ģà¤¬à¥Ģ", "Ġà°¸à°¾à°®à±įà°°à°¾à°ľ", "¸à¯įà®¤", "à¤¾à¤¥", "Ġà°¸à°Ĥà°¸à±įà°ķ", "à¤¾à¤¯", "Ġà°¸à°Ĥà°ķ", "à¤¾à¤¶", "Ġà°¸à°Ńà±įà°¯", "à¤¾à¤¤à¤¾à¤°", "Ġà°¸à±įà°µà°¤à°Ĥà°¤à±įà°°", "à¤¾à¤¤à¥įà¤®", "Ġà°ħà°¨à±ģ", "à®ħ", "à¤¾à¤°à¤£", "Ġà°ħà°µ", "à®£à¯įà®", "à¤¾à¤°à¥Ģ", "Ġà°ħà°Ńà°¿à°µà±ĥà°¦à±įà°§", "à®£à¯įà®£", "à¤¾à¤²à¥ģà¤ķ", "Ġà°ħà°¨à±ĩà°ķ", "à®¤à¯Ī", "à¤¾à¤²à¥ģà¤ķà¥įà¤¯à¥ĭà¤Ĥ", "Ġà°Ĩà°°à±įà°¥à°¿à°ķ", "à®¤à¯įà®¤à¯ģà®ķà¯įà®ķ", "à¤¾à¤µà¥Ģà¤°", "Ġà°ĩà°¤", "à®¤à¯įà®¤à®¿à®±à¯įà®ķà¯ģ", "à¤¾à¤¸à¤¾à¤Ĺà¤°", "Ġà°īà°Ĥà°Ł", "à®¨à¯įà®¨", "à¤¾à¤¹à¤¿à¤¤", "Ġà°İà°ķà±įà°ķà±ģà°µ", "à®¨à¯įà®¤à®¿à®°", "à¤¾à¤¹à¤¿à¤¤à¥įà¤¯", "Ġà°Ĵà°ķà°Ł", "à®ªà¯įà®ªà®Ł", "à¤¾à¤Ĥà¤¡", "Ġà°ķà±ģ", "à®®à®¿à®Ł", "à¤¾à¤ļà¤¾à¤°", "Ġà°ķà±ĩà°Ĥà°¦à±įà°°à°ªà°¾à°²à°¿à°¤", "à®®à¯ĩ", "à¤¾à¤Łà¥Ģ", "Ġà°ķà±ĭà°°à±įà°Ł", "à®®à¯Īà®¯", "à¤¿à¤°à¥ĭà¤§", "Ġà°Ĺà°¾à°Ĥ", "à®®à¯ĩà®±à¯įà®ķ", "à¤¿à¤¯", "Ġà°Ĺà±ģ", "à®®à¯į,", "à¤¿à¤µà¤¾à¤¸", "Ġà°Ńà°¾à°°à°¤à°¦à±ĩà°¶à°¾à°¨à°¿à°ķà°¿", "à®°à®¿à®©à¯į", "à¤¿à¤ķà¤¾à¤°à¤¿à¤ķ", ").", "à®°à¯įà®·", "à¤Ĥà¤¦", "à®²à¯ģà®®à¯į,", "à¤Ĥà¤ľ", "à®³à®µà¯ģ", "à¤Ĥà¤ªà¤°", "5,", "à®µà®°", "à¤Ĥà¤¬à¥ĩ", "à®µà®¿à®©", "à¤Ĥà¤Ĺà¤¾à¤²", "§à°¿à°ķ", "à®¾,", "à¤Ĥà¤ľà¤¾à¤¬", "µà°¤à±įà°¸", "à®¾à®£à¯ģà®µ", "à¤ķà¤¿", "à°¡à°Ĥ", "à®¾à®ªà¯įà®¤", "à¤ķà¥įà¤¤à¤¿", "à°¡à±ģ", "à®¾à®®à¯į", "à¤ķà¤°à¤£", "à°£à°Ĥà°Ĺà°¾", "à®¾à®°à®£", "à¤ķà¤¾à¤²à¥Ģà¤¨", "à°¦à°¿.", "à®¾à®°à¯į.", "à¤Ĺà¤§", "à°¦à°Łà°¿", "à®¾à®ķà®¤à¯į", "à¤Ĺà¥ĭà¤²", "à°§à°¾à°°", "à®¾à®ļà®¿à®¯à®¾à®µ", "à¤Łà¥ĩ", "à°§à±Ģ", "à®¿à®¨à¯įà®¤à®¿à®¯à®¾à®µà®¿à®²à¯į", "à¥Ģà¤®à¤¾", "à°¨à°²à±ĭ", "à®¿à®©à®°", "à¥Ģà¤²", "à°¨à±ģà°ķà°Łà°¿", "à®¿à®©à¯įà®±à®©à®°à¯į.", "à¥Ģà¤µ,", "à°¨à±įà°¨à°¾à°¯à°¿.", "à®¿à®¯à®¿à®©à¯į", "à¥ģà¤¤à¤¾", "à°¨à±įà°¨à°¿", "à®¿à®°à¯ģà®¤", "à¥ģà¤¨", "à°ªà°¾", "à®¿à®°à¯ĩ", "à¥ģà¤·", "à°ªà±ģà°ķà±ģ", "à®¿à®°à¯ģà®¨à¯įà®¤à®¤à¯ģ", "à¥ģà¤¸à¥įà¤¤", "à°ªà±Ĥ.", "à®¿à®°à¯ĩà®ķà¯įà®ķ", "à¥Ĥà¤°à¥įà¤£", "à°ªà±įà°ªà°Łà°¿à°ķ", "à®¿à®²à®¾à®©", "à¥ĥà¤·à¥įà¤Ł", "à°¬à°¡à°¿à°¨", "à®¿à®µà¯ģ", "à¥ĩà¤¦", "à°®à°¿à°Ĥà°ļ", "à®ķà¯įà®ķà®¿", "à¥ĩà¤ķà¤°", "à°®à±Ĭ", "à®Ļà¯įà®ķà®¾à®³", "à¥ĩà¤Ł", "à°®à±ģà°¦à±įà°°", "à®Ļà¯įà®ķà¯ģ", "à¥ĩà¤Ĥà¤¦à¥įà¤°", "à°®à±Ĭà°¦à°Łà°¿", "à®ļà¯ģà®ķ", "à¥ĩà¤ĸà¤¨", "à°°à°£", "à®ļà¯ģà®ķà®¿à®°à¯ģà®¤", "à¥ĭà¤¨à¥ĩ", "à°°à°¤", "à®ŀà¯įà®ļ", "à¥ĭà¤·à¤£,", "à°°à°¿", "à®Łà®¿à®ªà¯įà®ªà®Łà®¿à®¯à®¾à®ķ", "à¥ĭà¤¹", "à°°à°Ĥ", "à¯ģà®ªà¯įà®¤", "à¥ĭà¤Łà¥ĩ", "à°°à±ĭ", "à¯ģà®ķà®³à®¾à®©à®µà¯Ī", "à¥ĭà¤¡à¤¼à¤ķà¤°", "à°°à°¿à°ķà°¤", "à¯ģà®ļà¯į", "à¥Įà¤¦à¥įà¤¯à¥ĭà¤Ĺà¤¿à¤ķà¥Ģ", "à°°à±ģà°ªà±ģà°ķà±ģ", "à¯Ĥà®°à¯įà®µ", "à¥įà¤ŀ", "à°°à±ģà°·", "à¯ĩà®±à¯įà®±", "à¥įà¤¤à¥įà¤°", "à°°à±įà°ķ", "à¯Īà®ļà¯į", "à¥įà¤°à¤®", "à°°à±įà°ķà±Ĭ", "à¯Īà®ķà®³à¯Ī", "à¥įà¤°à¤¾à¤Ł", "à°²à°¨à±ģ", "à¯Įà®¤à¯įà®¤", "à¥įà¤°à¥Ģ", "à°²à°ķ", "à¯Įà®°à®¿à®¯", "à¥įà¤µà¥ĭà¤Ĥ", "à°²à±įà°²", "à¯įà®¨à¯įà®¤à¯ģ", "à°²à±įà°²à±ĭ", "à¯įà®¯", "Ġ12", "à°µà°²", "à¯įà®²", "Ġ16", "à°µà±Ĩ", "à¯įà®©à®¿à®¨à¯įà®¤à®¿à®¯à®¾à®µà®¿à®²à¯į", "Ġ194", "à°µà±Ĩà°¨à±ģà°ķà°Łà°¿", "à¯įà®ªà¯įà®ªà¯ģà®±", "Ġ200", "à°¸à°°", "à¯įà®ķà¯įà®ķ", "Ġ21", "à°¸à±įà°¥à°¾à°¨", "à¯įà®ķà®³à®¿à®©à¯į", "Ġ202", "à°¾à°³", "Ġà¤¯à¤¾", "à°¾à°¤à±ĭ", "Ġà¤ĭ", "à°¾à°¦à°¨", "Ġà¤¤à¤Ł", "à°¾à°¦à±ĩà°¶", "Ġà¤¤à¤Łà¥ĭà¤Ĥ", "à°¾à°°à°¾", "Ġà®Ī", "Ġà¤¤à¥Ģà¤¸à¤°à¥Ģ", "à°¾à°°à°¿", "Ġà®¤à®¾à®ķà¯įà®ķ", "Ġà¤¥à¤¾,", "à°¾à°°à°¿à°Ĺà°¾", "Ġà®¤à®¿à®°", "Ġà¤¦à¤°", "à°¾à°²à°¯", "Ġà®¤à¯Ģ", "Ġà¤¦à¥ĥà¤·à¥įà¤Ł", "à°¾à°Ĥà°¡", "Ġà®¤à¯ģà®±", "Ġà¤¦à¥ĩà¤ĸ", "à°¾à°ĸà±įà°¯", "Ġà®¤à¯Ĩà®©à¯įà®©à®¿à®¨à¯įà®¤à®¿à®¯à®¾à®µà®¿à®²à¯į", "Ġà¤¦à¥ĭà¤¨à¥ĭà¤Ĥ", "à°¾à°Ĺà°°à°¿à°ķà°¤", "Ġà®¤à¯Ĩà®±à¯įà®ķà¯ģ", "Ġà¤§à¤°à¥įà¤®,", "à°¾à°Ĺà°¾", "Ġà®¤à¯Ĭà®Łà®ķà¯įà®ķà®¤à¯įà®¤à®¿à®²à¯į", "Ġà¤§à¤°à¥įà¤®à¥ĭà¤Ĥ", "à°¾à°ļà±Ģà°¨", "Ġà®¤à¯Ĭà®Łà®Ļà¯įà®ķà®¿à®¯à®¤à¯ģ.", "Ġà¤¨à¤¿à¤µà¤¾à¤¸", "à°¿à°®à°¾à°²à°¯", "Ġà®¨à®¾à®ķà®°à®¿à®ķ", "Ġà¤¨à¤¿à¤°à¥įà¤", "à°¿à°¸à±įà°¥à°¾à°¨", "Ġà®¨à¯ĩà®°à®¤à¯įà®¤à®¿à®²à¯į", "Ġà¤¨à¤¿à¤°à¥įà¤®à¤¾à¤£", "à°¿à°Ĥà°ļà±ĩ", "Ġà®¨à®¿à®°à¯įà®µ", "Ġà¤ªà¤¾à¤°", "à°Ĥà°¤à±ĭ", "Ġà®¨à®¿à®²à¯Ī", "Ġà¤ªà¤¾à¤²", "à°Ĥà°ªà±Ĩà°¨", "Ġà®¨à®ķà®°à¯įà®ªà¯įà®ªà¯ģà®±", "Ġà¤ªà¤¾à¤Ĥà¤¡", "à°Ĥà°¬à±Ĥ", "Ġà®¨à¯Ģà®£à¯įà®Ł", "Ġà¤ªà¤Ĥà¤ľà¤¾à¤¬", "à°Ĥà°²à±ĭ,", "Ġà®¨à¯Ģà®Ł", "Ġà¤ªà¥ģà¤°", "à°ķà°¾à°°à°Ĥ", "Ġà®ªà®Łà®¿à®ªà¯įà®ªà®Łà®¿à®¯à®¾à®ķ", "Ġà¤ªà¤°à¤Ĥà¤ªà¤°", "à°ķà°¾à°²", "Ġà®ªà¯Įà®¤à¯įà®¤", "Ġà¤ªà¤¹à¤²à¥ĩ", "à°ķà±įà°°à°®", "Ġà®ªà®£à¯įà®ªà®¾à®Łà¯įà®Łà®¿à®²à¯į", "Ġà¤ªà¥įà¤°à¤£à¤¾à¤²à¥Ģ", "à°ķà±įà°¤", "Ġà®ªà®£à¯įà®Łà¯Īà®ķà¯į", "Ġà¤ªà¥įà¤°à¤¦", "à°Ĺà±ĭà°³", "Ġà®ªà®°à®µà®²", "Ġà¤ªà¥įà¤°à¤¯à¤¾à¤¸", "à°ļà±ĩ", "Ġà®ªà®¿à®°à®¿à®¤à¯įà®¤à®¾à®©à®¿à®¯", "Ġà¤ªà¥įà¤°à¤Ń", "à°ļà±įà°ļà±ģ.", "Ġà®ªà®ķà¯ģà®¤à®¿", "Ġà¤ªà¥įà¤°à¥Įà¤¦à¥įà¤¯à¥ĭà¤Ĺà¤¿à¤ķà¥Ģ", "à°Łà±įà°Łà°®à±Ĭà°¦à°Łà°¿", "Ġà®ªà¯ģà®°", "Ġà¤ªà¥įà¤°à¤¾à¤°à¤®à¥įà¤Ńà¤¿à¤ķ", "à°Ńà°¾à°°à°¤", "Ġà®ªà¯Ĩà®°à¯ģà®Ļà¯įà®ķ", "Ġà¤ªà¥įà¤°à¤ķà¤¾à¤¶", "à±Ģà°·", "Ġà®ªà¯Ĭà®°à¯ģà®³à®¾à®¤à®¾à®°", "Ġà¤ªà¥įà¤°à¤ļà¤²à¤¿à¤¤", "à±ģà°¨", "Ġà®®à¯ģà®ķà¯įà®ķà®¿à®¯", "Ġà¤¬à¤¾à¤²", "à±ģà°²à°¨à±ģ", "Ġà®®à¯ģà®Ł", "Ġà¤¬à¤Ĥà¤Ĺà¤¾à¤²", "à±ģà°ķà±ģà°Ĥà°Ł", "Ġà®®à¯Ĥ", "Ġà¤¬à¤¢à¤¼à¤¤à¥Ģ", "à±Ĩà°²à±ģ", "Ġà®®à¯Įà®°à®¿à®¯", "Ġà¤¬à¤¨à¤¾à¤Ī", "à±Ĩà°Ł", "Ġà®®à¯ĩà®±à¯įà®ķà¯ģ", "Ġà¤®à¤¨", "à±ĩ.", "Ġà®®à¯Ĭà®´à®¿à®ķà®³", "Ġà¤®à¤Ĺà¤§", "à±Īà°¦", "Ġà®µà®¿à®Łà¯įà®Ł", "Ġà¤®à¥ģ", "à±Ĭà°Ĥà°¦", "Ġà®µà®ķ", "Ġà¤®à¤§à¥įà¤¯à¤ķà¤¾à¤²à¥Ģà¤¨", "à±ĭà°¦", "Ġà®µà®Ļà¯įà®ķà®¾à®³", "Ġà¤®à¤¹à¤¾à¤¸à¤¾à¤Ĺà¤°", "à±įà°°à±Ģ.", "Ġà®µà®°à¯ģà®®à¯į", "Ġà¤°à¤¾à¤ľà¤¨à¥Ģà¤¤à¤¿à¤ķ", "à±įà°²à±ģ", "Ġà®µà®°à®²à®¾à®±à¯įà®±", "Ġà¤°à¤¾à¤ľà¤¾à¤ĵà¤Ĥ", "Ġ(à°", "Ġà®µà®³à®°à¯įà®ļ", "Ġà¤²à¤Ĥà¤¬à¥ĩ", "Ġ(à°µà±Ĩà°¨à±ģà°ķà°Łà°¿", "Ġà®µà®Łà®®à¯ĩà®±à¯įà®ķ", "Ġà¤²à¥ĩà¤ķà¤°", "Ġ18", "Ġà®µà®Łà®¿à®µà®Ļà¯įà®ķà®³à®¿à®²à¯į", "Ġà¤²à¤Ĺà¤¾à¤¤à¤¾à¤°", "Ġ1947", "Ġà®µà®Łà®ķà¯įà®ķà¯ģ", "Ġà¤µà¤¨", "Ġ26", "Ġà®¹à®¿à®¨à¯įà®¤à¯ģà®", "Ġà¤µà¤¾à¤²à¥Ģ", "Ġà°¤à°¨", "Ġà®ħà®Łà¯Īà®¨à¯įà®¤", "Ġà¤µà¤¿à¤°à¥ĭà¤§", "Ġà°¦à±ĩà°¶à°Ĥà°Ĺà°¾", "Ġà®ħà®®à¯Īà®ªà¯įà®ªà¯ģ", "Ġà¤µà¤Ĥà¤¶", "Ġà°¦à±ĩà°¶à°Ĥà°²à±ĭà°¨à°¿", "Ġà®ħà®®à¯Īà®ªà¯įà®ªà¯Ī", "Ġà¤µà¥Ģà¤Ĥ", "Ġà°¦à±įà°µà°¾à°°à°¾", "Ġà®ħà®°à®ļà¯ģ", "Ġà¤µà¥Īà¤¦à¤¿à¤ķ", "Ġà°¨à°¾à°Ĺà°°à°¿à°ķà°¤", "Ġà®Ĩà®¤à®¾à®°", "Ġà¤µà¤°à¥įà¤£à¤¿à¤¤", "Ġà°¨à°¿à°¯", "Ġà®Ĩà®©à®¾à®²à¯į", "Ġà¤µà¤°à¥įà¤¤à¤®à¤¾à¤¨", "Ġà°¨à±ģà°Ĥà°¡à°¿", "Ġà®Ĩà®¯", "Ġà¤µà¤°à¥įà¤Ĺ", "Ġà°ªà°¦", "Ġà®Ĩà®ļ", "Ġà¤µà¤¿à¤µà¤¾à¤¦", "Ġà°ªà±Ĩà°¦à±įà°¦", "Ġà®Ĩà®£à¯įà®Łà®¿à®²à¯į", "Ġà¤µà¤¿à¤ľ", "Ġà°ªà°¾à°ķà°¿à°¸à±įà°¤à°¾à°¨", "Ġà®Ĩà®ªà¯įà®ªà®¿à®°à®¿à®ķà¯įà®ķà®¾à®µà®¿à®²à¯į", "Ġà¤µà¤¿à¤¶à¥ĩà¤·", "Ġà°ªà°¾à°ķà°¿à°¸à±įà°¥à°¾à°¨", "Ġà®Ĩà®ķà¯ģà®®à¯į.", "Ġà¤µà¤¿à¤¶à¥įà¤µ", "Ġà°ªà°Łà±įà°Łà°£", "Ġà®ĩà®ªà¯įà®ª", "Ġà¤µà¤¿à¤Ńà¤¾à¤ľà¤¿à¤¤", "Ġà°ªà±įà°°à°¾à°°", "Ġà®ĩà®¯à®ķà¯įà®ķ", "Ġà¤¶à¤¿à¤ķà¥įà¤·", "Ġà°ªà±įà°°à°¾à°ļà±Ģà°¨", "Ġà®ĩà®°à®¾à®£à¯ģà®µ", "Ġà¤¶à¤¾à¤¸à¤ķ", "Ġà°ªà±įà°°à°§à°¾à°¨à°®à°Ĥà°¤à±įà°°à°¿", "Ġà®īà®£", "Ġà¤¸à¤¤à¤°", "Ġà°ªà±įà°°à°¸à±įà°¤à±ģà°¤à°Ĥ", "Ġà®īà®Łà¯Īà®¯", "Ġà¤¸à¤¾à¤¥", "Ġà°ªà±įà°°à°ľà°¾à°¸à±įà°µà°¾à°®à±įà°¯", "Ġà®īà®¯à®°à¯įà®¨à¯įà®¤", "Ġà¤¸à¤¾à¤¹à¤¿à¤¤à¥įà¤¯", "Ġà°¬à±įà°°à°¿à°Łà°¿à°·", "Ġà®īà®¯à®¿à®°", "Ġà¤¸à¥Ģà¤®à¤¾", "Ġà°®à°Ĥà°¤à±įà°°", "Ġà®īà®°à¯ģà®µà®¾à®ķà®¿à®¯à®¤à¯ģ.", "Ġà¤¸à¤®à¥įà¤°à¤¾à¤Ł", "Ġà°®à°Ĥà°¦à°¿", "Ġà®īà®³à¯įà®³à®¤à¯ģ.", "Ġà¤¸à¤Ĥà¤Ĺà¤®", "Ġà°®à±Ĥà°¡", "Ġà®īà®³à¯įà®³à®Ł", "Ġà¤¸à¥įà¤¥à¤¾à¤ªà¤¿à¤¤", "Ġà°®à°¾à°°à±įà°Ĺ", "Ġà®İà®£à¯įà®£", "Ġà¤¹à¤¿à¤¨à¥įà¤¦à¥ģà¤¸à¥įà¤¤", "Ġà°®à±ģà°Ĥà°¬", "Ġà®İà®©", "Ġà¤¹à¥ģà¤ı,", "Ġà°®à±Ĭà°Łà±įà°Łà°®à±Ĭà°¦à°Łà°¿", "Ġà®İà®²à¯įà®²", "Ġà¤ħà¤¤à¥įà¤¯", "Ġà°®à±Ĭà°¦à°²", "Ġà®İà®©à¯įà®ªà®¤à¯ģ", "Ġà¤ħà¤§à¤¿à¤°à¤¾à¤ľà¥įà¤¯", "Ġà°®à±Ĭà°¦à°Łà°¿", "Ġà®ĵà®°à¯į", "Ġà¤ħà¤«", "Ġà°°à°Ĥà°Ĺ", "Ġà®ķà®£à¯įà®Ł", "Ġà¤ħà¤°à¤¬", "Ġà°°à±Ĥà°ª", "Ġà®ķà®¾à®°à®£", "Ġà¤ħà¤¨à¥įà¤¤à¤¤à¤ĥ", "Ġà°°à°¾à°·à±įà°Łà±įà°°à°ªà°¤à°¿", "Ġà®ķà®¿à®°à¯ĩà®ķà¯įà®ķ", "Ġà¤ħà¤°à¥įà¤¥à¤µà¥įà¤¯à¤µà¤¸à¥įà¤¥à¤¾", "Ġà°°à°¾à°ľà±įà°¯à°¾à°Ĥà°Ĺ", "Ġà®ķà®Ļà¯įà®ķà¯Īà®ļà¯į", "Ġà¤ħà¤µà¤§à¤¿", "Ġà°°à±Ĩà°Ĥà°¡à±ģ", "Ġà®ķà®Ł", "Ġà¤ħà¤µà¤¶à¥ĩà¤·", "Ġà°°à±Īà°²à±įà°µà±ĩ", "Ġà®ķà¯ģà®ªà¯įà®¤", "Ġà¤Ĩà¤¤à¥ĩ", "Ġà°²à°ķà±įà°·", "Ġà®ķà®¾à®²à®¤à¯įà®¤à®¿à®²à¯į", "Ġà¤Ĩà¤ķ", "Ġà°²à±ĩà°¦à°¾", "Ġà®ķà®¿à®´à®ķà¯įà®ķà¯ĩ", "Ġà¤Ĩà¤¦à¤°à¥įà¤¶", "Ġà°µà±ĩ", "Ġà®ķà®Łà¯įà®Łà®Ł", "Ġà¤Ĩà¤§à¤¾à¤°à¤¿à¤¤", "Ġà°µà±įà°¯", "Ġà®ķà¯ģà®±à®¿à®ķà¯įà®ķà®ªà¯į", "Ġà¤Ĩà¤Ĺà¤®à¤¨", "Ġà°µà°¿à°§", "Ġà®ķà¯Ĭà®£à¯įà®Łà¯ģ", "Ġà¤Ĩà¤Ĺà¥ĩ", "Ġà°µà°¿à°Ń", "Ġà®ļà®®à®ļà¯ģà®ķà®¿à®°à¯ģà®¤", "Ġà¤ĩà¤¨", "Ġà°µà°ļà±įà°ļà°¿à°¨", "Ġà®ļà®®à®¯à®Ļà¯įà®ķà®³", "Ġà¤ĩà¤¸à¥įà¤²à¤¾à¤®", "Ġà°¶à±įà°°à±Ģ", "Ġà®ļà®ķà®¾à®ªà¯įà®¤", "Ġà¤īà¤¸", "Ġà°¶à°¾à°¸à±įà°¤à±įà°°à°Ĥ,", "Ġà®ļà¯Ĩà®¯à¯įà®¯", "Ġà¤īà¤¸à¥ĩ", "Ġà°¸à°¹", "))", "Ġà¤īà¤¤à¥įà¤ª", "Ġà°¸à±Ĥ", "Ġà¤īà¤¨à¤ķà¤¾", "Ġà°¸à°®à°¾à°ĸà±įà°¯", ",200", "Ġà¤īà¤¨à¤ķà¥ĩ", "Ġà°¸à°¾à°®à±įà°°à°¾à°ľà±įà°¯", ",500", "Ġà¤ıà¤µ", "Ġà°¸à°¿à°Ĥà°§à±ģ", "Ġà¤ķà¤²", "Ġà°¸à°Ĥà°µà°¤à±įà°¸", "Ġà¤ķà¤Ī", "Ġà°¸à°Ĥà°ķà±Ģà°°à±įà°£", "02", "Ġà¤ķà¥ĩà¤Ĥà¤¦à¥įà¤°", "Ġà°¸à±įà°µà°¾à°¤à°Ĥà°¤à±įà°°à±įà°¯", "1,", "Ġà¤Ĺà¤¼à¤°à¥Ģà¤¬à¥Ģ", "Ġà°¹à°¿à°®à°¾à°²à°¯", "Ġà¤Ĺà¤£à¤°à¤¾à¤ľà¥įà¤¯", "Ġà°ħà°¹", "Ġà¤ĺà¤¾à¤Łà¥Ģ", "Ġà°ħà°Ńà°¿à°µà±ĥà°¦à±įà°§à°¿", "Ġà¤ļà¤°", "Ġà°Ĩà°§à°¾à°°", "Ġà¤ļà¤¾à¤²à¥ģà¤ķà¥įà¤¯à¥ĭà¤Ĥ", "Ġà°Ĩà°°à±įà°§à°¿à°ķ", "India)", "Ġà¤ļà¥Ģà¤¨", "Ġà°ĩà°Ĥà°¡à°¿à°¯à°¾", "Ġà¤ļà¥ĭà¤²", "Ġà°īà°Ĥà°¡", "Ġà¤ļà¤²à¤¨à¥ĩ", "Ġà°īà°ªà°ĸà°Ĥà°¡", "Ġà¤Ľà¥ĭà¤¡à¤¼à¤ķà¤°", "Ġà°İà°¨à±įà°¨à°¿à°ķ", "en))", "Ġà¤ľà¤¨à¤¸à¤Ĥà¤ĸà¥įà¤¯à¤¾", "Ġà°ıà°°à±įà°ªà°¡à±įà°¡", "list", "Ġà¤ľà¤¿à¤¨à¥įà¤¹à¥ĩà¤Ĥ", "Ġà°ķà°¿à°Ĥà°¦", "listen))", "Ġà¤ľà¤¿à¤¸à¤ķà¤¾", "Ġà°ķà°Ĥà°ªà±Ĩà°¨", "£à¯Īà®ķà¯į", "Ġà¤ľà¥Īà¤¨", "Ġà°ķà±ģà°²", "£à¯Īà®ķà¯įà®ķà®ªà¯įà®ªà®Łà¯įà®Ł", "Ġà¤Ńà¥Ĥà¤®à¤¿", "Ġà°ķà±Ĭ", "¨à¯įà®¤à®¿à®¯", "Ġà¥§à¥", "Ġà°ķà±įà°°à±Ģ.", "¯à®±", "\"à¤", "Ġà°ķà°²à°¿à°Ĺà°¿", "¸à¯įà®¤à®¾à®©à¯į", "\"à¤ĩ", "Ġà°ķà°¾à°°à±įà°¯", "\"à¤ĩà¤Ĥà¤¡", "Ġà°ķà±Ĥà°¡à°¾", "Î¯", "\"à¤ĩà¤Ĥà¤¡à¤¸", "Ġà°Ĺà°£", "à®Ĳ", "\"à¤ĩà¤Ĥà¤¡à¤¸\"", "Ġà°Ĺà°¾à°Ĥà°§à±Ģ", "à®£à®¿à®ķ", ",2", "Ġà°Ĺà±ģà°°à±įà°¤", "à®£à¯ģ", ",4", "Ġà°ļà±Ĩà°Ĥà°¦", "à®¤à®©", "Ġà°ļà±ĩà°¸à°¿à°Ĥà°¦à°¿.", "à®¤à®©à¯į", "Ġà°ľà°°à±ģà°ªà±ģà°ķà±ģ", "à®¤à®±à¯įà®ķ", ",49", "Ġà°ľà°Ĥà°¬à±Ĥ", "à®¤à®µ", ",498", "Ġà°Ńà±Į", "à®¤à®¾à®ķ", ",498,", "Ġà°Ńà°¾à°°à°¤à±į", "à®¤à®¿à®°", ".0", "Ġà°Ńà°¾à°°à°¤à°¦à±ĩà°¶à°ªà±ģ", "à®¤à¯Ĥ", ".4%", "Ġà°Ńà°¾à°·à°²à±ģ", "à®¤à®µà®°à¯įà®·", "Łà±į", "à®¤à®¿à®²à®¿à®°à¯ģà®¨à¯įà®¤à¯ģ", ".7", "\",", "à®¤à®¿à®²à¯ģà®®à¯į", ".04%", "%,", "à®¤à¯Ĥà®°", ".3", "à®¤à¯įà®¤à®¿à®©à®°", ".76", "à®¤à¯įà®¤à®ķà¯įà®ķ", "0%),", "à®¤à¯įà®¤à¯Ģ", "0.76", "à®¤à¯įà®¤à¯ģà®µ", "1,498,", "004", "à®¤à¯įà®¤à®¿à®±à¯įà®ķà¯ģà®³à¯į", "11", "2,", "à®¤à¯įà®¤à¯ģà®µà®¤à¯įà®¤à¯Ī", "18", "3,", "à®¤à¯įà®¤à¯ģà®µà®¤à¯įà®¤à¯Īà®ªà¯į", "180", "4%,", "à®¤à¯įà®¤à¯ģà®ķà¯įà®ķà¯ģà®³à¯į", "24", "42", "à®¤à¯įà®¤à¯Īà®ķà¯į", "21.1", "62", "à®¨à®¾à®¯", "2150", "¡à±ģ", "à®¨à®¾à®¯à®ķ", "2150,", "¢à°¾à°ķ", "à®¨à¯įà®¤à®¤à¯ģ", "2450", "¢à°¾à°ķà°¾", "à®¨à¯įà®¤à®¿à®¯à®¾", "4.04%", "¢à°¿à°²à±įà°²à±Ģ,", "à®©à®¨à®¾à®¯à®ķ", "40.76", "¥à±įà°¯à°Ĥ", "à®ªà¯įà®ªà®¿à®¯", "«à°²", "à®ªà¯įà®ªà¯Ģ", "51", "¸à±įà°¤", "à®ªà¯įà®ªà®Łà¯ģà®ķà®¿à®©à¯įà®±à®©.", "55,000", "à°¢à°¿à°²à±įà°²à±Ģ", "à®ªà¯įà®ªà®Łà¯įà®Łà¯ģ", "6.1", "à°«", "à®ªà¯įà®ªà®Łà¯įà®Łà¯ģà®³à¯įà®³à®¤à¯ģ.", "600", "à°·à±įà°Ł", "à®ªà¯įà®ªà¯Ģà®Łà¯įà®Ł", "à°ĺ", "à®ªà¯įà®ªà¯Ģà®Łà¯įà®Łà®³à®µà®¿à®²à¯į", "74.04%", "à°ł", "à®®à®¯", "9000", "à°¤à°¾", "à®®à®¾à®©à®¤à¯ģ.", "à°¤à°¾à°°à±ģ.", "à®®à¯Īà®ªà¯įà®ª", "à°¤à°¿à°¨à°¿", "à®°à®¾à®²à¯į", "Re", "à°¤à±įà°°à°¿à°ķ", "à®°à¯ģà®¤", "Rep", "à°¤à±įà°µà°Ĥà°²à±ĭ", "à®°à¯ģà®¤à¯įà®¤", "Repu", "à°¦à°¾à°¯", "à®°à¯ĩ", "Repub", "à°¦à°Ĺà°¾", "à®°à¯ĭ", "Republ", "à°¦à±įà°§à°¤", "à®°à¯įà®ª", "Republi", "à°¨à°¦à°¿", "à®°à¯į,", "Republic", "à°¨à°²", "à®±à¯ģ", "of", "à°¨à°µ", "à®±à¯įà®ªà®¤à¯įà®¤", "¡à¤¿à¤¯à¤¾", "à°¨à±į", "à®±à¯įà®ªà¯ĭ", "¡à¤¼à¤¿à¤¯à¤¾", "à°¨à±ģà°®", "à®±à¯įà®ªà¯ĭà®¤à¯ģ", "¡à¤¼à¥Ģ", "à°¨à±ģà°²à±ģ,", "à®±à¯įà®±à®µà¯Ī", "¡à¤¼à¥ĩ", "à°¨à±įà°¨à±Ī", "à®±à¯įà®±à¯ģà®®", "¡à¤¿à¤¯à¤¾)", "à°ªà±ģà°¤", "à®²à®¾à®©à®¤à¯ģ", "£à¥ģà¤¤à¤¾", "à°ªà±įà°°", "à®²à®¾à®¯", "¤,", "à°ªà±įà°ªà°Łà°¿à°ķà±Ģ,", "à®²à®¾à®Ł", "¥,", "à°¬à°¡à°¤à°¾à°°à±ģ.", "à®²à®¾à®¯à®ªà¯į", "¥à¤¿", "à°®à±Ģà°Ł", "à®²à®¾à®Łà¯įà®ļà®¿", "¦à¥ĩ", "à°®à±ģ.", "à®²à¯Īà®¤à¯Ĥà®°", "¦à¥¬", "à°®à±Ĩ", "à®³à®µà¯ģà®ķà¯įà®ķà¯ģ", "¦à¥ĩà¤ķ", "à°®à±įà°®", "à®´à¯ģà®¤à¯įà®¤", "§à¤¾à¤°à¤£", "à°®à±Ģà°Łà°°à±įà°²", "à®´à¯įà®¨à¯įà®¤", "§à¤¿à¤ķ", "à°®à±Ģà°Łà°°à±įà°²à°ķà±ģ", "à®µà®©", "§à¤¿à¤ķà¤¾à¤°à¥Ģ", "à°®à±ģà°¦à±įà°°à°Ĥ,", "à®µà®°à¯į", "¨à¥", "à°¯à°¿à°Ĥà°¦à°¿.", "à®µà®¿à®°", "¨à¥¦à¥¦", "à°¯à±ĭ", "à®µà®¿à®©à¯Īà®ªà¯į", "ªà¥", "à°¯à±ĭà°Ĺ", "à®µà®¿à®°à¯įà®¤à¯įà®¤", "ªà¥Ń", "à°¯à±ĭà°Ĺà°¿à°¸à±įà°¤", "à®µà®¿à®°à¯įà®¤à¯įà®¤à¯ģ", "«à¤¼à¥Ģ", "à°°à°²à±ĭ", "à®¾à®£à¯įà®Łà®¿à®¯", "«à¤¾à¤", "à°°à°¾à°¬à°¾à°¦", "à®¾à®¤à¯ģà®ķ", "«à¥", "à°°à±ĩà°", "à®¾à®¤à¯ģà®ķà®¾à®ķà¯įà®ķ", "«à¤¾à¤ı", "à°°à±į", "à®¾à®©à¯įà®®à¯Īà®¯", "«à¤¾à¤ıà¤", "à°°à±į,", "à®¾à®©à¯įà®®à¯Īà®¯à®¾à®ķà®ķà¯į", "«à¤¾à¤ıà¤ģ", "à°°à°¿à°¤à±įà°°", "à®¾à®ªà¯į", "«à¥®", "à°°à±ĭà°ªà°¾", "à®¾à®±à¯ģ", "®à¥", "à°°à±įà°¥à±įà°¯à°Ĥ", "à®¾à®²à®¾à®©", "®à¥Ģà¤°", "à°°à±įà°²à±ģ", "à®¾à®³à®°à¯įà®ķà®³à¯į", "®à¥«à¥®", "à°°à±įà°µà°¾à°¤", "à®¾à®µà®¤à¯ģ", "¯à¤¾à¤¯", "à°°à±įà°·à°£", "à®¾à®µà®¿à®Ł", "¯à¤¾à¤ģ", "à°²à°¨", "à®¾à®ķà®ªà¯į", "¯à¤¾à¤¯à¤¿à¤", "à°²à°¾à°¹", "à®¾à®ļà®¿à®¯à®¾à®µà®¿à®²à¯į", "¯à¤¾à¤¯à¤¿à¤ĵà¤Ĥ", "à°²à°Ĥà°ķ", "à®¾à®ļà®¿à®¯à®¾à®µà®¿à®©à¯į", "²à¤¨à¤¾", "à°²à±įà°ª", "à®¾à®Łà¯ģà®ķà®³à¯į", "²à¥Ģà¤¨", "à°²à°¤à±ĭ,", "à®¾à®Łà¯įà®Łà®¿à®©à¯į", "·à¤¾à¤£", "à°²à°¾à°¹à±ĭà°°", "à®¿à®£à¯Īà®ķà¯įà®ķà®ªà¯įà®ªà®Łà¯įà®Ł", "·à¥įà¤", "à°²à°¾à°¹à±ĭà°°à±į", "à®¿à®ļ", "·à¥įà¤£à¥ģà¤¤à¤¾", "à°²à°ķà±įà°Ł", "à®¿à®£à®¾à®®", "¸à¥ĭà¤Ĥ", "à°²à°ķà±įà°Łà±ĭà°°", "à®¿à®¤à¯į", "à¤¯à¤¾", "à°²à°ķà±įà°Łà±ĭà°°à°²à±į", "à®¿à®¤à¯įà®¤à®¤à¯ģ.", "à¤ĸ", "à°³à°¿,", "à®¿à®¨à¯įà®¤à¯ģà®µ", "à¤Ľ", "à°³à±įà°²à°¨à±ģ", "à®¿à®¨à¯įà®¤à¯Īà®¯", "à¤ł", "à°µà°°à°¿", "à®¿à®¨à¯įà®¤à¯ģà®µà¯Ĩà®³", "à¤¡à¤¼à¤ª", "à°µà±ģà°²à±ģ,", "à®¿à®¨à¯įà®¤à¯ģà®µà¯Ĩà®³à®¿", "à¤¡à¤¼à¤¾", "à°µà±įà°¯à°µà°¸à±įà°¥", "à®¿à®©à®ªà¯į", "à¤¡à¤¼à¥ĩà¤Ĥ", "à°¶à°¾à°¨", "à®¿à®©à¯įà®©", "à¤¡à¤¼à¥ĭ", "à°¶à°¾à°¨à±įà°¯", "à®¿à®ªà¯įà®ªà®Łà¯ģà®¤à¯įà®¤", "à¤¡à¤¼à¤ªà¥įà¤ª", "à°¸à°Ń", "à®¿à®¯à®±", "à¤¡à¤¼à¤ªà¥įà¤ªà¤¾,", "à°¸à±į,", "à®¿à®¯à¯ģà®Łà®©à¯į", "à¤¡à¤¼à¥ĭ,", "à°¸à±įà°°", "à®¿à®¯à®²à¯į,", "à¤£:", "à°¸à±įà°ķ", "à®¿à®¯à®¾à®©à¯įà®®", "à¤£à¥įà¤", "à°¸à±įà°Łà±į", "à®¿à®¯à®¾à®©à¯įà®®à®°à¯į", "à¤£à¥įà¤¡à¤¿à¤¯à¤¾)", "à°¸à±įà°°à°¾à°¬à±įà°¦", "à®¿à®°à®¾à®¤", "à¤¤)", "à°¸à±įà°²à°¾à°®", "à®¿à®°à¯ģà®ķà¯įà®ķ", "à¤¤à¤²", "à°¸à±įà°²à°¿", "à®¿à®°à¯įà®¨à¯įà®¤à¯ģ", "à¤¤à¥įà¤ªà¤¤à¥įà¤¤à¤¿", "à°¸à±įà°²à°¾à°®à°¾à°¬à°¾à°¦", "à®¿à®°à¯įà®ķà®³à¯į", "à¤¤à¥įà¤µ", "à°¸à±įà°²à°¾à°®à°¾à°¬à°¾à°¦à±į", "à®¿à®µà®ļ", "à¤¤à¤°à¤¿à¤ķ", "à°¸à±įà°²à°¿à°Ĥ", "à®¿à®µà®ļà®¾à®¯", "à¤¤à¤²à¤¬", "à°¸à±įà°ķà±ĥà°¤", "à®¿à®ķà¯įà®ķà®ªà¯įà®ªà®Łà¯ģà®ķà®¿à®±à®¤à¯ģ.", "à¤¤à¤¾,", "à°¸à±įà°ķà±ĥà°¤à°¿à°ķ", "à®¿à®ķà¯įà®ķà®ªà¯įà®ªà®Łà¯įà®Łà®¤à¯ģ.", "à¤¤à¤¿à¤¯à¤¾à¤ģ", "à°¾à°¶", "à®¿à®Łà¯ģà®¤", "à¤¤à¥įà¤¯à¤¾à¤¦", "à°¾à°¤à°¾", "à®¿à®Łà¯ģà®¤à®²à¯Ī", "à¤¤à¥įà¤¯à¤¾à¤¦à¤¿", "à°¾à°¤à°Ĥ", "à®Ĩà®ķ", "à¤¤à¥įà¤°à¥Ģ", "à°¾à°¤à±įà°®", "à®ĩà®¨à¯įà®¤à®¿à®¯à®¾", "à¤¤à¥įà¤°à¥Ģà¤ķà¤°à¤£", "à°¾à°¤à±įà°®à°¾", "à®ķà¯Īà®®à¯Īà®¯", "à¤¤à¥įà¤µà¤ª", "à°¾à°¦à°¾à°ª", "à®ķà¯įà®ķà®¾à®£", "à¤¤à¥įà¤µà¤ªà¥Ĥà¤°à¥įà¤£", "à°¾à°¦à°¾à°¯", "à®Ļà¯įà®ķà®¿à®²", "à¤¥à¤®", "à°¾à°¦à°¨à°ķà±ģ", "à®Ļà¯įà®ķà®³à®¾à®©à®µà¯Ī", "à¤¥à¥Ģ", "à°¾à°¦à°¾à°ªà±ģ", "à®Ļà¯įà®ķà®³à¯ģà®ķà¯įà®ķà¯ģ", "à¤¦à¤¡à¤¼à¥ĭ,", "à°¾à°¦à°¾à°¯à°Ĥà°²à±ĭ", "à®Ļà¯įà®ķà®³à¯Īà®¯à¯ģà®Łà¯Īà®¯", "à¤¦à¤¯", "à°¾à°¨à±ģ", "à®Ļà¯įà®ķà®³à¯į,", "à¤¦à¤²", "à°¾à°¬à°¿à°¤", "à®ļà¯Ģà®ķ", "à¤¦à¤¾", "à°¾à°¯à°¿", "à®ļà¯įà®ļ", "à¤¦à¥Ģà¤µ,", "à°¾à°¯à±ģà°¤", "à®ŀà¯įà®ļà®¾à®ªà¯į", "à¤¦à¥ĩ", "à°¾à°°à°¿à°¤à±įà°°", "à®Łà®²à¯ģà®®à¯į,", "à¤¦à¥į", "à°¾à°°à°¿à°¤à±įà°°à°ķ", "à®Łà¯ģà®ªà®Łà¯įà®Ł", "à¤¦à¥įà¤µ", "à°¾à°²à°¨à±ĩ", "à®Łà¯ģà®¤à¯įà®¤à®ªà¯įà®ªà®Łà¯įà®Ł", "à¤¦à¥ĩà¤µ", "à°¾à°²à±ģ.", "à®Łà¯ģà®¤à¯įà®¤à®°", "à¤¦à¥įà¤Ń", "à°¾à°²à±ģ:", "à®Łà¯Īà®¨à¯įà®¤à®¤à¯ģ.", "à¤¦à¥įà¤§à¤µ", "à°¾à°²à±ģà°Ĺà±ģ", "à®Łà¯Īà®¨à¯įà®¤à®©.", "à¤¦à¥įà¤µà¤¿à¤¤", "à°¾à°µà°°à°¾à°²à±ģ", "à®Łà¯Īà®¯à®¿à®²à¯į", "à¤¦à¥įà¤µà¤¿à¤¤à¥Ģà¤¯", "à°¾à°¸à°¨", "à¯Ģà®°", "à¤¦à¥įà¤Ńà¤¾à¤Ĺ", "à°¿à°¡", "à¯Ģà®´", "à¤¦à¥įà¤Ńà¤¾à¤Ĺà¤µ", "à°¿à°¦", "à¯Ģà®ķà®ªà¯į", "à¤¦à¥įà¤Ńà¤¾à¤Ĺà¤µà¤¤", "à°¿à°³", "à¯ģà®¯", "à¤§à¤¿à¤ª", "à°¿à°ľ", "à¯ģà®¤à®¨à¯įà®¤à®¿à®°", "à¤§à¤¿à¤ķà¤¾à¤°à¤¿à¤ķ", "à°¿à°¤à±įà°µ", "à¯ģà®¤à®²", "à¤§à¥Ģ", "à°¿à°ªà°¾à°²", "à¯ģà®¤à¯ģà®ªà¯įà®ª", "à¤§à¤¿à¤ªà¤¤à¥įà¤¯", "à°¿à°ªà±Ĩà°¦à±įà°¦", "à¯ģà®¤à¯įà®¤à®°à®¿à®©à¯į", "à¤§à¥įà¤¯à¤¾à¤¤à¥įà¤®", "à°¿à°ªà±ĭ", "à¯ģà®ªà¯įà®ªà®¾à®Łà¯įà®Ł", "à¤§à¥įà¤¯à¤¾à¤¤à¥įà¤®à¤¿à¤ķ", "à°¿à°ªà±ĭà°¯à°¿à°Ĥà°¦à°¿.", "à¯ģà®®à®¾à®°à¯į", "à¤¨à¤¤", "à°¿à°¯à°¾à°²à±ĭ", "à¯ģà®²à®¿à®®", "à¤¨à¤ª", "à°¿à°²à°¿à°ļ", "à¯ģà®ķà®²à®¾à®¯à®ªà¯į", "à¤¨à¤¶", "à°¿à°²à±ĭà°®à±Ģà°Łà°°à±įà°²à°ķà±ģ", "à¯ģà®ķà®¿à®©à¯įà®±à®©à®°à¯į.", "à¤¨à¤¾à¤¨à¥Ģ", "à°¿à°¶à±įà°°", "à¯ģà®ķà®³à¯Īà®¯à¯ģà®®à¯į", "à¤¨à¤¾à¤ĵà¤Ĥ", "à°¿à°¶à±įà°°à°®", "à¯ģà®ķà¯įà®ķà®¾à®ķ", "à¤¨à¤¾à¤ķ", "à°¿à°¶à±įà°°à°®à°²à±ģ", "à¯ĩà®±à¯ģ", "à¤¨à¤¿à¤µ", "à°¿à°¸à°¿", "à¯ĩà®ļ", "à¤¨à¤Ĺ", "à°¿à°¸à±įà°¤à°¾à°°à±ģ.", "à¯Īà®©", "à¤¨à¤ľ", "à°¿à°Ĥà°Ĺ", "à¯Īà®µà®¿à®©à¯Īà®ªà¯į", "à¤¨à¥įà¤¤à¤°", "à°¿à°Ĥà°¦à°¿", "à¯Īà®¤à¯įà®¤à¯ģ", "à¤¨à¤ªà¤¦", "à°¿à°Ĥà°ļà°¾à°°à±ģ.", "à¯Īà®ªà¯įà®ªà®Łà¯ģà®¤à¯įà®¤à®ªà¯įà®ªà®Łà¯įà®Ł", "à¤¨à¤¶à¥Ģà¤²", "à°¿à°Ĥà°ļà°¾à°²à°¨à±ĩ", "à¯Īà®¯à®¿à®©à¯į", "à¤¨à¤¶à¥Ģà¤²à¤¤à¤¾", "à°¿à°Ĥà°ļà°¿à°¨", "à¯Īà®¯à¯Ī", "à¤¨à¤¾à¤¨à¥Ģ,", "à°¿à°ķà±įà°ķ", "à¯Īà®ķà®³à®¿à®²à¯į", "à¤¨à¤¾à¤ķà¤¾à¤²", "à°¿à°ļà±ĩ", "à¯Īà®ķà®³à¯į", "à¤¨à¤¿à¤µà¥ĩà¤¶", "à°¿à°ļà±įà°ļ", "à¯ĭà®°", "à¤¨à¤¿à¤µà¥ĩà¤¶à¤¿à¤ķ", "à°Ĥà°Ń", "à¯ĭà®ķ", "à¤¨à¤Ĺà¤°", "à°Ĥà°¦à±ģ", "à¯ĭà®ķà¯įà®ķà®¿", "à¤¨à¤ľà¥ĭ", "à°Ĥà°Ĺà±įà°²à°¾à°¦à±ĩà°¶", "à¯ĭà®Ł", "à¤¨à¤ľà¥ĭà¤¦à¤¡à¤¼à¥ĭ,", "à°Ĥà°ļà°¿", "à¯įà®®à¯Ī", "à¤¨à¥ĩà¤ķ", "à°Ĥà°Łà°¿", "à¯įà®ķà®¿à®´à®ķà¯įà®ķ", "à¤¨à¥įà¤¤à¤°à¤£:", "à°Ĥà°Łà±ĩ", "à¯įà®ķà®³à¯Ī", "à¤¨à¥įà¤¨à¥Į", "à°ķà°¾à°¤à°¾", "à¯įà®ķà¯įà®ķà®¤à¯įà®¤à®¿à®©à®°", "à¤¨à¥įà¤¨à¥Įà¤ľ", "à°ķà°¿", "à¯įà®ļà®¿à®ķà¯įà®ķ", "à¤ªà¤¨à¤¿à¤µà¥ĩà¤¶à¤¿à¤ķ", "à°ķà±ĩà°¤", "âĤ", "à¤ªà¤°à¥Ģ", "à°ķà±ģ,", "âĤ¹", "à¤ªà¤¾à¤²", "à°ķà±ĩà°¤à°¿à°ķ", "Ġ4", "à¤ªà¤¾à¤¸", "à°ķà±įà°·à°Ĥ", "ĠIndia)", "à¤ªà¤¾à¤ģ", "à°ķà±įà°ķà°¡", "Ġlisten))", "à¤ªà¤¿à¤¯", "à°ķà±įà°ķà°¨à±ģ", "Ġ(âĤ¹", "à¤ªà¥įà¤°", "à°Ĺà°°à°¾à°²à±ģ", "Ġ1,200", "à¤ªà¤¾à¤ģà¤ļ", "à°Ĺà°²à±ģ", "Ġ15", "à¤ªà¤¾à¤ģà¤ļà¤µà¥Ģ", "à°Ĺà±ģà°µ", "à¤ªà¤¿à¤¯à¤Ĥ", "à°Ĺà±įà°Ĺ", "à¤ªà¤¿à¤¯à¤Ĥà¤¸", "à°Ĺà±ĭà°³à°¿à°ķ", "à¤ªà¥įà¤°à¤¾à¤ļà¥Ģà¤¨", "à°ļà±ģà°ķà±ĭà°µ", "à¤«à¤¼", "à°ļà±ģà°ķà±ĭà°µà°¡à°Ĥ", "à¤«à¥Ĥ", "à°Łà±Ģ", "à¤«à¤¼à¥į", "à°Łà±Ģà°µà°²", "Ġà®ı", "à¤«à¥Ĥà¤²à¥ĩ", "à°Łà±įà°²à°ķà±ģ", "Ġà®Ĳ", "à¤«à¥Ĥà¤²à¥ĩ,", "à°Łà±įà°²à±ģ", "Ġà®¤à®®", "à¤¬à¥Ĥ", "à°łà°Ń", "Ġà®¤à®±à¯įà®ªà¯ĭà®¤à¯ģ", "à¤¬à¥ĩà¤Ł", "à°łà°Ńà±Ĥ", "Ġà®¤à®²à¯Ī", "à¤¬à¥ĭà¤²", "à°łà°Ńà±Ĥà°®", "Ġà®¤à®µà®¿à®°à¯įà®¤à¯įà®¤à¯ģ", "à¤¬à¥įà¤¦", "à°Ńà°°à°¤", "Ġà®¤à®¿à®ķ", "à¤¬à¥įà¤²", "à°Ńà°¾à°·", "Ġà®¤à®¿à®Łà¯įà®Ł", "à¤¬à¥Ĥà¤¤", "à°Ńà°¾à°°à°¤à°¦à±ĩà°¶à°Ĥ", "Ġà®¤à®ķà¯įà®ķà®¾à®£", "à¤¬à¥ĩà¤Łà¤ķà¤¾", "à±Ģà°¤", "Ġà®¤à®©à®¿", "à¤¬à¥ĩà¤Łà¤ķà¤¾,", "à±Ģà°¦à°Ĺà°¾", "Ġà®¤à®©à¯įà®®à¯Īà®¯", "à¤¬à¥ĭà¤²à¤¾", "à±Ģà°²à±ģ", "Ġà®¤à®¿à®°à®¾à®µà®¿à®Ł", "à¤¬à¥įà¤²à¤¿à¤ķ", "à±Ģà°ķ", "Ġà®¤à¯ģà®£à¯Īà®ķà¯į", "à¤¬à¥įà¤²à¤¿à¤ķà¥į", "à±Ģà°ķà±įà°·", "Ġà®¤à¯ģà®±à®µ", "à¤®à¤¦à¥įà¤Ńà¤¾à¤Ĺà¤µà¤¤", "à±Ģà°łà°Ńà±Ĥà°®", "Ġà®¤à¯Ĩà®©à¯į", "à¤®à¤¬à¥ĩà¤Łà¤ķà¤¾,", "à±Ģà°·à±ģ", "Ġà®¤à¯Ĩà®©à¯įà®ķà®¿à®´à®ķà¯įà®ķ", "à¤®à¤¾à¤£", "à±Ģà°Łà°¿à°²à±ĭ", "Ġà®¤à¯Ĩà®±à¯įà®ķà®¾à®ļà®¿à®¯à®¾à®µà®¿à®²à¯į", "à¤®à¤¿à¤²", "à±ģà°¦à±įà°§", "Ġà®¤à¯Ĭà®²à¯Īà®¤à¯Ĥà®°", "à¤®à¥ĭ", "à±ģà°ª", "Ġà®¤à¯Ĭà®Łà¯įà®Ł", "à¤®à¥įà¤®", "à±ģà°³", "Ġà®¤à¯Ĭà®ķà¯Īà®¯à¯ģà®Łà¯Īà®¯", "à¤®à¤¾à¤£à¥ģ", "à±ģà°ĸà±įà°¯", "Ġà®¤à¯Ĭà®Łà®°à¯įà®ª", "à¤®à¤¾à¤¨à¤¤à¤¾,", "à±ģà°¤à±ģà°¨à±įà°¨", "Ġà®¤à¯ĭà®©à¯įà®±à®¿à®¯à®¤à¯ģ.", "à¤¯à¤¨à¤Ĺà¤°", "à±ģà°ķà±Ĭ", "Ġà®¨à®Łà¯ģà®¤à¯įà®¤à®°", "à¤¯à¥ģà¤Ĺ", "à±ģà°ķà±ģà°¨à°¿", "Ġà®¨à¯ĭà®ķà¯įà®ķà®¿", "à¤¯à¥ĩ", "à±ģà°ķà±ĭà°¬à°¡à°¤à°¾à°°à±ģ.", "Ġà®¨à®¾à®ķà®°à®¿à®ķà®®à®¾à®ķ", "à¤¯à¥ģà¤Ĺà¥Ģà¤¨", "à±ģà°Ĺà°²à±ģ", "Ġà®¨à®¾à®Łà®¾à®ķ", "à¤°à¤¤", "à±Ĥà°°à±ģ", "Ġà®¨à®¿à®°à¯įà®µà®ķ", "à¤°à¤¤à¤¾", "à±Ĥà°°à±įà°ª", "Ġà®¨à®¿à®±à¯ģà®µà®¿à®©.", "à¤°à¤®à¥įà¤Ń", "à±Ĥà°Ł", "Ġà®¨à®¿à®²à®¤à¯įà®¤à¯Ī", "à¤°à¤¾à¤¨", "à±ĥà°·à±įà°£", "Ġà®¨à®¿à®²à¯Īà®ķà¯įà®ķ", "à¤°à¤ķà¥įà¤·", "à±Ĩà°²à±ģà°ļà±ģà°ķà±ĭà°µà°¡à°Ĥ", "Ġà®¨à®¿à®²à¯Īà®¯à®¾à®©", "à¤°à¤Ĺ", "à±Ĩà°¸à±į", "Ġà®¨à¯Ģà®Łà®¿à®¤à¯įà®¤", "à¤°à¥ģà¤ª", "à±ĩà°·", "Ġà®¨à¯Ĥà®±à¯įà®±à®¾à®£à¯įà®Łà®¿à®©à¯į", "à¤°à¤ķà¥įà¤·à¤¿à¤¤", "à±ĩà°Ĺ", "Ġà®¨à¯Ĥà®±à¯įà®±à®¾à®£à¯įà®Łà®¿à®²à¯į", "à¤°à¤Ĺà¤¢à¤¼", "à±ĩà°ļ", "Ġà®ªà®´", "à¤°à¥Ĥà¤ªà¥Ģ", "à±ĩà°ľ", "Ġà®ªà®¾à®¤à¯ģà®ķà®¾à®ķà¯įà®ķ", "à¤°à¥įà¤¤,", "à±ĩà°Ĺà°Ĥà°Ĺà°¾", "Ġà®ªà®¾à®²", "à¤°à¥įà¤Ĺ", "à±Īà°¦à°°à°¾à°¬à°¾à°¦", "Ġà®ªà®¿à®¨à¯įà®¤à¯Īà®¯", "à¤°à¥įà¤ľ", "à±Ĭà°Ĥà°¦à°¿à°¨", "Ġà®ªà®ŀà¯įà®ļà®¾à®ªà¯į", "à¤°à¥įà¤£à¤¿à¤®", "à±ĭà°¨", "Ġà®ªà¯ģà®¤à¯ģà®ªà¯įà®ª", "à¤°à¥įà¤¯à¤¨", "à±ĭà°²", "Ġà®ªà¯ģà®¤à¯įà®¤à®°à®¿à®©à¯į", "à¤°à¥įà¤¯à¤¾à¤µ", "à±ĭà°¦à°¾à°µà°°", "Ġà®ªà¯Ĥà®°à¯įà®µ", "à¤°à¥įà¤¯à¤¾à¤µà¤°à¥įà¤¤,", "à±Įà°¦à±įà°§", "Ġà®ªà®£à¯įà®ªà®¾à®Łà¯ģ", "à¤°à¥įà¤µà¤¤", "à±Įà°°à±įà°¯", "Ġà®ªà®¤à®¿à®µà¯ģ", "à¤°à¥įà¤µà¤¾à¤¹", "à±įà°Ń", "Ġà®ªà®¯à®©à¯įà®ªà®Łà¯ģà®¤à¯įà®¤à®ªà¯įà®ªà®Łà¯ģà®ķà®¿à®±à®¤à¯ģ.", "à¤°à¥įà¤¶à¤¨", "à±įà°µà°¤à±įà°°à°¿à°ķ", "Ġà®ªà®¯à®©à¯įà®ªà®Łà¯ģà®¤à¯įà®¤à®ªà¯įà®ªà®Łà¯įà®Łà®¤à¯ģ.", "à¤°à¥įà¤·,", "à±įà°¸à±Ģ", "Ġà®ªà®°à®¤à®µà®°à¯įà®·", "à¤°à¥įà¤·à¤¿à¤¤", "Ġà®ªà®°à®¿à®£à®¾à®®", "à¤°à¥įà¤Ĺà¤¤", "Ġà®ªà®°à®µà®²à®¾à®©", "à¤°à¥įà¤ľà¤¿à¤¤", "Ġà®ªà®²à¯įà®µà¯ĩà®±à¯ģ", "à¤²à¤¾à¤", "Ġà®ªà®¾à®°à®¤à¯į", "à¤²à¤Ĺ", "Ġ\"à°Ńà°°à°¤", "Ġà®ªà®¾à®°à®ļà¯Ģà®ķ", "à¤²à¥Ģ", "Ġà®ªà®¿à®°à®¿à®ķà¯įà®ķà®ªà¯įà®ªà®Łà¯įà®Łà®¤à¯ģ.", "à¤²à¥ĭà¤Ĥ", "Ġ185", "Ġà®ªà®ķà®¿à®°à¯įà®¨à¯įà®¤à¯ģ", "à¤²à¥įà¤¤", "Ġ1950", "Ġà®ªà®ķà¯ģà®¤à®¿à®¯", "à¤²à¤¾à¤¯à¤¾", "Ġ1977", "Ġà®ªà®ķà¯ģà®¤à®¿à®¯à®¿à®²à¯į", "à¤²à¥įà¤¤à¤¨à¤¤", "Ġ1991", "Ġà®ªà®ķà¯ģà®¤à®¿à®ķà®³à®¾à®©à®µà¯Ī", "à¤²à¥įà¤²à¥ĩà¤ĸà¤¨", "Ġ201", "Ġà®ªà®ķà¯ģà®¤à®¿à®ķà®³à®¿à®²à¯į", "à¤²à¥įà¤²à¥įà¤µà¥ĭà¤Ĥ", "Ġà®ªà¯Ĩà®£", "à¤²à¥įà¤²à¥ĩà¤ĸà¤¨à¥Ģà¤¯", "Ġ29", "Ġà®ªà¯Ĩà®±", "à¤µà¤°à¥Ģ", "Ġà°¢à°¿à°²à±įà°²à±Ģ", "Ġà®ªà¯Ĩà®°à¯ģà®®à¯įà®ªà®¾à®©à¯įà®®à¯Īà®¯à®¾à®ķà®ķà¯į", "à¤µà¤°à¥įà¤·,", "Ġà°¢à°¿à°²à±įà°²à±Ģ,", "Ġà®ªà¯Ĩà®°à¯ģà®®à¯įà®ªà®¾à®²à®¾à®©", "à¤µà¤¾à¤¦", "Ġà°ĵ", "Ġà®ªà¯Ĩà®±à¯įà®±à®¤à¯ģ.", "à¤µà¤¾à¤¸", "Ġà°ĺ", "Ġà®ªà¯ĩà®°à®°à®ļà®¾à®©à®¤à¯ģ", "à¤µà¤¾à¤ģ", "Ġà°¤à°°à±įà°µà°¾à°¤", "Ġà®ªà¯ĩà®°à®°à®ļà®¿à®©à¯į", "à¤µà¤¾à¤ĵà¤Ĥ", "Ġà°¤à°¿à°°", "Ġà®ªà¯Ĭà®°à¯ģà®Ł", "à¤µà¥Īà¤¦à¤¿à¤ķ", "Ġà°¤à±Ĥà°°à±įà°ª", "Ġà®ªà¯Ĭà®°à¯ģà®³à®¾à®¤à®¾à®°à®®à®¾à®ķ", "à¤µà¤¾à¤¦à¥Ģ", "Ġà°¤à°°à±ģà°µà°¾à°¤à°¿", "Ġà®ªà¯ĭà®¤à®©", "à¤µà¤¾à¤¸à¥ĭà¤Ĥ", "Ġà°¦à°¾à°¦à°¾à°ªà±ģ", "Ġà®ªà¯ĭà®©à¯įà®±", "à¤¶à¤¾à¤²à¥Ģ", "Ġà°¦à°¾à°Ł", "Ġà®ªà¯Įà®¤à¯įà®¤à®®à¯į", "à¤¶à¤¾à¤¹", "Ġà°¦à±ĩà°¶à°ªà±ģ", "Ġà®®à®¾à®±à¯įà®±", "à¤¶à¥ĭ", "Ġà°¦à±ĩà°¶à°¾à°²", "Ġà®®à®¿à®¯à®¾à®©à¯įà®®à®°à¯į", "à¤¶à¥įà¤µ", "Ġà°¦à±ĩà°¶à°Ĥ", "Ġà®®à¯ģà®ķà®²à®¾à®¯à®ªà¯į", "à¤¶à¤¾à¤¸à¤¨", "Ġà°¦à±ĩà°¶à°Ĥ.", "Ġà®®à®©à¯įà®©", "à¤¶à¤¾à¤¸à¥įà¤¤à¥įà¤°", "Ġà°¨à°¾à°¯à°ķ", "Ġà®®à®©à®¿à®¤à®°à¯įà®ķà®³à¯į", "à¤¶à¤¾à¤¸à¥įà¤¤à¥įà¤°,", "Ġà°¨à°¾à°²à±ģà°Ĺà±ģ", "Ġà®®à®¿à®ķà®ªà¯į", "à¤¶à¤¾à¤¹à¥Ģ", "Ġà°¨à°¿à°µ", "Ġà®®à¯ģà®¯à®±", "à¤¶à¥ĭà¤ķ", "Ġà°¨à°Ĺà°°à°¾à°²à±ģ", "Ġà®®à¯ģà®ļ", "à¤¶à¥įà¤®à¥Ģà¤°", "Ġà°¨à°¿à°¯à°®à°¿à°Ĥà°ļ", "Ġà®®à¯ģà®©à¯įà®©à®°à¯ĩ", "à¤¶à¥įà¤µà¤¿à¤ķ", "Ġà°¨à°¿à°°à±įà°µà°¹à°£", "Ġà®®à¯ģà®©à¯įà®©à¯ĩà®±à¯įà®±", "à¤·à¤Ń", "Ġà°¨à°¿à°°à±įà°µà°¹à°¿à°Ĥà°ļà°¿à°Ĥà°¦à°¿.", "Ġà®®à¯ģà®±à¯Ī", "à¤·à¤Ńà¤¦à¥ĩà¤µ", "Ġà°¨à±įà°¯à°¾à°¯à°µà±įà°¯à°µà°¸à±įà°¥", "Ġà®®à¯ģà®ķà¯įà®ķà®¿à®¯à®¤à¯įà®¤à¯ģà®µà®¤à¯įà®¤à¯Īà®ªà¯į", "à¤·à¥įà¤Łà¤¾à¤ļà¤¾à¤°", "Ġà°ªà°¦à±įà°§à°¤", "Ġà®®à¯ģà®ļà¯ģà®²à®¿à®®", "à¤·à¥įà¤Łà¤¾à¤ļà¤¾à¤°,", "Ġà°ªà°²à±ģ", "Ġà®®à¯Ĥà®²", "à¤¸à¤ªà¤¾à¤¸", "Ġà°ªà°²à±įà°²", "Ġà®®à¯ĩà®²à®¾à®Łà¯įà®ļà®¿", "à¤¸à¤®à¤¾à¤¨à¤¤à¤¾,", "Ġà°ªà±Ģà°łà°Ńà±Ĥà°®", "Ġà®®à¯ĩà®±à¯įà®ķà¯ĩ", "à¤¸à¤¿à¤¤", "Ġà°ªà±Ĭà°Ĥà°¦à°¿à°¨", "Ġà®®à¯Īà®¯à®®à®¾à®ķ", "à¤¸à¤¿à¤¨", "Ġà°ªà±ĭ", "Ġà®®à¯Ĭà®´à®¿", "à¤¸à¤ķ", "Ġà°ªà°°à°¿à°ªà°¾à°²", "Ġà®°à¯Ģà®¤à®¿à®¯à®¾à®©", "à¤¸à¥Ģ", "Ġà°ªà°°à°¿à°¶à±įà°°à°®à°²à±ģ", "Ġà®µà®£à®¿à®ķ", "à¤¸à¥įà¤µ", "Ġà°ªà°°à±Ģà°ķà±įà°·", "Ġà®µà®±", "à¤¸à¥įà¤¥à¤¿", "Ġà°ªà°¶à±įà°ļà°¿à°®à°¾à°¨", "Ġà®µà®¿à®²", "à¤¸à¥įà¤Ł", "Ġà°ªà°¾à°°à±įà°Łà±Ģ,", "Ġà®µà®¿à®µà®ļà®¾à®¯", "à¤¸à¥įà¤¤à¤¿à¤¤", "Ġà°ªà°¾à°²à°¨à°²à±ĭ", "Ġà®µà®¿à®Łà¯ģà®¤à®²à¯Ī", "à¤¸à¥įà¤¤à¤¿à¤¯", "Ġà°ªà°¾à°²à°¿à°Ĥà°ļà°¾à°°à±ģ.", "Ġà®µà¯Ģà®¤", "à¤¸à¥įà¤¤à¥įà¤°", "Ġà°ªà°¾à°ķà±į", "Ġà®µà®¨à¯įà®¤à®©à®°à¯į.", "à¤¸à¥įà¤¤à¤¿à¤¤à¥įà¤µ", "Ġà°ªà°Ĥà°¡à±ģà°Ĺà°²à±ģ", "Ġà®µà®°à¯Ī", "à¤¸à¥įà¤¤à¤¿à¤¯à¥ĭà¤Ĥ", "Ġà°ªà±ģà°°à±ģà°·", "Ġà®µà®°à¯įà®ķà¯įà®ķà®¤à¯įà®¤à®¿à®©à®°", "à¤¸à¥įà¤²à¤¿à¤®", "Ġà°ªà±ģà°Łà±įà°Ł", "Ġà®µà®°à®²à®¾à®±à¯ģ", "à¤¸à¥įà¤µà¤°à¥Ĥà¤ª", "Ġà°ªà±Ĥà°°à±įà°µ", "Ġà®µà®°à®²à®¾à®±à¯įà®±à®¾à®³à®°à¯įà®ķà®³à¯į", "à¤¸à¥įà¤ķà¥ĥà¤¤à¤¿à¤ķ", "Ġà°ªà±ĩà°°à±įà°²à±ģ", "Ġà®µà®¿à®°à®¿à®µà®Łà¯Īà®¯", "à¤¹à¤¦à¥į", "Ġà°ªà±ĩà°°à±įà°ķà±Ĭ", "Ġà®µà®Łà®¿", "à¤¹à¤¬à¥ĭà¤²à¤¾", "Ġà°ªà±ĩà°°à±ģ,", "Ġà®µà®Łà®®à¯ĩà®±à¯įà®ķà®¿à®²à¯į", "à¤¹à¤°à¤Ĺà¤¢à¤¼", "Ġà°ªà±įà°°à°¦à±ĩà°¶", "Ġà®µà¯ĩà®±à¯įà®±à¯ģà®®", "à¤¹à¤²à¤¾à¤¯à¤¾", "Ġà°ªà±įà°°à°ķà°¾à°°à°Ĥ", "Ġà®ħà®°", "à¤¹à¤¿à¤", "Ġà°ªà±įà°°à°¤à°¿à°ªà°¾à°¦à°¨à°ķà±ģ", "Ġà®ħà®³à®µà¯ģà®ķà¯įà®ķà¯ģ", "à¤¹à¤¿à¤Ĥ", "Ġà°ªà±įà°°à°ªà°Ĥà°ļà°Ĥà°²à±ĭà°¨à°¿", "Ġà®ħà®¤à®±à¯įà®ķ", "à¤¹à¥Ģà¤Ĥ", "Ġà°ªà±įà°°à°¾à°°à°Ĥà°Ń", "Ġà®ħà®¤à¯ĩ", "à¤¹à¥ģà¤¤", "Ġà°ªà±įà°°à°¾à°Ĥà°¤à°¾à°²à±įà°²à±ĭ", "Ġà®ħà®¤à®¿à®ķà®¾à®°", "à¤¹à¥ĭà¤Ĥ", "Ġà°ªà±įà°°à°¾à°Ĥà°¤à±Ģà°¯", "Ġà®ħà®®à¯Īà®¨à¯įà®¤", "à¤¹à¤¿à¤·à¥įà¤£à¥ģà¤¤à¤¾", "Ġà°ªà±įà°°à°ľà°²", "Ġà®ħà®®à¯Īà®ªà¯įà®ªà®¾à®©à®¤à¯ģ", "à¤¹à¤¿à¤Ĥà¤¸à¤ķ", "Ġà°ªà±įà°°à°ľà°²à±ģ", "Ġà®ħà®®à¯Īà®ªà¯įà®ªà¯ģà®ķà®³à¯į", "à¤¼à¤¬à¥Ĥà¤¤", "Ġà°ªà±įà°°à°Ńà±ģà°¤à±įà°µà°¾à°¨à±įà°¨à°¿", "Ġà®ħà®°à®ļà®¿à®¯à®²à¯į", "à¤¼à¤¿à¤²", "Ġà°ªà±įà°°à°Ńà±ģà°¤à±įà°µà°Ĥ", "Ġà®ħà®±à®¿à®µ", "à¤¼à¤°à¤µà¤°à¥Ģ", "Ġà°¬à°Ĥà°Ĺà±įà°²à°¾à°¦à±ĩà°¶", "Ġà®ħà®Łà®¿à®ªà¯įà®ªà®Łà¯Īà®¯à®¿à®²à¯į", "à¤¼à¤¿à¤²à¥įà¤®", "Ġà°¬à±Įà°¦à±įà°§", "Ġà®Ĩà®©à®¾à®²à¯į,", "à¤¼à¤¿à¤²à¥įà¤®à¥ĩà¤Ĥ", "Ġà°¬à±įà°°à°¿à°Łà°¿à°·à±ģ", "Ġà®Ĩà®±à¯įà®±à¯ģ", "à¤¼à¤¿à¤²à¥įà¤®à¥ĩà¤Ĥ,", "Ġà°®à±Ģà°¦à°Ĺà°¾", "Ġà®Ĩà®ļà®¿à®¯à®¾", "à¤¾à¤¡à¤¼à¥Ģ", "Ġà°®à±ĩà°°", "Ġà®Ĩà®Łà¯įà®ļà®¿à®¯à®¾à®©à®¤à¯ģ", "à¤¾à¤§à¤¿à¤ķà¤¾à¤°à¥Ģ", "Ġà°®à±Įà°°à±įà°¯", "Ġà®ĩà®£", "à¤¾à¤«à¤¼à¥Ģ", "Ġà°®à°¤à°®", "Ġà®ĩà®¨à¯įà®¨", "à¤¾à¤Ń", "Ġà°®à°¹à°¾à°¤à±įà°®à°¾", "Ġà®ĩà®µà®°à¯įà®ķà®³à¯į", "à¤¾à¤¤à¤µà¤¾à¤ģ", "Ġà°®à°¾à°¤à±įà°°à°®à±ĩ", "Ġà®ĩà®Łà¯Īà®¯à®¿à®²à¯į", "à¤¾à¤¤à¥Ģ", "Ġà°®à°¾à°¤à±įà°°à°Ĥ", "Ġà®ĩà®£à¯įà®Łà¯ĭ", "à¤¾à¤¤à¥įà¤®à¤¾", "Ġà°®à°¾à°°à±įà°Ĺà°¾à°²à±ģ", "Ġà®ĩà®¤à®±à¯įà®ķ", "à¤¾à¤¦à¤¨", "Ġà°®à±ģà°¸à±įà°²à°¿à°Ĥ", "Ġà®ĩà®¨à¯įà®¤à®¿à®¯à®¾à®µà¯Ī", "à¤¾à¤¦à¥ĩà¤¶", "Ġà°®à±ģà°Ĥà°¬à±Ī", "Ġà®ĩà®¨à¯įà®¤à®¿à®¯à®¾à®µà¯Īà®ķà¯į", "à¤¾à¤¨à¤¨à¤¾", "Ġà°®à±ģà°ĸà±įà°¯à°®à±Īà°¨", "Ġà®ĩà®ªà¯įà®ªà¯ĩà®°à®°à®ļ", "à¤¾à¤¨à¤¿à¤¸à¥įà¤¤à¤¾à¤¨", "Ġà°®à±Ĥà°¡à±ģ", "Ġà®ĩà®°à¯ģà®ķà¯įà®ķà¯ģ", "à¤¾à¤¨à¥ĩ", "Ġà°®à±Ĭà°¦à°Ł", "Ġà®ĩà®°à®¾à®ļà¯įà®ļà®¿à®¯à®Ļà¯įà®ķà®³à¯į", "à¤¾à¤¨à¥ĭà¤Ĥ", "Ġà°¯à±ģà°¦à±įà°§", "Ġà®ĩà®°à¯ģà®¨à¯įà®¤à®¤à¯ģ.", "à¤¾à¤¨à¥įà¤®", "Ġà°°à°¿à°Ł", "Ġà®ĩà®²à®ķà¯įà®ķà®¿à®¯", "à¤¾à¤¨à¤µà¤°à¥ĭà¤Ĥ", "Ġà°°à°¾à°·à±įà°Łà±įà°°à°¾à°²", "Ġà®ĩà®ķà¯įà®ķà®¾à®²à®®à¯į", "à¤¾à¤¨à¤¿à¤¸à¥įà¤¤à¤¾à¤¨,", "Ġà°°à°¾à°·à±įà°Łà±įà°°à°¾à°²à±ģ,", "Ġà®ĩà®ļà¯ģà®²", "à¤¾à¤¨à¥įà¤®à¤¾à¤°", "Ġà°°à°¾à°ľà±ģ", "Ġà®Īà®Łà¯ģà®ªà®Łà¯įà®Ł", "à¤¾à¤ªà¥ģà¤°", "Ġà°°à°¾à°ľà±įà°¯à°¾à°²à±ģ", "Ġà®īà®±à¯įà®ªà®¤à¯įà®¤", "à¤¾à¤ªà¥įà¤¤", "Ġà°°à°¾à°ľà±įà°¯à°¾à°²à±ģà°Ĺà°¾", "Ġà®īà®¯à®°à¯įà®¨à¯įà®¤à¯ģà®³à¯įà®³à®¤à¯ģ.", "à¤¾à¤ªà¥ģà¤°à¤¾à¤£", "Ġà°°à°¾à°ľà±įà°¯à°Ĥà°Ĺà°¾", "Ġà®īà®°à¯ģà®µà®¾à®ķà¯įà®ķà®¿à®¯", "à¤¾à¤®à¤¸à¥įà¤µà¤°à¥Ĥà¤ª", "Ġà°°à°¾à°ľà±įà°¯à°¾à°Ĥà°Ĺà°Ĥ", "Ġà®īà®°à¯ģà®µà®¾à®ķà¯įà®ķà®¿à®¯à®¤à¯ģ.", "à¤¾à¤®à¤¿à¤²", "Ġà°°à±Ĥà°ªà°¾à°Ĥà°¤", "Ġà®īà®±à¯ģà®¤à®¿à®ªà¯įà®ªà®Łà¯ģà®¤à¯įà®¤", "à¤¾à¤®à¥įà¤°", "Ġà°°à±Ĩà°Ĥà°¡à°µ", "Ġà®īà®³à¯įà®³à®Łà®ķà¯įà®ķà®¿à®¯", "à¤¾à¤¯à¤¦à¥įà¤µà¥Ģà¤ª", "Ġà°°à±Īà°³à±įà°²à°¨à±ģ", "Ġà®İà®¤à®¿à®°", "à¤¾à¤°à¤¨à¤¾", "Ġà°²à±Ĩ", "Ġà®İà®©à¯įà®ªà®¤à¯Ī", "à¤¾à¤°à¤¾", "Ġà°²à°ķà±įà°·à°£", "Ġà®Ĳà®ħ", "à¤¾à¤°à¤ķ", "Ġà°µà°°à±įà°Ĺ", "Ġà®Ĵà®ªà¯įà®ªà¯Ģà®Łà¯įà®Łà®³à®µà®¿à®²à¯į", "à¤¾à¤°à¥ĭà¤Ĥ", "Ġà°µà°²à°¨", "Ġà®Ĵà®©à¯įà®±à®¿à®£", "à¤¾à¤²à¤¦à¥Ģà¤µ,", "Ġà°µà°¾à°Ł", "Ġà®ķà®°à¯ģà®¤", "à¤¾à¤²à¤¯", "Ġà°µà°Ĥà°Łà°¿", "Ġà®ķà®²à¯Ī", "à¤¾à¤²à¤¾", "Ġà°µà±Ģà°Łà°¿à°²à±ĭ", "Ġà®ķà®¾à®Łà¯ģà®ķà®³à¯į", "à¤¾à¤µà¤¶à¤¾à¤²à¥Ģ", "Ġà°µà±Ī", "Ġà®ķà¯Īà®µà®¿à®©à¯Īà®ªà¯į", "à¤¾à¤µà¥įà¤¯", "Ġà°µà°¿à°¸à±įà°¤", "Ġà®ķà®¾à®²à®¤à¯įà®¤à®¿à®©à¯į", "à¤¾à¤µà¥Ģà¤°à¤¾,", "Ġà°µà°¿à°Ńà°¿à°¨à±įà°¨", "Ġà®ķà®¾à®²à®®à®¿à®Ł", "à¤¾à¤·à¤¾", "Ġà°µà±ĩà°²", "Ġà®ķà®¾à®Łà¯įà®Łà¯ģà®ķà®¿à®©à¯įà®±à®©.", "à¤¾à¤·à¤¾à¤£", "Ġà°µà±įà°¯à°¾à°ª", "Ġà®ķà®¿à®´à®ķà¯įà®ķà¯ģ", "à¤¾à¤·à¥įà¤Ł", "Ġà°µà±įà°¯à°µà°¸à±įà°¥à°²à±ĭ", "Ġà®ķà®Łà¯įà®Łà¯ģà®ªà¯įà®ªà®¾à®Łà¯įà®Ł", "à¤¾à¤·à¥įà¤Łà¥įà¤°", "Ġà°¶à°¾à°¸à°¨", "Ġà®ķà®Łà¯įà®Łà®Łà®ķà¯į", "à¤¾à¤·à¥įà¤Łà¥įà¤°à¤µà¤¾à¤¦à¥Ģ", "Ġà°¶à°ķà±įà°¤", "Ġà®ķà¯ģà®ªà¯įà®¤à®ªà¯į", "à¤¾à¤¹à¤¾", "Ġà°¸à°°à±įà°µ", "Ġà®ķà¯ģà®±à®¿à®ªà¯įà®ªà®¾à®ķ", "à¤¾à¤ģà¤§à¥Ģ", "Ġà°¸à°¾à°§", "Ġà®ķà¯ģà®±à®¿à®ªà¯įà®ªà®¿à®Łà¯įà®Ł", "à¤¾à¤Ĥà¤¸à¥įà¤ķà¥ĥà¤¤à¤¿à¤ķ", "Ġà°¸à°¿à°ķà±įà°ķ", "Ġà®ķà¯ģà®±à®¿à®ªà¯įà®ªà®¿à®Łà®¤à¯įà®¤à®ķà¯įà®ķ", "à¤¾à¤Ĥà¤Ĺ", "Ġà°¸à°®à°°à°Ĥ", "Ġà®ķà¯ģà®±à®¿à®ķà¯įà®ķà®¿à®±à®¤à¯ģ.", "à¤¾à¤Ĥà¤Ĺà¥įà¤²", "Ġà°¸à°®à°¾à°ĸà±įà°¯.", "Ġà®ķà¯ģà®Łà¯ģà®®à¯įà®ª", "à¤¾à¤Ĥà¤Ĺà¥įà¤²à¤¾à¤¦à¥ĩà¤¶", "Ġà°¸à°¹à°¸à±įà°°à°¾à°¬à±įà°¦", "Ġà®ķà¯ģà®Łà®¿à®¯à®®", "à¤¾à¤ķà¤¾à¤µà¥įà¤¯", "Ġà°¸à°¾à°®à°°à±įà°¥à±įà°¯à°Ĥ", "Ġà®ķà¯ģà®Łà®¿à®¯à®°à®ļ", "à¤¾à¤ķà¥įà¤·", "Ġà°¸à°¾à°°à±įà°µà°¤à±įà°°à°¿à°ķ", "Ġà®ķà¯Ĥà®±", "à¤¾à¤ķà¥įà¤·à¤°à¤¤à¤¾", "Ġà°¸à°¾à°Ĥà°¸à±įà°ķà±ĥà°¤à°¿à°ķ", "Ġà®ķà¯Ĭà®£à¯įà®Łà®¿à®°à¯ģà®¨à¯įà®¤à®¤à¯ģ.", "à¤¾à¤Ĺà¤¤", "Ġà°¸à°¾à°Ĥà°ķà±ĩà°¤à°¿à°ķ", "Ġà®ļà®©à®¨à®¾à®¯à®ķ", "à¤¾à¤ľà¤¨à¤ªà¤¦", "Ġà°¸à°¿à°Ĥà°§à±Ĥ", "Ġà®ļà®¾à®¤", "à¤¾à¤ľà¤¾à¤°", "Ġà°¸à°Ĥà°ĸ", "Ġà®ļà®¿à®¨à¯įà®¤à¯ģà®µà¯Ĩà®³à®¿", "à¤¾à¤Ńà¤¾à¤°à¤¤", "Ġà°¸à°Ĥà°ĺ", "Ġà®ļà®¿à®²", "à¤¿à¤¡à¤¼à¤¿à¤¯à¤¾", "Ġà°¸à°Ĥà°µà°¤à±įà°¸à°°", "Ġà®ļà¯ģà®¤à®¨à¯įà®¤à®¿à®°", "à¤¿à¤ĸ", "Ġà°¸à°Ĥà°¸à±įà°ķà°°à°£", "Ġà®ļà¯ģà®®à®¾à®°à¯į", "à¤¿à¤Ń", "Ġà°¸à°Ĥà°¸à±įà°ķà±ĥà°¤", "Ġà®ļà¯ĩ", "à¤¿à¤£à¤¾à¤®à¤¸à¥įà¤µà¤°à¥Ĥà¤ª", "Ġà°¸à°Ĥà°ĸà±įà°¯", "Ġà®ļà¯Īà®©", "à¤¿à¤¤,", "Ġà°¸à°Ńà°¨à±ģ", "Ġà®ļà®®à®¯à®ªà¯į", "à¤¿à¤¨à¥Ģ", "Ġà°¸à°Ńà±įà°¯à±ģà°²à±ģ", "Ġà®ļà®®à®¯à®Ļà¯įà®ķà®³à¯ģà®®à¯į", "à¤¿à¤¨à¥įà¤¨", "Ġà°¸à±Ĥà°ļ", "Ġà®ļà®¿à®±à®¿à®¯", "à¤¿à¤ªà¤¬à¥įà¤²à¤¿à¤ķà¥į", "Ġà°¸à±Įà°ķà°°à±įà°¯à°¾à°²à±ģ", "Ġà®ļà¯ĩà®°à¯įà®¨à¯įà®¤", "à¤¿à¤ªà¥įà¤¯", "Ġà°¸à±įà°¥à°¾à°µà°°à°¾à°²à±ģ", "Ġà®ļà¯Ĭà®²à¯įà®²à®¾à®©", "à¤¿à¤ªà¥įà¤¯à¤¨à¥įà¤¤à¤°à¤£:", "Ġà°¸à±įà°¥à°¾à°¨à°¾à°²à°¨à±ģ", "Ġà®ļà¯Ĭà®²à¯įà®²à®¾à®©à®¤à¯ģ", "à¤¿à¤®à¤¾à¤²à¤¯", "Ġà°¸à±įà°¥à°¾à°¨à°Ĥà°²à±ĭ", "'à®Ĩ", "à¤¿à¤®à¥ĭà¤¹", "Ġà°¸à±įà°µà°¾à°¤à°Ĥà°¤à±įà°°à±įà°¯à°Ĥ", "'à®Ĩà®±", "à¤¿à¤®à¥ĭà¤¹à¤¿à¤¨à¥Ģ", "Ġà°¹à±Īà°¦à°°à°¾à°¬à°¾à°¦", "'à®Ĩà®±à®¿à®²à¯į", "à¤¿à¤²à¤¾à¤ĵà¤Ĥ", "Ġà°¹à°¿à°Ĥà°¦à±Ĥà°¦à±ĩà°¶à°Ĥ", "'à®Ĩà®±à®¿à®²à¯į'", "à¤¿à¤²à¤¿à¤¤", "Ġà°ħà°£", ",01", "à¤¿à¤²à¥įà¤ª", "Ġà°ħà°¨à°¿", "à¤¿à¤²à¥įà¤²", "Ġà°ħà°ªà±įà°ª", ",013", "à¤¿à¤²à¥įà¤²à¥Ģ", "Ġà°ħà°ķà±įà°·à°°à°¾à°¸à±įà°¯à°¤", ",013.1", "à¤¿à¤¸à¤°à¥įà¤ľà¤¿à¤¤", "Ġà°ħà°¤à°¿", ",013.1)", "à¤¿à¤¸à¥įà¤", "Ġà°ħà°¤à°¿à°ªà±Ĩà°¦à±įà°¦", ",57", "à¤¿à¤¸à¥įà¤¸à¥ĭà¤Ĥ", "Ġà°ħà°§à°¿à°ķà°¾à°°à°Ĥ", ",577", "à¤¿à¤ķà¤¸à¤¿à¤¤", "Ġà°ħà°¯à°¿à°¨à°¾,", ",577)", "à¤¿à¤ķà¤¾", "Ġà°Ĩà°Ĺ", "à¤¿à¤ķà¥ĭ", "Ġà°ĩà°¸à±įà°²à°¾à°®à°¾à°¬à°¾à°¦à±į", "à¤¿à¤ķà¥ĭà¤£", "Ġà°ĩà°Ĥà°Ĺà±įà°²", "à¤¿à¤Ńà¤¾à¤¤à¥Ģ", "Ġà°ĩà°ķà±įà°ķà°¡", ".10", "à¤Ĥà¤¤", "Ġà°ĩà°Łà±Ģà°µà°²", "à¤Ĥà¤¤à¤°à¤¿à¤ķ", "Ġà°ĩà°¤à°°", ".7%", "à¤Ĥà¤¹à¤¬à¥ĭà¤²à¤¾", "Ġà°Īà°¶à°¾à°¨à±įà°¯", "à¤Ĥà¤ķà¤¾", "Ġà°Īà°¸à±įà°Łà±į", "06", "à¤Ĥà¤¥,", "Ġà°īà°¤à±įà°¤à°°à°¾à°¨", "1.7%", "à¤Ĥà¤§", "Ġà°īà°¨à±įà°¨à°¾à°°à±ģ.", "1,8", "à¤Ĥà¤ĺ", "Ġà°īà°ªà°¯à±ĭà°Ĺà°¿à°¸à±įà°¤", "1,9", "à¤Ĥà¤¦à¤°", "Ġà°İà°²à°ķà±įà°Łà±ĭà°°à°²à±į", "1,86", "à¤Ĥà¤¦à¥ĭà¤²", "Ġà°İà°¨à±įà°¨à±ģà°ķà±ĭà°¬à°¡à°¤à°¾à°°à±ģ.", "1,86,013.1)", "à¤Ĥà¤¦à¥ĭà¤²à¤¨", "Ġà°İà°¨à±įà°¨à°¿à°ķà°²à±įà°²à±ĭ", "1,900", "à¤Ĥà¤ªà¤¨à¥Ģ", "Ġà°İà°ķà±įà°ķà±ģà°µà°Ĺà°¾", "2,601", "à¤Ĥà¤¬à¤Ĥà¤§", "Ġà°ıà°°à±įà°ªà°¡à±įà°¡à°¾à°¯à°¿.", "26", "à¤Ĥà¤¬à¥Ĥ", "Ġà°Ĳà°°à±ĭà°ªà°¾", "2009", "à¤Ĥà¤¬à¥Ĥà¤¦à¥įà¤µà¥Ģà¤ª", "Ġà°Ĵà°ķà°Łà°¿à°Ĺà°¾", "à¤Ĥà¤Ĺà¤²à¥ĭà¤Ĥ", "Ġà°ķà°¨à±ģà°®", "4,577)", "à¤Ĥà¤Ĺà¤¿à¤ķ", "Ġà°ķà°¨à±ģà°ķ", "40", "à¤Ĥà¤Ĺà¥įà¤°à¤¾à¤®", "Ġà°ķà°²à±ģ", "à¤Ĥà¤ĺà¥Ģà¤¯", "Ġà°ķà°³", "6.10", "à¤Ĩà¤§à¤¿à¤ķà¤¾à¤°à¤¿à¤ķ", "Ġà°ķà°¿à°²à±ĭà°®à±Ģà°Łà°°à±įà°²à°ķà±ģ", "à¤Ĩà¤°à¥įà¤¯à¤¨", "Ġà°ķà±ĥà°·à±įà°£", "74%", "à¤ķ,", "Ġà°ķà±įà°°", "858", "à¤ķà¤¾à¤°à¥ĭà¤Ĥ", "Ġà°ķà°²à°¿à°¸à°¿", "à¤ķà¥Ģ", "Ġà°ķà°¾à°°à°£à°Ĥà°Ĺà°¾", "à¤ķà¥įà¤", "Ġà°ķà°¾à°°à±įà°¯à°ķà±įà°°à°®", "à¤ķà¥įà¤ķ", "Ġà°ķà°¾à°²à±ĩà°ľ", "à¤ķà¥įà¤·à¤®", "Ġà°ķà°¾à°Ĥà°Ĺà±įà°°à±Ĩà°¸à±į", "à¤ķà¥įà¤ķà¥įà¤¨", "Ġà°ķà°¿à°Ĥà°¦à°ķà±ģ", "à¤ĸà¤¨à¥ĩ", "Ġà°ķà°Ĥà°ªà±Ĩà°¨à±Ģ", "à¤Ĺà¤¤à¤¿", "Ġà°ķà±ģà°®", "à¤Ĺà¤¹à¥ĭà¤Ĥ", "Ġà°ķà±ģà°²à°¾à°²à±ģ,", "à¤Ĺà¤¾à¤¨à¤¿à¤¸à¥įà¤¤à¤¾à¤¨,", "Ġà°ķà±Ĥà°¡à±ģà°ķà±ģà°¨à°¿", "à¤Ĺà¥įà¤°", "Ġà°ķà±Ĭà°¨à±įà°¨à°¿", "à¤Ĺà¥įà¤µ", "Ġà°ķà±ĭà°²à±į", "à¤Ĺà¥ĭà¤²à¤¶à¤¾à¤¸à¥įà¤¤à¥įà¤°,", "Ġà°Ĺà°Ĥà°Ĺ", "à¤Ĺà¥ĭà¤²à¤¿à¤ķ", "Ġà°Ĺà±Ĩà°²à±ģà°ļà±ģà°ķà±ĭà°µà°¡à°Ĥ", "à¤Ĺà¥įà¤µà¥ĩà¤¦", "Ġà°Ĺà±ĭà°¦à°¾à°µà°°", "à¤ļà¤¨à¤¾", "Ġà°Ĺà°£à°¤à°Ĥà°¤à±įà°°", "à¤ļà¥Ģà¤¨", "Ġà°ļà°°à°¿à°¤à±įà°°", "à¤ļà¥ĩ", "Ġà°ļà°µ", "à¤ļà¥įà¤", "Ġà°ļà°¾à°°à°¿à°¤à±įà°°à°ķ", "à¤ļà¥įà¤ļ", "Ġà°ļà±ĩà°¯", "à¤Ľà¥ĭà¤Łà¥ĩ", "Ġà°ļà±Ĩà°¨à±įà°¨à±Ī", "à¤ľà¤¨à¤¶à¥Ģà¤²à¤¤à¤¾", "Ġà°ļà±Ĩà°Ĥà°¦à±ģà°¤à±ģà°¨à±įà°¨", "à¤ľà¤¼à¤¬à¥Ĥà¤¤", "Ġà°ļà±Īà°¨à°¾,", "à¤ľà¥Ģà¤µ,", "Ġà°ļà±Īà°¨à°¾à°¨à±ģ", "à¤Łà¤¾à¤¨,", "Ġà°ľà°¾à°¬à°¿à°¤", "à¤Łà¤¿à¤²", "Ġà°ľà°¨à°¤à°¾", "à¤Ńà¤°à¤¾", "Ġà°ľà°¨à°µà°°à°¿", "à¤Ńà¤¾", "Ġà°ľà°¨à±įà°®", "à¤Ńà¤¾à¤°à¤¤", "Ġà°ľà°¨à°¾à°Ńà°¾à°¤à±ĭ", "à¤Ńà¤Ĺ", "Ġà°ľà°°à±ģà°ªà±ģà°ķà±ģà°Ĥà°Łà°¾à°°à±ģ.", "à¤Ńà¥Ģ", "Ġà°ľà°¾à°¤à±Ģà°¯", "à¤Ńà¥ģà¤¤à¤¾", "Ġà°ľà°¾à°¤à±ģà°²à±ģ,", "¨à®¿à®²", "à¥Ģà¤¤", "Ġà°Ńà°¾à°°à°¤à°¦à±ĩà°¶à°Ĥà°²à±ĭà°¨à°¿", "¨à®¿à®²à®¤à¯įà®¤à®¿à®©à¯į", "à¥Ģà¤¬à¤Ĥà¤Ĺà¤¾", "Ġà°Ńà°¾à°·à°²à°¨à±ģ", "¨à¯įà®¤à®¿à®¯à®¿à®°à®¾à®¤", "à¥Ģà¤²à¤Ĥà¤ķà¤¾", "Ġà°Ńà°¾à°Ĺà°¾à°¨à±įà°¨à°¿", "¨à¯įà®¤à¯ģ,", "à¥ģà¤ķà¤¾", "Ġà°Ńà±Įà°Ĺà±ĭà°³à°¿à°ķ", "©à®¿à®¤", "à¥ģà¤¡à¤¼à¥ĩ", "\".", "ªà¯įà®ª", "à¥ģà¤«à¤¾à¤ıà¤ģ", "%)", "ªà¯įà®ªà¯Īà®ªà¯į", "à¥ģà¤¯à¤¾à¤¯à¤¿à¤ĵà¤Ĥ", "%).", "¯à¯Ĥ", "à¥ģà¤²à¤¨à¤¾", "¯à¯Ĥà®¤", "à¥ģà¤ģ", "¯à¯Ĥà®¤à®®à¯į", "à¥ģà¤Ĩ", "°à¯Ī", "à¥ģà¤¤à¥įà¤ªà¤¤à¥įà¤¤à¤¿", "°à¯Īà®ķ", "à¥ģà¤¤à¥įà¤µà¥ĭà¤Ĥ", ",9", "°à¯Īà®ķà®¿à®©à¯įà®±à®©.", "à¥ģà¤¦à¥Ĥ", ",01,9", "±),", "à¥ģà¤¦à¥įà¤", ",01,93,", "²à¯įà®²", "à¥ģà¤¦à¥įà¤°", ",01,93,42", "²à¯įà®²à®¿à®¯", "à¥ģà¤¦à¥Ĥà¤°", ",01,93,422", "²à¯įà®²à®¿à®¯à®®à®¾à®ķ", "à¥ģà¤¦à¥įà¤§", ",01,93,422.", "²à¯įà®²à®¿à®¯à®®à®¾à®ķà®¤à¯į", "à¥ģà¤¦à¥įà¤°à¤¿à¤ķ", ",26", "³à®¾à®©à®¤à¯ģ", "à¥ģà¤¨à¤¿à¤ķ", ",263", "³à®¾à®¤à®¾à®°à®ļà¯į", "à¥ģà¤¨à¥Į", ".).", "´à®¨à¯įà®¤", "à¥ģà¤¨à¥Įà¤¤à¤¿à¤¯à¤¾à¤ģ", "..).", "´à¯ģ", "à¥ģà¤ªà¥ĭà¤·à¤£,", ".2", "´à®¨à¯įà®¤à¯Īà®ķà®³", "à¥ģà¤·à¥ĭà¤Ĥ", ".8", "´à®¨à¯įà®¤à¯Īà®ķà®³à®¿à®©à¯į", "à¥ģà¤·à¥įà¤¯", ".9", "·à¯į", "à¥ģà¤¸à¤°à¥ĩ", ".23", "¸à¯į", "à¥ģà¤ģà¤ļà¥ĩ", ".23%).", "¸à¯įà®¤à®¾à®©", "à¥ģà¤Ĩà¤¤à¥Ģ", ".30%),", "¸à¯įà®¤à®¾à®©à®¿à®©à¯į", "à¥ģà¤ķà¥Ģ", ".36", "¿Î¯", "à¥ģà¤ķà¥įà¤¤", ".36%),", "¿Î¯)", "à¥Ĥà¤¦à¥Ģ", ".70%),", "Î±),", "à¥Ĥà¤¨à¤¾à¤¨à¥Ģ,", ".72", "Î¿Î¯)", "à¥Ĥà¤°à¥ĩ", ".72%),", "Î¯Î±),", "à¥Ĥà¤²", ".80", "à¥Ĥà¤·à¤£", ".80%", "à¥Ĥà¤ļà¤¨à¤¾", ".9%)", "à¥ĥà¤¦à¥įà¤§", "0.36%),", "à¥ĥà¤¹à¤¦à¥į", "0.9%)", "à®¸à¯į", "à¥ĥà¤ľà¤¨à¤¶à¥Ģà¤²à¤¤à¤¾", "04%,", "à®£à®¿à®¤", "à¥ĩà¤¤à¥Ģ", "003", "à®£à®¿à®ķà®³à¯į", "à¥ĩà¤°", "010", "à®£à¯ģà®ķ", "à¥ĩà¤¸à¤¿à¤¨", "1,01,93,422.", "à®£à®¿à®¤à®®à¯į", "à¥ĩà¤¹à¤°à¤Ĺà¤¢à¤¼", "14%,", "à®£à¯ģà®ķà®ªà¯įà®ªà®Łà¯įà®Łà¯ģ", "à¥ĩà¤¦à¥ĭà¤Ĥ", "17", "à®£à¯įà®ªà®µà®°à¯įà®ķà®³", "à¥ĩà¤Łà¥ĩ", "17.23%).", "à®£à¯įà®ªà®µà®°à¯įà®ķà®³à®¾à®ķ", "à¥Īà¤²à¥Ģ", "à®£à¯įà®Łà®¾à®®", "à¥Īà¤¶à¥įà¤µà¤¿à¤ķ", "2004", "à®£à¯įà®Łà®¾à®°à¯į.", "à¥Īà¤Ĥà¤Ĺà¤¿à¤ķ", "2,14%,", "à®£à¯įà®Łà®¿à®¯à®¾", "à¥ĭà¤¤à¥įà¤ªà¤¤à¥įà¤¤à¤¿", "2,8", "à®£à¯įà®Łà®¾à®®à¯Īà®¯à¯Ī", "à¥ĭà¤®", "2,87", "à®£à¯įà®Łà®¿à®¯à®¾\"", "à¥ĭà¤¨à¥ĩà¤¶à¤¿à¤¯à¤¾", "2,87,263", "à®¤à®®", "à¥ĭà¤²à¤¾à¤µà¥Ģà¤°à¤¾,", "3.72%),", "à®¤à®°", "à¥ĭà¤¹à¤¨à¤ľà¥ĭà¤¦à¤¡à¤¼à¥ĭ,", "3.80%", "à®¤à®¾à®ķà¯ģà®®à¯į.", "à¥ĭà¤Ĥà¤¨à¥ĩ", "3,04%,", "à®¤à®¾à®ķà¯įà®ķ", "à¥ĭà¤Ĺà¥ĭà¤Ĥ", "5%", "à®¤à®¿à®ª", "à¥Įà¤¤à¤®", "5.30%),", "à®¤à®¿à®¯à®¾à®©", "à¥Įà¤¥à¥Ģ", "52", "à®¤à®¿à®²à¯į", "à¥Įà¤¹", "5,7", "à®¤à¯ģà®ķà¯įà®ķ", "à¥Įà¤Ĺà¥ĭà¤²à¤¿à¤ķ", "5,7%.", "à®¤à¯ģà®ļ", "à¥įà¤¤à¤°à¤¿à¤ķà¥įà¤·", "65,", "à®¤à¯ĩà®ļ", "à¥įà¤¤à¥įà¤°à¥Ģà¤¯", "652", "à®¤à¯Īà®¯à¯ģà®®à¯į", "à¥įà¤¥à¤¾à¤¨", "8.70%),", "à®¤à¯Īà®ķà¯į", "à¥įà¤¥à¥Ģ", "à®¤à®°à®µ", "à¥įà¤¨à¤¤à¤¿", "¡à°¾à°²", "à®¤à®°à®µà¯ģ", "à¥įà¤®à¤¿à¤²à¤¿à¤¤", "¡à°¿à°ªà±ĭà°¯à°¿à°Ĥà°¦à°¿.", "à®¤à®±à¯įà®ķà®¾à®©", "à¥įà¤¯à¤¾à¤¨à¥įà¤®à¤¾à¤°", "¡à±ģà°ķà±ģà°Ĥà°Ł", "à®¤à®±à¯įà®ķà®¾à®²", "à¥įà¤¯à¤¾à¤Ĺ", "¡à°¾à°²à°°à±įà°²", "à®¤à®¾à®°à¯ĭ", "à¥įà¤¯à¤ľà¥Ģà¤µ,", "¡à°¾à°²à°°à±įà°²à±ģ.", "à®¤à®¾à®°à¯ĭ,", "à¥įà¤¯à¥ĭà¤Ĥà¤ķà¤¿", "¡à±ģ\"", "à®¤à®¾à®ķà¯įà®ķà®¿", "à¥įà¤°à¤·à¥įà¤Łà¤¾à¤ļà¤¾à¤°,", "¡à±ģà°ķà±ģà°Ĥà°Łà±Ĥ", "à®¤à®¿à®ªà®²", "à¥įà¤°à¤¿à¤®à¥ĭà¤¹à¤¿à¤¨à¥Ģ", "¡à±ģà°ķà±ģà°Ĥà°Łà±Ĥà°¨à±ĩ", "à®¤à®¿à®ªà®²à®¿à®ķà¯įà®ķà®ªà¯įà®ªà®Łà¯ģà®ķà®¿à®±à®¤à¯ģ.", "à¥įà¤°à¤Ĥà¤¥,", "¢à°µ", "à®¤à®¿à®²à¯ģà®ķà¯įà®ķà¯ģ", "à¥įà¤°à¤Ńà¥ģà¤¤à¤¾", "¢à°µà°¿à°²à±įà°²", "à®¤à¯ģà®ķà¯įà®ķà®¿", "à¥įà¤°à¥Ģà¤²à¤Ĥà¤ķà¤¾", "¢à°µà°¿à°²à±įà°²à°¾à°¯à°¿.", "à®¤à¯ģà®ļà®®à¯į", "à¥įà¤°à¤®à¤£", "¤à±įà°°à±Ģà°²à±ģ", "à®¤à¯ĩà®ļà®®à¯į", "à¥įà¤°à¥Ģà¤®à¤¦à¥įà¤Ńà¤¾à¤Ĺà¤µà¤¤", "¥à°¨à°²", "à®¤à¯įà®¤à®¾à®²à¯į", "à¥įà¤°à¥Ģà¤ķà¤¾", "¥à°®", "à®¤à¯įà®¤à®¿à®©.", "à¥įà¤µà¤¾à¤°à¤¾", "¥à°¾à°°", "à®¤à¯įà®¤à®¿à®¯à®¿à®²à¯į", "à¥įà¤µà¥Ģ", "¥à°¿à°¤", "à®¤à¯įà®¤à®Łà¯įà®Ł", "à¥įà¤¹à¥Ģà¤Ĥ", "¥à°¨à°²à°²à±ĭ", "à®¤à¯įà®¤à¯ģà®ķà¯į", "à¥įà¤¹à¥ĩà¤Ĥ", "¥à°¾à°¨à±ĩ", "à®¤à¯įà®¤à¯ģà®ķà¯įà®ķà¯ģ", "à¥įà¤ŀà¤¾à¤¤", "¥à°¾à°°à±į", "à®¤à¯įà®¤à¯ģà®Łà®©à¯į", "à¥įà¤ŀà¤¾à¤¨,", "¥à°¿à°¤à°¿", "à®¤à¯įà®¤à¯Ģà®©à¯į", "¥à°¿à°ķà±į", "à®¤à¯įà®¤à¯Ģà®µ", "¦à±ĩà°¶", "à®¤à¯įà®¤à¯Ģà®µà¯ģà®ķà¯įà®ķà¯ģ", "Ġ\"à¤ĩà¤Ĥà¤¡à¤¸\"", "¦à±ĩà°¶à±Ģ", "à®¤à¯įà®¤à¯ģà®ķà¯įà®ķà¯ģà®ķà¯į", "Ġ+", "§à°¿à°²à±įà°²", "à®¤à¯įà®¤à¯Īà®¤à¯į", "Ġ500", "§à°¿à°Ĥà°ļà°¿à°Ĥà°¦à°¿.", "à®¤à¯įà®¤à¯Īà®ļà¯į", "§à°Ĥ,", "à®¨à¯įà®¤à®®", "Ġ74.04%", "§à°¿à°²à±įà°²à°¿à°¨", "à®¨à¯įà®¤à¯Īà®¯à®¿à®©à¯į", "Ġ9000", "ªà°¾à°²", "à®¨à¯įà®¤à®®à®¾à®©à¯į", "ªà±ģ", "à®¨à¯įà®¤à®¿à®°à®¾à®¤", "ªà±įà°°", "à®¨à¯įà®¨à¯ĩà®°à®¤à¯įà®¤à®¿à®²à¯į", "ªà°¾à°²à±į,", "à®©à®¤à¯į", "Ġ|", "ªà±įà°°à°¦à°¾à°¯", "à®©à®¤à¯įà®¤à®¿à®©à¯į", "Ġ(India)", "ªà±įà°°à°¦à°¾à°¯à°¾à°²à±ģ", "à®©à®ª", "Ġ(à¤ªà¥įà¤°à¤¾à¤ļà¥Ģà¤¨", "«à±įà°°", "à®©à®¿à®¯", "Ġ(à¤Ĩà¤§à¤¿à¤ķà¤¾à¤°à¤¿à¤ķ", "«à±įà°Ł", "à®©à®¿à®ļ", "Ġ(à¤Ńà¤¾", "«à°²à°¿à°¤", "à®©à®Ļà¯įà®ķà®³à¯Īà®¯à¯ģà®Łà¯Īà®¯", "«à°²à°¿à°¤à°Ĥà°Ĺà°¾", "à®©à¯ĩà®ļ", "Ġ121.1", "«à±įà°°à°¾à°¨", "à®©à¯Īà®¤à¯įà®¤à¯ģ", "Ġ140.76", "«à±įà°°à°¾à°¨à±įà°¸", "à®©à¯įà®©", "«à±įà°°à°¾à°¨à±įà°¸à±į,", "à®©à¯įà®®", "«à±įà°Łà±į", "à®©à¯įà®ķà®³à¯į", "Ġ1900", "¬à°¿à°¯à°¾", "à®©à®ªà®¾à®¤", "¬à°Ĥà°", "à®©à®ªà®¾à®¤à®Ļà¯įà®ķà®³à¯į", "¬à±Ĩà°Ł", "à®©à®¿à®ļà®¿à®¯", "¬à°Ĥà°§", "à®©à®¿à®ļà®¿à®¯à®ªà¯į", "Ġ1948", "¬à±Ĩà°Łà±įà°ķ", "à®©à¯ĩà®ļà®¿à®¯à®¾à®µ", "Ġ2000", "¬à±Ĩà°Łà±įà°ķà°¾", "à®©à¯ĩà®ļà®¿à®¯à®¾à®µà¯ģà®Łà®©à¯į", "Ġ23", "®à±ĩà°·", "à®©à¯įà®©à¯ĭ", "Ġ2600", "®à±ĩà°·à°¨à±į", "à®©à¯įà®©à¯ĭà®ļ", "Ġ2011", "²à±ģà°µ", "à®©à¯įà®©à¯ĭà®ļà®¿à®¯à®¿à®©à¯į", "Ġ2021", "²à±ĩà°ļ", "à®©à¯įà®®à¯Ģà®ķà®ªà¯į", "Ġ2020", "²à±ģà°µà±Īà°¨", "à®©à¯įà®±à®¤à¯ģ.", "Ġ2022", "²à±ĩà°ļà°°à±į,", "à®©à¯įà®±à®¾à®®à¯į", "Ġ21.4%", "³à°ª", "à®©à¯įà®±à®¾à®ķà®ķà¯į", "³à°ªà°¾à°Łà±ģ", "à®ªà®°à¯į", "Ġ36.1", "µà°¤à°Ĥ,", "à®ªà®²", "Ġ6,500", "µà°¾à°®à±ģà°²à±ģ", "à®ªà®¾à®°à¯į", "Ġ64%", "µà°¾à°®à±ģà°²à±ģ.", "à®ªà®¾à®³", "Ġà¤Ĭ", "¶à°¿à°Ĥà°ļà±ĩ", "à®ªà®¾à®Łà¯ģ", "Ġà¤ĳ", "¶à°Ĥà°²à±ĭ", "à®ªà®ķ", "Ġà¤ĵ", "¶à°Ĥà°²à±ĭà°¨à°¿", "à®ªà¯Ĥ", "Ġà¤¤à¤®à¤¿à¤²", "·à±įà°Łà±įà°°à°ªà°¤", "à®ªà¯Ĭ", "Ġà¤¤à¤¾à¤®à¥įà¤°", "·à±įà°Łà±įà°°à°ªà°¤à±ģà°²à±ģ", "à®ªà®²à®®à®¾à®©à®¤à¯ģ.", "Ġà¤¤à¥ģà¤²à¤¨à¤¾", "¸à°¾à°¯à±ģà°¤", "à®ªà®¾à®³à®®à¯į,", "Ġà¤¤à¥ĩà¤ľà¤¼à¥Ģ", "¸à°¿à°Ĥà°Ĺ", "à®ªà®ķà®±à¯įà®ª", "Ġà¤¤à¥ĭ", "¸à°¿à°Ĥà°Ĺà±į", "à®ªà®ķà®±à¯įà®ªà®ªà¯į", "Ġà¤¤à¥įà¤¯à¤¾à¤Ĺ", "à°¢à°¾à°ķà°¾", "à®ªà¯Ĥà®®", "Ġà¤¤à¥įà¤°à¤¿à¤®à¥ĭà¤¹à¤¿à¤¨à¥Ģ", "à°¥à°®", "à®ªà¯Ĥà®®à®¿à®¯à®¿à®²à¯į", "Ġà¤¤à¤¬", "à°ĥ", "à®ªà¯Ĭà®°à¯ģà®", "Ġà¤¤à¥Ģà¤¸à¤°à¤¾", "à°Ĩ", "à®ªà¯Ĭà®°à¯ģà®³à®¾à®¤à®¾à®°à®ļà¯į", "Ġà¤¥à¥Ģ,", "à°ĩ", "à®ªà¯įà®ªà®¾,", "Ġà¤¥à¥ĩ,", "à°Ī", "à®ªà¯įà®ªà®¾à®Ł", "Ġà¤¦à¤°à¥įà¤¶à¤¨", "à°ı", "à®ªà¯įà®ªà¯ģ", "Ġà¤¦à¤¿à¤²à¥įà¤²à¥Ģ", "à°¡à°¤", "à®ªà¯įà®ªà¯ģà®ķà¯į", "Ġà¤¦à¤ķà¥įà¤ķà¥įà¤¨", "à°¡à°µ", "à®ªà¯įà®ªà¯Ĥà®°à¯įà®µ", "Ġà¤¦à¥ģà¤¸à¤°à¥ĩ", "à°¡à°¾à°°à°¿", "à®ªà¯įà®ªà¯Ĩ", "Ġà¤¦à¥įà¤µà¤¾à¤°à¤¾", "à°¡à°¿à°¨", "à®ªà¯įà®ªà®¾à®Łà®®à¯į", "Ġà¤¦à¤¿à¤¯à¤¾,", "à°¡à°¿à°Ĥà°ļà°¿,", "à®ªà¯įà®ªà®¿à®¯à®©à¯įà®ķà®³à¯į", "Ġà¤¦à¤ķà¥įà¤·à¤¿à¤£à¥Ģ", "à°¡à°¿à°Ĺ", "à®ªà¯įà®ªà®Łà¯ģà®¤à®²", "Ġà¤¦à¥ĥà¤·à¥įà¤Łà¤¿", "à°¡à°Ĥ,", "à®ªà¯įà®ªà®Łà¯ģà®ª", "Ġà¤¦à¥ĥà¤·à¥įà¤Łà¤¿à¤ķà¥ĭà¤£", "à°¡à°Ĥà°¤à±ĭ", "à®ªà¯įà®ªà®Łà¯ģà®®à¯į", "Ġà¤¦à¥ĩà¤ĸà¤¨à¥ĩ", "à°¡à±ģ.", "à®ªà¯įà®ªà®Łà¯ģà®¤à®²à®¿à®©à¯į", "Ġà¤¦à¥ĩà¤ĸà¤¾", "à°¡à±į", "à®ªà¯įà®ªà®Łà¯ģà®ªà®µà®°à¯įà®ķà®³à¯į", "Ġà¤§à¤®à¥įà¤®", "à°¡à±įà°¯", "à®ªà¯įà®ªà®Łà¯ģà®ķà®¿à®©à¯įà®±à®©à®°à¯į.", "Ġà¤§à¥ĭà¤²à¤¾à¤µà¥Ģà¤°à¤¾,", "à°¡à°¤à°¾à°¯à°¿.", "à®ªà¯įà®ªà®Łà¯ģà®ķà®¿à®±", "Ġà¤¨à¤¦à¥Ģ", "à°¡à°µà°¸à±įà°¥à°¾à°¨", "à®ªà¯įà®ªà®Łà¯įà®Łà®¤à¯ģ", "Ġà¤¨à¤¯à¥ĩ", "à°¡à°µà°¸à±įà°¥à°¾à°¨à°Ĥà°²à±ĭ", "à®ªà¯įà®ªà¯Ĥà®°à¯įà®µà®®à®¾à®ķ", "Ġà¤¨à¤¹à¥Ģà¤Ĥ", "à°¡à°¿à°Ĺà°¿à°Ĥà°ļ", "à®ªà¯įà®ªà¯Ĩà®¯", "Ġà¤¨à¤¿à¤Ńà¤¾à¤¤à¥Ģ", "à°¡à°¿à°Ĺà°¿à°Ĥà°ļà±ģà°ķà±ĭà°µ", "à®ªà¯įà®ªà¯Ĩà®¯à®°à¯įà®µ", "Ġà¤¨à¤¾à¤®:", "à°¡à°¿à°Ĺà°¿à°Ĥà°ļà±ģà°ķà±ĭà°µà°ļà±įà°ļ", "à®ªà¯įà®ªà¯Ĩà®¯à®°à¯įà®µà¯ģà®ķà®³à¯Īà®¯à¯ģà®®à¯į", "Ġà¤¨à¤¾à¤®à¥ĭà¤¤à¥įà¤ªà¤¤à¥įà¤¤à¤¿", "à°¡à°¿à°Ĺà°¿à°Ĥà°ļà±ģà°ķà±ĭà°µà°ļà±įà°ļà°¨à°¿", "à®®à®°à®ª", "Ġà¤¨à¤¾à¤®à¥ĭà¤Ĥ", "à°¡à±ģ\".", "à®®à®¾à®±à¯įà®±", "Ġà¤¨à¤¿à¤°à¥įà¤µà¤¾à¤¹", "à°¡à±įà°¯à°ļ", "à®®à®¾à®ķà¯įà®ķ", "Ġà¤¨à¤¿à¤°à¥įà¤§à¤¾à¤°à¤£", "à°¡à±įà°¯à°ļà°¿à°¤à±įà°°", "à®®à®¿à®¤à¯įà®¤à¯ģ", "Ġà¤¨à¤¿à¤°à¥įà¤Ń", "à°¡à±įà°¯à°ļà°¿à°¤à±įà°°à°¾à°²à±ģ", "à®®à®¿à®°à¯ģà®¨à¯įà®¤", "Ġà¤¨à¤¿à¤°à¥įà¤Ńà¤°", "à°£à°¨", "à®®à®Łà¯Īà®¨à¯įà®¤à®©.", "Ġà¤¨à¥ĩà¤ªà¤¾à¤²", "à°£à°¾à°¸", "à®®à¯ģà®®à¯į", "Ġà¤ªà¤¡à¤¼à¤¾", "à°£à±ģà°²à±ģ", "à®®à¯Īà®ªà¯į", "Ġà¤ªà¤°à¥įà¤µà¤¤", "à°£à±ĩ", "à®®à¯Īà®¯à¯ģà®Łà¯Īà®¯", "Ġà¤ªà¤²à¥įà¤²à¥įà¤µà¥ĭà¤Ĥ", "à°£à°¾à°¸à°¿à°¯à°¾à°²à±ĭ", "à®®à¯ĭ", "Ġà¤ªà¤¾à¤·à¤¾à¤£", "à°¤à°¨à±ģ", "à®®à®¯à®®à®¾à®ķà¯įà®ķ", "Ġà¤ªà¥Ĥà¤°à¥ĩ", "à°¤à°°", "à®®à®¯à®®à¯į", "Ġà¤ªà¤°à¤®à¤¾à¤£à¥ģ", "à°¤à°¾à°²à°¤à±ĭ", "à®®à®¯à®®à®¾à®ķà¯įà®ķà®²à®¾à®©à®¤à¯ģ", "Ġà¤ªà¤°à¤¾à¤ľà¤¿à¤¤", "à°¤à°¿à°ķ,", "à®®à®°à®ªà¯ģà®ķà®³à¯į", "Ġà¤ªà¤°à¤¿à¤£à¤¾à¤®à¤¸à¥įà¤µà¤°à¥Ĥà¤ª", "à°¤à°Ĥà°²à±ĭ", "à®®à®¾à®±à¯įà®±à®®à¯į", "Ġà¤ªà¤°à¤Ĥà¤ªà¤°à¤¾à¤ĵà¤Ĥ", "à°¤à±Ģ", "à®®à®¾à®ķà¯ģà®®à¯į.", "Ġà¤ªà¤°à¤Ĥà¤ªà¤°à¤¾à¤Ĺà¤¤", "à°¤à±ģà°ª", "à®®à®¿à®°à¯ģà®¨à¯įà®¤à¯ģà®®à¯į", "Ġà¤ªà¤¶à¥įà¤ļà¤¿à¤®à¥Ģ", "à°¤à±Ĥ", "à®®à®¿à®Łà®ªà¯įà®ªà®Łà¯įà®Ł", "Ġà¤ªà¤¹à¥ģà¤ģà¤ļà¥ĩ", "à°¤à±ĩ", "à®®à¯Īà®ªà¯įà®ªà®¾à®ķ", "Ġà¤ªà¤¾à¤°à¤¸à¥Ģ", "à°¤à±įà°¯à°Ĥ", "à®®à¯Īà®ªà¯įà®ªà¯ģ", "Ġà¤ªà¤¾à¤°à¥įà¤¥à¥Ģ", "à°¤à±įà°¸", "à®®à¯Īà®¯à®¾à®©", "Ġà¤ªà¤¾à¤²à¤¨à¤¾", "à°¤à°°à°¿à°Ĥà°ļà°¿à°Ĥà°¦à°¿.", "à®®à¯į)", "Ġà¤ªà¤¾à¤Ĥà¤¡à¥įà¤¯", "à°¤à±Ģà°°", "à®®à¯į:", "Ġà¤ªà¤¾à¤Ĥà¤¡à¥įà¤¯à¥ĭà¤Ĥ", "à°¤à±Ģà°°à°®à±ģ", "à®®à¯įà®ªà®¿à®ķà¯įà®ķ", "Ġà¤ªà¤¾à¤ķà¤¿à¤¸à¥įà¤¤à¤¾à¤¨,", "à°¤à±ģà°ªà°µ", "à®®à¯įà®ªà®¿à®ķà¯įà®ķà¯Ī", "Ġà¤ªà¥ģà¤°à¤¾à¤¨à¤¾", "à°¤à±ģà°ªà°µà°¨", "à®¯à®Ļà¯įà®ķà®³", "Ġà¤ªà¥ģà¤°à¥ģà¤·à¥ĭà¤Ĥ", "à°¤à±ģà°ªà°µà°¨à°¾à°²à±ģ", "à®¯à¯į", "Ġà¤ªà¥įà¤°à¤¤à¤¿", "à°¤à±ĭà°·à±įà°£", "à®¯à¯įà®®à¯Īà®¯", "Ġà¤ªà¥įà¤°à¤¥à¤®", "à°¤à±įà°¤à°¾", "à®¯à®Ļà¯įà®ķà®³à®¾à®²", "Ġà¤ªà¥įà¤°à¤¥à¤¾", "à°¤à±įà°¤à°¾à°ķ", "à®¯à®Ļà¯įà®ķà®³à®¾à®²à¯ģà®®à¯į", "Ġà¤ªà¥įà¤°à¤¶à¤¾à¤¸à¤¨", "à°¤à±įà°¤à°°à°¾à°²à±ģ", "à®¯à¯įà®®à¯Īà®¯à®±à¯įà®±à®µà¯Ī", "Ġà¤ªà¥įà¤°à¤¾à¤¯à¤¦à¥įà¤µà¥Ģà¤ª", "à°¤à±įà°¤à°¾),", "à®°à®¤à¯ģà®ļà®®à¯į", "Ġà¤ªà¥įà¤°à¤Ĺà¤¤à¤¿", "à°¤à±įà°¤à°¾à°ķ,", "à®°à®ªà¯įà®ªà®Łà¯įà®Ł", "Ġà¤ªà¥įà¤°à¤¦à¥Ĥà¤·à¤£", "à°¤à±įà°°à°¿", "à®°à®¿à®¨à¯įà®¤", "Ġà¤ªà¥įà¤°à¤¦à¥ĩà¤¶", "à°¤à±įà°°à°¿,", "à®°à¯ģà®ķà¯įà®ķ", "Ġà¤ªà¥įà¤°à¤®à¤¾à¤£", "à°¤à±įà°µà°¾à°¨", "à®°à¯Īà®ķà®³à®¿à®²à¯į", "Ġà¤ªà¥įà¤°à¤ķà¤¾à¤°", "à°¤à±įà°µà°¾à°¨à°¿à°ķà°¿", "à®°à¯įà®¤à¯įà®¤", "Ġà¤ªà¥įà¤°à¤ļà¤²à¤¨", "à°¤à±įà°µà°¾à°²à±ģ", "à®°à¯įà®ªà¯įà®ª", "Ġà¤ªà¥įà¤°à¤Ńà¤¾à¤µà¤¶à¤¾à¤²à¥Ģ", "à°¤à±įà°µà°Ĥà°Ĺ", "à®°à®ªà®¿à®ķà¯įà®ķ", "Ġà¤ªà¥įà¤°à¤Ńà¥ģà¤¤à¥įà¤µà¥ĭà¤Ĥ", "à°¤à±įà°µà°Ĥà°Ĺà°²", "à®°à®ªà®¿à®ķà¯įà®ķà®Łà®²à¯ģà®®à¯į,", "Ġà¤ªà¥įà¤°à¥Įà¤¦à¥įà¤¯à¥ĭà¤Ĺà¤¿à¤ķà¥Ģ,", "à°¤à±įà°¸à°¾à°¹", "à®°à®¿à®¨à¯įà®¤à®¿à®°à®¾à®¤", "Ġà¤«à¤²à¥ĩ", "à°¤à±įà°¸à°¾à°¹à°Ĥà°Ĺà°¾", "à®°à®¿à®¯à®ªà¯į", "Ġà¤«à¤¼à¤°à¤µà¤°à¥Ģ", "à°¤à±įà°¸à°¾à°¹à°Ĥà°Ĺà°¾,", "à®°à®ļà¯ģà®ķà®³", "Ġà¤«à¤¼à¤¿à¤²à¥įà¤®à¥ĩà¤Ĥ,", "à°¦à°°à°¿à°ķ", "à®°à®ļà¯ģà®ķà®³à®¾à®ķ", "Ġà¤«à¥Īà¤²à¥Ģ", "à°¦à°¾à°¬à°¾à°¦", "à®°à¯ģà®¤à¯įà®¤à®¾à®ķ", "Ġà¤¬à¤¦à¤²", "à°¦à°¾à°¯à°ķ", "à®°à¯ģà®¤à¯įà®¤à¯ģà®µ", "Ġà¤¬à¤®", "à°¦à°¾à°°", "à®°à¯ģà®¤à¯įà®¤à¯ģà®µà®®à¯į", "Ġà¤¬à¤¸à¥įà¤¤à¤¿à¤¯à¥ĭà¤Ĥ", "à°¦à°¾à°²à°²à±ĭ", "à®°à¯ģà®ķà¯įà®ķà®®à®¾à®©", "Ġà¤¬à¤¹à¥ģà¤¤", "à°¦à°¿,", "à®°à¯ģà®Ļà¯įà®ķà®¿à®£à¯Īà®ķà¯įà®ķà®ªà¯įà®ªà®Łà¯įà®Ł", "Ġà¤¬à¤¾à¤¦", "à°¦à°¿à°ķà°¿", "à®°à¯ĭà®ªà¯įà®ªà®¿à®¯", "Ġà¤¬à¤¾à¤Ĥà¤Ĺà¥įà¤²à¤¾à¤¦à¥ĩà¤¶", "à°¦à°¿à°Ĺ", "à®°à¯ĭà®®à¯Īà®ªà¯į", "Ġà¤¬à¤¾à¤ľà¤¾à¤°", "à°¦à±Ģ", "à®°à¯įà®¨à¯įà®¤à¯ģ", "Ġà¤¬à¥ģà¤¦à¥įà¤§", "à°¦à±Ģà°¯", "à®°à¯įà®¤à¯įà®¤à®¤à¯ģ.", "Ġà¤¬à¥ĩà¤¸à¤¿à¤¨", "à°¦à±ģà°²à±ģ", "à®°à¯įà®¨à¯įà®¤à®¤à®©à¯į", "Ġà¤¬à¥ĩà¤Łà¥ĩ", "à°¦à±ģà°²à±ģ,", "à®°à¯įà®¨à¯įà®¤à®¤à¯ģ.", "Ġà¤¬à¤¢à¤¼à¤¤à¥ĩ", "à°¦à±ĩ", "à®°à¯įà®ªà¯įà®ªà®¾à®ļ", "Ġà¤¬à¤¢à¤¼à¤¨à¥ĩ", "à°¦à±ĩ,", "à®°à¯įà®ªà¯įà®ªà®¾à®ļà®©à®¤à¯į", "Ġà¤¬à¤¨à¤¾à¤¨à¥ĩ", "à°¦à±ĩ.", "à®°à¯įà®µà¯ģà®ķà¯įà®ķà¯ģ", "Ġà¤¬à¤¨à¤¾à¤Ī;", "à°¦à°°à°¿à°ķà°Ĥ,", "à®°à¯įà®·à®µà®°", "Ġà¤®à¤¤à¤²à¤¬", "à°¦à°¾:", "à®°à¯įà®·à®µà®°à¯įà®¤", "Ġà¤®à¤¾à¤¨à¤¨à¤¾", "à°¦à°¾à°¬à°¾à°¦à±ģ", "à®°à¯įà®·à®µà®°à¯įà®¤à®©à®°à¯į", "Ġà¤®à¤¾à¤²à¤¦à¥Ģà¤µ,", "à°¦à°¾à°¯à°Ĥ", "à®°à¯įà®ķà®³à®¿à®©à¯į", "Ġà¤®à¤ľà¤¼à¤¬à¥Ĥà¤¤", "à°¦à°¾à°¯à°ķà°®à±ĩ", "à®°à¯įà®ķà®³à¯ģà®ķà¯įà®ķ", "Ġà¤®à¤ł", "à°¦à°¾à°¯à°ķà°®à±ĩà°¨", "à®°à¯įà®ķà®³à¯Ī", "Ġà¤®à¥ģà¤ķà¥įà¤¤", "à°¦à°¾à°¯à°ķà°®à±ĩà°¨à°¨", "à®°à¯įà®ķà®³à¯Īà®ªà¯į", "Ġà¤®à¥Ĥà¤²", "à°¦à°¾à°¯à°ķà°®à±ĩà°¨à°¨à±Ģ,", "à®°à¯įà®ķà®³à¯ģà®ķà¯įà®ķà¯ģà®ķà¯į", "Ġà¤®à¥ĩà¤¹à¤°à¤Ĺà¤¢à¤¼", "à°¦à°¾à°°à±ģà°²à°¨à±ģ", "à®°à¯įà®ķà®³à¯į,", "Ġà¤®à¥ĭà¤¹à¤¨à¤ľà¥ĭà¤¦à¤¡à¤¼à¥ĭ,", "à°¦à°¿à°Ĺà±įà°Ń", "à®±à¯Īà®¯", "Ġà¤®à¥įà¤¯à¤¾à¤¨à¥įà¤®à¤¾à¤°", "à°¦à°¿à°Ĺà±įà°Ńà°¾à°Ĺ", "à®±à¯ģà®¤à®¿à®¯à®¾à®ķ", "Ġà¤®à¤§à¥įà¤¯à¤®", "à°¦à°¿à°Ĺà±įà°Ńà°¾à°Ĺà±ĩ,", "à®±à¯Īà®¯à®¾à®£", "Ġà¤®à¤§à¥įà¤¯à¤¯à¥ģà¤Ĺà¥Ģà¤¨", "à°¦à±Ģà°°à±įà°", "à®±à¯Īà®¯à®¾à®£à¯įà®®à¯Īà®¯", "Ġà¤®à¤¨à¥ģ", "à°¦à±Ģà°¯à±ģà°²à±ģ,", "à®±à¯Īà®¯à®¾à®£à¯įà®®à¯Īà®¯à¯Īà®¯à¯ģà®®à¯į", "Ġà¤®à¤¨à¥ģà¤·à¥įà¤¯", "à°¦à±Ģà°°à±įà°ĺ", "à®±à¯įà®ªà®Łà¯ģà®¤à¯įà®¤", "Ġà¤®à¤¹à¤¤à¥įà¤µà¤ªà¥Ĥà¤°à¥įà¤£", "à°¦à±ģà°ª", "à®±à¯įà®ªà®Łà¯ģà®¤à¯įà®¤à®¿à®¯", "Ġà¤®à¤¹à¤¾à¤¤à¥įà¤®à¤¾", "à°¦à±ģà°°à±įà°ķà±Ĭ", "à®±à¯įà®±à®¤à¯įà®¤à¯Ī", "Ġà¤®à¤¹à¤¾à¤ªà¥ģà¤°à¤¾à¤£", "à°¦à±ģà°Ĺà°¾", "à®±à¯įà®±à®ªà¯įà®ªà®Łà¯įà®Łà®©.", "Ġà¤®à¤¹à¤¾à¤µà¥Ģà¤°", "à°¦à±ģà°ªà°°à°¿", "à®±à¯įà®±à¯ģà®ª", "Ġà¤®à¤¹à¤¾à¤ķà¤¾à¤µà¥įà¤¯", "à°¦à±ģà°°à±įà°ķà±Ĭà°Ĥà°Ł", "à®±à¯įà®±à¯ģà®ªà®µà®°à¯įà®ķà®³", "Ġà¤®à¤¹à¤¾à¤ľà¤¨à¤ªà¤¦", "à°¦à±ģà°°à±įà°ķà±Ĭà°Ĥà°Łà±ģà°¨à±įà°¨", "à®±à¯įà®±à¯ģà®ªà®µà®°à¯įà®ķà®³à¯Ī", "Ġà¤®à¤¹à¤¾à¤Ńà¤¾à¤°à¤¤", "à°¦à±ģà°°à±įà°ķà±Ĭà°Ĥà°Łà±ģà°¨à±įà°¨à°¦à°¿.", "à®±à¯įà®ķà®°à¯Īà®ķà®³à®¿à®²à¯į", "Ġà¤®à¤¹à¤¿à¤²à¤¾à¤ĵà¤Ĥ", "à°¦à±ĩà°¶à°¾à°²à°²à±ĭ", "à®±à¯įà®ķà®¾à®²", "Ġà¤®à¤¾à¤¨à¤¾,", "à°¦à±ĩà°¶à°¾à°²à±ģ,", "à®±à¯įà®ķà®Ł", "Ġà¤®à¤¿à¤²à¤¤à¤¾", "à°¦à±ĩà°¶à°¾à°²à±ģ.", "à®±à¯įà®ķà®Łà®¿à®ķà¯įà®ķà®ªà¯įà®ªà®Łà¯įà®Ł", "Ġà¤®à¥ģà¤¸à¥įà¤²à¤¿à¤®", "à°¦à±ĩà°¶à°Ĥ,", "à®±à¯įà®ķà®Łà®¿à®ķà¯įà®ķà®ªà¯įà®ªà®Łà¯įà®Łà®¾à®°à¯į.", "Ġà¤®à¥ģà¤Ĥà¤¹à¤¬à¥ĭà¤²à¤¾", "à°¦à±įà°¦à°¿à°", "à®²à®©à®¿à®¯", "Ġà¤®à¥Īà¤¦à¤¾à¤¨à¥ĭà¤Ĥ", "à°¦à±įà°¦à°¿à°Ń", "à®²à®®à¯Īà®ªà¯įà®ªà¯ģ", "Ġà¤¯à¥Ĥà¤¨à¤¾à¤¨à¥Ģ,", "à°¦à±įà°¦à°¿à°Ńà°¾à°Ĺ", "à®²à®°à¯įà®¨à¯įà®¤à®¤à®©à¯į", "Ġà¤¯à¤¹à¤¾à¤ģ", "à°¦à±įà°¦à°¿à°Ńà°¾à°Ĺà°Ĥ", "à®²à®µà®¿à®©", "Ġà¤¯à¤¹à¤¾à¤Ĥ", "à°¦à±įà°§à°²à°¤à±ĭ,", "à®²à®¾à®©", "Ġà¤¯à¤¹à¥Ĥà¤¦à¥Ģ", "à°¦à±įà°°à°¾à°¸", "à®²à®¾à®µ", "Ġà¤°à¤¤)", "à°¦à±įà°°à°¾à°¸à±ģ", "à®²à®¿à®°à¯ģà®¨à¯įà®¤à¯ģ", "Ġà¤°à¤¾à¤·à¥įà¤Łà¥įà¤°à¤µà¤¾à¤¦à¥Ģ", "à°¦à±įà°°à°¾à°¸à±ģ),", "à®²à®¿à®²à¯į", "Ġà¤°à¤¿à¤ªà¤¬à¥įà¤²à¤¿à¤ķà¥į", "à°§à°¿à°Ĺ", "à®²à¯Īà®ķà®³", "Ġà¤°à¤ĸà¤¨à¥ĩ", "à°§à°¿à°Ĺà°®à°¿à°Ĥà°ļ", "à®²à¯Īà®ķà¯į", "Ġà¤°à¥ĭà¤®", "à°§à°¿à°Ĺà°®à°¿à°Ĥà°ļà°¿", "à®²à¯įà®ª", "Ġà¤°à¤¹à¥ĩ", "à°¨,", "à®²à¯įà®ķà®³", "Ġà¤°à¤¾à¤ľà¤¶à¤¾à¤¹à¥Ģ", "à°¨à°¦à°¿à°ķà°¿", "à®²à¯įà®ķà®³à®¿à®²à¯į", "Ġà¤°à¤¾à¤ľà¤¾", "à°¨à°¬à°¡à°¿à°¨", "à®²à®µà®¿à®©à®Ļà¯įà®ķà®³", "Ġà¤°à¤¾à¤ľà¤µà¤Ĥà¤¶,", "à°¨à°²à±ģ,", "à®²à®µà®¿à®©à®Ļà¯įà®ķà®³à¯Īà®¯à¯ģà®®à¯į", "Ġà¤°à¤ļà¤¨à¤¾", "à°¨à°µà°¿", "à®²à®¾à®µà®¿à®°", "Ġà¤°à¤ļà¤¨à¤¾à¤ķà¤¾à¤²", "à°¨à°¾à°¦", "à®²à®¾à®µà®¿à®°à®¾,", "Ġà¤°à¤ļà¤¾", "à°¨à°¿,", "à®²à¯Īà®ķà®³à®¾à®ķ", "Ġà¤²à¤¿à¤ªà¥įà¤¯à¤¨à¥įà¤¤à¤°à¤£:", "à°¨à°¿à°ª", "à®²à¯įà®ªà¯ģà®ķà®³", "Ġà¤²à¥Ģà¤¨", "à°¨à°¿à°°à±įà°µ", "à®²à¯įà®ªà¯ģà®ķà®³à®¾à®ķà®ķà¯į", "Ġà¤²à¥Ģà¤Ĥ", "à°¨à°¿à°µ", "à®²à¯įà®²à®¾à®¤", "Ġà¤²à¥ĩà¤ĸà¤¨", "à°¨à°¿à°Ĥà°ļà°¿,", "à®²à¯įà®²à®¿à®¯à®²à¯į", "Ġà¤²à¥Īà¤Ĥà¤Ĺà¤¿à¤ķ", "à°¨à°¿à°ķ", "à®²à¯įà®²à¯Īà®ªà¯įà®ªà®Łà¯ģà®¤à¯įà®¤à®ªà¯įà®ªà®Łà¯įà®Ł", "Ġà¤²à¥ĭà¤Ĺà¥ĭà¤Ĥ", "à°¨à°¿à°ļà±įà°ļ", "à®²à¯įà®²à¯Īà®ªà¯įà®ªà®Łà¯ģà®¤à¯įà®¤à®ªà¯įà®ªà®Łà¯įà®Łà®¤à®±à¯įà®ķà®¾à®©", "Ġà¤²à¥Įà¤¹", "à°¨à°ķ", "à®²à¯įà®µà®¤à¯įà®¤à®¿à®©à¯į", "Ġà¤²à¤Ĺà¤¤à¥Ģ", "à°¨à±į,", "à®²à¯įà®µà®¿à®¯à®±", "Ġà¤²à¤Ĺà¤Ńà¤Ĺ", "à°¨à±įà°®", "à®²à¯įà®µà®ķà¯Īà®®à¯Īà®¯", "Ġà¤µà¤¾à¤²à¤¾", "à°¨à±įà°¯", "à®²à¯įà®µà®¿à®¯à®±à®¿à®µà¯ģ", "Ġà¤µà¤¿à¤¸à¤°à¥įà¤ľà¤¿à¤¤", "à°¨à°²à°¬", "à®²à¯įà®µà®ķà¯Īà®®à¯Īà®¯à¯Ī", "Ġà¤µà¤¿à¤ķà¤¸à¤¿à¤¤", "à°¨à°²à°¬à±Ī", "à®²à¯įà®ķà®³à®¾à®©", "Ġà¤µà¥ĥà¤¹à¤¦à¥į", "à°¨à°²à°¬à±Īà°°", "à®³à®ªà¯įà®ªà®Łà¯įà®Łà®¤à¯ģ", "Ġà¤µà¥ĩà¤¦à¥ĭà¤Ĥ", "à°¨à°²à°¬à±Īà°°à±Ĩà°Ĥà°¡", "à®³à®¾à®£", "Ġà¤µà¥Īà¤¶à¥įà¤µà¤¿à¤ķ", "à°¨à°²à°¬à±Īà°°à±Ĩà°Ĥà°¡à±ģà°ķà±ĭ", "à®³à®¿à®°", "Ġà¤µà¤¨à¥įà¤¯à¤ľà¥Ģà¤µ,", "à°¨à°²à°¬à±Īà°°à±Ĩà°Ĥà°¡à±ģà°ķà±ĭà°Łà±įà°²à°ķà±ģ", "à®³à®Ļà¯įà®ķà®³à®¿à®²à¯į", "Ġà¤µà¤¿à¤¦à¥ĩà¤ķ", "à°¨à°µà°®", "à®³à¯įà®ķ", "Ġà¤µà¤¿à¤¶à¥ĩà¤·à¤ķà¤°", "à°¨à°µà°ļà±įà°ļà±ģ.", "à®³à®µà®¿à®²à®¾à®©", "Ġà¤µà¤¿à¤¸à¥įà¤¤à¥ĥà¤¤", "à°¨à°µà°®à°¿,", "à®³à®¾à®£à¯įà®®à¯Ī", "Ġà¤µà¤¿à¤ľà¤¯à¤¨à¤Ĺà¤°", "à°¨à°µà°¿).", "à®³à®¾à®£à¯įà®®à¯Ī,", "Ġà¤µà¤¿à¤ľà¥įà¤ŀà¤¾à¤¨,", "à°¨à°¾à°¦à°¿", "à®³à®¿à®°à¯ģà®®à¯į", "Ġà¤µà¤¿à¤Ńà¤¿à¤¨à¥įà¤¨", "à°¨à°¿à°ªà°¿à°Ĥà°ļà°¿à°Ĥà°¦à°¿.", "à®³à¯įà®³à¯ģà®®à¯į", "Ġà¤µà¤Ĥà¤¶à¤ľ", "à°¨à°¿à°°à±įà°µà°¾à°¹", "à®³à¯įà®ķà®¿à®©à¯įà®±à®©.", "Ġà¤µà¥įà¤¯à¤ķà¥įà¤¤à¤¿", "à°¨à°¿à°°à±įà°µà°¾à°¹à°ķ", "à®´à®°à¯į,", "Ġà¤µà¥įà¤¯à¥ģà¤¤à¥įà¤ªà¤¤à¥įà¤¤à¤¿", "à°¨à°¿à°µà°¿.", "à®´à®¾à®µà®¤à¯ģ", "Ġà¤µà¥įà¤¯à¤¾à¤ªà¤°", "à°¨à°¿à°ķà°¿à°ķà°¿", "à®´à®¿à®ªà¯įà®ª", "Ġà¤µà¥įà¤¯à¤¾à¤ªà¤¾à¤°à¤¿à¤ķ", "à°¨à°¿à°ļà±įà°ļà°¿à°Ĥà°¦à°¿.", "à®´à®¿à®²", "Ġà¤µà¥įà¤¯à¤¾à¤ªà¤ķ", "à°¨à°ķà°²", "à®´à¯Īà®ķà¯įà®ķ", "Ġà¤¶à¤¬à¥įà¤¦", "à°¨à±ģà°²à±ģ", "à®´à¯įà®ķ", "Ġà¤¶à¤¸à¥įà¤¤à¥įà¤°", "à°¨à±ĩà°°à±ĩà°", "à®´à®¿à®ªà¯įà®ªà®Łà¯Īà®¨à¯įà®¤à®¤à¯ģ.", "Ġà¤¶à¤¾à¤®à¤¿à¤²", "à°¨à±ĩà°°à±ĩà°¡à±ģ\"", "à®´à®¿à®²à¯įà®¨", "Ġà¤¶à¤¿à¤²à¥įà¤ª", "à°¨à±įà°¨à°¡à°Ĥ,", "à®´à®¿à®²à¯įà®¨à¯ģà®Ł", "Ġà¤¶à¤ķ,", "à°¨à±įà°¨à°¤", "à®´à®¿à®²à¯įà®¨à¯ģà®Łà¯įà®ª", "Ġà¤¶à¥ĭà¤·à¤£,", "à°¨à±įà°¨à°¾à°°à±ģ.", "à®´à®¿à®²à¯įà®¨à¯ģà®Łà¯įà®ªà®ļà¯į", "Ġà¤¶à¥įà¤°à¥Ģà¤®à¤¦à¥įà¤Ńà¤¾à¤Ĺà¤µà¤¤", "à°¨à±įà°¨à±Ģ", "à®´à¯ģà®¤à¯įà®¤à®©.", "Ġà¤¶à¥įà¤°à¥Ģà¤²à¤Ĥà¤ķà¤¾", "à°¨à±įà°®à°¾à°°", "à®´à¯ģà®¤à¯įà®¤à¯ģ", "Ġà¤¶à¤¹à¤°à¥ĭà¤Ĥ", "à°¨à±įà°®à°¾à°°à±į,", "à®´à¯Īà®ķà¯įà®ķà®ªà¯įà®ªà®Łà¯ģà®ķà®¿à®±à®¤à¯ģ.", "Ġà¤¶à¤¹à¤°à¥Ģà¤ķà¤°à¤£", "à°¨à±įà°¯à°ªà±įà°°", "à®´à¯įà®¨à¯įà®¤à¯ģà®³à¯įà®³à®©.", "Ġà¤¶à¤¾à¤¸à¥įà¤¤à¥įà¤°à¥Ģà¤¯", "à°¨à±įà°¯à°ªà±įà°°à°¾à°£", "à®´à¯įà®ķà®¿à®±à®¤à¯ģ.", "Ġà¤¶à¤¾à¤¸à¤¨à¤ķà¤¾à¤²", "à°¨à±įà°¯à°ªà±įà°°à°¾à°£à±ģà°²", "à®µà®¤à¯ģ", "Ġà¤¶à¤¾à¤¸à¤ķà¥ĭà¤Ĥ", "à°ªà°¡à°¿à°¨", "à®µà®®à¯į,", "Ġà¤¶à¤¿à¤ķà¥įà¤·à¤¾", "à°ªà°°", "à®µà®²à¯į", "Ġà¤¶à¤¿à¤ķà¥įà¤·à¤¾à¤ĵà¤Ĥ", "à°ªà°¾à°Ĥà°¡", "à®µà®¾à®²", "Ġà¤¶à¥ģà¤°à¥ģà¤Ĩà¤¤à¥Ģ", "à°ªà°Ĥ", "à®µà®¾à®ķà¯ģà®®à¯į.", "Ġà¤¸à¤²à¥įà¤¤à¤¨à¤¤", "à°ªà°Ł", "à®µà®¿à®¯à®¤à¯ģ.", "Ġà¤¸à¤¹à¤¿à¤·à¥įà¤£à¥ģà¤¤à¤¾", "à°ªà±ģà°²", "à®µà¯ģà®ªà¯į", "Ġà¤¸à¤¾à¤¤à¤µà¤¾à¤ģ", "à°ªà±Ī", "à®µà¯ģà®®à¯į", "Ġà¤¸à¤¾à¤Ĥà¤¸à¥įà¤ķà¥ĥà¤¤à¤¿à¤ķ", "à°ªà±įà°¤", "à®µà¯ģà®®à¯į,", "Ġà¤¸à¤¾à¤ķà¥įà¤·à¤°à¤¤à¤¾", "à°ªà°°à°¿à°®", "à®µà¯ģà®ķà®³à®¾à®©à®µà¯Ī", "Ġà¤¸à¤¾à¤Ĺà¤°", "à°ªà°°à°¿à°®à°¿à°¤", "à®µà¯ģà®ļà¯į", "Ġà¤¸à¤¿à¤ĸ", "à°ªà°°à°¿à°®à°¿à°¤à°¿à°ķà°¿", "à®µà¯Īà®¯", "Ġà¤¸à¤Ĥà¤¬à¤Ĥà¤§", "à°ªà°¾à°Ĥà°¡à°¿à°ļà±įà°ļ", "à®µà¯įà®µ", "Ġà¤¸à¤Ĥà¤Ĺà¥įà¤°à¤¾à¤®", "à°ªà°¾à°Ĥà°¡à°¿à°ļà±įà°ļà±ĩà°°", "à®µà®©à®®à®¾à®ķ", "Ġà¤¸à¤Ĥà¤ĺà¥Ģà¤¯", "à°ªà°¾à°Ĥà°¡à°¿à°ļà±įà°ļà±ĩà°°à°¿,", "à®µà®©à¯Ī", "Ġà¤¸à¤ķà¥įà¤·à¤®", "à°ªà°Łà±įà°¨", "à®µà®°à¯ģà®®à¯į", "Ġà¤¸à¥ģà¤¦à¥Ĥà¤°", "à°ªà°Łà±įà°¨à°Ĥ", "à®µà®°à¯ģà®ķà¯įà®ķà¯ģà®ªà¯į", "Ġà¤¸à¥Ĥà¤ļà¤¨à¤¾", "à°ªà±ģà°¤à±Ĥ", "à®µà®°à¯įà®ķà®³à®¤à¯ģ", "Ġà¤¸à¥ĥà¤ľà¤¨à¤¶à¥Ģà¤²à¤¤à¤¾", "à°ªà±ģà°¤à±įà°°", "à®µà®°à¯įà®ķà®³à¯Īà®ķà¯į", "Ġà¤¸à¥ĭà¤¨à¥ĩ", "à°ªà±ģà°¤à±įà°°,", "à®µà®²à®°à¯įà®ķà®³à¯Īà®ªà¯į", "Ġà¤¸à¤®à¤¾à¤ªà¥įà¤¤", "à°ªà±ģà°²à°¾", "à®µà®¾à®²à¯įà®ķà®³à®¿à®²à¯į", "Ġà¤¸à¤®à¤¾à¤ľ", "à°ªà±Ĥà°°à±įà°µ", "à®µà¯Īà®ķà®³", "Ġà¤¸à¤®à¤Ĺà¥įà¤°", "à°ªà±Ĥà°°à±įà°µà±ĭ", "à®µà¯Īà®ķà¯į", "Ġà¤¸à¤®à¥ĥà¤¦à¥įà¤§", "à°ªà±Ĥà°°à±įà°µà±ĭà°¤à±įà°¤à°°à°¾à°²à±ģ", "à®µà¯Īà®¯à®¾à®ķà®¤à¯į", "Ġà¤¸à¤®à¥įà¤®à¤¿à¤²à¤¿à¤¤", "à°ªà±įà°¤à±ģà°²", "à®µà¯Īà®ķà®³à¯ģà®ķà¯įà®ķà¯ģ", "Ġà¤¸à¤®à¥įà¤ªà¤¦à¤¾", "à°ªà±įà°¤à±ģà°²à°ķà°¾à°²", "à®µà¯įà®µà®¿à®¯à®²à¯į", "Ġà¤¸à¤®à¥įà¤ªà¥Ĥà¤°à¥įà¤£", "à°ªà±įà°¤à±ģà°²à°ķà°¾à°²à°Ĥ", "à®¾à®¨à¯įà®¤à®¿à®¯", "Ġà¤¸à¤®à¥įà¤ªà¥įà¤°à¤Ńà¥ģà¤¤à¤¾", "à°ªà±įà°ªà±ģà°ķà±ĭà°µ", "à®¾à®¨à¯įà®¤à¯ģ,", "Ġà¤¸à¤¾à¤®à¤¨à¥ĩ", "à°ªà±įà°ªà°Łà°¿à°ķà±Ģ", "à®¾à®ľ", "Ġà¤¸à¤¾à¤®à¥ģà¤¦à¥įà¤°à¤¿à¤ķ", "à°ªà±įà°ªà±ģà°ķà±ĭà°µà°ļà±įà°ļà±ģ.", "à®¾à®£à®ªà¯įà®ªà®Łà¯ģà®ķà®¿à®±à®¤à¯ģ.", "Ġà¤¸à¤¾à¤¹à¤¿à¤¤à¥įà¤¯,", "à°ªà±įà°°à°¿à°²", "à®¾à®£à®®à¯į)", "Ġà¤¸à¤Ĥà¤°à¤ķà¥įà¤·à¤¿à¤¤", "à°ªà±įà°°à°¿à°²à±į", "à®¾à®£à¯įà®Łà®¿à®¯à®°à®¾à®²à¯į", "Ġà¤¸à¤Ĥà¤Ĺà¥Ģà¤¤", "à°«à°°à±įà°", "à®¾à®¤à®¿à®¯à®¿à®©à¯į", "Ġà¤¸à¤Ńà¥Ģ", "à°«à±įà°", "à®¾à®¤à®¿à®°", "Ġà¤¸à¥ĩà¤¨à¤¾", "à°«à°°à±įà°®à±ĩà°·à°¨à±į", "à®¾à®¤à®¿à®°à®¿à®¯à®¾à®ķ", "Ġà¤¸à¥ĩà¤¨à¤¾à¤ĵà¤Ĥ", "à°«à±įà°ĺ", "à®¾à®©à®®à®¾à®©à®¤à¯ģ", "Ġà¤¸à¥ĩà¤ªà¤¿à¤¯à¤Ĥà¤¸", "à°«à±įà°ĺà°¾à°¨", "à®¾à®©à®¿à®¯à®²à¯į,", "Ġà¤¸à¥ĩà¤µà¤¾à¤ĵà¤Ĥ", "à°«à±įà°ĺà°¾à°¨à°¿à°¸à±įà°¤à°¾à°¨", "à®¾à®©à®ķ", "Ġà¤¸à¥įà¤¥à¤¾à¤¨", "à°«à±įà°ĺà°¾à°¨à°¿à°¸à±įà°¤à°¾à°¨à±į", "à®¾à®©à¯įà®ķ", "Ġà¤¸à¥įà¤¥à¤¾à¤Ī", "à°¬à°¾à°Łà±ģ", "à®¾à®©à®ķà®¤à¯įà®¤à¯Ī", "Ġà¤¸à¥įà¤µà¤°à¥ģà¤ª", "à°¬à°¿à°¯", "à®¾à®©à¯į,", "Ġà¤¸à¥įà¤µà¤°à¥įà¤£à¤¿à¤®", "à°¬à±Ĩ", "à®¾à®©à¯įà®ķà¯ģ", "Ġà¤¸à¥įà¤µà¤¤à¤Ĥà¤¤à¥įà¤°à¤¤à¤¾", "à°¬à±ĩ", "à®¾à®®à®©à®¿à®ļà®¿à®¯à®ªà¯į", "Ġà¤¹à¤¡à¤¼à¤ªà¥įà¤ªà¤¾,", "à°¬à°¡à°¿à°Ĥà°¦à°¿", "à®¾à®®à®²à¯į", "Ġà¤¹à¤¦", "à°¬à°¡à°¿à°Ĥà°¦à°¿.", "à®¾à®®à®¿à®©à¯į", "Ġà¤¹à¤°à¤¾", "à°¬à°¡à±įà°¡", "à®¾à®®à®¿à®Ł", "Ġà¤¹à¤°à¥įà¤·", "à°¬à°¿à°¯à°¸", "à®¾à®®à®¿à®Łà®¤à¯įà®¤à¯Īà®ķà¯į", "Ġà¤¹à¤¾à¤°à¤¨à¤¾", "à°¬à°¿à°¯à°¸à±į", "à®¾à®®à¯į,", "Ġà¤¹à¤¿à¤®à¤¾à¤²à¤¯", "à°¬à±Ĩà°Łà±įà°Ł", "à®¾à®¯à®¿à®©.", "Ġà¤¹à¤¿à¤¸à¥įà¤¸à¥ĭà¤Ĥ", "à°¬à±Ĩà°Łà±įà°Łà±ģà°ķà±ģ", "à®¾à®¯à¯į", "Ġà¤¹à¤¿à¤¨à¥įà¤¦,", "à°¬à±Ĩà°Łà±įà°Łà±ģà°ķà±ģà°¨à±įà°¨à°¾à°¯à°¿.", "à®¾à®¯à¯įà®²", "Ġà¤¹à¤¿à¤¨à¥įà¤¦à¥Ģ", "à°¬à±ĩ),", "à®¾à®¯à¯įà®²à®¾à®¨à¯įà®¤à¯ģ,", "Ġà¤¹à¤¿à¤¨à¥įà¤¦à¥ģà¤¸à¥įà¤¤à¤¾à¤¨", "à°®à°¤à°¿à°¨à°¿", "à®¾à®°à®¾à®¤", "Ġà¤¹à¤¿à¤¨à¥įà¤¦à¥ģà¤¸à¥įà¤¤à¤¾à¤¨,", "à°®à°¨à°¿à°Ĥà°ļà°¿,", "à®¾à®°à¯įà®¤à¯įà®¤", "Ġà¤¹à¥ģà¤Ĩ,", "à°®à°°à±įà°", "à®¾à®°à¯įà®¤à¯įà®¤à¯Īà®¯", "Ġà¤¹à¥ĭà¤¤à¤¾", "à°®à°²", "à®¾à®°à¯įà®¤à¯įà®¤à¯Īà®¯à®¾à®©", "Ġà¤¹à¥ĭà¤¤à¥ĩ", "à°®à°¸à±į,", "à®¾à®±à¯įà®±à®²à¯Īà®ķà¯į", "Ġà¤¹à¥ĭà¤®à¥ĭ", "à°®à°¾à°£", "à®¾à®±à¯įà®±à¯ģ", "Ġà¤ħà¤¦à¥įà¤µà¤¿à¤¤à¥Ģà¤¯", "à°®à°¿à°³", "à®¾à®²à®¤à¯įà®¤à¯Ģà®µà¯ģà®ķà¯įà®ķà¯ģ", "Ġà¤ħà¤§à¤¿à¤ªà¤¤à¥įà¤¯", "à°®à°Ĥà°²à±ĭ", "à®¾à®³à®°à®¾à®²à¯į", "Ġà¤ħà¤¨à¥ĩà¤ķ", "à°®à±Ģ", "à®¾à®³à®¿à®ª", "Ġà¤ħà¤²à¤Ĺ", "à°®à±ĭ", "à®¾à®³à¯ģà®®", "Ġà¤ħà¤¶à¥ĭà¤ķ", "à°®à±į", "à®¾à®³à¯ģà®ķà¯įà®ķà®¿à®¯", "Ġà¤ħà¤¸à¤®à¤¾à¤¨à¤¤à¤¾,", "à°®à±įà°¯", "à®¾à®³à®¿à®ªà®Ļà¯įà®ķ", "Ġà¤ħà¤¸à¥įà¤¤à¤¿à¤¤à¥įà¤µ", "à°®à°°à±įà°ľ", "à®¾à®³à®¿à®ªà®Ļà¯įà®ķà®¾à®©à¯į", "Ġà¤ħà¤¸à¥įà¤¥à¤¿", "à°®à°°à±įà°ľà±Ĩà°¨", "à®¾à®³à¯ģà®®à®©à¯įà®±", "Ġà¤ħà¤¹à¤¿à¤Ĥà¤¸à¤ķ", "à°®à°°à±įà°ľà±Ĩà°¨à±įà°¸à±Ģ", "à®¾à®´à¯įà®¤à¯įà®¤", "Ġà¤ħà¤Ĥà¤¦à¤°", "à°®à°²à°µ", "à®¾à®´à¯įà®¤à¯įà®¤à®ªà¯įà®ªà®Łà¯įà®Ł", "Ġà¤ħà¤Ńà¥Ģ", "à°®à°²à°µà±ģà°¤", "à®¾à®µà®¿à®¯", "Ġà¤ħà¤¤à¥įà¤¯à¤¾à¤ļà¤¾à¤°", "à°®à°²à°µà±ģà°¤à±ģà°Ĥà°¦à°¿.", "à®¾à®µà¯Ģà®°", "Ġà¤ħà¤¤à¥įà¤¯à¤Ĥà¤¤", "à°®à°¿à°³à°Ĥ.", "à®¾à®µà¯ģà®®à¯į", "Ġà¤ħà¤§à¤¿à¤°à¤¾à¤ľà¥įà¤¯,", "à°®à±ģà°¨,", "à®¾à®µà¯Ģà®°à®°à®¿à®©à¯į", "Ġà¤ħà¤¨à¥ģà¤¯à¤¾à¤¯à¤¿à¤ĵà¤Ĥ", "à°®à±ģà°²à±ĭ", "à®¾à®ķà®®à¯į", "Ġà¤ħà¤¨à¥įà¤¤à¤°à¤¿à¤ķà¥įà¤·", "à°®à±ģà°¦à±įà°°à°¤à±Ģà°°à°®à±ģ", "à®¾à®ķà®¾à®£à®®à¯į)", "Ġà¤ħà¤¨à¥įà¤¤à¤°à¥įà¤Ĺà¤¤", "à°®à±Ĩà°°à°¿à°ķ", "à®¾à®ķà¯ģà®ª", "Ġà¤ħà¤ªà¤¨à¤¾", "à°®à±Ĩà°Ĥà°Ł", "à®¾à®ķà®°à®¿à®¤à¯įà®¤à®¤à¯ģ.", "Ġà¤ħà¤ªà¤¨à¥Ģ", "à°®à±Ĩà°°à°¿à°ķà°¾,", "à®¾à®ķà®°à®¿à®ķà®®à®¾à®©à®¤à¯ģ", "Ġà¤ħà¤«à¤Ĺà¤¾à¤¨à¤¿à¤¸à¥įà¤¤à¤¾à¤¨,", "à°®à±Ĩà°Ĥà°Łà°°", "à®¾à®ķà¯ģà®ªà®¾à®Łà¯ģ", "Ġà¤ħà¤«à¥įà¤°à¥Ģà¤ķà¤¾", "à°®à±Ĩà°Ĥà°Łà°°à±Ģ", "à®¾à®ķà¯ģà®ªà®¾à®Łà¯ģ,", "Ġà¤ħà¤Ĥà¤Ĺà¥įà¤°à¥ĩà¤ľà¤¼à¥Ģ:", "à°®à±ĩ.", "à®¾à®ļà®®à¯į", "Ġà¤Ĩà¤¤à¤¾", "à°®à±Īà°¤à±ĩ", "à®¾à®ļà¯ģà®ª", "Ġà¤Ĩà¤§à¥įà¤¯à¤¾à¤¤à¥įà¤®à¤¿à¤ķ", "à°®à±Īà°Ĥà°¦à°¿.", "à®¾à®ļà®¿à®¯à®¾à®µà¯ģà®Łà®©à¯į", "Ġà¤Ĩà¤¯", "à°®à±Īà°¨à°¦à°¿.", "à®¾à®ļà¯ģà®ªà®¾à®Łà¯įà®Łà®¿à®©à¯į", "Ġà¤Ĩà¤¯à¤¾", "à°®à±Īà°¨à°¦à±ĩ.", "à®¾à®ľà®©à®ªà®¾à®¤à®Ļà¯įà®ķà®³à¯į", "Ġà¤Ĩà¤°à¤®à¥įà¤Ń", "à°®à±ĭà°¨à±įà°¨à°¤", "à®¾à®Łà®²à¯įà®ķà®³à®¿à®²à¯į", "Ġà¤Ĩà¤°à¥įà¤¯à¤¾à¤µà¤°à¥įà¤¤,", "à°®à±įà°®à°¦à°¾à°¬à°¾à°¦à±ģ", "à®¾à®Łà®¿", "Ġà¤Ĩà¤µà¤¾à¤¸à¥ĭà¤Ĥ", "à°®à±įà°®à±Ĥ", "à®¾à®Łà¯ģà®ķà®³à¯Īà®¯à¯ģà®®à¯į", "Ġà¤Ĩà¤¸à¤ªà¤¾à¤¸", "à°®à±įà°¯à°¾à°²à±ģ", "à®¾à®Łà¯įà®ķà®³à®¿à®²à¯į", "Ġà¤Ĩà¤Ĥà¤¤à¤°à¤¿à¤ķ", "à°®à±įà°¯à°¾à°²à±ģà°¨à±įà°¨à°¾à°¯à°¿.", "à®¾à®Łà¯įà®ļà®¿à®¯", "Ġà¤Ĩà¤Ĥà¤¦à¥ĭà¤²à¤¨", "à°¯à°¨à±įà°®à°¾à°°à±į,", "à®¾à®Łà¯įà®ļà®¿à®¯à¯ģà®Łà¯Īà®¯", "Ġà¤Ĩà¤ľ", "à°¯à°¾à°£", "à®¾à®Łà¯įà®Łà®¾à®ķà®¤à¯į", "Ġà¤Ĩà¤¦à¤¿", "à°¯à°¾à°¤à±įà°°", "à®¿à®¨à®¿à®²à®¤à¯įà®¤à®¿à®©à¯į", "Ġà¤Ĩà¤§à¤¿à¤ķà¤¾à¤°à¤¿à¤ķ", "à°¯à°¿à°Ĥà°¦à°¿", "à®¿à®¸à¯įà®¤à®¾à®©à¯į", "Ġà¤Ĩà¤§à¥ģà¤¨à¤¿à¤ķ", "à°¯à°Ĥ", "à®¿à®£à¯įà®µ", "Ġà¤Ĩà¤ķà¤°à¥įà¤·à¤¿à¤¤", "à°¯à°Ĥà°²à±ĭ,", "à®¿à®£à¯įà®µà¯Ĩà®³", "Ġà¤Ĩà¤ķà¥įà¤°à¤®à¤£", "à°¯à±Ĥ", "à®¿à®£à¯įà®µà¯Ĩà®³à®¿à®¤à¯į", "Ġà¤ĩà¤£à¥įà¤¡à¤¿à¤¯à¤¾)", "à°¯à°¾à°£à°¿à°ķ", "à®¿à®¤à®°à¯įà®ķà®³à¯į,", "Ġà¤ĩà¤¤à¥įà¤¯à¤¾à¤¦à¤¿", "à°¯à°¾à°£à°¿à°ķà±ģà°²", "à®¿à®¤à®¿à®ªà¯įà®ª", "Ġà¤ĩà¤¤à¤¿à¤¹à¤¾à¤¸à¤ķà¤¾à¤°à¥ĭà¤Ĥ", "à°¯à°¾à°¤à±įà°°à°²à°¤à±ĭ,", "à®¿à®¤à®¿à®ªà¯įà®ªà®¿à®©à¯į", "Ġà¤ĩà¤¨à¥įà¤¹à¥Ģà¤Ĥ", "à°¯à±Ĥà°¦à±ģà°²à±ģ,", "à®¿à®¤à¯įà®¤à®¤à¯ģ", "Ġà¤ĩà¤¸à¤ķà¥Ģ", "à°°à°®à±ĩ.", "à®¿à®¤à¯įà®¤à®©.", "Ġà¤ĩà¤¸à¥įà¤²à¤¾à¤®,", "à°°à°¾à°", "à®¿à®¤à¯įà®¤à®µà®®à¯į,", "Ġà¤ĩà¤Ĥà¤¡à¥ĭà¤¨à¥ĩà¤¶à¤¿à¤¯à¤¾", "à°°à°¾à°®", "à®¿à®¨à¯įà®¤à®©à®°à¯į.", "Ġà¤ĩà¤Ĥà¤¡à¤¿à¤¯à¤¾,", "à°°à°¾à°ļ", "à®¿à®¨à¯įà®¤à®¿à®¯", "Ġà¤Īà¤°à¤¾à¤¨", "à°°à°¾à°ľ", "à®¿à®¨à¯įà®¤à¯ģà®°à¯Īà®ķà®¿à®©à¯įà®±à®©.", "Ġà¤Īà¤¸à¥įà¤Ł", "à°°à°ķ", "à®¿à®©à®°à¯į", "Ġà¤Īà¤¸à¤µà¥Ģ", "à°°à°ļ", "à®¿à®©à¯Ī", "Ġà¤Īà¤¸à¤¾à¤Ī", "à°°à±Ĥ", "à®¿à®©à¯įà®ª", "Ġà¤Īà¤¸à¥įà¤µà¥Ģ", "à°°à±Ĥà°ª", "à®¿à®©à®°à®¿à®Ł", "Ġà¤īà¤¦à¤¯", "à°°à°£à°²à±ĭ", "à®¿à®©à®°à®¿à®Łà®®à®¿à®°à¯ģà®¨à¯įà®¤à¯ģà®®à¯į", "Ġà¤īà¤¦à¥įà¤§à¤µ", "à°°à°¤à±į", "à®¿à®©à¯Īà®µà¯ģà®ļà¯į", "Ġà¤īà¤²à¥įà¤²à¥ĩà¤ĸà¤¨à¥Ģà¤¯", "à°°à°²à±ĭà°¨à±ĩ", "à®¿à®©à¯įà®©à®°à¯į", "Ġà¤īà¤ļà¥įà¤ļ", "à°°à°¾à°·à±įà°Łà±įà°°à°ªà°¤à±ģà°²à±ģ", "à®¿à®©à¯įà®©à®Ļà¯įà®ķà®³à®¿à®©à¯į", "Ġà¤īà¤Ńà¤°à¤¾", "à°°à°¾à°®à°¨à°µà°®à°¿,", "à®¿à®©à¯įà®ªà®±à¯įà®±à¯ģà®ªà®µà®°à¯įà®ķà®³à¯Ī", "Ġà¤īà¤¤à¥įà¤¥à¤¾à¤¨", "à°°à°¾à°²à±ģ.", "à®¿à®ªà¯įà®ªà®¾à®©à®¤à¯ģ", "Ġà¤īà¤¤à¥įà¤ªà¤¤à¥įà¤¤à¤¿", "à°°à°¾à°ļà±Ģ,", "à®¿à®ªà¯įà®ªà¯ģ", "Ġà¤īà¤¤à¥įà¤¤à¤°à¤¾à¤§à¤¿à¤ķà¤¾à¤°à¥Ģ", "à°°à°¾à°ľà°ķà±Ģà°¯", "à®¿à®ªà¯įà®ªà¯ģà®¤à¯į", "Ġà¤īà¤¤à¥įà¤¤à¤°à¥Ģ", "à°°à°¾à°ľà°ķà±Ģà°¯à°¾à°²à±įà°²à±ĭ", "à®¿à®ªà¯įà®ªà¯ģ)", "Ġà¤īà¤¤à¥įà¤ªà¤¨à¥įà¤¨", "à°°à°ķà±Ĥ", "à®¿à®®à¯Īà®ªà¯įà®ªà®Łà¯ģà®¤à¯įà®¤à®ªà¯įà®ªà®Łà¯įà®Ł", "Ġà¤īà¤¤à¥įà¤ªà¤¾à¤¦à¤¨", "à°°à°ļà°¿à°Ĥà°¦à°¿.", "à®¿à®®à¯įà®ļ", "Ġà¤īà¤¨à¤®à¥ĩà¤Ĥ", "à°°à±ģà°¦à±ģà°Ĺà°¾", "à®¿à®®à¯Īà®ªà¯įà®ªà®Łà¯ģà®¤à¯įà®¤à®ªà¯įà®ªà®Łà¯įà®Łà®¤à®©à¯į", "Ġà¤īà¤¨à¥įà¤¨à¤¤à¤¿", "à°°à±ģà°²à±ģ", "à®¿à®®à¯įà®ļà¯Ī", "Ġà¤īà¤¨à¥įà¤¹à¥ĩà¤Ĥ", "à°°à±ģà°Ĺà°¾", "à®¿à®¯à®¤à¯ģ", "Ġà¤īà¤¸à¤¨à¥ĩ", "à°°à±ģà°·à±įà°ķ", "à®¿à®¯à®°à®ļà¯ģà®ķà®³à®¾à®ķ", "Ġà¤īà¤¸à¤ķà¥ĩ", "à°°à±ģà°·à±įà°ķà±ģà°²", "à®¿à®¯à®²à®®à¯Īà®ªà¯įà®ªà¯ģ", "Ġà¤Ĭà¤ªà¤°à¥Ģ", "à°°à±Ĥà°ªà°Ĥ,", "à®¿à®¯à®¾à®²à¯į", "Ġà¤ĭà¤·à¤Ńà¤¦à¥ĩà¤µ", "à°°à±ĩà°¬à°¿à°¯à°¾", "à®¿à®¯à®¿à®²", "Ġà¤ĭà¤Ĺà¥įà¤µà¥ĩà¤¦", "à°°à±įà°§à°¿à°²à±įà°²à°¿à°¨", "à®¿à®¯à®¿à®²à®¾à®©", "Ġà¤ıà¤µà¤®", "à°°à±įà°¶à°¿à°Ĥà°ļà±ĩ", "à®¿à®¯à¯ģà®³à¯įà®³à®¤à¯ģ.", "Ġà¤ıà¤µà¤Ĥ", "à°°à±įà°¸à°¿à°Ĥà°Ĺà±į", "à®¿à®¯à®±à¯į", "Ġà¤ıà¤ķà¤¤à¥įà¤°à¥Ģà¤ķà¤°à¤£", "à°°à±įà°ļ", "à®¿à®¯à®¾à®µà®¿à®©à¯į", "Ġà¤ĳà¤«à¤¼à¥į", "à°°à±įà°£à°¿à°Ĥà°ļ", "à®¿à®¯à®¾à®µà¯Īà®ļà¯į", "Ġà¤ĵà¤°", "à°°à±įà°£à°¿à°Ĥà°ļà°¬à°¡à°¿à°Ĥà°¦à°¿.", "à®¿à®¯à®¾à®ķà®ªà¯į", "Ġà¤Ķà¤ªà¤¨à¤¿à¤µà¥ĩà¤¶à¤¿à¤ķ", "à°°à±įà°¤à°¿", "à®¿à®¯à®¿à®²à®¿à®°à¯ģà®¨à¯įà®¤à¯ģ", "Ġà¤ķà¤¥à¤¾", "à°°à±įà°¤à°¿à°¤à±įà°µ", "à®¿à®°à®®à¯į", "Ġà¤ķà¤¨à¥įà¤¨à¥Įà¤ľ", "à°°à±įà°¤à°¿à°Ĺà°¾", "à®¿à®°à¯Īà®¯", "Ġà¤ķà¤®", "à°°à±įà°¤à°¿à°¤à±įà°µà°Ĥ", "à®¿à®°à¯ģà®¨à¯įà®¤à®©à®°à¯į.", "Ġà¤ķà¤¶à¥įà¤®à¥Ģà¤°", "à°°à±įà°¯à°¨à±į,", "à®¿à®°à¯ģà®ķà¯įà®ķà®¾à®®à®²à¯į", "Ġà¤ķà¤¹à¤²à¤¾à¤¯à¤¾", "à°°à±įà°²à°ªà±Ī", "à®¿à®°à¯ģà®ķà¯įà®ķà¯ģà®®à¯į", "Ġà¤ķà¤¾à¤«à¤¼à¥Ģ", "à°°à±įà°µà°¤à°¾à°²à°¤à±ĭ", "à®¿à®°à¯Īà®¯à®¿à®Łà¯įà®Ł", "Ġà¤ķà¤¾à¤°à¤£", "à°°à±įà°·à°¾à°²à±ģ", "à®¿à®°à¯Īà®¯à®¿à®Łà¯įà®Łà¯ģ", "Ġà¤ķà¤¾à¤°à¤ķ", "à°°à±įà°·à°¿à°¯", "à®¿à®±à®¿à®¤à¯įà®¤à®µà®®à¯į,", "Ġà¤ķà¤¿", "à°°à±įà°·à°Ĥ", "à®¿à®±à¯įà®ķà¯ģ", "Ġà¤ķà¤¿à¤ı", "à°°à±įà°·à°£à°¨à±ģ", "à®¿à®²à®¾à®©à®µà¯Ī", "Ġà¤ķà¤Ĥà¤ªà¤¨à¥Ģ", "à°°à±įà°·à°£à°²à°¨à±ģ", "à®¿à®²à¯ģà®®", "Ġà¤ķà¥ģà¤ªà¥ĭà¤·à¤£,", "à°°à±įà°·à°¿à°¯à°¨à±ģà°²à±ģ,", "à®¿à®²à¯įà®²", "Ġà¤ķà¥įà¤¯à¥ĭà¤Ĥà¤ķà¤¿", "à°°à±įà°·à°Ĥ\",", "à®¿à®²à¯įà®ķà®³à®¿à®²à¯į", "Ġà¤ķà¥įà¤°à¤®", "à°°à±įà°Ĺà°°à±į,", "à®¿à®²à¯ģà®®à¯ĩ", "Ġà¤ķà¤°à¤¤à¥ĩ", "à°°à±įà°Ĺà°Ĥ", "à®¿à®²à¯įà®²à®¿", "Ġà¤ķà¤°à¤¨à¤¾,", "à°°à±įà°ļà±ģà°Ĺ", "à®¿à®´à®ªà¯įà®ªà¯ģ", "Ġà¤ķà¤°à¥ĭà¤¡à¤¼,", "à°°à±įà°ļà±ģà°Ĺà°²", "à®¿à®´à®¿à®©à¯į", "Ġà¤ķà¤²à¤¶", "à°°à±įà°ļà±ģà°Ĺà°²à±į,", "à®¿à®µà®¿à®Ł", "Ġà¤ķà¤²à¤¾,", "à°°à±įà°Łà°¿à°¯", "à®¿à®µà®¿à®Łà¯ģà®ķ", "Ġà¤ķà¤¾à¤²à¥Ģà¤¬à¤Ĥà¤Ĺà¤¾", "à°°à±įà°Łà±ģà°²à±ģ", "à®¿à®µà®¿à®Łà¯ģà®ķà®¿à®±à®¤à¯ģ.", "Ġà¤ķà¤¿à¤¯à¤¾,", "à°°à±įà°Łà°¿à°¯à±ĭà°°", "à®¿à®ķà®¾à®ļà®®à¯į", "Ġà¤ķà¤¿à¤¯à¤¾;", "à°°à±įà°Łà°¿à°¯à±ĭà°°à°¾à°°à°¿", "à®¿à®ķà¯ģà®Ł", "Ġà¤ķà¥ģà¤²à¥Ģà¤¨", "à°²,", "à®¿à®ķà¯į", "Ġà¤ķà¥ģà¤·à¤¾à¤£", "à°²à°²à±ĭ", "à®¿à®ķà¯ģà®Łà®¾à®µà¯ģà®®à¯į", "Ġà¤ķà¥ĩà¤Ĥà¤¦à¥įà¤°à¤¿à¤¤", "à°²à°¸", "à®¿à®ķà¯įà®ķà®²à®¾à®©", "Ġà¤ķà¥ĭà¤Ī", "à°²à°¹", "à®¿à®ķà¯įà®ķà¯Īà®¯", "Ġà¤ķà¥įà¤·à¥ĩà¤¤à¥įà¤°à¥Ģà¤¯", "à°²à°¾à°¦à°¾à°¯à°Ĥà°²à±ĭ", "à®¿à®ķà¯įà®ķà¯ĭ", "Ġà¤ķà¥įà¤·à¥ĩà¤¤à¥įà¤°à¥ĭà¤Ĥ", "à°²à°¿à°ļ", "à®¿à®ķà¯įà®ķà®ªà¯įà®ªà®Łà¯įà®Łà®¿à®°à¯ģà®¨à¯įà®¤à®¤à¯ģ", "Ġà¤ĸà¤¾à¤¡à¤¼à¥Ģ", "à°²à°Ĥà°ª", "à®¿à®ķà¯įà®ķà¯Īà®¯à®¿à®²à®¾à®©à®µà¯Ī", "Ġà¤ĸà¤Ĺà¥ĭà¤²à¤¶à¤¾à¤¸à¥įà¤¤à¥įà¤°,", "à°²à±Ģ,", "à®¿à®ķà¯įà®ķà¯ĭà®ªà®¾à®°à¯į", "Ġà¤ĸà¥ĩà¤¤à¥Ģ", "à°²à±Ģà°¨", "à®¿à®ļà®¯", "Ġà¤Ĺà¤¾à¤ģà¤§à¥Ģ", "à°²à±ĩ", "à®¿à®Łà®Ļà¯įà®ķà®³à®¿à®²à¯į", "Ġà¤Ĺà¥ģà¤«à¤¾à¤ıà¤ģ", "à°²à±įà°¯à°Ĥ", "à®¿à®Łà¯įà®Łà®¤à¯įà®¤à®Łà¯įà®Ł", "Ġà¤Ĺà¥Įà¤¤à¤®", "à°²à°¸à±įà°¯", "à®ħà®ķ", "Ġà¤Ĺà¥įà¤°à¤Ĥà¤¥,", "à°²à°¹à°¾", "à®ħà®ķà®¾à®®à®©à®¿à®ļà®¿à®¯à®ªà¯į", "Ġà¤Ĺà¤ı", "à°²à°¿à°ļà°¿à°¨", "à®Ĩà®°à®¿à®¯à®ªà¯į", "Ġà¤Ĺà¤£à¤¿à¤¤,", "à°²à°Ĥà°ªà±ģà°¤", "à®Ĩà®Ļà¯įà®ķà®¿à®²", "Ġà¤Ĺà¤£à¤°à¤¾à¤ľà¥įà¤¯,", "à°²à°Ĥà°ªà±ģà°¤à±ĭ", "à®Ĩà®Ļà¯įà®ķà®¿à®²à®®à¯į:", "Ġà¤Ĺà¤¯à¤¾,", "à°²à°Ĥà°ķ,", "à®ĩà®£à¯įà®Łà®¿à®¯à®¾\"", "Ġà¤Ĺà¤¼à¤°à¥Ģà¤¬à¥Ģ,", "à°²à°Ĥà°ķà°¾à°°", "à®ĩà®²à®¿à®°à¯ģà®¨à¯įà®¤à¯ģ", "Ġà¤ĺà¤°à¥ĭà¤Ĥ", "à°²à°ķà±Ĭ", "à®ĩà®¨à¯įà®¤à®¿à®¯à®¾\"", "Ġà¤ļà¤¾à¤¹à¤¾", "à°²à°ķà±Ĭà°¨à°¿", "à®Ĳà®°à¯ĭà®ªà¯įà®ªà®¿à®¯", "Ġà¤ļà¤¿à¤¡à¤¼à¤¿à¤¯à¤¾", "à°²à±Ģà°¨à±ĭà°¦", "à®Ĳà®ķà¯į", "Ġà¤ļà¥ģà¤¨à¥Įà¤¤à¤¿à¤¯à¤¾à¤ģ", "à°²à±Ģà°¨à±ĭà°¦à±įà°¯", "à®ķà®®à®¾à®ķ", "Ġà¤ļà¥ģà¤ķà¤¾", "à°²à±Ģà°¨à±ĭà°¦à±įà°¯à°®à°Ĥà°²à±ĭ", "à®ķà®µà®²à¯į", "Ġà¤ļà¥ģà¤ķà¥Ģ", "à°²à±ģ.", "à®ķà®¿à®®à¯įà®ļà¯Ī", "Ġà¤ļà¥ĩà¤°", "à°²à±ģà°Ĺà°¾", "à®ķà®Ļà¯įà®ķà¯Īà®ļà¯į", "Ġà¤ļà¥Įà¤¥à¥Ģ", "à°²à±ĩà°¦à±ģ", "à®ķà®Łà¯įà®Ł", "Ġà¤ļà¤°à¤£", "à°²à±ĭ,", "à®ķà¯ģà®¤", "Ġà¤ļà¤°à¤®", "à°²à±ĭà°¨à±ģ", "à®ķà¯Ĩ", "Ġà¤ļà¥Ģà¤¨,", "à°²à±ĭà°¯", "à®ķà®°à®¾à®¤à®¿à®¯à®¿à®©à¯į", "Ġà¤ļà¥ĭà¤²à¥ĭà¤Ĥ", "à°²à±įà°ªà°Ĥ", "à®ķà®°à®¿à®¤à¯įà®¤à¯ģ", "Ġà¤Ľà¥ĭà¤Łà¥ĩ", "à°²à±įà°ªà±ĭ", "à®ķà®°à¯įà®ķ", "Ġà¤ľà¤¡à¤¼à¥ĩà¤Ĥ", "à°²à±įà°ªà±ĭà°¤à±Ĥ", "à®ķà®°à¯įà®ķà®°à¯į", "Ġà¤ľà¤®à¤¾", "à°²à±įà°²à°²à±ģà°Ĺà°¾", "à®ķà®³à®¾à®µà®¿à®¯", "Ġà¤ľà¤¾", "à°²à±įà°²à±ĭà°¨à°¿", "à®ķà®Łà¯įà®Łà®®à®¾à®©à®¤à¯ģ", "Ġà¤ľà¤¾à¤¨à¤µà¤°à¥ĭà¤Ĥ", "à°³à±įà°", "à®ķà¯ģà®¤à®¿à®¯à¯Ī", "Ġà¤ľà¤¾à¤°à¥Ģ", "à°³à±įà°³à°ªà°¾à°Łà±ģ", "à®ķà¯Ĩà®ŀà¯įà®ļ", "Ġà¤ľà¤Ĥà¤¬à¥Ĥà¤¦à¥įà¤µà¥Ģà¤ª", "à°µà°°à±įà°¤à°¿", "à®ķà¯Ĩà®ŀà¯įà®ļà®¤à®¾à®°à¯ĭ,", "Ġà¤ľà¤Ĥà¤Ĺà¤²à¥ĭà¤Ĥ", "à°µà°°à±įà°·à°Ĥ\",", "à®ķà¯Īà®ªà¯įà®ªà®Łà¯įà®Ł", "Ġà¤ľà¤Ĺà¤¹à¥ĭà¤Ĥ", "à°µà°¾à°°", "à®ķà¯Īà®®à¯Īà®¯à¯ģà®Łà¯Īà®¯", "Ġà¤ľà¤Łà¤¿à¤²", "à°µà°¾à°³", "à®ķà¯Īà®®à¯Īà®¯à®¿à®²à¯į", "Ġà¤ľà¥ģà¤¡à¤¼à¥ĩ", "à°µà°¿.", "à®ķà¯įà®ķà®²à®¾à®©à®¤à¯ģ", "Ġà¤ľà¥įà¤ŀà¤¾à¤¤", "à°µà°¿à°§", "à®ķà¯įà®ķà®¿à®²à¯į", "Ġà¤ľà¤¨à¥įà¤®", "à°µà°¿à°°", "à®ķà¯įà®ķà®ķà¯į", "Ġà¤ľà¤¬à¤ķà¤¿", "à°µà°¿à°Ĥà°ļà°¿à°Ĥà°¦à°¿.", "à®ķà¯įà®ķà¯ģ", "Ġà¤ľà¤¾à¤¤à¤¿", "à°µà°Ĥà°¤", "à®ķà¯įà®ķà¯ģà®ķà®³à¯Ī", "Ġà¤ľà¤¿à¤¨à¤ķà¤¾", "à°µà°ļà±įà°ļà±ģ.", "à®ķà¯įà®ķà®¿à®¯à®®à¯į", "Ġà¤ľà¤¿à¤¨à¤ķà¥ĩ", "à°µà±ģ", "à®ķà¯įà®ķà®¿à®¯à¯ģà®³à¯įà®³à®¤à¯ģ.", "Ġà¤ľà¤¿à¤¨à¥įà¤¹à¥ĩ", "à°µà±ģà°²à±ģ", "à®Ļà¯įà®ķà¯ģà®ķà®³à¯į", "Ġà¤ľà¤¿à¤¨à¥įà¤¹à¥ĭà¤Ĥà¤¨à¥ĩ", "à°µà±ĩà°°", "à®Ļà¯įà®ķà®³à®¤à¯ģ", "Ġà¤ľà¤¿à¤¸à¤¨à¥ĩ", "à°µà±įà°µ", "à®Ļà¯įà®ķà®³à¯ģà®ķà¯įà®ķà¯ģà®ªà¯į", "Ġà¤ľà¤¿à¤¸à¤®à¥ĩà¤Ĥ", "à°µà°¾à°°à°Ĥà°Ł", "à®Ļà¯įà®ķà®³à¯Ī", "Ġà¤ľà¤¿à¤¸à¥ĩ", "à°µà°¾à°°à°Ĥà°Łà±ĭ", "à®Ļà¯įà®ķà®³à¯Īà®ªà¯į", "Ġà¤ľà¥Īà¤¸à¥ĩ", "à°µà°¾à°°à°Ĥà°Łà±ĭ,", "à®Ļà¯įà®ķà®³à¯Īà®ļà¯į", "Ġà¤Ńà¤°à¤¤", "à°µà°¾à°³à±įà°²à°¨à±ģ", "à®ļà®¿à®¨à¯įà®¤à¯ģ", "Ġà¤Ńà¤°à¤¾", "à°µà°¿à°§à±įà°¯à°Ĥ", "à®ļà®¿à®¸à¯įà®¤à®¾à®©à¯į", "Ġà¤Ńà¤¾à¤·à¤¾", "à°µà°¿à°°à±įà°Ń", "à®ļà¯ĩ", "Ġà¤Ńà¤ķà¥įà¤¤à¤¿", "à°µà°¿à°°à±įà°Ńà°µà°¿à°Ĥà°ļà°¿à°Ĥà°¦à°¿.", "à®ļà¯ĭà®ķ", "Ġà¤Ńà¥Įà¤Ĺà¥ĭà¤²à¤¿à¤ķ", "à°µà°Ĥà°¤à°®à±Īà°¨", "à®ļà¯ĩà®ķà®°à®¿à®¤à¯įà®¤à¯ģ", "Ġà¤Ńà¥įà¤°à¤·à¥įà¤Łà¤¾à¤ļà¤¾à¤°,", "à°µà±ģà°¨à°¿", "à®ļà¯ĭà®ķà®°à¯į", "Ġà¤Ńà¤¾à¤°à¤¤)", "à°µà±ĩà°°à±į,", "à®ļà¯įà®ļà®¤à¯įà®¤à¯ģà®ķà¯į", "Ġà¤Ńà¤¾à¤°à¤¤à¤µà¤°à¥įà¤·,", "à°µà±įà°µà°¬à°¡à°¿à°¨", "à®ļà¯įà®ļà®®à®¯à®®à¯į", "Ġà¤Ńà¥Ģà¤®à¤¬à¥ĩà¤Łà¤ķà¤¾,", "à°¶à°²à±ĭ", "à®ŀà¯įà®ļà®¿à®¯", "Ġà¤Ńà¥Ĥà¤Łà¤¾à¤¨,", "à°¶à°¾à°²", "à®Łà®ªà¯Ĥà®®à®¿à®¯à®¿à®²à¯į", "Ġà¤Ńà¥Ĥà¤®à¤¿à¤ķà¤¾", "à°¶à±Ģ", "à®Łà®¯à®Ļà¯įà®ķà®³à®¾à®²à¯ģà®®à¯į", "Ġà¤Ńà¥Ĥà¤®à¤¿,", "à°¶à±Ī", "à®Łà®²à®¿à®²à¯į", "Ġà¥§à¥¨à¥¦à¥¦", "à°¶à±ĭ", "à®Łà®Ļà¯įà®ķà®³à¯į,", "Ġà¥§à¥®à¥«à¥®", "à°¶à°¾à°²à±įà°¯", "à®Łà®Ļà¯įà®ķà¯ģ", "Ġà¥¬à¥¦à¥¦", "à°¶à°¾à°²à±įà°¯à°Ĥà°²à±ĭ", "à®Łà¯įà®ķ", "Ġà¥¬à¥¦à¥¬", "à°¶à±Ģà°¤à±ĭà°·à±įà°£", "à®Łà¯ģà®¤à¯įà®¤à¯ģ", "Ġà¥¬à¥ªà¥Ń", "à°¶à±Īà°²à°¸à±įà°¯", "à®Łà¯ģà®¤à¯įà®¤à¯ģà®ķà¯įà®ķ", "à°¶à±ĭà°ķà±ģ", "à®Łà¯ģà®¤à¯įà®¤à¯ģà®ķà¯įà®ķà®¾à®Łà¯įà®Łà®¾à®ķà®¤à¯į", "à°¶à±ĭà°ķà±ģà°¡à±ģ", "à®Łà¯Īà®¨à¯įà®¤à®¤à¯Īà®¯à¯ģà®®à¯į", "à°·à°ķ", "à®Łà¯Īà®¨à¯įà®¤à¯ģ", "à°·à°ķà°¾à°¹", "à®Łà¯įà®ķà®°à¯ģà®¤à¯įà®¤à®¾à®ķ", "à°·à°ķà°¾à°¹à°¾à°°", "à®Łà¯įà®Łà®®à¯Īà®ªà¯įà®ªà®¾à®ķ", "à°·à±įà°Łà°Ĥà°ķ", "à®Łà¯įà®Łà®®à¯į", "à°·à±įà°Łà±ģ", "à®Łà¯įà®Łà®¾à®©à¯į,", "à°·à±įà°Łà°Ĥà°ķà°¾à°Ĺà°¾", "à®Łà¯įà®Łà®ļà¯įà®ļà®¤à¯įà®¤à¯ģà®ķà¯į", "à°¸à°¤à±įà°¤à°¾à°ķ,", "à®Łà¯įà®Łà¯ģ", "à°¸à°¤à±įà°µà°¾à°¨à°¿à°ķà°¿", "à®Łà¯įà®Łà¯Īà®¯", "à°¸à°¾à°¯", "à®Łà¯įà®Łà¯Īà®¯à®¾à®Łà®¿", "à°¸à°¿à°¯à°¾à°²à±ĭ", "à¯Ģà®¤à¯ģ", "à°¸à°¿à°Ĥà°¦à°¿.", "à¯Ģà®ķà¯įà®ķà®¿à®¯à®®à¯į", "à°¸à°Ĥ", "à¯Ģà®Łà®ªà¯Ĥà®®à®¿à®¯à®¿à®²à¯į", "à°¸à±ģà°²à±ģ", "à¯Ģà®©à®¾,", "à°¸à±Ĭ", "à¯Ģà®°à®°à¯įà®ķà®³à¯į", "à°¸à°°à°®à±Īà°¤à±ĩ", "à¯Ģà®´à¯į", "à°¸à°°à°¾", "à¯Ģà®´à¯įà®ļ", "à°¸à°°à°¿à°¸à±įà°¤", "à¯Ģà®´à¯įà®ļà¯įà®ļà®¿à®¯", "à°¸à°°à°¾.", "à¯Ģà®´à¯įà®ļà¯įà®ļà®¿à®¯à®Łà¯Īà®¨à¯įà®¤à®¤à¯Īà®¯à¯ģà®®à¯į", "à°¸à°°à°¿à°¸à±įà°¤à±Ĥ", "à¯ģà®´à®¨à¯įà®¤à¯Īà®ķà®³à®¿à®©à¯į", "à°¸à°°à°¿à°¸à±įà°¤à±Ĥ,", "à¯ģà®¤à®¿à®¯à®¾à®©", "à°¸à°¾à°¯à°Ĥ", "à¯ģà®¤à®Ļà¯įà®ķà®³à¯Īà®¯à¯ģà®Łà¯Īà®¯", "à°¸à°Ńà°²à±ĭ", "à¯ģà®¤à®²à®¾à®®à®¿à®Łà®¤à¯įà®¤à¯Īà®ķà¯į", "à°¸à±Ĭà°°à±įà°¸à°¿à°Ĥà°Ĺà±į", "à¯ģà®¤à¯įà®¤à®¤à¯ģ.", "à°¸à±įà°¤à±įà°°", "à¯ģà®¤à¯įà®¤à®¿à®°à¯Īà®¯à®¿à®Łà¯įà®Łà¯ģ", "à°¸à±įà°µà°¤à°Ĥ,", "à¯ģà®ªà¯ĭà®°", "à°¸à±įà°µà°¾à°®à±ģà°²à±ģ.", "à¯ģà®ªà¯ĭà®°à¯įà®Ł", "à°¸à±įà°¤à°µà±ģà°²à±ģ", "à¯ģà®ªà¯ĭà®°à¯įà®Łà¯ģ", "à°¸à±įà°¤à°¾à°¨", "à¯ģà®ªà¯įà®ªà®¿à®©à®°à®¿à®Łà®®à®¿à®°à¯ģà®¨à¯įà®¤à¯ģà®®à¯į", "à°¸à±įà°¤à±ģà°²à±ģ", "à¯ģà®®à®³à®µà®¿à®²à®¾à®©", "à°¸à±įà°¤à°¾à°¨à±į", "à¯ģà®®à®¾à®©à®®à®¾à®©à®¤à¯ģ", "à°¸à±įà°¥à°¾à°¨à°®à±Īà°¨", "à¯ģà®®à¯Ī", "à°¸à±įà°¥à°¾à°¨à°Ĥ.", "à¯ģà®®à¯Īà®¯", "à°¹à°¦à°¾à°°à±ģà°²à°¨à±ģ", "à¯ģà®®à¯Īà®¯à®¾à®ķ", "à°¹à°°à±įà°Ĺà°°à±į,", "à¯ģà®®à¯įà®ªà¯ģà®ķà¯į", "à°¹à°¾à°¯", "à¯ģà®¯à®¾à®Łà¯įà®ļà®¿à®¯à¯ģà®Łà¯Īà®¯", "à°¹à°¾à°²à±ģ,", "à¯ģà®¯à®¿à®°à¯įà®ķà®³à¯į", "à°¹à±įà°®", "à¯ģà®±à¯įà®±", "à°¹à°¾à°¯à°¿à°Ĥà°ļà°¿,", "à¯ģà®±à¯įà®±à®¿", "à°¹à±įà°®à°ªà±ģà°¤à±įà°°,", "à¯ģà®²à®ªà¯įà®ªà¯Ĩà®¯à®°à¯įà®µà¯ģà®ķà®³à¯Īà®¯à¯ģà®®à¯į", "à°¾)", "à¯ģà®²à¯įà®¤", "à°¾à°¡à±ģà°ķà±ģà°Ĥà°Łà±Ĥà°¨à±ĩ", "à¯ģà®²à¯įà®¤à®¾à®©à®ķà®¤à¯įà®¤à¯Ī", "à°¾à°«à±įà°Łà±į", "à¯ģà®µà®¾à®ķà¯ģà®®à¯į.", "à°¾à°£à°¿à°ľ", "à¯ģà®µà®¿", "à°¾à°£à°¿à°ľà±įà°¯", "à¯ģà®µà®¿à®²à¯į", "à°¾à°¤à°¿", "à¯ģà®ķà®¿à®²à¯į", "à°¾à°¤à°¿à°¯", "à¯ģà®ķà¯Ī", "à°¾à°¤à±ĥ", "à¯ģà®ķà¯įà®ķà®³", "à°¾à°¤à°¿à°¯à±ģà°Ĺ", "à¯ģà®ķà®³à¯Īà®¯à¯ģà®Łà¯Īà®¯", "à°¾à°¤à°¿à°¯à±ģà°Ĺà°ªà±ģ", "à¯ģà®ķà®³à¯Īà®¤à¯į", "à°¾à°¤à±įà°°à°¿à°ķ", "à¯ģà®ķà®³à¯Īà®¯à¯ģà®Łà¯Īà®¯,", "à°¾à°¤à±įà°°à°¿à°ķà±ģà°²à±ģ", "à¯ģà®ķà¯įà®ķà®¾à®²", "à°¾à°¦à°Ĥ", "à¯ģà®ķà¯įà®ķà¯ģà®³à¯į", "à°¾à°¦à±ĩà°¶à°¿à°ķ", "à¯ģà®ķà¯įà®ķà®³à¯Īà®ªà¯į", "à°¾à°§à°¿", "à¯ģà®ķà¯įà®ķà®¾à®ķà®µà¯ģà®®à¯į", "à°¾à°§à°¿à°¨", "à¯Ĥà®¯à¯įà®®à¯Īà®¯à®±à¯įà®±à®µà¯Ī", "à°¾à°§à°¿à°ª", "à¯Ĥà®´à¯įà®¨à¯įà®¤à¯ģà®³à¯įà®³à®©.", "à°¾à°§à±Ģà°¨", "à¯Ĥà®ļà®¿à®¸à¯įà®¤à®¾à®©à¯į", "à°¾à°§à°¿à°¨à±ĩà°¤", "à¯Ĥà®Łà¯įà®Łà®¾à®©à¯į,", "à°¾à°§à°¿à°ªà°¤à±įà°¯à°Ĥ", "à¯Ĩà®°à¯ģà®ķà¯įà®ķà®®à®¾à®©", "à°¾à°§à±Ģà°¨à°Ĥ", "à¯Ĩà®ķà®°à¯įà®ķà®°à¯į", "à°¾à°¨à°µà±ģà°¨à°¿", "à¯Ĩà®³à®¿à®ķà¯į", "à°¾à°¨à°Ĥà°¤à±ĭ", "à¯ĩà®ªà®¾à®³à®®à¯į,", "à°¾à°¨à±Ģ", "à¯ĩà®°à¯įà®ļ", "à°¾à°¨à±ģà°²à±ģ,", "à¯ĩà®°à¯įà®ļà¯į", "à°¾à°¨à±į,", "à¯ĩà®±à¯įà®±à®ªà¯į", "à°¾à°ªà°¾à°¡à±ģà°ķà±ģà°Ĥà°Łà±Ĥà°¨à±ĩ", "à¯Īà®¤à®¿à®¯à®¾à®©", "à°¾à°ªà°ķ", "à¯Īà®¤à¯į", "à°¾à°¬à°²à±įà°¯à°Ĥ", "à¯Īà®ªà®¾à®Łà¯ģ", "à°¾à°®à°¨à°¿", "à¯Īà®¤à¯įà®¤à¯ģà®³à¯įà®³à®¤à¯ģ.", "à°¾à°®à°¿à°¤à±įà°°", "à¯Īà®¨à¯įà®¤à®¤à¯ģ", "à°¾à°®à°¿à°ķ", "à¯Īà®¨à¯įà®¤à®©.", "à°¾à°®à±ģà°ĸà±įà°¯", "à¯Īà®ªà¯įà®ªà®¾à®±à¯įà®±à®²à¯Īà®ķà¯į", "à°¾à°®à°¿à°¤à±įà°°,", "à¯Īà®ªà¯įà®ªà®Łà®Ļà¯įà®ķà®³à¯į,", "à°¾à°®à±ģà°ĸà±įà°¯à°¤à°¨à±ģ", "à¯Īà®ªà¯įà®ªà¯ģà®ķà®³à®¾à®©à®µà¯Ī", "à°¾à°¯\",", "à¯Īà®ªà¯įà®ªà¯ģà®Łà®©à¯į", "à°¾à°¯à°®à±Īà°¨à°¦à°¿.", "à¯Īà®¯à®¤à¯įà®¤à®¿à®±à¯įà®ķà¯ģà®³à¯į", "à°¾à°¯à±Ģà°²à±ģ", "à¯Īà®¯à®¾à®©à®¤à¯ģ", "à°¾à°¯à°ķà°¾à°°à°¿à°Ĺà°¾", "à¯Īà®¯à®¿à®²à®¾à®©", "à°¾à°°à°£à°Ĥà°Ĺà°¾", "à¯Īà®¯à¯Īà®ªà¯į", "à°¾à°°à°¸à°¤à±įà°µà°¾à°¨à°¿à°ķà°¿", "à¯Īà®¯à¯ģà®®à¯į,", "à°¾à°°à°¾à°²", "à¯Īà®ķà®³à®¾à®©à®µà¯Ī", "à°¾à°°à°¾à°²à±ģ,", "à¯Īà®ķà®³à¯Īà®¯à¯ģà®®à¯į,", "à°¾à°°à°¿à°¸à±įà°¤à°¾à°°à±ģ.", "à¯Īà®ķà¯įà®ķà¯ģà®®à¯į", "à°¾à°°à°Ĥ,", "à¯Ĭà®£à¯įà®Łà®¾à®°à¯į.", "à°¾à°°à±įà°¤", "à¯Ĭà®±à¯įà®ª", "à°¾à°°à±įà°ķ", "à¯Ĭà®²à¯įà®²à®¾à®©", "à°¾à°°à°¤à°®à±įà°¯à°¾à°²à±ģà°¨à±įà°¨à°¾à°¯à°¿.", "à¯ĭà®©à¯ĩà®ļà®¿à®¯à®¾à®µà¯ģà®Łà®©à¯į", "à°¾à°°à±ģà°¡à±ģ.", "à¯ĭà®´à®°à¯į,", "à°¾à°°à±įà°¤à±Ĩ", "à¯ĭà®Łà®¿à®¯à®¾à®ķ", "à°¾à°°à±įà°ķà±į", "à¯ĭà®°à¯Ī", "à°¾à°²à°¨à±įà°¨à±Ģ", "à¯ĭà®ķà®¿à®¤à®°à¯įà®ķà®³à¯į,", "à°¾à°²à°ķà±ģ", "à¯ĭà®Łà®¿à®¯à®¾à®©", "à°¾à°²à°ľ", "à¯ĭà®Łà®¿à®¯à®¿à®²à®¿à®°à¯ģà®¨à¯įà®¤à¯ģ", "à°¾à°²à±Ĩ", "à¯Įà®¤à®®", "à°¾à°²à±ĩ", "à¯įà®¤à®¿à®¯à¯Ī", "à°¾à°²à±įà°¦", "à¯įà®¤à¯įà®¤à¯ģà®ķà¯į", "à°¾à°²à°ľà±Ģ,", "à¯įà®¨à¯įà®¤à®©à®°à¯į.", "à°¾à°²à±ģà°Ĺà°¾,", "à¯įà®ªà®Ļà¯įà®ķà®³à¯į", "à°¾à°²à±Ĩà°ķà±įà°ķà°¨à±ģ", "à¯įà®ªà¯įà®ªà®¾à®©à®¤à¯ģ", "à°¾à°²à±Ĩà°ķà±įà°ķà°¨à±ģà°Ĥà°¦à°¿.", "à¯įà®ªà¯įà®ªà¯ģà®ķà¯įà®ķà®¾à®ķ", "à°¾à°²à±ĩà°ķ", "à¯įà®®à®¤à¯įà®¤à¯Īà®¤à¯į", "à°¾à°²à±ĩà°ķà°¾à°Ĺà°¾", "à¯įà®®à¯Īà®¯à®¿à®²à¯į", "à°¾à°²à±ĭà°¯", "à¯įà®µà¯ģ", "à°¾à°²à±įà°¦à±Ģ", "à¯įà®ķà¯į", "à°¾à°²à±įà°¦à±Ģà°µà±ģà°²à±ģ,", "à¯įà®ķà®³à¯Īà®ļà¯į", "à°¾à°³à°¾à°ĸ", "à¯įà®ķà¯įà®ķà¯Ī", "à°¾à°³à±ģà°ķ", "à¯įà®ļà®¿à®¤à¯įà®¤", "à°¾à°³à°¾à°ĸà°¾à°¤à°Ĥ", "à¯įà®ļà¯ģà®ªà¯ĭà®°à¯įà®Łà¯ģ", "à°¾à°³à±ģà°ķà±įà°¯", "à¯įà®ļà¯Ĭà®²à¯įà®²à®¾à®©", "à°¾à°³à±ģà°ķà±įà°¯à±ģà°²à±ģ,", "à¯įà®ļà®¿à®¯à®Łà¯Īà®¨à¯įà®¤à®©.", "à°¾à°µà°¡à°Ĥ", "à¯įà®ļà®¿à®ķà¯įà®ķà¯ģ", "à°¾à°µà°³à°¿,", "à¯įà®ļà®¿à®ķà¯įà®ķà¯ģà®ķà¯į", "à°¾à°µà°¿à°¡", "Ġ'à®Ĩà®±à®¿à®²à¯į'", "à°¾à°¶à±įà°®", "Ġ-", "à°¾à°¶à±įà°µ", "Ġ74%", "à°¾à°¶à±įà°®à±Ģ", "à°¾à°¶à±įà°®à±Ģà°°à±į", "à°¾à°¶à±įà°µà°¤", "à°¾à°¸à°®à±ģà°¦à±įà°°à°Ĥ,", "Ġ\"à®ĩà®£à¯įà®Łà®¿à®¯à®¾\"", "à°¾à°¸à°¾à°²à±ģ", "Ġ\"à®ĩà®¨à¯įà®¤à®¿à®¯à®¾\"", "à°¾à°¸à°¿à°¯à°¾", "Ġ\"à®ļà®¿à®¨à¯įà®¤à¯ģ", "à°¾à°¸à±Ĩà°¸à±į", "Ġ(Republic", "à°¾à°Ĥà°¬à±ĩ),", "à°¾à°Ĥà°¡à°®à°¸à±į,", "Ġ(à®¤à®±à¯įà®ķà®¾à®²", "à°¾à°Ĥà°¡à±įà°¯", "Ġ(à®ħà®ķà®¾à®®à®©à®¿à®ļà®¿à®¯à®ªà¯į", "à°¾à°Ĥà°¡à±įà°¯à±ģà°²à±ģ", "Ġ(à®Ĩà®Ļà¯įà®ķà®¿à®²à®®à¯į:", "à°¾à°Ĥà°¤à°¿,", "Ġ(á¼¸Î½Î´Î¯Î±),", "à°¾à°ĸà°ªà°Łà±įà°¨à°Ĥ", "Ġ(á¼¸Î½Î´Î¿Î¯)", "à°¾à°Ĺà±ĥ", "à°¾à°Ĺà±ĥà°¹à°¾à°²à±ģ,", "à°¾à°ľà°ªà°¾", "Ġ140", "à°¾à°ľà°¯à°Ĥ", "Ġ1858", "à°¾à°ľà°¾à°¸à±įà°µà°¾à°®à±įà°¯", "Ġ1526", "à°¾à°ľà°¿à°ķ,", "à°¾à°Łà°¿", "à°¾à°Łà°Ĥ", "Ġ2,000", "à°¾à°Ńà°¦à°¾à°¯à°ķà°®à±ĩà°¨à°¨à±Ģ,", "Ġ2,500", "à°¿à°¢à°µà°¿à°²à±įà°²à°¾à°¯à°¿.", "Ġ21.7%", "à°¿à°¥à°¿à°ķà±į", "à°¿à°·à±įà°Ł", "Ġ2023", "à°¿à°¡à°¿à°µ", "à°¿à°¡à°¿à°µà°¿à°¨à°¿", "Ġ36.10", "à°¿à°¤à°®à±Ī", "à°¿à°¤à°¿,", "à°¿à°¤à°Ĥ,", "à°¿à°¤à±ĩ,", "Ġ600", "à°¿à°¤à±ĭ", "Ġ606", "à°¿à°¦à°¿", "Ġ647", "à°¿à°¦à±įà°", "Ġà®¯à¯Ĥà®¤à®®à¯į", "à°¿à°¦à±įà°§à°¿à°Ĥà°ļà°¿à°Ĥà°¦à°¿.", "Ġà®¤à®¨à¯įà®¤à¯Īà®¯à®¿à®©à¯į", "à°¿à°§à°¿à°ļà±ĩ", "Ġà®¤à®¾à®£à¯įà®Łà®¿à®¯", "à°¿à°¨à°¹à°¾à°¯à°¿à°Ĥà°ļà°¿,", "Ġà®¤à®¾à®¯à¯įà®²à®¾à®¨à¯įà®¤à¯ģ,", "à°¿à°¨à°¾à°¯à°ķ", "Ġà®¤à®¾à®´à¯įà®¤à¯įà®¤à®ªà¯įà®ªà®Łà¯įà®Ł", "à°¿à°¨à°¿à°§à°¿à°ļà±ĩ", "Ġà®¤à®¿à®²à¯įà®²à®¿", "à°¿à°¨à°¿à°®", "Ġà®¤à®ķà®µà®²à¯į", "à°¿à°¨à±Ģà°¤", "Ġà®¤à®Ļà¯įà®ķà®³à®¤à¯ģ", "à°¿à°¨à±Ĩà°¸à±į", "Ġà®¤à®Łà®¯à®Ļà¯įà®ķà®³à®¾à®²à¯ģà®®à¯į", "à°¿à°¨à°¿à°®à°¾à°²à±ģ,", "Ġà®¤à¯Ĥà®¯à¯įà®®à¯Īà®¯à®±à¯įà®±à®µà¯Ī", "à°¿à°¨à±Ģà°¤à°¿,", "Ġà®¤à®©à®¿à®¤à¯į", "à°¿à°¨à±įà°¨à°¤à±įà°µà°¾à°²à±ģ", "Ġà®¤à®©à®¿à®®à¯Īà®ªà¯įà®ªà®Łà¯ģà®¤à¯įà®¤à®ªà¯įà®ªà®Łà¯įà®Łà®¤à®©à¯į", "à°¿à°¨à±įà°¨à°¤à±įà°µà°Ĥà°²à±ĭ", "Ġà®¤à®©à®¿à®¯à®¾à®ķà®ªà¯į", "à°¿à°¨à±įà°¨à±Ĩ", "Ġà®¤à®©à¯įà®®à¯Ī", "à°¿à°ªà°¿à°¤", "Ġà®¤à®©à¯įà®®à¯Īà®¯à¯ģà®Łà®©à¯į", "à°¿à°ªà±ģ", "Ġà®¤à®©à¯įà®®à¯Īà®¯à¯Ī", "à°¿à°ªà±ģà°£à±ģà°²à±ģ", "Ġà®¤à®®à®¿à®´à®¿à®©à¯į", "à°¿à°®à±ģà°ĸà±įà°¯", "Ġà®¤à®®à¯įà®®à®¤à¯įà®¤à¯Īà®¤à¯į", "à°¿à°®à±ģà°ĸà±įà°¯à°®à±Īà°¨", "Ġà®¤à®²à¯Īà®µà®©à¯Ī", "à°¿à°¯à°¾,", "Ġà®¤à®²à¯Īà®µà®°à¯įà®ķà®³à¯Īà®ķà¯į", "à°¿à°¯à°Ĥ,", "Ġà®¤à®¾à®ķà¯įà®ķà®¤à¯įà®¤à¯Ī", "à°¿à°°à°®à±Īà°¨", "Ġà®¤à®¾à®ķà¯įà®ķà®®à¯į", "à°¿à°°à°¾", "Ġà®¤à®¾à®ķà¯įà®ķà¯ģà®¤à®²à¯į", "à°¿à°°à°Ĥà°Ĺ", "Ġà®¤à®¿à®°à¯Īà®ªà¯įà®ªà®Łà®Ļà¯įà®ķà®³à¯į,", "à°¿à°°à°ķà±įà°·à°°à°¾à°¸à±įà°¯à°¤", "Ġà®¤à®¿à®ķà®´à¯įà®¨à¯įà®¤", "à°¿à°°à°Ĥà°Ĺà°Ĥà°Ĺà°¾", "Ġà®¤à®¿à®ķà®´à¯įà®ķà®¿à®±à®¤à¯ģ.", "à°¿à°°à°ķà±įà°·à°°à°¾à°¸à±įà°¯à°¤,", "Ġà®¤à®¿à®Łà¯įà®Łà®®à®¿à®Łà®ªà¯įà®ªà®Łà¯įà®Ł", "à°¿à°²à°¬à±Ĩà°Łà±įà°Łà±ģà°ķà±ģà°¨à±įà°¨à°¾à°¯à°¿.", "Ġà®¤à®ķà¯įà®ķà®¾à®£à®¤à¯įà®¤à®¿à®©à¯į", "à°¿à°²à°¾à°Ĺà±ĥà°¹à°¾à°²à±ģ,", "Ġà®¤à®ķà¯įà®ķà®¾à®£à®ªà¯į", "à°¿à°²à°¿à°¨", "Ġà®¤à¯Ģà®£à¯įà®Łà®¾à®®à¯Īà®¯à¯Ī", "à°¿à°²à±ĩà°", "Ġà®¤à¯Ģà®ªà®ķà®±à¯įà®ªà®ªà¯į", "à°¿à°²à°¿à°ļà°¾à°°à±ģ.", "Ġà®¤à¯Ģà®µà¯ģà®ķà®³à®¾à®©à®µà¯Ī", "à°¿à°²à°¿à°ļà°¿à°Ĥà°¦à°¿.", "Ġà®¤à¯ģà®²à¯įà®²à®¿à®¯à®®à®¾à®ķà®¤à¯į", "à°¿à°²à±ĩà°Łà±į", "Ġà®¤à¯ģà®£à¯Īà®ķà¯įà®ķà®£à¯įà®Łà®¤à¯įà®¤à®¿à®©à¯į", "à°¿à°²à±įà°²à°¿à°Ĥà°¦à°¿.", "Ġà®¤à¯ģà®£à¯Īà®ķà¯įà®ķà®£à¯įà®Łà®¤à¯įà®¤à®¿à®±à¯įà®ķà¯ģ", "à°¿à°²à±įà°²à±ģ.", "Ġà®¤à¯ģà®£à¯Īà®ķà¯įà®ķà®£à¯įà®Łà®¤à¯įà®¤à®¿à®²à¯į", "à°¿à°³à°²", "Ġà®¤à¯ģà®£à¯Īà®ķà¯įà®ķà®£à¯įà®Łà®¤à¯įà®¤à¯ģà®ķà¯įà®ķà¯ģà®³à¯į", "à°¿à°µà°°à±įà°Ĺà°Ĥ", "Ġà®¤à¯ģà®£à¯Īà®ķà¯įà®ķà®£à¯įà®Łà®¤à¯įà®¤à¯Īà®ķà¯į", "à°¿à°µà±ĩà°Ĺà°Ĥà°Ĺà°¾", "Ġà®¤à¯ģà®±à®¨à¯įà®¤à®¤à¯ģ", "à°¿à°¶à°¾à°¤à°Ĥ", "Ġà®¤à¯ģà®±à®µà®±", "à°¿à°¶à±Ģà°¤", "Ġà®¤à¯ģà®±à®µà¯ĩ", "à°¿à°¶à±Ģà°¤à°²", "Ġà®¤à¯Ĩà®°à®¿à®¨à¯įà®¤à®¿à®°à®¾à®¤", "à°¿à°¶à±įà°°à°¦à±įà°§à°²à°¤à±ĭ,", "Ġà®¤à¯Ĩà®©à¯įà®ķà®¿à®´à®ķà¯įà®ķà®¾à®ļà®¿à®¯à®¾à®µà®¿à®©à¯į", "à°¿à°¶à±įà°°à°¾à°®à°¿à°ķ", "Ġà®¤à¯Ĩà®©à¯įà®ķà®¿à®´à®ķà¯įà®ķà®¾à®ļà®¿à®¯à®¾à®µà¯ģà®Łà®©à¯į", "à°¿à°·à±ĩà°", "Ġà®¤à¯Ĩà®±à¯įà®ķà®¾à®ļà®¿à®¯à®¾à®µà®¿à®©à¯į", "à°¿à°·à±ĩà°§à°Ĥ,", "Ġà®¤à¯Ĩà®±à¯įà®ķà¯ģà®¤à¯į", "à°¿à°¸à°¾à°°à°¿à°Ĺà°¾", "Ġà®¤à¯Ĩà®±à¯įà®ķà¯ģà®ªà¯į", "à°¿à°¸à°Ń", "Ġà®¤à¯Ĩà®±à¯įà®ķà¯ĩ", "à°¿à°¸à°Ńà°¾", "Ġà®¤à¯Ĭà®²à¯įà®²à®¿à®¯à®²à¯į", "à°¿à°¸à±įà°¥à°¿à°¤à°¿", "Ġà®¤à¯Ĭà®´à®¿à®²à¯įà®¨à¯ģà®Łà¯įà®ªà®ļà¯į", "à°¿à°¸à±įà°²à±ĩà°ļà°°à±į,", "Ġà®¤à¯Ĭà®²à¯Īà®¤à¯Ĥà®°à®ªà¯į", "à°¿à°¸à±įà°¤à°¾à°®à°¨à°¿", "Ġà®¤à¯Ĭà®ķà¯ģà®¤à®¿à®¯à®¾à®©", "à°¿à°¸à±įà°¤à°¾à°¯à°¿.", "Ġà®¤à¯Ĭà®ķà¯Īà®¯à®¾à®©à®¤à¯ģ", "à°¿à°Ĥà°ªà±ģ", "Ġà®¤à¯Ĭà®ķà¯Īà®¯à®¿à®©à¯į", "à°¿à°Ĥà°¬à±Ĩà°Łà±įà°ķà°¾", "Ġà®¤à¯Ĭà®Łà®°à¯įà®ªà®±à¯įà®±à®µà¯Ī", "à°¿à°Ĥà°¸à°¾à°¯à±ģà°¤", "Ġà®¤à¯Ĭà®Łà®°à¯įà®ªà¯ģà®Łà¯Īà®¯", "à°¿à°Ĥà°Ĺà±įà°¡", "Ġà®¤à¯Ĭà®Łà®ķà¯įà®ķà®¤à¯įà®¤à®¿à®©à¯į", "à°¿à°Ĥà°Ĺà±įà°¡à°®à±į", "Ġà®¤à¯Ĭà®Łà®Ļà¯įà®ķà®ªà¯įà®ªà®Łà¯įà®Łà®¤à¯ģ.", "à°¿à°Ĥà°ļà°µà°ļà±įà°ļà±ģ.", "Ġà®¤à¯Ĭà®Łà®Ļà¯įà®ķà®¿", "à°¿à°Ĥà°ļà°¿", "Ġà®¤à¯Ĭà®Łà¯įà®Łà®¿à®²à¯įà®ķà®³à®¿à®²à¯į", "à°¿à°Ĥà°ļà°Ł", "Ġà®¤à¯Ĭà®Łà¯įà®Łà®¿à®ķà®³à¯į", "à°¿à°Ĥà°ļà±ģà°ķà±ģ", "Ġà®¤à¯ĭà®±à¯įà®±à®¤à¯įà®¤à¯Ī", "à°¿à°Ĥà°ļà°¿à°¨à°Łà±įà°²à±ģ", "Ġà®¤à¯ĭà®±à¯įà®ķà®Łà®¿à®ķà¯įà®ķà®ªà¯įà®ªà®Łà¯įà®Łà®¾à®°à¯į.", "à°¿à°Ĥà°ļà°Łà°Ĥ", "Ġà®¤à¯ĭà®²à®¾à®µà®¿à®°à®¾,", "à°¿à°Ĥà°ļà±ģà°ķà±ģà°¨à±įà°¨à°¾à°°à±ģ.", "Ġà®¤à¯ĭà®©à¯įà®±à®¿à®©.", "à°¿à°ķà°Ĥà°Ĺà°¾", "Ġà®¤à¯ĭà®©à¯įà®±à®ļà¯į", "à°¿à°Ĺà°¾,", "Ġà®¤à¯ĭà®©à¯įà®±à¯ģà®ķà®¿à®©à¯įà®±à®©.", "à°¿à°Ĺà°¿à°²à°¿à°¨", "Ġà®¨à®©à¯įà®±à®¾à®ķà®ķà¯į", "à°¿à°Ĺà±ģà°µ", "Ġà®¨à®ªà®°à¯į", "à°¿à°Ĺà±ĩ", "Ġà®¨à®®à¯įà®ªà®¿à®ķà¯įà®ķà¯Ī", "à°¿à°ļà±Ĥ", "Ġà®¨à®¾à®©à¯įà®ķà¯ģ", "à°¿à°ļà±Ĥà°¸à°¿à°Ĥà°¦à°¿.", "Ġà®¨à®¾à®Łà¯įà®Łà®¿à®©à¯į", "à°¿à°ľà°¿à°¨à±Ĩà°¸à±į", "Ġà®¨à®¿à®©à¯Īà®µà¯ģà®ļà¯į", "à°Ĥà°¶à°Ĥà°²à±ĭà°¨à°¿", "Ġà®¨à®¿à®ķà¯įà®ķà¯ĭà®ªà®¾à®°à¯į", "à°Ĥà°ľ", "Ġà®¨à¯Ĩà®°à¯ģà®ķà¯įà®ķà®®à®¾à®©", "à°Ĥà°¡à°¯à°¾à°¤à±įà°°à°²à°¤à±ĭ,", "Ġà®¨à¯ĩà®ªà®¾à®³à®®à¯į,", "à°Ĥà°¡à°¿,", "Ġà®¨à®¾à®ķà®°à®¿à®ķà®¤à¯įà®¤à®¿à®©à¯į", "à°Ĥà°¡à±ģ", "Ġà®¨à®¾à®ķà®°à®¿à®ķà®®à®¾à®ķà®ªà¯į", "à°Ĥà°¡à±įà°°", "Ġà®¨à®¾à®Łà®¾à®³à¯ģà®®à®©à¯įà®±", "à°Ĥà°¡à±įà°²à°¨à±ģ", "Ġà®¨à®¾à®Łà®¾à®ķà®¤à¯į", "à°Ĥà°¡à°¿:", "Ġà®¨à®¾à®Łà®¾à®ķà¯ģà®®à¯į.", "à°Ĥà°¡à±įà°°à°¾)", "Ġà®¨à®¾à®Łà¯ģ", "à°Ĥà°¤à°²", "Ġà®¨à®¾à®Łà¯ģà®®à¯į", "à°Ĥà°¦à°°à±Ĥ", "Ġà®¨à®¾à®Łà¯ģà®®à¯į,", "à°Ĥà°¦à°°à±įà°¶à°¿à°Ĥà°ļà±ĩ", "Ġà®¨à®¾à®Łà¯ģà®ķà®³à®¿à®©à¯į", "à°Ĥà°¦à°¿à°°à°¾", "Ġà®¨à®¿à®°à®¾à®ķà®°à®¿à®¤à¯įà®¤à®¤à¯ģ.", "à°Ĥà°¦à±ģà°²à±ĭ", "Ġà®¨à®¿à®°à¯įà®µà®¾à®ķà®®à¯į", "à°Ĥà°¦à±ģà°Ĺà°¾", "Ġà®¨à®¿à®°à¯įà®µà®ķà®¿à®¤à¯įà®¤à®¤à¯ģ", "à°Ĥà°ªà°¿à°¨", "Ġà®¨à®¿à®°à¯įà®µà®ķà®¿à®ķà¯įà®ķà®ªà¯įà®ªà®Łà¯ģà®ķà®¿à®±à®¤à¯ģ.", "à°Ĥà°¬à°¾à°²à°ķà±ģ", "Ġà®¨à®¿à®±à¯ģà®µà®©à®¤à¯įà®¤à®¿à®©à¯į", "à°Ĥà°ķà°¾", "Ġà®¨à®¿à®±à¯ģà®µà®ªà¯įà®ªà®Łà¯įà®Łà®©.", "à°Ĥà°Ĺà°¾à°³à°¾à°ĸà°¾à°¤à°Ĥ", "Ġà®¨à®¿à®²à®®à®¾à®ķà¯ģà®®à¯į.", "à°Ĥà°Ĺà°Ĥ", "Ġà®¨à®¿à®²à®®à¯į", "à°Ĥà°Ĺà±ģà°³", "Ġà®¨à®¿à®²à¯Īà®ķà®³à®¾à®©à®µà¯Ī", "à°Ĥà°Ĺà±ģà°³à±Ĥà°°à±ģ", "Ġà®¨à®¿à®²à¯Īà®ķà®³à¯į", "à°Ĥà°Ĺà±įà°²à±ĩà°¯", "Ġà®¨à®¿à®²à¯Īà®¯à®±à¯įà®±", "à°Ĥà°Ĺà±įà°²à±ĩà°¯à±ģà°²à±ģ", "Ġà®¨à®¿à®²à¯Īà®¯à®¿à®©à¯į", "à°Ĥà°Ĺà±įà°²à±ĩà°¯à±ģà°²à±ģ)", "Ġà®¨à®¿à®²à¯Īà®¯à¯Ī", "à°Ĥà°ļà±ģà°ķà±ģà°Ĥà°Ł", "Ġà®¨à®¿à®²à¯Īà®ķà¯įà®ķà¯ģ", "à°Ĥà°ļà±ĩ", "Ġà®¨à®¿à®²à¯Īà®ķà¯įà®ķà¯ģà®¤à¯į", "à°Ĥà°ļà±ģà°ķà±ģà°Ĥà°Łà±ĭ", "Ġà®¨à®ķà®°à®ªà¯į", "à°Ĥà°ļà±ģà°ķà±ģà°Ĥà°Łà±ĭà°Ĥà°¦à°¿.", "Ġà®¨à®ķà®°à®®à®¯à®®à®¾à®ķà¯įà®ķà®²à®¾à®©à®¤à¯ģ", "à°Ĥà°ľà±Ĥà°°à±ģ", "Ġà®¨à®ķà®°à®Ļà¯įà®ķà®³à¯Īà®ļà¯į", "à°Ĥà°Łà°¾à°°à±įà°ķà±į", "Ġà®¨à®ķà®°à¯įà®ªà¯įà®ªà¯ģà®±à®ªà¯į", "à°Ĥà°Łà±ģà°Ĥà°¦à°¿.", "Ġà®¨à®Łà®¤à¯įà®¤à®¿à®©.", "à°Ĥà°Łà±Īà°¨", "Ġà®¨à®Łà®¨à¯įà®¤à®¿à®°à®¾à®¤", "à°Ĥà°Łà±Īà°¨à±Ĩ", "Ġà®¨à®Łà¯ģ", "à°Ĥà°Łà±Īà°¨à±Ĩà°°à±į", "Ġà®¨à®Łà¯ģà®ªà¯į", "à°Ĩà°°à±įà°¯à°¨à±į,", "Ġà®¨à®Łà¯ģà®µà®¿à®²à¯į", "à°ĩ,", "Ġà®¨à®Łà¯ģà®ķà¯įà®ķà®¾à®²", "à°ı.", "Ġà®¨à¯Ģà®°à¯įà®ªà¯įà®ªà®¾à®ļà®©à®¤à¯į", "à°ķà°¤à±įà°¤à°¾),", "Ġà®¨à¯Ģà®Łà®¿à®¤à¯įà®¤à¯ģ", "à°ķà°¤à±įà°µà°Ĥà°Ĺà°²", "Ġà®¨à¯Ģà®Łà®¿à®¤à¯įà®¤à®¿à®°à¯ģà®¨à¯įà®¤à®¤à¯ģ.", "à°ķà°²à±įà°ªà°Ĥ", "Ġà®¨à¯Ģà®Łà®¿à®¤à¯įà®¤à®¿à®°à¯ģà®ķà¯įà®ķà¯ģà®®à¯į", "à°ķà°¾à°°à°Ĥ,", "Ġà®¨à¯Ĥà®²à¯įà®ķà®³à®¾à®©", "à°ķà°¾à°²à±ģà°Ĺà°¾", "Ġà®¨à¯Ĥà®±à¯įà®±à®¾à®£à¯įà®Łà¯ģ", "à°ķà°¿.", "Ġà®¨à¯Ĥà®±à¯įà®±à®¾à®£à¯įà®Łà¯ģà®ķà®³à®¿à®©à¯į", "à°ķà±ĭ", "Ġà®¨à¯Ĥà®±à¯įà®±à®¾à®£à¯įà®Łà¯ģà®ķà®³à¯Īà®¤à¯į", "à°ķà±įà°¨", "Ġà®¨à¯ĩà®°à®¤à¯įà®¤à®¿à®²à¯į,", "à°ķà±įà°¯", "Ġà®ªà®£à®¿à®ķà®³à¯į", "à°ķà±įà°¯à°Ĥ", "Ġà®ªà®¤à®¿à®²à¯ģà®ķà¯įà®ķà¯ģ", "à°ķà±įà°°", "Ġà®ªà®¾à®£à¯įà®Łà®¿à®¯à®°à®¾à®²à¯į", "à°ķà°¾à°²à°Ĥà°²à±ĭ", "Ġà®ªà®¾à®ķà¯ģà®ªà®¾à®Łà¯ģ,", "à°ķà±ģà°²à±ģ", "Ġà®ªà®¾à®Łà®²à¯įà®ķà®³à®¿à®²à¯į", "à°ķà±ģà°Ĥà°¤à°²", "Ġà®ªà®¿à®©à¯į", "à°ķà±ĭà°°à±įà°Łà±ģà°²à±ģ", "Ġà®ªà®¿à®©à¯įà®©à®°à¯į", "à°ķà±įà°¤à°¿à°¶à±įà°°à°¦à±įà°§à°²à°¤à±ĭ,", "Ġà®ªà®¿à®©à¯įà®ªà®±à¯įà®±à¯ģà®ªà®µà®°à¯įà®ķà®³à¯Ī", "à°ķà±įà°¨à°¾à°²à°ľà±Ģ,", "Ġà®ªà®Ļà¯įà®ķà¯ģ", "à°ķà±įà°°à°µà°°à±įà°¤à°¿", "Ġà®ªà®Ļà¯įà®ķà¯Ī", "à°ķà±įà°°à°®à°¿à°Ĥà°ļà±ģà°ķà±ģà°¨à±įà°¨à°¾à°°à±ģ.", "Ġà®ªà¯Ģà®Łà®ªà¯Ĥà®®à®¿à®¯à®¿à®²à¯į", "à°ķà±įà°·à°®à±Īà°Ĥà°¦à°¿.", "Ġà®ªà¯ģà®²à®ªà¯įà®ªà¯Ĩà®¯à®°à¯įà®µà¯ģà®ķà®³à¯Īà®¯à¯ģà®®à¯į", "à°ķà±įà°·à°Ĥà°Ĺà°¾", "Ġà®ªà¯ģà®µà®¿", "à°ķà±įà°ķà°²à±ģ", "Ġà®ªà¯Ĥà®Łà¯įà®Łà®¾à®©à¯į,", "à°ķà±įà°ķà±ģà°²à°ķà±ģ", "Ġà®ªà®£à¯įà®ªà®¾à®Łà¯ģà®ķà®³à¯Īà®¯à¯ģà®®à¯į", "à°ķà±įà°ķà±ģà°µà±ĩ.", "Ġà®ªà®£à¯įà®ªà®¾à®Łà¯įà®Łà®¿à®±à¯įà®ķà¯ģ", "à°ĸà±įà°¯à°¾à°¤à°¿", "Ġà®ªà®£à¯įà®ªà®¾à®Łà¯įà®Łà¯ģ", "à°Ĺà°£à°¨", "Ġà®ªà®£à¯įà®ªà®¾à®Łà¯įà®Łà¯ģà®¤à¯į", "à°Ĺà°¤à°¿à°¨à°¿", "Ġà®ªà®£à¯įà®ªà®¾à®Łà¯įà®Łà¯Ī", "à°Ĺà°¿à°¨à±įà°¨à±Ĩ", "Ġà®ªà®£à¯įà®Łà¯Īà®¯", "à°Ĺà±ģà°¤", "Ġà®ªà®¤à®¿à®ªà¯įà®ªà¯ģ)", "à°Ĺà°²à±ģà°ªà±ģ", "Ġà®ªà®¤à®¿à®µà®¿à®Łà¯ģà®ķà®¿à®±à®¤à¯ģ.", "à°Ĺà°²à±ģà°²à±ģ", "Ġà®ªà®¯à®¿à®°à¯įà®ķà®³à¯į", "à°Ĺà°¾,", "Ġà®ªà®¯à®©à¯įà®ªà®Łà¯ģà®¤à¯įà®¤à®ªà¯įà®ªà®Łà¯įà®Ł", "à°Ĺà±ģ,", "Ġà®ªà®¯à®©à¯įà®ªà®Łà¯ģà®¤à¯įà®¤à®ªà¯įà®ªà®Łà¯įà®Łà¯ģà®³à¯įà®³à®¤à¯ģ.", "à°Ĺà±ģà°¨à°µà°¿).", "Ġà®ªà®°à®µà®¿à®¯à®¤à¯ģ.", "à°Ĺà±ģà°¤à°¾à°¯à°¿.", "Ġà®ªà®°à®¿à®¨à¯įà®¤à¯ģà®°à¯Īà®ķà®¿à®©à¯įà®±à®©.", "à°Ĺà±ģà°µà°¾à°°à±ģ", "Ġà®ªà®°à®¤à®µà®°à¯įà®·à®¤à¯įà®¤à®¿à®©à¯į", "à°Ĺà±įà°Ĺà°°à°²à±ĭ", "Ġà®ªà®°à®¤à®µà®°à¯įà®·à®¾", "à°Ĺà±įà°Ĺà°¿à°ªà±ĭà°¯à°¿à°Ĥà°¦à°¿.", "Ġà®ªà®°à®ªà¯įà®ªà®³à®µà®¿à®²à¯į", "à°ĺà°¿à°ķ,", "Ġà®ªà®°à®ªà¯įà®ªà®³à®µà¯ģ", "à°ĺà±ģ", "Ġà®ªà®°à®ªà¯įà®ªà®¿à®©.", "à°ļà°¨à°²à±ĭ", "Ġà®ªà®°à®ªà¯įà®ªà®¿à®¯à®¤à¯ģ", "à°ļà°¾à°°à°¾à°²à±ģ,", "Ġà®ªà®°à®µà®²à®¾à®ķà®ªà¯į", "à°ļà°¿à°¨", "Ġà®ªà®°à®¿à®£à®¾à®®à®®à¯į", "à°ļà±įà°ļà°ľ", "Ġà®ªà®²à¯Ĥà®ļà®¿à®¸à¯įà®¤à®¾à®©à¯į", "à°ļà±įà°ļà±ĩ", "Ġà®ªà®²à¯įà®µà®ķà¯Īà®®à¯Īà®¯à®¿à®²à¯į", "à°ļà±įà°ļà°ľà±Ĩà°Ĥà°¡", "Ġà®ªà®²à¯įà®µà®ķà¯Īà®®à¯Īà®¯à¯ģà®Łà¯Īà®¯", "à°ļà±įà°ļà°ľà±Ĩà°Ĥà°¡à°¾", "Ġà®ªà®´à®®à¯Īà®¯à®¾à®©", "à°ľà°¿à°¤à°®à±Ī", "Ġà®ªà®´à¯Īà®¯", "à°ľà°¿à°¸à±įà°²à±ĩà°ļà°°à±į,", "Ġà®ªà®¾à®¤à¯ģà®ķà®¾à®ķà¯įà®ķà®ªà¯įà®ªà®Łà¯įà®Ł", "à°ľà±įà°°", "Ġà®ªà®¾à®¤à¯ģà®ķà®¾à®ķà¯įà®ķà®ªà¯įà®ªà®Łà¯įà®Łà¯ģ", "à°ľà±įà°°à°¾à°²à±ģ,", "Ġà®ªà®¾à®°à®®à¯įà®ªà®°à®¿à®¯à®¤à¯įà®¤à®¾à®²à¯į", "à°Łà°°à±įà°²à°ªà±Ī", "Ġà®ªà®¾à®°à®®à¯įà®ªà®°à®¿à®¯à®®à®¾à®ķ", "à°Łà°¾", "Ġà®ªà®¾à®°à®®à¯įà®ªà®°à®¿à®¯à®Ļà¯įà®ķà®³à®¿à®©à¯į", "à°Łà°Ĥà°¡à±įà°°à°¾)", "Ġà®ªà®¾à®²à®¿à®©à®ªà¯į", "à°Łà°Ĥà°²à±ĭ", "Ġà®ªà®¾à®ķà¯įà®ķà®¿à®¤à¯įà®¤à®¾à®©à¯į)", "à°Łà°ļà±ĩ", "Ġà®ªà®¾à®ķà¯įà®ķà®¿à®¤à¯įà®¤à®¾à®©à¯į,", "à°Łà±ģ", "Ġà®ªà®¿à®°à®¤à®¿à®ªà®²à®¿à®ķà¯įà®ķà®ªà¯įà®ªà®Łà¯ģà®ķà®¿à®±à®¤à¯ģ.", "à°Łà±Ĩ", "Ġà®ªà®¿à®°à®ªà®²à®®à®¾à®©à®¤à¯ģ.", "à°Łà±į", "Ġà®ªà®¿à®°à®¾à®¨à¯įà®¤à®¿à®¯", "à°Łà°¿à°ķà°¾à°²à±ĭ", "Ġà®ªà®¿à®°à®¿à®ķà¯įà®ķà®ªà¯įà®ªà®Łà¯įà®Łà®¿à®°à¯ģà®¨à¯įà®¤à®¤à¯ģ", "à°Łà±ģà°Ĥà°¬à°¾à°²à°ķà±ģ", "Ġà®ªà®¿à®°à®¿à®¤à¯įà®¤à®¾à®©à®¿à®¯à®¾à®µà®¿à®©à¯į", "à°Łà±Ĩà°¡à±į", "Ġà®ªà®¿à®°à®¿à®¤à¯įà®¤à®¾à®©à®¿à®¯à®ķà¯į", "à°Łà±įà°Łà±Ĥ", "Ġà®ªà®ķà¯įà®¤à®¿à®¯à¯Ī", "à°Ńà±įà°¯", "Ġà®ªà®ķà¯ģà®¤à®¿à®¯à®¾à®©", "à°Ńà°¾à°°à°¤à°¦à±ĩà°¶à°Ĥ\"", "Ġà®ªà®ķà¯ģà®¤à®¿à®¯à¯Ī", "à°Ńà°¾à°·à°²à±ģ,", "Ġà®ªà®ķà¯ģà®¤à®¿à®¯à®¾à®©à®¤à¯ģ", "à°Ńà°¾à°·à°¾,", "Ġà®ªà®ķà¯ģà®¤à®¿à®¯à¯Īà®¯à¯ģà®®à¯į", "à°Ńà±įà°¯à°®à±Īà°¨", "Ġà®ªà®ķà¯ģà®¤à®¿à®ķà®³à®¾à®²à¯į", "à±Ģà°¨à±įà°¨à°¿", "Ġà®ªà®ķà¯ģà®¤à®¿à®ķà®³à®¾à®ķà®ªà¯į", "à±Ģà°¸à±ģà°²à±ģ", "Ġà®ªà®ķà¯ģà®¤à®¿à®ķà®³à¯ģà®ķà¯įà®ķà¯ģà®ªà¯į", "à±Ģà°ķà°¾à°°à°Ĥ", "Ġà®ªà®ķà¯ģà®¤à®¿à®ķà®³à¯į", "à±Ģà°¨à°¿à°ķà°¿", "Ġà®ªà®Łà¯Īà®ªà¯įà®ªà®¾à®±à¯įà®±à®²à¯Īà®ķà¯į", "à±Ģà°ªà°¾à°µà°³à°¿,", "Ġà®ªà®Łà®¿,", "à±Ģà°ªà±Ī", "Ġà®ªà¯ģà®©à®¿à®¤", "à±Ģà°°à±įà°£à°Ĥà°¤à±ĭ", "Ġà®ªà¯ģà®¤à¯ģà®ªà¯įà®ªà®¿à®ªà¯įà®ªà®¾à®©à®¤à¯ģ", "à±Ģà°·à±į", "Ġà®ªà¯ģà®¤à¯ģà®ªà¯įà®ªà®¿à®ķà¯įà®ķà®ªà¯įà®ªà®Łà¯įà®Ł", "à±Ģà°ķà°°à°£à°²à±ĭ", "Ġà®ªà¯ģà®°à®µà®²à®°à¯įà®ķà®³à¯Īà®ªà¯į", "à±Ģà°ķà±ĥà°¤", "Ġà®ªà¯ģà®°à®¿à®¨à¯įà®¤à®©à®°à¯į.", "à±Ģà°ķà±ĥà°¤à°®à±Ī", "Ġà®ªà¯ģà®°à¯ĭà®ķà®¿à®¤à®°à¯įà®ķà®³à¯į,", "à±ģ,", "Ġà®ªà¯Ĥà®°à¯įà®µà¯Ģà®ķ", "à±ģà°¡à±ģ\".", "Ġà®ªà¯Ĥà®°à¯įà®µà¯Ģà®ķà®ªà¯į", "à±ģà°¦à±Ģà°°à±įà°ĺ", "Ġà®ªà¯Ĩà®£à¯įà®ķà®³à®¿à®©à¯į", "à±ģà°¨à±ģ", "Ġà®ªà¯Ĩà®£à¯įà®ķà®³à¯į", "à±ģà°ªà±Ĥà°°à±įà°µà±ĭà°¤à±įà°¤à°°à°¾à°²à±ģ", "Ġà®ªà¯Ĩà®¯à®°à¯į", "à±ģà°¬à°¾à°Łà±ģ", "Ġà®ªà¯Ĩà®¯à®°à¯įà®µà¯ģà®ķà¯įà®ķà¯ģ", "à±ģà°°à°¾à°²à±ģ.", "Ġà®ªà¯Ĩà®¯à®°à®³à®µà¯ģ", "à±ģà°°à±ģà°·à±įà°ķà±ģà°²", "Ġà®ªà¯Ĩà®¯à®°à®¾à®©", "à±ģà°Ĥà°Łà±ģà°Ĥà°¦à°¿.", "Ġà®ªà¯Ĩà®¯à®°à®¾à®©à®¤à¯ģ", "à±ģà°Łà°ļà±ĩ", "Ġà®ªà¯Ĩà®¯à®°à®¾à®ķ", "à±ģà°Łà±įà°Łà±Ĥ", "Ġà®ªà¯Ĩà®¯à®°à¯ģà®®à¯į,", "à±ģà°Ńà°¾à°·à°¾,", "Ġà®ªà¯Ĩà®¯à®°à¯įà®ªà¯įà®ªà®¾à®©à®¤à¯ģ", "à±ģà°¤à±įà°¤", "Ġà®ªà¯Ĩà®¯à®°à¯įà®ķà¯į", "à±ģà°¤à±įà°¤à°¾à°§à°¿à°ªà°¤à±įà°¯à°Ĥ", "Ġà®ªà¯Ĩà®°à¯ģà®®à®³à®µà®¿à®²à®¾à®©", "à±ģà°¨à±Ī", "Ġà®ªà¯Ĩà®°à¯ģà®®à¯į", "à±ģà°¨à±Īà°Łà±Ĩà°¡à±į", "Ġà®ªà¯Ĩà®°à¯ģà®®à¯įà®ªà®²à¯įà®µà®ķà¯Īà®®à¯Īà®¯à¯Ī", "à±ģà°¨à±įà°¨à°¾,", "Ġà®ªà¯Ĩà®°à¯ģà®Ļà¯įà®ķà®±à¯įà®ķà®¾à®²", "à±ģà°ªà±įà°°à±Ģ", "Ġà®ªà¯Ĩà®°à¯ģà®Ļà¯įà®ķà®Łà®²à®¿à®²à¯į", "à±ģà°ªà±įà°°à±Ģà°Ĥ", "Ġà®ªà¯Ĩà®°à¯ģà®Ļà¯įà®ķà®Łà®²à¯ģà®®à¯į,", "à±ģà°²à°²à±ĭ", "Ġà®ªà¯Ĩà®±à®ªà¯įà®ªà®Łà¯ģà®ķà®¿à®±à®¤à¯ģ.", "à±ģà°²à°ļà±ĩ", "Ġà®ªà¯Ĩà®±à®ªà¯įà®ªà®Łà¯įà®Łà®¤à¯ģ.", "à±ģà°²à±Īà°¨", "Ġà®ªà¯Ĩà®±à¯įà®±à®©.", "à±ģà°²à±įà°¤", "Ġà®ªà¯Ĩà®±à¯įà®±à¯ģà®³à¯įà®³à®¤à¯ģ.", "à±ģà°²à±ģ;", "Ġà®ªà¯Ĩà®±à¯įà®±à¯ģà®³à¯įà®³à®©.", "à±ģà°²à±Īà°¨à°ªà±įà°ªà°Łà°¿à°ķà±Ģ,", "Ġà®ªà¯ĩà®°à®°à®ļà®¾à®ķ", "à±ģà°²à±įà°¤à°¾à°¨à±ģà°²à±ģ,", "Ġà®ªà¯ĩà®°à®°à®ļà¯ģà®ķà®³à¯Ī", "à±ģà°µà±ģà°²à±Īà°¨à°ªà±įà°ªà°Łà°¿à°ķà±Ģ,", "Ġà®ªà¯ĩà®°à®°à®ļà¯ģ,", "à±ģà°µà±Ī", "Ġà®ªà¯Ĭà®¤à¯ģ", "à±ģà°µà±Īà°ªà±ģà°²à°¾", "Ġà®ªà¯Ĭà®°à¯ģà®¨à¯įà®¤à®¿à®¯à®¿à®°à®¾à®¤", "à±ģà°ķà±ģà°Ĥà°Łà°¾à°°à±ģ.", "Ġà®ªà¯Ĭà®°à¯ģà®³à®¾à®©à®¤à¯ģ", "à±ģà°ķà±ģà°Ĥà°Łà±ģà°Ĥà°¦à°¿.", "Ġà®ªà¯Ĭà®°à¯ģà®³à®¾à®¤à®¾à®°à®ļà¯į", "à±ģà°ķà±Ĭà°¨à°¬à°¡à°¿à°¨", "Ġà®ªà¯Ĭà®°à¯ģà®Łà¯įà®ķà®³à®¿à®©à¯į", "à±ģà°ķà±Ĭà°¨à°¿", "Ġà®ªà¯Ĭà®°à¯ģà®Łà¯įà®ķà®³à¯Īà®ļà¯į", "à±ģà°ķà±ĭà°µà°¡à°Ĥà°¤à±ĭ", "Ġà®ªà¯ĭà®¤à®¿à®²à¯ģà®®à¯į", "à±ģà°Ĺà°Ĥ", "Ġà®ªà¯ĭà®°à¯į", "à±ģà°Ĺà±ģà°¬à°¾à°Łà±ģ", "Ġà®ªà¯ĭà®¤à®©à¯Īà®ķà®³à¯Ī", "à±Ĥà°²à°¾à°¦à°¾à°¯à°Ĥà°²à±ĭ", "Ġà®ªà¯ĭà®¤à®©à¯Īà®ķà®³à¯į", "à±Ĥà°¡à°Ĥà°¡à°¿:", "Ġà®®à®¤à¯įà®¤à®¿à®¯à®¿à®²à¯į", "à±Ĥà°ªà°¬à°¡à°¿à°Ĥà°¦à°¿", "Ġà®®à®°à¯ģà®¤à¯įà®¤à¯ģà®µà®®à¯į", "à±Ĥà°ªà°¿à°Ĥà°¦à°¿.", "Ġà®®à®²à®°à¯įà®¨à¯įà®¤à®¤à®©à¯į", "à±Ĥà°Łà°¨à°²à°¬à±Īà°°à±Ĩà°Ĥà°¡à±ģà°ķà±ĭà°Łà±įà°²à°ķà±ģ", "Ġà®®à®¾à®¤à®¿à®°à®¿à®¯à®¾à®ķ", "à±Ĥà°Łà°¾à°¨à±į,", "Ġà®®à®¾à®²à®¤à¯įà®¤à¯Ģà®µà¯ģà®ķà¯įà®ķà¯ģ", "à±ĥà°¤à°Ĥà°Ĺà°¾", "Ġà®®à®¾à®ķà®¾à®£à®®à¯į)", "à±Ĩà°¬à°¿à°¯à°¸à±į", "Ġà®®à®¾à®ļà¯ģà®ªà®¾à®Łà¯įà®Łà®¿à®©à¯į", "à±Ĩà°°à±įà°Łà°¿à°¯à±ĭà°°à°¾à°°à°¿", "Ġà®®à¯Ģà®¤à¯ģ", "à±Ĩà°²à°¿à°ļà°¿à°¨", "Ġà®®à¯ģà®¤à®²à®¾à®®à®¿à®Łà®¤à¯įà®¤à¯Īà®ķà¯į", "à±Ĩà°²à°ķà±Ĭà°¨à°¿", "Ġà®®à¯ģà®¤à¯įà®¤à®¿à®°à¯Īà®¯à®¿à®Łà¯įà®Łà¯ģ", "à±Ĩà°²à±įà°²à±ĭà°¨à°¿", "Ġà®®à¯Ĩà®ķà®°à¯įà®ķà®°à¯į", "à±Ĩà°¹à°°à±įà°Ĺà°°à±į,", "Ġà®®à®©à®ªà¯įà®ªà®¾à®Łà®®à¯į", "à±Ĩà°Ĥà°Ĺà±ģà°³à±Ĥà°°à±ģ", "Ġà®®à®©à®¿à®¤à®°à¯įà®ķà®³à®¿à®©à¯į", "à±Ĩà°ķà±įà°¨à°¾à°²à°ľà±Ģ,", "Ġà®®à®©à¯įà®©à®©à®¾à®²à¯į", "à±Ĩà°²à±ģà°Ĺà±ģ,", "Ġà®®à®©à¯įà®©à®°à¯įà®ķà®³à¯į", "à±Ĩà°Łà±į", "Ġà®®à®°à®ªà®£à¯ģ", "à±Ĩà°Łà±įà°°", "Ġà®®à®°à®ªà®¿à®¯à®±à¯į", "à±Ĩà°Łà±įà°°à±ĭà°²", "Ġà®®à®°à®ªà¯ģ", "à±Ĩà°Łà±įà°°à±ĭà°²à°¿à°¯à°Ĥ,", "Ġà®®à®°à®ªà¯ģà®ķà®³à¯Ī", "à±ĩà°¨à°ķà°²", "Ġà®®à®°à®ªà¯Ī", "à±ĩà°°à±ģà°Ĺà°¾", "Ġà®®à®¾à®±à¯įà®±à®®à®Łà¯Īà®¨à¯įà®¤à®©.", "à±ĩ...).", "Ġà®®à®¾à®±à¯įà®±à®¿à®¯à®¤à¯ģ.", "à±ĩà°¡à±ģ", "Ġà®®à®¿à®ķà¯ģ", "à±ĩà°ªà°¾à°²à±į,", "Ġà®®à®ķà®¤", "à±ĩà°µ", "Ġà®®à®ķà®¾à®µà¯Ģà®°à®°à®¿à®©à¯į", "à±ĩà°¤,", "Ġà®®à®ķà®¾à®ľà®©à®ªà®¾à®¤à®Ļà¯įà®ķà®³à¯į", "à±ĩà°¤à°°", "Ġà®®à®ķà¯įà®ķà®³à®¿à®©à¯į", "à±ĩà°°,", "Ġà®®à®ķà¯įà®ķà®³à¯Ī", "à±ĩà°°à±ĩà°¡à±ģ", "Ġà®®à®ķà¯įà®ķà®³à¯į\"", "à±ĩà°¶à°¾à°ĸ", "Ġà®®à¯ģà®´à¯ģ", "à±ĩà°·à°Ĥ.", "Ġà®®à¯ģà®©à¯Īà®ªà¯įà®ªà¯ģà®Łà®©à¯į", "à±ĩà°¸à°¿à°¯à°¾", "Ġà®®à¯ģà®©à¯į", "à±ĩà°¸à°¿à°Ĥà°¦à°¿.", "Ġà®®à¯ģà®©à¯įà®©à¯ĭà®Łà®¿à®¯à®¾à®©", "à±ĩà°ļà±įà°", "Ġà®®à¯ģà®©à¯įà®©à¯ĩà®±à¯įà®±à®®à¯į", "à±ĩà°ļà±įà°Ľ", "Ġà®®à¯ģà®©à¯įà®©à¯ĩà®±à¯įà®±à®Ļà¯įà®ķà®³à¯Īà®ªà¯į", "à±ĩà°ļà±įà°Ľà°¾à°¯à±ģà°¤", "Ġà®®à¯ģà®¯à®±à¯įà®ļà®¿", "à±Īà°¤à±įà°°à°¿", "Ġà®®à¯ģà®¯à®±à¯įà®ļà®¿à®¤à¯įà®¤", "à±Īà°¨à±ģà°²à±ģ", "Ġà®®à¯ģà®±à¯Īà®¯à¯Ī", "à±Īà°¸à±įà°¤à°µà±ģà°²à±ģ", "Ġà®®à¯ģà®±à¯Īà®ķà®³à¯Īà®¯à¯ģà®®à¯į,", "à±Īà°ķà±ĭà°°à±įà°Łà±ģà°²à±ģ", "Ġà®®à¯ģà®ķà¯įà®ķà®¿à®¯à®®à®¾à®©", "à±Īà°¦à°¾à°¨à°Ĥà°¤à±ĭ", "Ġà®®à¯ģà®ļà¯ģà®²à®¿à®®à¯į", "à±Īà°¨,", "Ġà®®à¯ģà®ļà¯ģà®²à®¿à®®à¯įà®ķà®³à¯Ī", "à±Īà°¨à°µà°¿", "Ġà®®à¯ģà®Łà®¿à®¤à¯įà®¤à¯ģ", "à±Īà°¨à°¿à°ķ", "Ġà®®à¯ģà®Łà®¿à®¯à®°à®ļà¯ģà®ķà®³à®¾à®ķ", "à±Ĭà°¡à°¿à°Ĺà°¿à°Ĥà°ļà±ģà°ķà±ĭà°µà°ļà±įà°ļà°¨à°¿", "Ġà®®à¯ģà®Łà®¿à®ķà¯įà®ķà®ªà¯įà®ªà®Łà¯įà®Ł", "à±Ĭà°²à±Ģ,", "Ġà®®à¯Ĥà®©à¯įà®±à®¾à®®à¯į", "à±Ĭà°Ĥà°¦à°¿à°Ĥà°¦à°¿.", "Ġà®®à¯Ĥà®²à®®à®¾à®ķ", "à±ĭà°¤à±įà°°à°¿,", "Ġà®®à¯Ĥà®²à®®à¯į", "à±ĭà°ĥ", "Ġà®®à¯ĩà®²à¯ģà®®à¯į,", "à±ĭà°ķà±įà°¯à°Ĥ", "Ġà®®à¯ĩà®²à¯į", "à±ĭà°ķà±įà°·", "Ġà®®à¯ĩà®±à¯įà®ķà¯ģà®ªà¯į", "à±ĭà°ļà°¨à°²à±ĭ", "Ġà®®à¯ĩà®±à¯įà®ķà¯ģà®ķà¯į", "à±ĭà°¨à±ĩà°¸à°¿à°¯à°¾", "Ġà®®à¯ĩà®±à¯įà®ķà¯Ĭà®£à¯įà®Łà®¾à®°à¯į.", "à±ĭà°¨à±įà°²à±ģ", "Ġà®®à¯Īà®¯à®ªà¯į", "à±ĭà°¨à±įà°²à±ģà°Ĺà°¾", "Ġà®®à¯Īà®¯à®®à®¾à®©à®¤à¯ģ", "à±ĭà°°à°¾à°Łà°Ĥ", "Ġà®®à¯Īà®¯à®®à®¾à®ķà®µà¯ģà®®à¯į,", "à±ĭà°²à°¿à°¥à°¿à°ķà±į", "Ġà®®à¯Ĭà®¤à¯įà®¤", "à±ĭà°³à±ģà°²à±ģ,", "Ġà®®à¯Ĭà®ķà¯Ĩà®ŀà¯įà®ļà®¤à®¾à®°à¯ĭ,", "à±Įà°°", "Ġà®®à¯Ĭà®´à®¿à®ªà¯į", "à±Įà°³à°¿,", "Ġà®®à¯Ĭà®´à®¿à®¯à®¾à®©", "à±Įà°ķà°¿à°ķ,", "Ġà®®à¯Ĭà®´à®¿à®¯à®¿à®©à¯į", "à±įà°¥à°¨à°²à°²à±ĭ", "Ġà®®à¯Ĭà®´à®¿à®ķà®³à®¾à®©à®µà¯Ī", "à±įà°ŀ", "Ġà®®à¯Ĭà®´à®¿à®ķà®³à®¿à®²à¯į", "à±įà°¤à±ĭ", "Ġà®®à¯Ĭà®´à®¿à®ķà®³à¯Īà®¯à¯ģà®Łà¯Īà®¯", "à±įà°¨à±ĩà°¯", "Ġà®®à¯Įà®°à®¿à®¯à®ªà¯į", "à±įà°ªà°¸à±į,", "Ġà®°à¯Ģà®¤à®¿à®¯à®¾à®ķ", "à±įà°ªà°¿à°Ĥà°ļà±ĩ", "Ġà®°à¯Ģà®¤à®¿à®¯à®¿à®²à¯į", "à±įà°®à°¦à±Ģà°¯à±ģà°²à±ģ,", "Ġà®µà®¾à®©à®¿à®¯à®²à¯į,", "à±įà°¯à°ķà±įà°·à°Ĥà°Ĺà°¾", "Ġà®µà®¾à®¯à¯į", "à±įà°¯à°µà°°à±įà°¤à°¿à°¤à±įà°µà°Ĥ", "Ġà®µà®¾à®°à¯įà®¤à¯įà®¤à¯Īà®¯à®¾à®©", "à±įà°¯à°µà°¸à°¾à°¯à°Ĥ", "Ġà®µà®¿à®£à¯įà®µà¯Ĩà®³à®¿à®¤à¯į", "à±įà°°à°¾à°µà°¿à°¡", "Ġà®µà®¿à®¤à®¿à®ªà¯įà®ªà®¿à®©à¯į", "à±įà°°à°¾à°Ĥà°¤à°¿,", "Ġà®µà®¿à®ļà®¯", "à±įà°°à°®à°Ĥà°Ĺà°¾", "Ġà®µà®ķà¯Īà®ªà¯įà®ªà®Łà¯įà®Ł", "à±įà°°à±Ģà°ķà±ģà°²à±ģ", "Ġà®µà¯Ģà®°à®°à¯įà®ķà®³à¯į", "à±įà°²à°®à±Ĩà°Ĥà°Łà°°à±Ģ", "Ġà®µà¯Ģà®´à¯įà®ļà¯įà®ļà®¿à®¯à®Łà¯Īà®¨à¯įà®¤à®¤à¯Īà®¯à¯ģà®®à¯į", "à±įà°²à°²à±ĭ", "Ġà®µà¯Ĩà®³à®¿à®ķà¯į", "à±įà°µà°°à°²à±ĭà°¨à±ĩ", "Ġà®µà¯ĩà®°à¯įà®ļà¯į", "à±įà°µà°¸à±įà°¤à±įà°°", "Ġà®µà¯Īà®ķà¯įà®ķà¯ģà®®à¯į", "à±įà°µà°¾à°®à°¿à°¤à±įà°°,", "Ġà®µà®£à®¿à®ķà®¤à¯įà®¤à®¿à®²à¯į", "à±įà°¸à±Ģà°²à±ģ,", "Ġà®µà®£à®¿à®ķà®®à¯į", "à±įà°ķà±ģ", "Ġà®µà®¨à¯įà®¤à®µà®°à¯į", "à±įà°ķà±Ĩà°Łà±į", "Ġà®µà®¨à¯įà®¤à¯ģà®³à¯įà®³à®¤à¯ģ.", "à±įà°Ĺà°¿", "Ġà®µà®¨à¯įà®¤à¯ģà®³à¯įà®³à®©.", "à±įà°ŀà°¾à°¨", "Ġà®µà®°à®¿", "Ġà®µà®°à¯ģà®®à®¾à®©à®®à®¾à®©à®¤à¯ģ", "Ġ.", "Ġà®µà®°à¯ģà®ķà®¿à®©à¯įà®±à®©.", "Ġà®µà®°à¯ģà®ķà¯Ī", "Ġ62", "Ġà®µà®°à¯Īà®¯à®¿à®²à®¾à®©", "Ġà®µà®°à®²à®¾à®±à¯įà®±à¯ģ", "ĠâĢĵ", "Ġà®µà®°à¯įà®ķà¯įà®ķà®¤à¯įà®¤à®¿à®©à®°à¯Īà®¤à¯į", "Ġ\"à°¨à±ĩà°°à±ĩà°¡à±ģ\"", "Ġà®µà®°à¯įà®ķà¯įà®ķà®¤à¯įà®¤à®¿à®©à®°à¯Īà®¯à¯ģà®®à¯į", "Ġ\"à°Ĺà°¿à°¨à±įà°¨à±Ĩ", "Ġà®µà®±à®¿à®¯", "Ġ\"à°Ńà°¾à°°à°¤à°¦à±ĩà°¶à°Ĥ\"", "Ġà®µà®±à¯ģà®®à¯Ī", "Ġ\"à°Ńà°°à°¤à°µà°°à±įà°·à°Ĥ\",", "Ġà®µà®³à®°à¯įà®¨à¯įà®¤à®¤à¯ģ.", "Ġ\"à°Ńà°°à°¤à±ģà°¡à±ģ\".", "Ġà®µà®³à®°à¯įà®¨à¯įà®¤à¯ģ", "Ġ(à°¯à±Ĥà°¦à±ģà°²à±ģ,", "Ġà®µà®³à®°à¯ģà®®à¯į", "Ġ(à°Łà°Ĥà°¡à±įà°°à°¾)", "Ġà®µà®³à®°à¯įà®ļà¯įà®ļà®¿", "Ġ(à°Ńà°¾à°°à°¤", "Ġà®µà®³à®°à¯įà®ļà¯įà®ļà®¿à®¯à®Łà¯Īà®¨à¯įà®¤à®©.", "Ġ(à°Ĩ", "Ġà®µà®³à®°à¯įà®ļà¯įà®ļà®¿à®ķà¯įà®ķà¯ģà®ķà¯į", "Ġ(à°ĩ", "Ġà®µà®´à®¿", "Ġ(à°ī", "Ġà®µà®´à®¿à®ªà¯į", "Ġ(à°Ĩà°Ĥà°Ĺà±įà°²à±ĩà°¯à±ģà°²à±ģ)", "Ġà®µà®´à®¿à®¯à®¿à®²à®¾à®©", "Ġ(à°ĩà°¦à±ĩ,", "Ġà®µà®´à®¿à®¯à¯ģà®Łà®©à¯į", "Ġ(à°īà°¦à°¾:", "Ġà®µà®´à®ķà¯įà®ķà®¿à®²à¯į", "Ġ10", "Ġà®µà®¾à®´à®¿à®Łà®Ļà¯įà®ķà®³à®¿à®²à¯į", "Ġ1000", "Ġà®µà®¾à®´à¯įà®¨à¯įà®¤à®©à®°à¯į.", "Ġ1010", "Ġà®µà®¾à®´à¯įà®¨à¯įà®¤à¯ģ", "Ġ142", "Ġà®µà®¾à®´à¯įà®ķà¯įà®ķà¯Ī", "Ġà®µà®¾à®´à¯įà®µà®¾à®©à®¤à¯ģ", "Ġ1652", "Ġà®µà®¾à®´à¯įà®µà®¿à®©à¯į", "Ġ17", "Ġà®µà®¾à®´à¯įà®µà¯Ī", "Ġ121,01,93,422.", "Ġà®µà®¾à®´à¯įà®µà¯Īà®ªà¯į", "Ġ1250", "Ġà®µà®¿à®°à®¿à®ķà¯ģà®Łà®¾à®µà¯ģà®®à¯į", "Ġ1853", "Ġà®µà®¿à®°à®¿à®µà®¾à®ķ", "Ġ1857", "Ġà®µà®¿à®°à®¿à®µà®Łà¯Īà®¨à¯įà®¤à®¤à¯ģ.", "Ġ1962", "Ġà®µà®¿à®°à®¿à®µà®Łà¯Īà®¨à¯įà®¤à¯ģ", "Ġ1965,", "Ġà®µà®¿à®²à®ķà¯įà®ķà®²à®¾à®©à®¤à¯ģ", "Ġà®µà®¿à®²à®Ļà¯įà®ķà¯ģà®ķà®³à¯į", "Ġ1971", "Ġà®µà®¿à®µà®ļà®¾à®¯à®¿à®ķà®³à¯į", "Ġ1974", "Ġà®µà®¿à®Łà¯įà®Łà¯ģ", "Ġ1975,", "Ġà®µà®¿à®Łà¯įà®Łà¯ģà®¤à¯į", "Ġ1996", "Ġà®µà®¿à®Łà¯įà®Łà¯ģà®ļà¯į", "Ġ1998", "Ġà®µà®ķà®¿à®¤à¯įà®¤à®¤à¯ģ.", "Ġ2003", "Ġà®µà®ķà¯ģà®¤à¯įà®¤à®¤à¯ģ.", "Ġ2004", "Ġà®µà®ķà¯ģà®ªà¯įà®ªà®¿à®©à®°à®¿à®Łà®®à®¿à®°à¯ģà®¨à¯įà®¤à¯ģà®®à¯į", "Ġ22", "Ġà®µà®Ļà¯įà®ķà®¾à®³à®¤à¯ĩà®ļà®®à¯į", "Ġ25%", "Ġà®µà®Ļà¯įà®ķà®¾à®³à®¤à¯įà®¤à®¿à®©à¯į", "Ġà®µà®Łà®¿à®¨à®¿à®²à®¤à¯įà®¤à®¿à®©à¯į", "Ġ2014", "Ġà®µà®Łà®®à¯ĩà®±à¯įà®ķà¯ģà®ªà¯į", "Ġà®µà®Łà®¿à®µà®®à®¾à®©à®¤à¯ģ", "Ġà®µà®Łà®¿à®µà®®à®¾à®ķ", "Ġ30", "Ġà®µà®Łà®ķà¯įà®ķà¯ģà®ļà¯į", "Ġ32,87,263", "Ġà®µà®Łà®ķà¯įà®ķà¯ĩ", "Ġ40", "Ġà®µà¯Ģà®¤à®¤à¯įà®¤à¯Ī", "Ġà®µà¯Ģà®¤à®®à®¾à®©à®¤à¯ģ", "Ġ75,7%.", "Ġà®µà¯ĩà®³à®¾à®£à¯įà®®à¯Ī,", "Ġ82,14%,", "Ġà®µà¯ĩà®ķà®®à®¾à®ķ", "Ġ83,04%,", "Ġà®µà¯ĩà®Łà¯įà®Łà¯Īà®¯à®¾à®Łà®¿", "Ġ83.80%", "Ġà®µà¯ĩà®¤à®¤à¯įà®¤à®¿à®©à¯į", "Ġà°¡à°¾à°²à°°à±įà°²à±ģ.", "Ġà®µà¯ĩà®¤à®®à®¾à®©à®¤à¯ģ", "Ġà°¢à°¾à°ķà°¾", "Ġà®µà¯ĩà®¤à®®à¯į", "Ġà°¥à°¾à°¨à±ĩ", "Ġà®µà¯ĩà®¤à®Ļà¯įà®ķà®³à®¾à®©à®µà¯Ī", "Ġà°¥à°¾à°°à±į", "Ġà®µà¯ĩà®¤à®Ļà¯įà®ķà®³à¯Ī", "Ġà°«à°²à°¿à°¤à°Ĥà°Ĺà°¾", "Ġà®µà¯ĩà®±à¯ģà®ªà®Łà¯įà®Łà¯ģ", "Ġà°«à±įà°°à°¾à°¨à±įà°¸à±į,", "Ġà®µà¯ĩà®±à¯įà®±à¯ģà®®à¯Ī", "Ġà°ĭ", "Ġà®µà¯ĩà®±à¯įà®±à¯ģà®®à¯Īà®ķà®³à¯Ī", "Ġà°Ķ", "Ġà®µà¯Īà®¤à¯įà®¤à®¤à®¿à®²à¯į", "Ġà°ĸ", "Ġà®µà¯Īà®¤à¯įà®¤à®¤à¯ģ.", "Ġà°Ł", "Ġà®µà¯Īà®¤à¯įà®¤à®¿à®°à¯ģà®¨à¯įà®¤à®¤à¯ģ", "Ġà°¤à°¤à±įà°µ", "Ġà®¹à®°à¯įà®·à®µà®°à¯įà®¤à®©à®°à¯į", "Ġà°¤à°¦à±ģà°ªà°°à°¿", "Ġà®¹à®¿à®¨à¯įà®¤à¯ģà®·à¯į", "Ġà°¤à°®à°¿à°³à°Ĥ.", "Ġà®¹à®¿à®¨à¯įà®¤à¯ģà®¸à¯įà®¤à®¾à®©à®¿à®©à¯į", "Ġà°¤à°²à°Ĥà°ªà±ģà°¤à±ĭ", "Ġà®¹à®¿à®¨à¯įà®¤à¯ģà®¸à¯įà®¤à®¾à®©à¯į", "Ġà°¤à°¾à°°à°¤à°®à±įà°¯à°¾à°²à±ģà°¨à±įà°¨à°¾à°¯à°¿.", "Ġà®ħà®£à¯ģ", "Ġà°¤à°ķà±įà°ķà±ģà°µà±ĩ.", "Ġà®ħà®£à¯ģà®ķà®ªà¯įà®ªà®Łà¯įà®Łà¯ģ", "Ġà°¤à°Ĺà±įà°Ĺà°¿à°ªà±ĭà°¯à°¿à°Ĥà°¦à°¿.", "Ġà®ħà®¨à¯įà®¤à®®à®¾à®©à¯į", "Ġà°¤à±ģà°°à±ģà°·à±įà°ķà±ģà°²", "Ġà®ħà®¨à¯įà®¨à¯ĩà®°à®¤à¯įà®¤à®¿à®²à¯į", "Ġà°¤à±Ĩà°²à±ģà°Ĺà±ģ,", "Ġà®ħà®©à¯Īà®¤à¯įà®¤à¯ģ", "Ġà°¤à±įà°µà°°à°²à±ĭà°¨à±ĩ", "Ġà®ħà®°à®ªà®¿à®ķà¯įà®ķà®Łà®²à¯ģà®®à¯į,", "Ġà°¤à°°à±ģà°µà°¾à°¤,", "Ġà®ħà®²à¯Īà®ķà®³à®¾à®ķ", "Ġà°¤à°°à±įà°µà°¾à°¤à°¿", "Ġà®ħà®³à®µà®¿à®²à¯į", "Ġà°¤à°¿à°°à°¿à°Ĺà±ĩ", "Ġà®ħà®³à®µà¯ģ", "Ġà°¤à°¿à°°à±ģà°Ĺà±ģà°¬à°¾à°Łà±ģ", "Ġà®ħà®´à¯Īà®ķà¯įà®ķà®ªà¯įà®ªà®Łà¯ģà®ķà®¿à®±à®¤à¯ģ.", "Ġà°¤à±Ĥà°°à±įà°ªà±ģ", "Ġà®ħà®µà®°à¯ģà®®à¯į", "Ġà°¤à±Ĥà°°à±įà°ªà±ģà°¨", "Ġà®ħà®µà®°à¯įà®ķà®³à®¤à¯ģ", "Ġà°¦à°¶à°²à±ĭ", "Ġà®ħà®µà®°à¯įà®ķà®³à¯į", "Ġà°¦à°¸à°°à°¾.", "Ġà®ħà®ķà®°à®¾à®¤à®¿à®¯à®¿à®©à¯į", "Ġà°¦à°¿à°Ĺà±ģà°µ", "Ġà®ħà®ķà®¿à®®à¯įà®ļà¯Ī", "Ġà°¦à°Ĥà°¡à°¯à°¾à°¤à±įà°°à°²à°¤à±ĭ,", "Ġà®ħà®ļà¯ĭà®ķà®°à¯į", "Ġà°¦à°ķà±įà°ķà°¨à±ģ", "Ġà®ħà®ļà¯įà®ļà®®à®¯à®®à¯į", "Ġà°¦à°Ĺà±įà°Ĺà°°à°²à±ĭ", "Ġà®ħà®Łà¯ģà®¤à¯įà®¤à¯ģ", "Ġà°¦à±Ģà°¨à°¿à°ķà°¿", "Ġà®ħà®Łà¯Īà®¯", "Ġà°¦à±Ģà°¨à±įà°¨à°¿", "Ġà®ħà®¤à®±à¯įà®ķà¯ģ", "Ġà°¦à±Ģà°ªà°¾à°µà°³à°¿,", "Ġà®ħà®¤à®±à¯įà®ķà¯ģà®ķà¯į", "Ġà°¦à±įà°°à°¾à°µà°¿à°¡", "Ġà®ħà®¤à®¿à®ķà®®à®¾à®©", "Ġà°¦à°¾à°Łà°¿à°¨", "Ġà®ħà®¤à®¿à®ķà®¾à®°à®ªà¯įà®ªà¯Ĥà®°à¯įà®µà®®à®¾à®ķ", "Ġà°¦à°¾à°Łà±ĩà°¸à°¿à°Ĥà°¦à°¿.", "Ġà®ħà®®à¯Īà®¤à®¿à®¯à®¾à®©", "Ġà°¦à°ķà±įà°·à°£à°¾à°¸à°¿à°¯à°¾à°²à±ĭ", "Ġà®ħà®®à¯Īà®¨à¯įà®¤à®¤à¯ģ.", "Ġà°¦à°ķà±įà°·à°¿à°£à°¦à°¿à°Ĺà±įà°Ńà°¾à°Ĺà±ĩ,", "Ġà®ħà®®à¯Īà®¨à¯įà®¤à¯ģà®³à¯įà®³à®¤à¯ģ.", "Ġà°¦à°ķà±įà°·à°¿à°£à°¾à°¸à°¿à°¯à°¾", "Ġà®ħà®®à¯Īà®ªà¯įà®ªà®¾à®ķ", "Ġà°¦à°ķà±įà°·à°¿à°£à°¾à°¨,", "Ġà®ħà®®à¯Īà®ªà¯įà®ªà¯ģà®ķà®³à®¾à®©à®µà¯Ī", "Ġà°¦à±ĩà°¶à°°à°¾à°ľà°ķà±Ģà°¯à°¾à°²à±įà°²à±ĭ", "Ġà®ħà®®à¯Īà®ªà¯įà®ªà¯ģà®ķà®³à¯Īà®¯à¯ģà®Łà¯Īà®¯,", "Ġà°¦à±ĩà°¶à°¾à°§à°¿à°¨à±ĩà°¤", "Ġà®ħà®°à®ªà¯įà®ªà®¾,", "Ġà°¦à±ĩà°¶à°¾à°¨à°¿à°ķà°¿", "Ġà®ħà®°à¯ģà®ķà®¿à®²à¯į", "Ġà°¦à±ĩà°¶à°¾à°¨à±įà°¨à°¿", "Ġà®ħà®°à®ļà®®à®°à®ªà¯ģà®ķà®³à¯į", "Ġà°¦à±ĩà°¶à°¾à°²à°¤à±ĭ", "Ġà®ħà®°à®ļà®¿à®¯à®²à®®à¯Īà®ªà¯įà®ªà¯ģ", "Ġà°¦à±ĩà°¶à°¾à°²à°¨à±ģ", "Ġà®ħà®°à®ļà¯ģà®ķà®³à¯Ī", "Ġà°¦à±įà°µà°¿à°¸à°Ńà°¾", "Ġà®ħà®°à®ļà¯ģà®ķà®³à¯į", "Ġà°¦à±įà°µà±Ģà°ªà°Ĥ.", "Ġà®ħà®±à®¿à®¯à®ªà¯įà®ªà®Łà¯ģà®®à¯į", "Ġà°¦à±įà°µà±Ģà°ªà°ķà°²à±įà°ªà°Ĥ", "Ġà®ħà®±à®¿à®¯à®ªà¯įà®ªà®Łà¯ģà®ķà®¿à®©à¯įà®±à®©à®°à¯į.", "Ġà°¦à±įà°µà±Ģà°ªà±ĩ,", "Ġà®ħà®±à®¿à®¯à®ªà¯įà®ªà®Łà¯ģà®ķà®¿à®±à®¤à¯ģ.", "Ġà°¨à°¦à±ģà°²à±ģ", "Ġà®ħà®±à®¿à®¯à®ªà¯įà®ªà®Łà¯įà®Ł", "Ġà°¨à°¾à°Łà°¿", "Ġà®ħà®±à®¿à®¯à®ªà¯įà®ªà®Łà¯įà®Łà®©.", "Ġà°¨à°¿à°¡à°¿à°µà°¿à°¨à°¿", "Ġà®ħà®±à®¿à®µà®¿à®¤à¯įà®¤à®©.", "Ġà°¨à°¿à°ªà±ģà°£à±ģà°²à±ģ", "Ġà®ħà®±à®¿à®µà®¿à®¯à®²à¯į,", "Ġà°¨à°¿à°°à°ķà±įà°·à°°à°¾à°¸à±įà°¯à°¤,", "Ġà®ħà®Łà¯Īà®¨à¯įà®¤à®¤à¯Īà®ķà¯į", "Ġà°¨à°¿à°²à°¬à±Ĩà°Łà±įà°Łà±ģà°ķà±ģà°¨à±įà°¨à°¾à°¯à°¿.", "Ġà®ħà®Łà¯Īà®¨à¯įà®¤à®¿à®°à¯ģà®¨à¯įà®¤à®©à®°à¯į.", "Ġà°¨à°¿à°²à°¿à°ļà°¿à°Ĥà°¦à°¿.", "Ġà®Ĩà®¤à®°à®µà¯ģ", "Ġà°¨à°¿à°·à±ĩà°§à°Ĥ,", "Ġà®Ĩà®©à¯įà®®à¯Ģà®ķà®ªà¯į", "Ġà°¨à±Ĥà°Łà°¨à°²à°¬à±Īà°°à±Ĩà°Ĥà°¡à±ģà°ķà±ĭà°Łà±įà°²à°ķà±ģ", "Ġà®Ĩà®³à®ªà¯įà®ªà®Łà¯įà®Łà®¤à¯ģ", "Ġà°¨à±Ĩà°²à°ķà±Ĭà°¨à°¿", "Ġà®Ĩà®ķà¯įà®ķà®¿à®¯à¯ģà®³à¯įà®³à®¤à¯ģ.", "Ġà°¨à±ĩà°ªà°¾à°²à±į,", "Ġà®Ĩà®ķà¯įà®ķà®ķà¯į", "Ġà°¨à±ĩà°°à±ģà°Ĺà°¾", "Ġà®Ĩà®Ļà¯įà®ķà®¿à®²", "Ġà°¨à±ĩà°°à±ĩà°¡à±ģ", "Ġà®Ĩà®£à¯įà®Łà®¾à®°à¯į.", "Ġà°¨à°¡à°¿à°ªà°¿à°¸à±įà°¤à°¾à°®à°¨à°¿", "Ġà®Ĩà®£à¯įà®Łà¯ģà®ķà¯įà®ķà¯ģà®ªà¯į", "Ġà°¨à°¡à°¿à°ªà°¿à°Ĥà°ļà°¾à°²à°¨à±ĩ", "Ġà®Ĩà®¤à®¾à®°à®®à®¾à®©à®¤à¯ģ", "Ġà°¨à°¡à°¿à°ªà°¿à°Ĥà°ļà°¿,", "Ġà®Ĩà®¤à®¾à®°à®Ļà¯įà®ķà®³à®¾à®©à®µà¯Ī", "Ġà°¨à°¡à°¿à°ªà°¿à°Ĥà°ļà°Łà°Ĥ", "Ġà®Ĩà®¤à®¾à®°à®Ļà¯įà®ķà®³à¯į,", "Ġà°¨à°¾à°¯à°ķà°¤à±įà°µà°¾à°¨", "Ġà®Ĩà®ªà¯įà®ªà®¿à®°à®¿à®ķà¯įà®ķà®¾à®µà¯ģà®ķà¯įà®ķà¯ģ", "Ġà°¨à°¾à°¯à°ķà°¤à±įà°µà°Ĥà°²à±ĭ", "Ġà®Ĩà®¯à®¿à®°à®®à¯į", "Ġà°¨à°¾à°Ĺà°°à°¿à°ķà°¤.", "Ġà®Ĩà®¯à¯ģà®¤à®Ļà¯įà®ķà®³à¯Īà®¯à¯ģà®Łà¯Īà®¯", "Ġà°¨à°¾à°Ĺà°°à°¿à°ķà°¤à°ķà±ģ", "Ġà®Ĩà®¯à¯įà®µà¯ģ", "Ġà°¨à°¿à°¯à±ĭà°²à°¿à°¥à°¿à°ķà±į", "Ġà®Ĩà®±à¯įà®±à®¿", "Ġà°¨à°¿à°¯à°®à°¿à°Ĥà°ļà°¬à°¡à°¿à°¨", "Ġà®Ĩà®±à¯įà®±à®¿à®©à¯į", "Ġà°¨à°¿à°¯à°®à°¿à°Ĥà°ļà°¬à°¡à±įà°¡", "Ġà®Ĩà®±à¯įà®±à¯Īà®ķà¯į", "Ġà°¨à°¿à°°à±įà°µà°¹à°£à°²à±ĭ", "Ġà®Ĩà®ķà¯įà®ļà¯ģà®ªà¯ĭà®°à¯įà®Łà¯ģ", "Ġà°¨à°¿à°µà°¾à°°à°¿à°¸à±įà°¤à°¾à°°à±ģ.", "Ġà®Ĩà®ķà®¿à®¯à¯ĭà®°à¯Ī", "Ġà°¨à°¿à°µà°¾à°¸à°¾à°²à±ģ", "Ġà®Ĩà®ķà®¿à®¯à®µà®±à¯įà®±à®¿à®²à¯į", "Ġà°¨à±ģà°Ĥà°¡à°¿,", "Ġà®Ĩà®ķà®¿à®¯à®µà®±à¯įà®±à¯ģà®ķà¯įà®ķà®¾à®ķà®µà¯ģà®®à¯į", "Ġà°¨à±ģà°Ĥà°ļà°¿", "Ġà®Ĩà®ķà®¿à®¯à®µà®±à¯įà®±à¯ģà®ķà¯įà®ķà¯ģ", "Ġà°¨à±įà°¯à°¾à°¯à°¸à±įà°¥à°¾à°¨à°®à±Īà°¨", "Ġà®Ĩà®ķà®¿à®¯à®µà®±à¯įà®±à¯ģà®Łà®©à¯į", "Ġà°¨à±įà°¯à°¾à°¯à°µà±įà°¯à°µà°¸à±įà°¥,", "Ġà®Ĩà®ķà®¿à®¯à®µà®±à¯įà®±à¯Ī", "Ġà°¨à±įà°¯à°¾à°¯à°µà±įà°¯à°µà°¸à±įà°¥à°²à±ĭ", "Ġà®Ĩà®ļà®¿à®¯à®¾à®µà¯Īà®ļà¯į", "Ġà°ªà°°à±įà°µà°¤à°¾à°²à°¤à±ĭ", "Ġà®Ĩà®Łà¯įà®ļà®¿", "Ġà°ªà°°à±įà°·à°¿à°¯à°¨à±ģà°²à±ģ,", "Ġà®Ĩà®Łà¯įà®ļà®¿à®ķà¯įà®ķà¯ģ", "Ġà°ªà°¾à°Ĥà°¡à±įà°¯à±ģà°²à±ģ", "Ġà®Ĩà®Łà¯įà®ļà®¿à®¯à®¾à®³à®°à®¾à®²à¯į", "Ġà°ªà°¾à°Łà±ģ", "Ġà®Ĩà®Łà¯įà®ļà®¿à®¯à¯Ī", "Ġà°ªà°¿à°²à°¿à°ļà°¾à°°à±ģ.", "Ġà®ĩà®©à®Ļà¯įà®ķà®³à¯Īà®¯à¯ģà®Łà¯Īà®¯", "Ġà°ªà°Ĥà°ªà°¿à°¨", "Ġà®ĩà®±à¯ģà®¤à®¿à®¯à®¾à®ķ", "Ġà°ªà°Ĥà°ļà±ģà°ķà±ģà°Ĥà°Łà±ĭà°Ĥà°¦à°¿.", "Ġà®ĩà®±à¯Īà®¯à®¾à®£à¯įà®®à¯Īà®¯à¯Īà®¯à¯ģà®®à¯į", "Ġà°ªà°ķà±įà°·à°Ĥ", "Ġà®ĩà®²à¯įà®²à®¾à®¤", "Ġà°ªà°ļà±įà°ļà°ľà±Ĩà°Ĥà°¡à°¾", "Ġà®ĩà®´à¯ģà®¤à¯įà®¤à®©.", "Ġà°ªà°Łà°Ĥà°²à±ĭ", "Ġà®ĩà®µà®°à¯ģà®ķà¯įà®ķà¯ģà®ªà¯į", "Ġà°ªà±Ĩà°Łà±įà°°à±ĭà°²à°¿à°¯à°Ĥ,", "Ġà®ĩà®Ļà¯įà®ķà¯ģ", "Ġà°ªà±Ĭà°¡à°¿à°Ĺà°¿à°Ĥà°ļà±ģà°ķà±ĭà°µà°ļà±įà°ļà°¨à°¿", "Ġà®ĩà®£à¯Īà®¤à¯įà®¤à¯ģ", "Ġà°ªà±ĭà°°à°¾à°Łà°Ĥ", "Ġà®ĩà®£à¯Īà®¯à®¤à¯įà®¤à®¿à®±à¯įà®ķà¯ģà®³à¯į", "Ġà°ªà±Įà°°", "Ġà®ĩà®£à¯įà®Łà®¿à®¯à®¾", "Ġà°ªà°¦à°µà°¿", "Ġà®ĩà®£à¯įà®Łà®¿à®¯à®¾à®µà®¿à®²à¯į", "Ġà°ªà°¦à°µà°¿.", "Ġà®ĩà®£à¯įà®Łà¯ĭà®¯à¯į", "Ġà°ªà°¦à°¿à°¶à°¾à°¤à°Ĥ", "Ġà®ĩà®£à¯įà®Łà¯ĭà®¸à¯į", "Ġà°ªà°¦à±įà°§à°¤à°¿", "Ġà®ĩà®¤à®©à®¾à®²à¯į", "Ġà°ªà°¦à±įà°§à°¤à°¿à°²à±ĭ", "Ġà®ĩà®¤à®¿à®²à¯į", "Ġà°ªà°°à°®à±Īà°¨", "Ġà®ĩà®¤à®¿à®ķà®¾à®ļà®®à¯į", "Ġà°ªà°°à°®à±ĭà°¨à±įà°¨à°¤", "Ġà®ĩà®¤à¯ģà®µà®¾à®ķà¯ģà®®à¯į.", "Ġà°ªà°°à°¾à°ľà°¯à°Ĥ", "Ġà®ĩà®¤à¯ĩ", "Ġà°ªà°°à°¿à°¢à°µà°¿à°²à±įà°²à°¾à°¯à°¿.", "Ġà®ĩà®¤à®±à¯įà®ķà®¾à®©", "Ġà°ªà°°à°¿à°¸à±įà°¥à°¿à°¤à°¿", "Ġà®ĩà®¤à®±à¯įà®ķà¯ģà®¤à¯į", "Ġà°ªà°°à±ĭà°ķà±įà°·", "Ġà®ĩà®¨à¯įà®¤à®ķà¯į", "Ġà°ªà°°à°¿à°ªà°¾à°²à°¨", "Ġà®ĩà®¨à¯įà®¤à¯ģà®ªà¯į", "Ġà°ªà°°à°¿à°ªà°¾à°²à°¿à°Ĥà°ļ", "Ġà®ĩà®¨à¯įà®¤à¯ģà®ķà¯įà®ķà®³à¯Īà®ªà¯į", "Ġà°ªà°°à±Ģà°ķà±įà°·à°¨à±ģ", "Ġà®ĩà®¨à¯įà®¤à¯ĭà®©à¯ĩà®ļà®¿à®¯à®¾à®µà¯ģà®Łà®©à¯į", "Ġà°ªà°°à±Ģà°ķà±įà°·à°²à±ģ", "Ġà®ĩà®¨à¯įà®¤à®¿à®¯à®°à¯įà®ķà®³à¯Ī", "Ġà°ªà°²à±įà°²à°µà±ģà°²à±ģ,", "Ġà®ĩà®¨à¯įà®¤à®¿à®¯à®ķà¯į", "Ġà°ªà°²à±įà°²à±Ĩà°²à±įà°²à±ĭà°¨à°¿", "Ġà®ĩà®¨à¯įà®¤à®¿à®¯à®¾à®µà®¾à®©à®¤à¯ģ", "Ġà°ªà°¶à±įà°ļà°¿à°®à°¾à°¨,", "Ġà®ĩà®¨à¯įà®¤à®¿à®¯à®¾à®µà¯ģà®ķà¯įà®ķà¯ģà®³à¯į", "Ġà°ªà°¾à°°à°¿à°¶à±įà°°à°¾à°®à°¿à°ķ", "Ġà®ĩà®¨à¯įà®¤à®¿à®¯à®¾à®µà¯Īà®¯à¯ģà®®à¯į", "Ġà°ªà°¾à°°à±įà°²à°®à±Ĩà°Ĥà°Łà°°à±Ģ", "Ġà®ĩà®¨à¯įà®¨à®¾à®ķà®°à®¿à®ķà®®à®¾à®©à®¤à¯ģ", "Ġà°ªà°¾à°°à±įà°¸à±Ģà°²à±ģ,", "Ġà®ĩà®¨à¯įà®¨à®¾à®Łà¯įà®ķà®³à®¿à®²à¯į", "Ġà°ªà°¾à°°à±įà°Łà±Ģà°²", "Ġà®ĩà®ªà¯įà®ªà®ķà¯ģà®¤à®¿à®¯à¯Ī", "Ġà°ªà°¾à°°à±įà°Łà±Ģà°²à°¤à±ĭ", "Ġà®ĩà®ªà¯įà®ªà¯ĩà®°à®°à®ļà®¾à®©à®¤à¯ģ", "Ġà°ªà°¾à°°à±įà°Łà±Ģà°ķà°¿", "Ġà®ĩà®ªà¯įà®ªà¯ĩà®°à®°à®ļà¯ģà®ķà®³à®¿à®©à¯į", "Ġà°ªà°¾à°°à±įà°Łà±Ģà°Ĺà°¾", "Ġà®ĩà®¯à®±à¯įà®±à®ªà¯įà®ªà®Łà¯įà®Łà®©.", "Ġà°ªà°¾à°²à°¨", "Ġà®ĩà®¯à®²à¯įà®ªà¯ģà®ķà®³à®¾à®ķà®ķà¯į", "Ġà°ªà°¾à°²à°¯à°¿à°Ĥà°¦à°¿", "Ġà®ĩà®¯à®ķà¯įà®ķà®®à®¾à®©à®¤à¯ģ", "Ġà°ªà°¾à°²à°¨à°²à±ĭà°ķà°¿", "Ġà®ĩà®¯à®ķà¯įà®ķà®Ļà¯įà®ķà®³à®¿à®©à¯į", "Ġà°ªà°¾à°ķà°¿à°¸à±įà°¤à°¾à°¨à±į", "Ġà®ĩà®¯à®ķà¯įà®ķà®Ļà¯įà®ķà®³à¯į", "Ġà°ªà°¾à°ķà°¿à°¸à±įà°¤à°¾à°¨à±į,", "Ġà®ĩà®°à¯ģà®®à¯įà®ªà¯ģà®ķà¯į", "Ġà°ªà°¾à°ķà°¿à°¸à±įà°¤à°¾à°¨à±įà°¤à±ĭ", "Ġà®ĩà®°à®£à¯įà®Łà®¾à®®à¯į", "Ġà°ªà°¾à°ķà°¿à°¸à±įà°¥à°¾à°¨à±į", "Ġà®ĩà®°à®£à¯įà®Łà®¾à®µà®¤à¯ģ", "Ġà°ªà°¾à°ķà°¿à°¸à±įà°¥à°¾à°¨à±į,", "Ġà®ĩà®°à®£à¯įà®Łà®¿à®²à¯ģà®®à¯ĩ", "Ġà°ªà°¾à°ķà°¿à°¸à±įà°¥à°¾à°¨à±įà°ķà±ģ", "Ġà®ĩà®°à®£à¯įà®Łà¯ģ", "Ġà°ªà°Ĥà°¡à±ģ", "Ġà®ĩà®°à®£à¯įà®Łà¯ģà®®à¯į", "Ġà°ªà°Ĥà°¡à±įà°²à±ģ", "Ġà®ĩà®°à®¾à®£à¯ģà®µà®¤à¯į", "Ġà°ªà°Łà±įà°Łà°¾à°²à±Ĩà°ķà±įà°ķà°¨à±ģà°Ĥà°¦à°¿.", "Ġà®ĩà®°à®¾à®£à¯ģà®µà®Ļà¯įà®ķà®³à¯į", "Ġà°ªà°Łà±įà°Łà±ģà°¨à±ģ", "Ġà®ĩà®°à®¾à®£à¯ģà®µà®ļà¯į", "Ġà°ªà°Łà±įà°Łà°£à°¾à°²", "Ġà®ĩà®°à®¾à®ļà¯įà®ļà®¿à®¯à®®à®¾à®©à®¤à¯ģ", "Ġà°ªà°Łà±įà°Łà°£à°¾à°²à±ģ,", "Ġà®ĩà®°à®¾à®ļà¯įà®ļà®¿à®¯à®Ļà¯įà®ķà®³à¯ģà®ķà¯įà®ķà¯ģ", "Ġà°ªà±Ģà°łà°Ńà±Ĥà°®à°¿à°¤à±ĭ", "Ġà®ĩà®°à®¾à®ļà¯įà®ļà®¿à®¯à®Ļà¯įà®ķà®³à¯ģà®ķà¯įà®ķà¯ģà®ªà¯į", "Ġà°ªà±Ģà°łà°Ńà±Ĥà°®à°¿à°ķà°¿", "Ġà®ĩà®°à¯ģà®ªà¯įà®ªà¯Īà®ªà¯į", "Ġà°ªà±ģà°°à±ģà°·à±ģà°²", "Ġà®ĩà®°à¯ģà®¨à¯įà®¤,", "Ġà°ªà±ģà°°à±ģà°·à±ģà°²à°ķà±ģ", "Ġà®ĩà®°à¯ģà®¨à¯įà®¤à®¤à®¿à®²à®¿à®°à¯ģà®¨à¯įà®¤à¯ģ", "Ġà°ªà±ģà°Łà±įà°Łà°¿à°²à±įà°²à±ģ.", "Ġà®ĩà®°à¯ģà®¨à¯įà®¤à®¤à¯ģ", "Ġà°ªà±ģà°Łà±įà°Łà±ģà°ªà±Ĥà°°à±įà°µà±ĭà°¤à±įà°¤à°°à°¾à°²à±ģ", "Ġà®ĩà®²à®¤à¯įà®¤à¯Ģà®©à¯į", "Ġà°ªà±Ĥ.", "Ġà®ĩà®²à®ķà¯įà®ķà¯ģà®ķà®³à¯Ī", "Ġà°ªà±Ĥà°£à±ĩ", "Ġà®ĩà®²à®Ļà¯įà®ķà¯Ī", "Ġà°ªà±Ĥà°°à±įà°¤à°¿à°Ĺà°¾", "Ġà®ĩà®²à®ķà¯įà®ķà®¿à®¯à®®à¯ģà®®à¯į", "Ġà°ªà±Ĥà°°à±įà°µà°ªà±ģ", "Ġà®ĩà®²à®ķà¯įà®ķà®¿à®¯à®Ļà¯įà®ķà®³à¯į", "Ġà°ªà±Ĥà°°à±įà°µà°Ĥ", "Ġà®ĩà®ķà¯įà®ķà®¾à®²à®¤à¯įà®¤à®¿à®©à¯į", "Ġà°ªà±ĩà°¦à°°à°¿à°ķà°Ĥ,", "Ġà®ĩà®ķà¯įà®ķà®¾à®²à®ķà®Łà¯įà®Łà®®à®¾à®©à®¤à¯ģ", "Ġà°ªà±ĩà°°à±ģà°¤à±ĭ", "Ġà®ĩà®ļà¯Ī", "Ġà°ªà±ĩà°°à±įà°ķà±Ĭà°¨à°µà°ļà±įà°ļà±ģ.", "Ġà®ĩà®ļà¯įà®ļà¯Ĭà®²à¯įà®²à®¾à®©", "Ġà°ªà±ĩà°°à±įà°ķà±Ĭà°¨à±įà°¨à°¾à°¯à°¿.", "Ġà®ĩà®ļà¯ģà®²à®¾à®®à®¿à®©à¯į", "Ġà°ªà±Ĭà°Ĥà°¦à°¿à°¨à°¦à°¿.", "Ġà®ĩà®ļà¯ģà®²à®¾à®®à¯į,", "Ġà°ªà±ĭà°°à±įà°ļà±ģà°Ĺà°²à±į,", "Ġà®ĩà®Łà®¤à¯įà®¤à®¿à®²à¯į", "Ġà°ªà±ĭà°·à°ķà°¾à°¹à°¾à°°", "Ġà®ĩà®Łà®®à®¾à®±à¯įà®±à®®à¯į", "Ġà°ªà±įà°°à°¥à°®", "Ġà®ĩà®Łà®®à¯į", "Ġà°ªà±įà°°à°®à°¾à°£", "Ġà®ĩà®Łà®Ļà¯įà®ķà®³à®¿à®²à¯į", "Ġà°ªà±įà°°à°¯à°¾à°£à°¿à°ķà±ģà°²", "Ġà®ĩà®Łà®Ļà¯įà®ķà®³à¯į", "Ġà°ªà±įà°°à°¾à°¦à±ĩà°¶à°¿à°ķ", "Ġà®Īà®°à¯įà®¤à¯įà®¤à®¤à¯ģ.", "Ġà°ªà±įà°°à°¾à°¬à°²à±įà°¯à°Ĥ", "Ġà®Īà®Łà¯ģà®ªà®Łà¯įà®Łà®©.", "Ġà°ªà±įà°°à°¾à°®à±ģà°ĸà±įà°¯à°¤à°¨à±ģ", "Ġà®Īà®Łà¯ģà®ªà®Łà¯įà®Łà®¿à®°à¯ģà®¨à¯įà®¤à®¤à¯ģ.", "Ġà°ªà±įà°°à°¾à°¯à°®à±Īà°¨à°¦à°¿.", "Ġà®īà®£à¯įà®ªà®µà®°à¯įà®ķà®³à®¾à®ķ", "Ġà°ªà±įà°°à°¾à°¸à±Ĩà°¸à±į", "Ġà®īà®°à¯ĭà®®à¯Īà®ªà¯į", "Ġà°ªà±įà°°à°¾à°ľà°¾à°¸à±įà°µà°¾à°®à±įà°¯", "Ġà®īà®Łà¯įà®ķà®°à¯ģà®¤à¯įà®¤à®¾à®ķ", "Ġà°ªà±įà°°à°ķà°¾à°°à°Ĥ,", "Ġà®īà®£à®µà¯ģà®ªà¯į", "Ġà°ªà±įà°°à°ĸà±įà°¯à°¾à°¤à°¿", "Ġà®īà®£à®µà¯Īà®ķà¯į", "Ġà°ªà±įà°°à°Ĺà°¤à°¿à°¨à°¿", "Ġà®īà®£à¯įà®®à¯Īà®¯à®¿à®²à¯į", "Ġà°ªà±įà°°à°¤à°¿", "Ġà®īà®¯à®°à¯į", "Ġà°ªà±įà°°à°¤à°¿à°¨à°¿à°§à°¿à°ļà±ĩ", "Ġà®īà®¯à®°à¯įà®¨à¯įà®¤à®¤à¯ģ.", "Ġà°ªà±įà°°à°¤à±įà°¯à°ķà±įà°·à°Ĥà°Ĺà°¾", "Ġà®īà®¯à®¿à®°à®¿à®©à®ªà¯į", "Ġà°ªà±įà°°à°¤à°¿à°ªà°ķà±įà°·à°®à±Īà°Ĥà°¦à°¿.", "Ġà®īà®¯à®¿à®°à®¿à®´à®ªà¯įà®ªà¯ģ", "Ġà°ªà±įà°°à°¤à°¿à°ªà°ķà±įà°·à°Ĥ", "Ġà®īà®¯à®¿à®°à¯į", "Ġà°ªà±įà°°à°¦à±ĩà°¶à±ĩ,", "Ġà®īà®°à¯ģà®µà®¾à®¯à®¿à®©.", "Ġà°ªà±įà°°à°¦à±ĩà°¶à±į", "Ġà®īà®°à¯ģà®µà®¾à®ķà®¤à¯į", "Ġà°ªà±įà°°à°§à°¾à°¨à°®à°Ĥà°¤à±įà°°à°¿à°¨à°¿", "Ġà®īà®°à¯ģà®µà®¾à®ķà®¿à®¯à¯ģà®³à¯įà®³à®¤à¯ģ.", "Ġà°ªà±įà°°à°§à°¾à°¨à°®à°Ĥà°¤à±įà°°à°¿à°ķà°¿", "Ġà®īà®°à¯ģà®µà®¾à®ķà¯įà®ķà®®à¯į", "Ġà°ªà±įà°°à°ªà°Ĥà°ļà°¦à±ĩà°¶à°¾à°²à°²à±ĭ", "Ġà®īà®°à¯ģà®µà®¾à®ķà¯įà®ķà®®à¯į,", "Ġà°ªà±įà°°à°®à±ģà°ĸà°®à±Īà°¨à°¦à±ĩ.", "Ġà®īà®°à¯ģà®µà®¾à®ķà¯įà®ķà®¿à®¯à®¤à®¿à®²à¯ģà®®à¯į", "Ġà°ªà±įà°°à°¸à±įà°¤à±ģà°¤à°®à±ģ", "Ġà®īà®±à¯ģà®¤à®¿", "Ġà°ªà±įà°°à°¾à°°à±įà°¥à°¨à°²à°²à±ĭ", "Ġà®īà®±à¯ģà®¤à®¿à®¯à®¾à®ķ", "Ġà°ªà±įà°°à°¾à°°à°Ĥà°Ńà°®à±Īà°¨", "Ġà®īà®±à¯ģà®¤à®¿à®¯à¯ģà®Łà®©à¯į", "Ġà°ªà±įà°°à°¾à°°à°Ĥà°Ńà°¿à°Ĥà°ļà°¾à°²à°¨à±ĩ", "Ġà®īà®±à¯ģà®¤à®¿à®ªà¯įà®ªà®Łà¯ģà®¤à¯įà®¤à®¤à¯į", "Ġà°ªà±įà°°à°¾à°Ĥà°¤à°¾à°²à°¤à±ĭ", "Ġà®īà®±à¯ģà®¤à®¿à®ªà¯įà®ªà®Łà¯ģà®¤à¯įà®¤à®¿à®¯à®¤à¯ģ.", "Ġà°ªà±įà°°à°¾à°Ĥà°¤à°¾à°²à±ģ.", "Ġà®īà®±à¯įà®ªà®¤à¯įà®¤à®¿", "Ġà°ªà±įà°°à°ľà°²à°ķà±ģ", "Ġà®īà®±à¯įà®ªà®¤à¯įà®¤à®¿à®ªà¯į", "Ġà°ªà±įà°°à°ľà°²à°ļà±ĩ", "Ġà®īà®²à®ķà®³à®¾à®µà®¿à®¯", "Ġà°ªà±įà°°à°ľà°¾à°¸à±įà°µà°¾à°®à±įà°¯,", "Ġà®īà®²à®ķà®¿à®²à¯į", "Ġà°ªà±įà°°à°Ńà±ģà°¤à±įà°µà°¾à°²à°¨à±įà°¨à±Ģ", "Ġà®īà®³à¯įà®³à®©.", "Ġà°ªà±įà°°à°Ńà±ģà°¤à±įà°µà°Ĥ,", "Ġà®īà®³à¯įà®³à®Łà®ķà¯įà®ķà®¿", "Ġà°ªà±įà°°à°Ńà±ģà°¤à±įà°µà°Ĥà°²à±ĭ", "Ġà®īà®³à¯įà®³à®Łà®ķà¯įà®ķà®¿à®¯à®¿à®°à¯ģà®¨à¯įà®¤à®¤à¯ģ", "Ġà°ªà±įà°°à°Ńà±ģà°¤à±įà°µà°Ĥà°ļà±ĩ", "Ġà®īà®Łà¯Īà®¯à®¤à®¾à®ķ", "Ġà°¬à°¡à°¤à°¾à°¯à°¿.", "Ġà®Ĭà®Łà¯įà®Łà®ļà¯įà®ļà®¤à¯įà®¤à¯ģà®ķà¯į", "Ġà°¬à°¾à°Ĥà°¬à±ĩ),", "Ġà®İà®²à®©à®¿à®¯", "Ġà°¬à°¾à°Ĺà°¾", "Ġà®İà®´à¯ģà®¤à¯įà®¤à¯ģ", "Ġà°¬à°¿à°¨à±įà°¨à°¤à±įà°µà°Ĥà°²à±ĭ", "Ġà®İà®ŀà¯įà®ļà®¿à®¯", "Ġà°¬à°¿à°ľà°¿à°¨à±Ĩà°¸à±į", "Ġà®İà®Łà¯ģà®¤à¯įà®¤à¯ģà®ķà¯įà®ķà®¾à®Łà¯įà®Łà®¾à®ķà®¤à¯į", "Ġà°¬à°Ĥà°¡à±įà°²à°¨à±ģ", "Ġà®İà®£à¯įà®£à®ªà¯įà®ªà®Łà¯ģà®ķà®¿à®±à®¤à¯ģ.", "Ġà°¬à°Ĥà°Ĺà°¾à°³à°¾à°ĸà°¾à°¤à°Ĥ", "Ġà®İà®£à¯įà®£à®ªà¯įà®ªà®Łà¯įà®Łà®¤à¯ģ.", "Ġà°¬à±Ĩà°Ĥà°Ĺà±ģà°³à±Ĥà°°à±ģ", "Ġà®İà®£à¯įà®£à®¿à®ķà¯įà®ķà¯Īà®¯à®¿à®²à®¾à®©à®µà¯Ī", "Ġà°¬à°¹à°¾à°¯à±Ģà°²à±ģ", "Ġà®İà®¤à®¿à®°à¯į", "Ġà°¬à°¹à°¿à°°à°Ĥà°Ĺà°Ĥà°Ĺà°¾", "Ġà®İà®¤à®¿à®°à¯įà®ªà¯įà®ªà¯ģà®ķà¯įà®ķà®¾à®ķ", "Ġà°¬à°¹à±ģà°³", "Ġà®İà®©à®ªà¯įà®ªà®Łà¯ģà®ªà®µà®°à¯įà®ķà®³à¯į", "Ġà°¬à°¹à±ģà°Ńà°¾à°·à°¾,", "Ġà®İà®©à¯įà®ªà®¤à®¾à®ķà¯ģà®®à¯į.", "Ġà°¬à°Ĥà°Ĺà±įà°²à°¾à°¦à±ĩà°¶à±į", "Ġà®İà®²à¯įà®²à¯Īà®¯à¯Īà®ªà¯į", "Ġà°¬à°Ĥà°Ĺà±įà°²à°¾à°¦à±ĩà°¶à±į,", "Ġà®İà®²à¯įà®²à¯Īà®ķà®³à®¿à®²à¯į", "Ġà°¬à±Įà°¦à±įà°§,", "Ġà®İà®²à¯įà®²à¯Īà®ķà®³à¯Ī", "Ġà°¬à±Įà°¦à±įà°§à±ģà°²à±ģ", "Ġà®ıà®±à¯įà®ªà®Łà¯ģà®¤à¯įà®¤à®¿à®¯", "Ġà°¬à±įà°°à°¹à±įà°®à°ªà±ģà°¤à±įà°°,", "Ġà®ıà®´à®¾à®µà®¤à¯ģ", "Ġà°¬à±įà°°à°¿à°Łà±Ģà°·à±ģ", "Ġà®Ĵà®¤à¯ģà®ķà¯įà®ķà®¿", "Ġà°¬à±įà°°à°¿à°Łà±Ģà°·à±į", "Ġà®Ĵà®¤à¯įà®¤", "Ġà°¬à±įà°°à°¿à°Łà°¿à°·à±į", "Ġà®Ĵà®°à¯ģà®Ļà¯įà®ķà®¿à®£à¯Īà®ķà¯įà®ķà®ªà¯įà®ªà®Łà¯įà®Ł", "Ġà°®à°¦à±įà°°à°¾à°¸à±ģ),", "Ġà®Ĵà®³à®¿à®°à¯ģà®®à¯į", "Ġà°®à°¯à°¨à±įà°®à°¾à°°à±į,", "Ġà®Ĵà®Łà¯įà®Łà¯ģ", "Ġà°®à°°à±ĭ", "Ġà®Ĵà®©à¯įà®±à®¾à®ķà®ķà¯į", "Ġà°®à°¾à°¤à±ĥ", "Ġà®Ĵà®©à¯įà®±à®¿à®£à¯Īà®ķà¯įà®ķà®ªà¯įà®ªà®Łà¯įà®Ł", "Ġà°®à°¾à°¨à°µà±ģà°¨à°¿", "Ġà®Ĵà®©à¯įà®±à®¿à®£à¯Īà®¨à¯įà®¤à®©.", "Ġà°®à°¾à°²à±įà°¦à±Ģà°µà±ģà°²à±ģ,", "Ġà®Ĵà®©à¯įà®±à®¿à®£à¯Īà®ªà¯įà®ªà¯ģà®ķà®³à®¾à®©à®µà¯Ī", "Ġà°®à°¾à°Ĥà°¡à°®à°¸à±į,", "Ġà®ĵà®®à¯ĭ", "Ġà°®à°¿à°¨à°¹à°¾à°¯à°¿à°Ĥà°ļà°¿,", "Ġà®ĵà®Łà¯įà®Łà®®à¯į", "Ġà°®à°¿à°Ĺà°¿à°²à°¿à°¨", "Ġà®ķà®£à®¿à®¤à®®à¯į", "Ġà°®à°Ĥà°ļà°¿", "Ġà®ķà®©à¯įà®©à¯ĭà®ļà®¿à®¯à®¿à®©à¯į", "Ġà°®à°Ĥà°ľà±Ĥà°°à±ģ", "Ġà®ķà®²à¯įà®µà®¿à®¯à®±à®¿à®µà¯ģ", "Ġà°®à±Ĩà°¹à°°à±įà°Ĺà°°à±į,", "Ġà®ķà®³à®Ļà¯įà®ķà®³à®¿à®²à¯į", "Ġà°®à±ĩà°¨à°ķà°²", "Ġà®ķà®µà®©à®®à®¾à®ķ", "Ġà°®à±Īà°¤à±įà°°à°¿", "Ġà®ķà®¾à®£à®ªà¯įà®ªà®Łà¯ģà®ķà®¿à®±à®¤à¯ģ.", "Ġà°®à±Īà°¦à°¾à°¨à°Ĥà°¤à±ĭ", "Ġà®ķà®¾à®±à¯įà®±à¯ģ", "Ġà°®à°¤à°¸à±įà°¤à±ģà°²à±ģ", "Ġà®ķà®¾à®³à®¿à®ªà®Ļà¯įà®ķà®¾à®©à¯į", "Ġà°®à°¤à°¾à°²", "Ġà®ķà®¿à®±à®¿à®¤à¯įà®¤à®µà®®à¯į,", "Ġà°®à°¤à°¾à°²à°¤à±ĭ", "Ġà®ķà®¿à®Łà¯įà®Łà®¤à¯įà®¤à®Łà¯įà®Ł", "Ġà°®à°¤à°¾à°²à±ģ,", "Ġà®ķà®Ļà¯įà®ķà¯Ī", "Ġà°®à°¤à°¾à°²à±ģ:", "Ġà®ķà¯Ģà®´à¯į", "Ġà°®à°¤à°Ĥ,", "Ġà®ķà¯ģà®´à®¨à¯įà®¤à¯Īà®ķà®³à®¿à®©à¯į", "Ġà°®à°¤à°®à±ģà°²à°ķà±ģ", "Ġà®ķà¯ĭà®Łà®¿à®¯à®¾à®ķ", "Ġà°®à°¤à°®à±ģà°²à±ģ,", "Ġà®ķà¯ĭà®Łà®¿à®¯à®¿à®²à®¿à®°à¯ģà®¨à¯įà®¤à¯ģ", "Ġà°®à°§à±įà°¯à°µà°°à±įà°¤à°¿à°¤à±įà°µà°Ĥ", "Ġà®ķà¯Įà®¤à®®", "Ġà°®à°§à±įà°¯,", "Ġà®ķà®£à¯įà®Łà®¤à¯ģ.", "Ġà°®à°§à±įà°¯à°²,", "Ġà®ķà®£à¯įà®Łà®¤à¯įà®¤à®¿à®±à¯įà®ķà¯ģ", "Ġà°®à°§à±įà°¯à°ķà°¾à°²à°Ĥà°²à±ĭ", "Ġà®ķà®£à¯įà®Łà®¤à¯įà®¤à¯Ī", "Ġà°®à°¹à°¾à°¸à°®à±ģà°¦à±įà°°à°Ĥ,", "Ġà®ķà®°à¯ģà®¤à®ªà¯įà®ªà®Łà¯ģà®ķà®¿à®±à®¤à¯ģ.", "Ġà°®à°¹à°¿à°³à°²", "Ġà®ķà®°à¯ģà®¤à¯ģà®ķà®¿à®©à¯įà®±à®©à®°à¯į.", "Ġà°®à°¾à°°à°¿à°Ĥà°¦à°¿.", "Ġà®ķà®¾à®°à®£à®®à®¾à®©à®¤à¯ģ.", "Ġà°®à°¾à°°à±įà°ķà±Ĩà°Łà±į", "Ġà®ķà®¾à®°à®£à®®à®¾à®ķ", "Ġà°®à°¾à°°à±įà°Ĺà°®à±ģ", "Ġà®ķà®¾à®°à®£à®®à¯į", "Ġà°®à°Ĥà°¤à±įà°°à°¿à°¤à±įà°µ", "Ġà®ķà®¾à®²à®¤à¯įà®¤à®¿à®±à¯įà®ķà¯ģ", "Ġà°®à°Ĥà°¤à±įà°°à°¿à°µà°°à±įà°Ĺà°Ĥ", "Ġà®ķà®¾à®²à®®à®¾à®©à®¤à¯ģ", "Ġà°®à°Ĥà°¤à±įà°°à±ģà°²à°ļà±ĩ", "Ġà®ķà®¾à®²à®®à®¾à®ķ", "Ġà°®à±ģà°Ĥà°¦à±ģà°Ĺà°¾", "Ġà®ķà®¾à®²à®®à¯į", "Ġà°®à±ģà°Ĥà°¬à°¾à°¯à°¿", "Ġà®ķà®¾à®²à®Ļà¯įà®ķà®³à¯ģà®ķà¯įà®ķà¯ģ", "Ġà°®à±ģà°ĸà±įà°¯à°Ĥà°Ĺà°¾", "Ġà®ķà®¾à®²à®®à®¿à®Łà®ªà¯įà®ªà®Łà¯ģà®ķà®¿à®©à¯įà®±à®©.", "Ġà°®à±Ĥà°¡à°µ", "Ġà®ķà®¾à®²à®®à®¿à®Łà®ªà¯įà®ªà®Łà¯ģà®ķà®¿à®±", "Ġà°®à±ĩà°°à°ķà±ģ,", "Ġà®ķà®¾à®Łà¯įà®Łà®ªà¯įà®ªà®Łà¯ģà®ķà®¿à®©à¯įà®±à®©.", "Ġà°®à±ĩà°°à±ĭà°ĥ", "Ġà®ķà®¾à®Łà¯įà®Łà¯ģà®¯à®¿à®°à¯įà®ķà®³à¯į", "Ġà°®à±Ĭà°Ĺà°²à±ģà°²à±ģ", "Ġà®ķà®¿à®°à¯ĩà®ķà¯įà®ķà®°à¯įà®ķà®³à¯į", "Ġà°®à±Ĭà°¦à°²à°Ĺà±ģà°¨à°µà°¿).", "Ġà®ķà®¿à®´à®ķà¯įà®ķà®¿à®¨à¯įà®¤à®¿à®¯", "Ġà°®à±Ĭà°¦à°²à°Ĺà±ģà°µà°¾à°°à±ģ", "Ġà®ķà®Łà®±à¯įà®ķà®°à¯Īà®ķà®³à®¿à®²à¯į", "Ġà°®à±Ĭà°¦à°²à±Īà°¨à°µà°¿", "Ġà®ķà®Łà®²à¯į", "Ġà°®à±Ĭà°¦à°Łà°¿à°¦à°¿", "Ġà®ķà®Łà¯ģà®®à¯Īà®¯à®¾à®ķ", "Ġà°®à±Ĭà°¦à°Łà°¿à°¸à°¾à°°à°¿à°Ĺà°¾", "Ġà®ķà®Łà¯įà®Łà®¤à¯įà®¤à®¿à®©à¯į", "Ġà°¯à°®à±ģà°¨,", "Ġà®ķà®Łà¯įà®Łà®¤à¯įà®¤à¯ģà®ķà¯įà®ķà¯ģà®ķà¯į", "Ġà°¯à°¾à°¤à±įà°°à°¿à°ķà±ģà°²à±ģ", "Ġà®ķà®Łà¯įà®Łà®¤à¯įà®¤à¯Īà®ļà¯į", "Ġà°¯à±ģ.", "Ġà®ķà®Łà¯įà®Łà®Łà®Ļà¯įà®ķà®³à®¿à®©à¯į", "Ġà°¯à±ģà°¨à±Īà°Łà±Ĩà°¡à±į", "Ġà®ķà®Łà¯įà®Łà¯ģà®ªà¯įà®ªà®¾à®Łà¯įà®Łà®¿à®²à¯į", "Ġà°¯à±ģà°Ĺà°Ĥ", "Ġà®ķà®Łà¯įà®Łà¯ģà®ªà¯įà®ªà®¾à®Łà¯įà®Łà¯Ī", "Ġà°¯à±ĭà°ļà°¨à°²à±ĭ", "Ġà®ķà¯ģà®ªà¯įà®¤à®°à¯įà®ķà®³à¯ģà®ķà¯įà®ķà¯ģà®ķà¯į", "Ġà°¯à±ģà°¦à±įà°§à°¾à°²à±ģ", "Ġà®ķà¯ģà®±à¯Īà®¤à¯įà®¤à¯ģà®³à¯įà®³à®¤à¯ģ.", "Ġà°¯à±ģà°¦à±įà°§à°Ĥ", "Ġà®ķà¯ģà®±à¯Īà®¨à¯įà®¤à®¤à¯ģ", "Ġà°°à°¹à°¦à°¾à°°à±ģà°²à°¨à±ģ", "Ġà®ķà¯ģà®±à¯Īà®ªà®¾à®Łà¯ģ", "Ġà°°à°¾à°¤à°¿à°¯à±ģà°Ĺà°ªà±ģ", "Ġà®ķà¯ģà®±à®¿à®ªà¯įà®ªà®¾à®ķ,", "Ġà°°à°ķà°¾à°²", "Ġà®ķà¯ģà®±à®¿à®ªà¯įà®ªà®¿à®Łà®ªà¯įà®ªà®Łà¯įà®Łà¯ģà®³à¯įà®³à®¤à¯ģ.", "Ġà°°à°ķà°¾à°²à±ģà°Ĺà°¾", "Ġà®ķà¯ģà®±à®¿à®ªà¯įà®ªà®¿à®Łà¯ģà®ķà®¿à®©à¯įà®±à®©à®°à¯į.", "Ġà°°à°¾à°·à±įà°Łà±įà°°à°¾à°²à±ģ", "Ġà®ķà¯ģà®±à®¿à®ªà¯įà®ªà®¿à®Łà¯įà®Łà®©.", "Ġà°°à°¾à°·à±įà°Łà±įà°°à°¾à°²à±ģ:", "Ġà®ķà¯ģà®±à®¿à®ªà¯įà®ªà®¿à®Łà¯įà®Łà®©à®°à¯į.", "Ġà°°à°¾à°·à±įà°Łà±įà°°à°¾à°²à±ģà°Ĺà°¾,", "Ġà®ķà¯ģà®Łà®¿à®¯à®¿à®©à®°à¯į", "Ġà°°à°¾à°·à±įà°Łà±įà°°à°ªà°¤à°¿,", "Ġà®ķà¯ģà®Łà®¿à®¯à¯ĩà®±à¯įà®±à®ªà¯į", "Ġà°°à°¾à°·à±įà°Łà±įà°°à°ªà°¤à°¿à°ļà±ĩ", "Ġà®ķà¯ģà®Łà®¿à®¯à®®à®°à®ªà¯įà®ªà®Łà¯įà®Ł", "Ġà°°à°¾à°ľà±ģ.", "Ġà®ķà¯ģà®Łà®¿à®¯à®®à®°à¯įà®¨à¯įà®¤", "Ġà°°à°¾à°ľà°ķà±Ģà°¯à°¾à°²à±ģ", "Ġà®ķà¯ģà®Łà®¿à®¯à®°à®ļà®¾à®ķ", "Ġà°°à°¾à°ľà±įà°¯à°¾à°²à°¨à±ģ", "Ġà®ķà¯ģà®Łà®¿à®¯à®°à®ļà¯ģ", "Ġà°°à°¿à°Łà±įà°²à°²à±ĭ", "Ġà®ķà¯ģà®Łà¯ģà®®à¯įà®ªà®¤à¯įà®¤à®¿à®©à¯į", "Ġà°°à°¿à°Łà±įà°²à±ģ", "Ġà®ķà¯ģà®Łà¯ģà®®à¯įà®ªà®¤à¯įà®¤à¯ģà®ķà¯įà®ķà¯ģà®³à¯į", "Ġà°°à°Ĥà°Ĺà°¾à°²", "Ġà®ķà¯Ĥà®Ł", "Ġà°°à°Ĥà°Ĺà°¾à°²à±įà°²à±ĭ", "Ġà®ķà¯Ĥà®Łà¯įà®Łà®®à¯Īà®ªà¯įà®ªà®¾à®ķ", "Ġà°°à°Ĥà°Ĺà°Ĥ", "Ġà®ķà¯Ĥà®±à®¾à®ķ", "Ġà°°à±Ĥà°ªà±Ĭà°Ĥà°¦à°¿à°Ĥà°¦à°¿.", "Ġà®ķà¯Ĥà®±à¯ģà®ķà®³à®¿à®©à¯į", "Ġà°°à±Ĥà°ªà°¾à°Ĥà°¤à°°à°®à±ĩ.", "Ġà®ķà¯Ĭà®²à¯įà®²à¯Īà®ªà¯įà®ªà®Łà¯ģà®¤à¯įà®¤à®ªà¯įà®ªà®Łà¯įà®Łà®¤à®±à¯įà®ķà®¾à®©", "Ġà°°à±Ĥà°ªà°¾à°Ĥà°¤à°°à°Ĥ", "Ġà®ķà¯Ĭà®³à¯įà®³à¯ģà®®à¯į", "Ġà°°à±Ĩà°Ĥà°¡à±ģà°µà±Īà°ªà±ģà°²à°¾", "Ġà®ķà¯Ĭà®³à¯įà®ķà®¿à®©à¯įà®±à®©.", "Ġà°°à±Ĩà°Ĥà°¡à±ĭ", "Ġà®ķà¯Ĭà®£à¯įà®Łà®µà¯Īà®¯à®¾à®ķà®¤à¯į", "Ġà°°à±Īà°²à±ģ.", "Ġà®ķà¯Ĭà®£à¯įà®Łà®¿à®°à¯ģà®ķà¯įà®ķà®¾à®®à®²à¯į", "Ġà°°à±Īà°²à±įà°µà±ĩà°¶à°¾à°ĸ", "Ġà®ķà¯Ĭà®£à¯įà®Łà¯ģà®³à¯įà®³à®©.", "Ġà°²à°¾à°Ńà°¦à°¾à°¯à°ķà°®à±ĩà°¨à°¨à±Ģ,", "Ġà®ļà®°à®¤à¯ģà®ļà®®à¯į", "Ġà°²à°ķà±ģ", "Ġà®ļà®µà®¾à®²à¯įà®ķà®³à®¿à®²à¯į", "Ġà°²à°ĺà±ģ", "Ġà®ļà®¾à®°à®¾à®¤", "Ġà°²à°Ńà±įà°¯à°®à±Īà°¨", "Ġà®ļà®¾à®³à¯ģà®ķà¯įà®ķà®¿à®¯", "Ġà°²à±Įà°ķà°¿à°ķ,", "Ġà®ļà®¿à®©à¯įà®©à®Ļà¯įà®ķà®³à®¿à®©à¯į", "Ġà°²à°ķà±įà°·à°²", "Ġà®ļà®¿à®ķà¯įà®ķà®²à®¾à®©", "Ġà°²à°ķà±įà°·à°£à°¾à°¨à±įà°¨à°¿", "Ġà®ļà®Ļà¯įà®ķ", "Ġà°²à°ķà±įà°·à°£à°¾à°²à±ģ", "Ġà®ļà®Łà®Ļà¯įà®ķà¯ģ", "Ġà°²à±Ĩà°ķà±įà°ķà°²à±ģ", "Ġà®ļà¯Ģà®©à®¾,", "Ġà°²à±Ĩà°ľà°¿à°¸à±įà°²à±ĩà°ļà°°à±į,", "Ġà®ļà¯Ģà®ķà¯įà®ķà®¿à®¯à®®à¯į", "Ġà°²à±ĩà°¨à°¿à°µà°¿.", "Ġà®ļà¯ģà®¯à®¾à®Łà¯įà®ļà®¿à®¯à¯ģà®Łà¯Īà®¯", "Ġà°²à±ĭà°¨à°¿", "Ġà®ļà¯ģà®±à¯įà®±à®¿", "Ġà°²à±ĭà°ªà°Ĥ", "Ġà®ļà¯ģà®²à¯įà®¤à®¾à®©à®ķà®¤à¯įà®¤à¯Ī", "Ġà°²à±ĭà°¯", "Ġà®ļà¯Ĥà®´à¯įà®¨à¯įà®¤à¯ģà®³à¯įà®³à®©.", "Ġà°µà°¦à±įà°¦", "Ġà®ļà¯Ĭà®±à¯įà®ª", "Ġà°µà°¨à±įà°¯à°ªà±įà°°à°¾à°£à±ģà°²", "Ġà®ļà¯ĭà®´à®°à¯į,", "Ġà°µà°°à°ķà±Ĥ", "Ġà®ļà®®à®¯à®¤à¯įà®¤à®¿à®©à¯į", "Ġà°µà°°à±įà°£à°¿à°Ĥà°ļà°¬à°¡à°¿à°Ĥà°¦à°¿.", "Ġà®ļà®®à®¯à®¤à¯įà®¤à®¿à®±à¯įà®ķà¯ģà®³à¯į", "Ġà°µà°°à±įà°§à°¿à°²à±įà°²à°¿à°¨", "Ġà®ļà®®à®¯à®¤à¯įà®¤à¯ģà®Łà®©à¯į", "Ġà°µà°°à±įà°·à°¾à°²à±ģ", "Ġà®ļà®®à®¯à®¤à¯įà®¤à¯Ī", "Ġà°µà°¾à°£à°¿à°ľà±įà°¯", "Ġà®ļà®®à®¯à®®à®¾à®©à®¤à¯ģ", "Ġà°µà°¾à°¦", "Ġà®ļà®®à®¯à®®à¯į", "Ġà°µà°¾à°¦à°¨", "Ġà®ļà®®à®¯à®Ļà¯įà®ķà®³à®¾à®ķ", "Ġà°µà°¾à°°à°¸à°¤à±įà°µà°¾à°¨à°¿à°ķà°¿", "Ġà®ļà®®à®µà¯Ĩà®³à®¿", "Ġà°µà°¾à°°à°¿", "Ġà®ļà®®à®µà¯Ĩà®³à®¿à®ªà¯į", "Ġà°µà°¾à°°à°¿à°Ĺà°¾", "Ġà®ļà®®à®µà¯Ĩà®³à®¿à®¯à®¿à®²à¯į", "Ġà°µà°¿à°¨à°¾à°¯à°ķ", "Ġà®ļà®®à®µà¯Ĩà®³à®¿à®¯à¯Ī", "Ġà°µà°Ĥà°¶à°Ĥà°²à±ĭà°¨à°¿", "Ġà®ļà®®à®µà¯Ĩà®³à®¿à®ķà®³à¯į", "Ġà°µà°ľà±įà°°à°¾à°²à±ģ,", "Ġà®ļà®®à®ļà¯ģà®ķà®¿à®°à¯ģà®¤à®¤à¯įà®¤à®¿à®©à¯į", "Ġà°µà±ģà°¨à±įà°¨à°¾,", "Ġà®ļà®®à¯Ĥà®ķà®ªà¯į", "Ġà°µà±ģà°Ĥà°Łà±ģà°Ĥà°¦à°¿.", "Ġà®ļà®®à¯Ĥà®ķà®®à®¾à®ķ", "Ġà°µà±Ĥà°ªà°¿à°Ĥà°¦à°¿.", "Ġà®ļà®¾à®¤à®¿", "Ġà°µà±ĩà°Ĺà°Ĥà°Ĺà°¾", "Ġà®ļà®¾à®¤à®¿à®¯à®¾à®²à¯į", "Ġà°µà±įà°¯à°µà°¸à°¾à°¯à°Ĥ", "Ġà®ļà®¿à®¨à¯įà®¤à¯ģ,", "Ġà°µà°°à±įà°Ĺà°¾à°²à±ģ", "Ġà®ļà®¿à®±à®¨à¯įà®¤à®¤à¯ģ", "Ġà°µà°°à±įà°Ĺà±Ģà°ķà°°à°£à°²à±ĭ", "Ġà®ļà®¿à®±à¯įà®ªà®Ļà¯įà®ķà®³à¯į", "Ġà°µà°¹à°¿à°¸à±įà°¤à°¾à°¯à°¿.", "Ġà®ļà®¿à®±à®¿à®¯à®¤à®¾à®ķà¯įà®ķà®¿", "Ġà°µà°¹à°¿à°Ĥà°ļà°¿", "Ġà®ļà®¿à®²à®µà®°à¯į", "Ġà°µà°¹à°¿à°Ĥà°ļà°¿à°Ĥà°¦à°¿.", "Ġà®ļà®¿à®²à®µà®¾à®ķà¯ģà®®à¯į.", "Ġà°µà°¹à°¿à°Ĥà°ļà±ĩ", "Ġà®ļà®ķà®¿à®ªà¯įà®ªà¯ģà®¤à¯į", "Ġà°µà°¾à°Łà°¿à°²à±ĭ", "Ġà®ļà®ķà®¾à®ªà¯įà®¤à®¤à¯įà®¤à®¿à®©à¯į", "Ġà°µà°¾à°Łà°¿à°²à±įà°²à°¿à°Ĥà°¦à°¿.", "Ġà®ļà®ķà®¾à®ªà¯įà®¤à®¤à¯įà®¤à®¿à®²à¯į", "Ġà°µà°¿à°¡à°¿à°ªà±ĭà°¯à°¿à°Ĥà°¦à°¿.", "Ġà®ļà®ķà®¾à®ªà¯įà®¤à®®à®¾à®©à®¤à¯ģ", "Ġà°µà°¿à°¦à±ĩà°¶à±Ģ", "Ġà®ļà¯ģà®¤à®¨à¯įà®¤à®¿à®°à®®à®¾à®©", "Ġà°µà°¿à°«à°²", "Ġà®ļà¯Ĩà®©à¯įà®±à®¤à¯ģ.", "Ġà°µà°¿à°²à±ģà°µà±Īà°¨", "Ġà®ļà¯Ĩà®ªà¯įà®ªà®¿à®¯à®©à¯įà®ķà®³à¯į", "Ġà°µà°¿à°ľ", "Ġà®ļà¯Ĩà®ªà¯įà®ªà¯ģà®ķà¯į", "Ġà°µà°¿à°§à°¿", "Ġà®ļà¯Ĩà®²à®µà®¿à®©à®Ļà¯įà®ķà®³à¯Īà®¯à¯ģà®®à¯į", "Ġà°µà°¿à°§à°¿à°Ĥà°ļà°¿à°¨", "Ġà®ļà¯Ĩà®²à¯įà®µà®¤à¯įà®¤à®¿à®©à¯į", "Ġà°µà°¿à°§à°Ĥà°Ĺà°¾", "Ġà®ļà¯Ĩà®´à®¿à®ªà¯įà®ªà®Łà¯Īà®¨à¯įà®¤à®¤à¯ģ.", "Ġà°µà°¿à°µà°°à°¾à°²à±ģ", "Ġà®ļà¯Ĩà®µà¯įà®µà®¿à®¯à®²à¯į", "Ġà°µà°¿à°µà°¾à°¦à°Ĥ", "Ġà®ļà¯Ĩà®¯à¯įà®¤à®¤à®¾à®ķ", "Ġà°µà°¿à°¶à°¾à°ĸà°ªà°Łà±įà°¨à°Ĥ", "Ġà®ļà¯Ĩà®¯à¯įà®¤à®¤à¯ģ.", "Ġà°µà°¿à°¶à°¿à°·à±įà°Ł", "Ġà®ļà¯Ĩà®¯à¯įà®¤à®¤à¯Ī", "Ġà°µà°¿à°¶à±ĩà°·à°Ĥ.", "Ġà®ļà¯Ĩà®¯à¯įà®¤à®©.", "Ġà°µà°¿à°¶à±įà°µà°¾à°®à°¿à°¤à±įà°°,", "Ġà®ļà¯Ĩà®¯à¯įà®¯à®ªà¯įà®ªà®Łà¯ģà®¤à®²à®¿à®©à¯į", "Ġà°µà°¿à°¸à±įà°¤à±Ģà°°à±įà°£à°Ĥà°¤à±ĭ", "Ġà®ļà¯Ĩà®¯à¯įà®¯à®ªà¯įà®ªà®Łà¯įà®Ł", "Ġà°µà°¿à°¸à±įà°¤à±ĥà°¤à°Ĥà°Ĺà°¾", "Ġà®ļà¯Ĩà®¯à¯įà®¯à®ªà¯įà®ªà®Łà¯įà®Łà®©.", "Ġà°µà°¿à°ľà±įà°ŀà°¾à°¨", "Ġà®ļà¯ĩà®®à®¿à®¤à¯įà®¤à¯ģ", "Ġà°µà°¿à°Ńà°ľà°¿à°¤à°®à±Ī", "Ġà®ļà¯ĩà®µà¯Īà®ķà®³à¯ģà®ķà¯įà®ķà¯ģ", "Ġà°µà°ļà±įà°ļà°¿,", "Ġà®ļà¯ĩà®°à®°à¯į,", "Ġà°µà°ļà±įà°ļà°¿à°¨à°¦à°¿,", "Ġà®ļà¯ĩà®°à¯įà®¤à¯įà®¤à¯ģà®ķà¯į", "Ġà°µà±ĩà°¦à°¾à°²à°²à±ĭ", "Ġà®ļà¯Īà®©à®¤à¯įà®¤à¯ģà®ķà¯įà®ķà¯ģ", "Ġà°µà±Īà°µà°¿à°§à±įà°¯à°Ĥ", "Ġà®ļà¯Īà®©à®®à¯į", "Ġà°µà±Īà°¶à°¾à°²à±įà°¯à°Ĥà°²à±ĭ", "Ġà°µà±įà°¯à°µà°¸à±įà°¥)", "Ġà°µà±įà°¯à°µà°¸à±įà°¥à°²", "Ġà°µà±įà°¯à°µà°¸à±įà°¥à°ķà±ģ", "Ġà°µà±įà°¯à°µà°¸à±įà°¥à°ķà±ģ,", "Ġà°µà±įà°¯à°¾à°ªà°¾à°°", "Ġà°µà±įà°¯à°¾à°ªà°¾à°°à°Ĥ", "Ġà°¶à°¾à°¶à±įà°µà°¤", "Ġà°¶à°¾à°ĸ", "Ġà°¶à°¿à°²à°¾à°Ĺà±ĥà°¹à°¾à°²à±ģ,", "Ġà°¶à°ķà±ģà°Ĥà°¤à°²", "Ġà°¶à°¤à°¾à°¬à±įà°¦à°Ĥ,", "Ġà°¶à°¾à°¸à±įà°¤à±įà°°à°Ĥ", "Ġà°¶à°¾à°¸à±įà°¤à±įà°°à±Ģà°¯", "Ġà°¶à°ķà±įà°¤à°¿à°Ĺà°¾", "Ġà°¶à°ķà±įà°¤à±ģà°²à±ģ;", "Ġà°¶à±įà°°à±Ģà°°à°¾à°®à°¨à°µà°®à°¿,", "Ġà°¶à±įà°°à±Ģà°²à°Ĥà°ķ,", "Ġà°¶à±įà°°à±Ģà°¶à±Īà°²à°¸à±įà°¯", "Ġà°¸à°®à±ģà°¦à±įà°°à°¤à±Ģà°°à°®à±ģ", "Ġà°¸à°®à±ģà°¦à±įà°°à°Ĥ,", "Ġà°¸à°²à°¹à°¾", "Ġà°¸à°µà°¾à°³à±įà°²à°¨à±ģ", "Ġà°¸à°¾à°«à±įà°Łà±į", "Ġà°¸à°¿à°¦à±įà°§à°¿à°Ĥà°ļà°¿à°Ĥà°¦à°¿.", "Ġà°¸à°¿à°¨à°¿à°®à°¾à°²à±ģ,", "Ġà°¸à°Ĥà°¦à°°à±įà°¶à°¿à°Ĥà°ļà±ĩ", "Ġà°¸à±ģà°¦à±Ģà°°à±įà°ĺ", "Ġà°¸à±ģà°ªà±įà°°à±Ģà°Ĥ", "Ġà°¸à±ģà°²à±įà°¤à°¾à°¨à±ģà°²à±ģ,", "Ġà°¸à±Ĩà°°à±įà°Łà°¿à°¯à±ĭà°°à°¾à°°à°¿", "Ġà°¸à±ĩà°µ", "Ġà°¸à±Īà°¨à°¿à°ķ", "Ġà°¸à°®à°¯à°Ĥà°²à±ĭ,", "Ġà°¸à°®à°¶à±Ģà°¤à±ĭà°·à±įà°£", "Ġà°¸à°®à°°à°Ĥ)", "Ġà°¸à°®à°¾à°ĸà±įà°¯à°²à±ģ", "Ġà°¸à°°à°¿à°¹à°¦à±įà°¦à±ģ", "Ġà°¸à°°à°¿à°¹à°¦à±įà°¦à±ģà°¨", "Ġà°¸à°°à°¿à°¹à°¦à±įà°¦à±ģà°²à°¨à±ģ", "Ġà°¸à°°à°¿à°¹à°¦à±įà°¦à±ģà°²à°²à±ĭ", "Ġà°¸à°°à°¿à°¹à°¦à±įà°¦à±ģà°²à±ģ", "Ġà°¸à°°à±įà°µà°¸à°¤à±įà°¤à°¾à°ķ,", "Ġà°¸à°°à±įà°µà±Ģà°¸à±ģà°²à±ģ", "Ġà°¸à°¹à°¾à°¯à°ķà°¾à°°à°¿à°Ĺà°¾", "Ġà°¸à°¹à°¸à±įà°°à°¾à°¬à±įà°¦à°¿", "Ġà°¸à°¹à°¸à±įà°°à°¾à°¬à±įà°¦à°¿à°²à±ĭ", "Ġà°¸à°¾à°§à°¾à°°à°£à°Ĥà°Ĺà°¾", "Ġà°¸à°¾à°§à°¿à°Ĥà°ļà°¿à°Ĥà°¦à°¿.", "Ġà°¸à°¾à°®à°¾à°ľà°¿à°ķ,", "Ġà°¸à°¾à°®à±įà°°à°¾à°ľà±įà°¯à°Ĥ", "Ġà°¸à°¾à°®à±įà°°à°¾à°ľà±įà°¯à°¾à°²à±ģ", "Ġà°¸à°¾à°®à±įà°°à°¾à°ľà±įà°¯à°Ĥ,", "Ġà°¸à°¾à°°à°µà°Ĥà°¤à°®à±Īà°¨", "Ġà°¸à°¾à°°à°¸à±įà°µà°¤à°Ĥ,", "Ġà°¸à°¾à°Ĥà°ĺà°¿à°ķ,", "Ġà°¸à°¿à°Ĥà°§à±ģà°²à±ĭà°¯", "Ġà°¸à°¿à°Ĥà°§à±ģà°¾à°²à±ĭà°¯", "Ġà°¸à°¿à°Ĥà°§à±Ĥà°¨à°¦à°¿", "Ġà°¸à°¿à°Ĥà°§à±Ĥà°¨à°¦à°¿à°ķà°¿", "Ġà°¸à°¿à°ķà±įà°ķà±ģ", "Ġà°¸à°¿à°ķà±įà°ķà±ģà°²à±ģ", "Ġà°¸à°Ĥà°ªà±įà°°à°¦à°¾à°¯à°¾à°²à±ģ", "Ġà°¸à°Ĥà°¬à°Ĥà°§", "Ġà°¸à°Ĥà°µà°¤à±įà°¸à°¾à°°à°¾à°²", "Ġà°¸à°Ĥà°µà°¤à±įà°¸à°°à°¾à°²", "Ġà°¸à°Ĥà°µà°¤à±įà°¸à°°à°¾à°²à°²à±ĭ", "Ġà°¸à°Ĥà°¸à±įà°ķà°°à°£à°²à°¤à±ĭ", "Ġà°¸à°Ĥà°¸à±įà°ķà°°à°£à°²à±ģ", "Ġà°¸à°Ĥà°¸à±įà°ķà±ĥà°¤à°¿", "Ġà°¸à°Ĥà°¸à±įà°ķà±ĥà°¤à°Ĥ,", "Ġà°¸à°Ĥà°ķà±įà°°à°¾à°Ĥà°¤à°¿,", "Ġà°¸à°Ĥà°ķà±Ģà°°à±įà°£à°¾à°²à±ĩà°ķà°¾à°Ĺà°¾", "Ġà°¸à°Ĥà°ķà±Ģà°°à±įà°£à°Ĥ", "Ġà°¸à°Ĥà°ĸà±įà°¯à°¾à°ķ", "Ġà°¸à°Ĥà°ĺà°®à±ģ.", "Ġà°¸à°Ĥà°ĺà°°à±įà°·à°£à°²à°¨à±ģ", "Ġà°¸à°Ńà±įà°¯à±ģà°°à°¾à°²à±ģ.", "Ġà°¸à°Ńà±įà°¯à±ģà°²à°¨à±ģ", "Ġà°¸à±Ĥà°°à°¤à±į", "Ġà°¸à±Ĥà°ļà°¨à°²à±ģ,", "Ġà°¸à±Ĥà°ļà°¿à°Ĥà°ļà°¿à°¨à°Łà±įà°²à±ģ", "Ġà°¸à±Įà°ķà°°à±įà°¯à°®à±ģ.", "Ġà°¸à±Įà°ķà°°à±įà°¯à°¾à°²à°²à±ĭ", "Ġà°¸à±įà°¤à±įà°°à±Ģà°²à±ģ", "Ġà°¸à±įà°¥à°¾à°ªà°ķ", "Ġà°¸à±įà°¥à°¿à°°à°®à±Īà°¨", "Ġà°¸à±įà°¥à±Ĥà°²à°¾à°¦à°¾à°¯à°Ĥà°²à±ĭ", "Ġà°¸à±įà°¥à°¾à°¨à°¾à°²à±ģ", "Ġà°¸à±įà°¥à°¾à°¨à°¿à°ķ", "Ġà°¸à±įà°¥à°¾à°¨à°Ĥà°²à±ĭ,", "Ġà°¸à±įà°¥à°¾à°¨à±ĩ...).", "Ġà°¸à±įà°µà°°à±Ĥà°ªà°Ĥ,", "Ġà°¸à±įà°µà°°à±įà°£", "Ġà°¸à±įà°µà°¾à°§à±Ģà°¨à°Ĥ", "Ġà°¸à±įà°µà±Ģà°ķà°¾à°°à°Ĥ", "Ġà°¸à±įà°µà±ĩà°ļà±įà°Ľà°¾à°¯à±ģà°¤", "Ġà°¸à±įà°µà°¤à°Ĥà°¤à±įà°°à°Ĥ", "Ġà°¸à±įà°µà°¾à°¤à°Ĥà°¤à±įà°°à±įà°¯à°¾à°¨à°¿à°ķà°¿", "Ġà°¹à°¸à±įà°¤", "Ġà°¹à°ķà±įà°ķà±ģà°²à°ķà±ģ", "Ġà°¹à±Ĩà°¬à°¿à°¯à°¸à±į", "Ġà°¹à±Īà°ķà±ĭà°°à±įà°Łà±ģà°²à±ģ", "Ġà°¹à±Ĭà°²à±Ģ,", "Ġà°¹à°¿à°®à°¾à°²à°¯à°¾à°²à±ģ,", "Ġà°¹à°¿à°Ĥà°¦à±Ģ,", "Ġà°¹à°¿à°Ĥà°¦à±ģà°µà±ģà°²à±Īà°¨à°ªà±įà°ªà°Łà°¿à°ķà±Ģ,", "Ġà°¹à°¿à°Ĥà°¦à±Ĥ,", "Ġà°¹à°¿à°Ĥà°¦à±Ĥà°¦à±ĩà°¶à°Ĥ,", "Ġà°¹à°¿à°Ĥà°¦à±Ĥà°¸à±įà°¤à°¾à°¨à±į", "Ġà°¹à±Īà°¦à°°à°¾à°¬à°¾à°¦à±ģ", "Ġà°¹à±Īà°¦à°°à°¾à°¬à°¾à°¦à±į,", "Ġà°ħà°§à°¿à°Ĺà°®à°¿à°Ĥà°ļà°¿", "Ġà°ħà°¨à°¿,", "Ġà°ħà°®à°²à°µà±ģà°¤à±ģà°Ĥà°¦à°¿.", "Ġà°ħà°®à±Ĩà°°à°¿à°ķà°¾,", "Ġà°ħà°°à±ģà°¦à±ģà°Ĺà°¾", "Ġà°ħà°°à±ĩà°¬à°¿à°¯à°¾", "Ġà°ħà°²à°Ĥà°ķà°¾à°°", "Ġà°ħà°²à±Ģà°¨à±ĭà°¦à±įà°¯à°®à°Ĥà°²à±ĭ", "Ġà°ħà°µà°¿", "Ġà°ħà°¶à±ĭà°ķà±ģà°¡à±ģ", "Ġà°ħà°Ĥà°¦à°°à±Ĥ", "Ġà°ħà°Ĥà°Łà°¾à°°à±ģ.", "Ġà°ħà°Ĥà°Łà°¾à°°à±įà°ķà±į", "Ġà°ħà°Ĥà°Łà±ĩ", "Ġà°ħà°ĸà°Ĥà°¡", "Ġà°ħà°£à±ģ", "Ġà°ħà°£à±įà°µà°¸à±įà°¤à±įà°°", "Ġà°ħà°¤à°¿à°®à±ģà°ĸà±įà°¯à°®à±Īà°¨", "Ġà°ħà°¤à°¿à°µà±ĩà°Ĺà°Ĥà°Ĺà°¾", "Ġà°ħà°¤à°¿à°¶à±Ģà°¤à°²", "Ġà°ħà°§à°¿à°ķà°¾à°°à°¾à°¨à±įà°¨à°¿", "Ġà°ħà°§à°¿à°ķà°¾à°°à°¾à°²à±ģ", "Ġà°ħà°§à°¿à°ķà°¾à°°à°¿à°ķà°Ĥà°Ĺà°¾", "Ġà°ħà°§à°¿à°ķà°¾à°°à°Ĥà°²à±ĭ", "Ġà°ħà°¨à±ģà°¨à°¦à°¿", "Ġà°ħà°¨à±ģà°®à°¤à°¿à°¨à°¿", "Ġà°ħà°¨à±ģà°¸à°°à°¿à°¸à±įà°¤à±Ĥ,", "Ġà°ħà°ªà±įà°ªà°¿à°²à±ĩà°Łà±į", "Ġà°ħà°ªà±įà°ªà°Łà°¿", "Ġà°ħà°¯à°¿à°¤à±ĩ,", "Ġà°ħà°¯à°¿à°Ĥà°¦à°¿.", "Ġà°ħà°¯à°¿à°¨à°ªà±įà°ªà°Łà°¿à°ķà±Ģ,", "Ġà°ħà°µà°¤à°°à°¿à°Ĥà°ļà°¿à°Ĥà°¦à°¿.", "Ġà°ħà°µà°¸à°°à°®à±Īà°¤à±ĩ", "Ġà°ħà°µà°¿,", "Ġà°ħà°µà°¿à°¨à±Ģà°¤à°¿,", "Ġà°ħà°¹à°®à±įà°®à°¦à°¾à°¬à°¾à°¦à±ģ", "Ġà°ħà°¹à°¿à°Ĥà°¸à°¾à°¯à±ģà°¤", "Ġà°ħà°¹à±įà°®à°¦à±Ģà°¯à±ģà°²à±ģ,", "Ġà°ħà°Ńà°¿à°µà±ĥà°¦à±įà°§à°¿,", "Ġà°Ĩà°¦à°¾à°¯à°Ĥ", "Ġà°Ĩà°¦à±ĩà°¶à°¾à°²à±ģ,", "Ġà°Ĩà°¨à°¾à°¦à°¿", "Ġà°Ĩà°«à±įà°ĺà°¾à°¨à°¿à°¸à±įà°¤à°¾à°¨à±į", "Ġà°Ĩà°µà°²", "Ġà°Ĩà°µà°¿à°°à±įà°Ńà°µà°¿à°Ĥà°ļà°¿à°Ĥà°¦à°¿.", "Ġà°Ĩà°¸à°¿à°¯à°¾à°²à±ĭ", "Ġà°Ĩà°ķà±įà°°à°®à°¿à°Ĥà°ļà±ģà°ķà±ģà°¨à±įà°¨à°¾à°°à±ģ.", "Ġà°Ĩà°ķà±įà°·à°°à°¾à°¸à±įà°¯à°¤", "Ġà°Ĩà°ļà°¾à°°à°¾à°²à±ģ,", "Ġà°Ĩà°§à°¾à°°à°ªà°¡à°¿à°¨", "Ġà°Ĩà°§à°¾à°°à°¾à°²à±ģ.", "Ġà°Ĩà°§à°¾à°°à°¿à°¤", "Ġà°Ĩà°°à±įà°¥à°¿à°ķ,", "Ġà°Ĩà°Ĺà°·à±įà°Łà±ģ", "Ġà°Ĩà°Ĺà±įà°¨à±ĩà°¯", "Ġà°ĩà°¦à±ĩ", "Ġà°ĩà°¨à±į", "Ġà°ĩà°ªà±įà°ªà°Łà°¿à°ķà±Ģ", "Ġà°ĩà°µà°¿", "Ġà°ĩà°µà±įà°µà°¬à°¡à°¿à°¨", "Ġà°ĩà°Ĥà°¦à°¿à°°à°¾", "Ġà°ĩà°Ĥà°¦à±ģà°²à±ĭ", "Ġà°ĩà°Ĥà°ķà°¾", "Ġà°ĩà°ļà±įà°ļà±ĩ", "Ġà°ĩà°¤à°¨à±ģ", "Ġà°ĩà°¤à°°à±ģà°²à±ģ", "Ġà°ĩà°¸à±įà°²à°¾à°®à°¾à°¬à°¾à°¦à±į:", "Ġà°ĩà°Ĥà°¡à°¿à°¯à°¾,", "Ġà°ĩà°Ĥà°¡à±ĭ", "Ġà°ĩà°Ĥà°¡à±ĭà°¨à±ĩà°¸à°¿à°¯à°¾", "Ġà°ĩà°Ĥà°Ĺà±įà°²à°Ĥà°¡à±ģ", "Ġà°ĩà°Ĥà°Ĺà±įà°²à±Ģà°·à±ģ", "Ġà°ĩà°ķà±įà°ķà°¡à°¿", "Ġà°ĩà°Łà±Ģà°µà°²à°¿", "Ġà°īà°¤à±įà°¸à°¾à°¹à°Ĥà°Ĺà°¾,", "Ġà°īà°¨à°¿à°ķà°¿à°ķà°¿", "Ġà°īà°·à±įà°£", "Ġà°īà°¤à±įà°¤à°°,", "Ġà°īà°¨à±įà°¨à°¾à°°à±ģ", "Ġà°īà°¨à±įà°¨à°Łà±įà°²à±ģ", "Ġà°īà°ªà°°à°¾à°·à±įà°Łà±įà°°à°ªà°¤à±ģà°²à±ģ", "Ġà°īà°ªà°¾à°§à°¿", "Ġà°īà°ªà°¯à±ĭà°Ĺà°¿à°¸à±įà°¤à°¾à°°à±ģ", "Ġà°īà°ªà°¯à±ĭà°Ĺà°¿à°¸à±įà°¤à±ģà°Ĥà°¦à°¿.", "Ġà°īà°ªà°ĸà°Ĥà°¡à°ªà±ģ", "Ġà°īà°ªà°ĸà°Ĥà°¡à°®à±ģà°²à±ĭ", "Ġà°īà°ªà°ĸà°Ĥà°¡à°Ĥ", "Ġà°īà°Ĥà°¡à°¿,", "Ġà°īà°Ĥà°¡à°Ĺà°¾,", "Ġà°īà°Ĥà°¡à±ģà°Łà°ļà±ĩ", "Ġà°īà°Ĥà°Łà°¾à°¯à°¿", "Ġà°īà°Ĥà°Łà°¾à°¯à°¿.", "Ġà°īà°Ĥà°Łà±ģà°Ĥà°¦à°¿.", "Ġà°īà°Ĥà°Łà±Ĥ", "Ġà°ĭà°¤à±ģà°ªà°µà°¨à°¾à°²à±ģ", "Ġà°İà°¡à°¾à°°à°¿", "Ġà°İà°¦à±ģà°°à±įà°ķà±Ĭà°Ĥà°Łà±ģà°¨à±įà°¨à°¦à°¿.", "Ġà°İà°®à°°à±įà°ľà±Ĩà°¨à±įà°¸à±Ģ", "Ġà°İà°²à±įà°²à°²à±ģà°Ĺà°¾", "Ġà°İà°Ĺà±ģà°µ", "Ġà°İà°¨à±įà°¨à±ģà°ķà±ģà°Ĥà°Łà°¾à°°à±ģ.", "Ġà°İà°¨à±įà°¨à±ģà°ķà±ģà°Ĥà°Łà±ģà°Ĥà°¦à°¿.", "Ġà°İà°¨à±įà°¨à±ģà°ķà±Ĭà°¨à°¬à°¡à°¿à°¨", "Ġà°İà°¨à±įà°¨à°¿à°ķà°²à°²à±ĭ", "Ġà°ıà°¡à°µà°¸à±įà°¥à°¾à°¨à°Ĥà°²à±ĭ", "Ġà°ıà°¡à±ģ", "Ġà°ıà°ªà±įà°°à°¿à°²à±į", "Ġà°ıà°³à±įà°³à°ªà°¾à°Łà±ģ", "Ġà°ıà°ķà°¤à±įà°µà°Ĥà°Ĺà°²", "Ġà°ıà°Łà°¾", "Ġà°ıà°°à±įà°ªà°°à°ļà°¿à°Ĥà°¦à°¿.", "Ġà°ıà°°à±įà°ªà°¾à°Łà±ģ", "Ġà°ıà°°à±įà°ªà°¡à°¿à°¨", "Ġà°ıà°°à±įà°ªà°¡à°¿à°Ĥà°¦à°¿.", "Ġà°ıà°°à±įà°ªà°¡à±ĩ", "Ġà°Ĳà°¦à±ģ", "Ġà°Ĳà°ķà±įà°¯", "Ġà°Ĵà°ķà°Łà°¿", "Ġà°Ĵà°ķà±ĩ", "Ġà°Ĵà°ķà°Łà°¿à°Ĺà°¾,", "Ġà°Ĵà°ķà°Łà±ĭ", "Ġà°ĵà°¡à°¿à°Ĥà°ļà°¿,", "Ġà°ĵà°Łà°°à±įà°²à°ªà±Ī", "Ġà°Ķà°Łà±į", "Ġà°ķà°¨à°¿à°ªà°¿à°Ĥà°ļà°¿à°Ĥà°¦à°¿.", "Ġà°ķà°¨à±įà°¨à°¡à°Ĥ,", "Ġà°ķà°°à°¾à°ļà±Ģ,", "Ġà°ķà°·à±įà°Łà°Ĥà°ķà°¾à°Ĺà°¾", "Ġà°ķà°¾à°¨à±Ģ", "Ġà°ķà°¾à°ªà°¾à°¡à±ģà°ķà±ģà°Ĥà°Łà±Ĥà°¨à±ĩ", "Ġà°ķà°¾à°¯\",", "Ġà°ķà°¾à°µà°¡à°Ĥ", "Ġà°ķà°¾à°¶à±įà°®à±Ģà°°à±į", "Ġà°ķà°¿à°Ĥà°Ĺà±įà°¡à°®à±į", "Ġà°ķà°Ĥà°Łà±ĩ", "Ġà°ķà°Ĥà°Łà±Īà°¨à±Ĩà°°à±į", "Ġà°ķà±įà°°à°®à°Ĥà°Ĺà°¾", "Ġà°ķà°¨à±ģà°®à°²à±ģ", "Ġà°ķà°¨à±ģà°®à°²à±ģ,", "Ġà°ķà°²à°ķà°¤à±įà°¤à°¾),", "Ġà°ķà°²à°Ĺà°²à±ģà°ªà±ģ", "Ġà°ķà°²à±įà°ªà°¿à°Ĥà°ļà±ĩ", "Ġà°ķà°²à±įà°Ĺà°¿", "Ġà°ķà°²à°¿à°Ĺà°¿,", "Ġà°ķà°²à°¿à°Ĺà°¿à°¨", "Ġà°ķà°²à±ģà°ªà±ģà°¤à±Ĥ", "Ġà°ķà°²à±ģà°Ĺà±ģà°¤à°¾à°¯à°¿.", "Ġà°ķà°³à°²à±ģ,", "Ġà°ķà°³à°²à±ģ.", "Ġà°ķà°¾à°°à±įà°ªà°¸à±į,", "Ġà°ķà°¾à°°à±įà°¯à°¨à°¿à°°à±įà°µà°¾à°¹à°ķ", "Ġà°ķà°¾à°°à±įà°¯à°ķà±įà°°à°®à°¾à°²à°²à±ĭ", "Ġà°ķà°¾à°°à±įà°¯à°ķà±įà°°à°®à°¾à°²à±ģ", "Ġà°ķà°¾à°²à°ªà°°à°¿à°®à°¿à°¤à°¿à°ķà°¿", "Ġà°ķà°¾à°²à°¾à°²à±įà°²à±ĭ", "Ġà°ķà°¾à°²à°Ĥà°²à±ĭ,", "Ġà°ķà°¾à°²à±ĩà°ľà°¿", "Ġà°ķà°¾à°²à±ĩà°ľà±Ģ", "Ġà°ķà°¾à°Ĥà°Ĺà±įà°°à±Ĩà°¸à±ĩà°¤à°°", "Ġà°ķà°¾à°Ĥà°Ĺà±įà°°à±Ĩà°¸à±ģà°¨à±ģ", "Ġà°ķà°¿à°Ĥà°¦à°Ł", "Ġà°ķà°Ĥà°ªà±Ĩà°¨à±Ģà°ªà±Ī", "Ġà°ķà±ģà°¡à±įà°¯à°ļà°¿à°¤à±įà°°à°¾à°²à±ģ", "Ġà°ķà±ģà°Łà±ģà°Ĥà°¬à°¾à°²à°ķà±ģ", "Ġà°ķà±ģà°®à°¾à°°à±ģà°¡à±ģ.", "Ġà°ķà±ģà°®à°¾à°°à±įà°¤à±Ĩ", "Ġà°ķà±ģà°²à°Ĥ", "Ġà°ķà±Ĥà°¡à°¿", "Ġà°ķà±Ĥà°¡à°¿à°¨", "Ġà°ķà±Ĥà°¡à±ģà°ķà±Ĭà°¨à°¿", "Ġà°ķà±ĥà°·à±įà°£,", "Ġà°ķà±ĥà°·à±įà°£à°¾", "Ġà°ķà±ĩà°Ĥà°¦à±įà°°à°¾à°²à±įà°²à±ĭ", "Ġà°ķà±ĩà°Ĥà°¦à±įà°°à±Ģà°ķà±ĥà°¤à°®à±Ī", "Ġà°ķà±Ĭà°¦à±įà°¦à°¿à°Ńà°¾à°Ĺà°Ĥ", "Ġà°ķà±Ĭà°¨à±įà°¨à°¿:", "Ġà°ķà±ĭà°²à±įà°ªà±ĭà°¤à±Ĥ", "Ġà°ķà±ĭà°µà°¾à°°à°Ĥà°Łà±ĭ,", "Ġà°ķà±ĭà°¸à°Ĥ", "Ġà°ķà±ĭà°Łà±įà°²", "Ġà°ķà±ĭà°Łà±įà°²à°ķà±ģ", "Ġà°ķà±ĭà°°à±įà°Łà±ģ,", "Ġà°ķà±ĭà°°à±įà°Łà±ģà°²à°ķà±ģ", "Ġà°ķà±ĭà°°à±įà°Łà±ģà°²à±ģ", "Ġà°ķà±ĭà°°à±įà°Łà±ģà°²à±ģ,", "Ġà°ķà±įà°°à°¿.", "Ġà°ķà±įà°°à±Īà°¸à±įà°¤à°µà±ģà°²à±ģ", "Ġà°ĸà°Ĺà±ĭà°³", "Ġà°Ĺà°¤", "Ġà°Ĺà°¨à±ģà°²à±ģ,", "Ġà°Ĺà°®à°¨à°¿à°Ĥà°ļà°¿,", "Ġà°Ĺà°¾", "Ġà°Ĺà°Ĥà°Ĺà°¾", "Ġà°Ĺà±ģà°¤à±įà°¤à°¾à°§à°¿à°ªà°¤à±įà°¯à°Ĥ", "Ġà°Ĺà±Ĩà°²à°¿à°ļà°¿à°¨", "Ġà°Ĺà±įà°°à±Ģà°ķà±ģà°²à±ģ", "Ġà°Ĺà°£à°¿à°¤à°Ĥ,", "Ġà°Ĺà°¾à°Ĥà°ļà°¿à°¨", "Ġà°Ĺà°Ĥà°Ĺ,", "Ġà°Ĺà°Ĥà°Ĺà±ĭà°¤à±įà°°à°¿,", "Ġà°Ĺà±ģà°ªà±įà°¤à±ģà°²à°ķà°¾à°²à°Ĥ", "Ġà°Ĺà±ģà°°à±įà°¤à°¿à°Ĥà°ªà±ģ", "Ġà°Ĺà±ģà°°à±įà°¤à°¿à°Ĥà°ļà°µà°ļà±įà°ļà±ģ.", "Ġà°Ĺà±ģà°°à±įà°¤à°¿à°Ĥà°ļà°¿à°Ĥà°¦à°¿.", "Ġà°Ĺà±ĭà°¦à°¾à°µà°°à°¿.", "Ġà°Ĺà±ĭà°¦à°¾à°µà°°à±Ģ", "Ġà°ĺà°°à±įà°·à°£à°¨à±ģ", "Ġà°ĺà±ĭà°°", "Ġà°ļ.", "Ġà°ļà°¾à°³à±ģà°ķà±įà°¯à±ģà°²à±ģ,", "Ġà°ļà°ķà±įà°°à°µà°°à±įà°¤à°¿", "Ġà°ļà±ģà°Łà±įà°Łà±Ĥ", "Ġà°ļà±Ĥà°¡à°Ĥà°¡à°¿:", "Ġà°ļà±Ĥà°ªà°¬à°¡à°¿à°Ĥà°¦à°¿", "Ġà°ļà±ĩà°¤,", "Ġà°ļà±ĩà°°,", "Ġà°ļà±ĭà°³à±ģà°²à±ģ,", "Ġà°ļà°°à°¿à°¤à±įà°°à°²à±ĭ", "Ġà°ļà°µà°¿à°¤à°¿,", "Ġà°ļà°µà°¿à°ļà±Ĥà°¸à°¿à°Ĥà°¦à°¿.", "Ġà°ļà°¾à°°à°¿à°¤à±įà°°à°ķà°Ĥà°Ĺà°¾", "Ġà°ļà±Ĩà°ªà±įà°ªà±ģà°ķà±ĭà°µà°ļà±įà°ļà±ģ.", "Ġà°ļà±Ĩà°Ĥà°¦à°¿", "Ġà°ļà±Ĩà°Ĥà°¦à°¾à°¯à°¿.", "Ġà°ļà±ĩà°¯à°²à±ĩà°¦à±ģ", "Ġà°ļà±ĩà°¯à°¿à°¸à±įà°¤à°¾à°°à±ģ.", "Ġà°ļà±ĩà°¸à±ģà°ķà±ĭà°µà°¡à°Ĥà°¤à±ĭ", "Ġà°ļà±ĩà°¸à±ĩ", "Ġà°ļà±Īà°¨à°¾à°¤à±ĭ", "Ġà°ľà°®à±įà°®à±Ĥ", "Ġà°ľà±Īà°¨,", "Ġà°ľà±Īà°¨à±ģà°²à±ģ", "Ġà°ľà±ĭà°¨à±įà°²à±ģà°Ĺà°¾", "Ġà°ľà±ĭà°ķà±įà°¯à°Ĥ", "Ġà°ľà±Įà°³à°¿,", "Ġà°ľà°¨à°Ĺà°£à°¨", "Ġà°ľà°¨à°¾à°Ńà°¾à°²à±ĭ", "Ġà°ľà°¨à±įà°®à°¨à°¿à°ļà±įà°ļà°¿à°Ĥà°¦à°¿.", "Ġà°ľà°¨à±įà°®à°¸à±įà°¥à°¾à°¨à°Ĥ.", "Ġà°ľà°°à°¿à°Ĺà°¾à°¯à°¿.", "Ġà°ľà°°à°¿à°Ĺà°¿à°Ĥà°¦à°¿.", "Ġà°ľà°°à±ģà°ªà±ģà°ķà±ģà°¨à±ĩ", "Ġà°ľà°¾à°¤à°¿", "Ġà°ľà°¾à°¤à°¿,", "Ġà°ľà°¾à°¤à°¿à°ªà°¿à°¤", "Ġà°ľà°¾à°¤à±Ģà°¯à°¾à°¦à°¾à°¯à°Ĥà°²à±ĭ", "Ġà°ľà°¾à°¬à°¿à°¤à°¾", "Ġà°ľà°¾à°¬à°¿à°¤à°¾à°²à±ĭ", "Ġà°Łà±Ĩà°ķà±įà°¨à°¾à°²à°ľà±Ģ,", "Ġà°Ńà°¾à°°", "Ġà°Ńà°¾à°ľà°ªà°¾", "Ġà°Ńà°¿à°¨à±įà°¨à°¤à±įà°µà°¾à°²à±ģ", "Ġà°Ńà°¿à°Ĥà°¬à±Ĩà°Łà±įà°ķà°¾", "Ġà°Ńà°Ĥà°Ĺà°Ĥ", "Ġà°Ńà°ķà±įà°¤à°¿à°¶à±įà°°à°¦à±įà°§à°²à°¤à±ĭ,", "Ġà°Ńà±Ĥà°Łà°¾à°¨à±į,", "Ġà°Ńà°¾à°°à°¤à°Ĥ,", "Ġà°Ńà°¾à°°à°¤à°Ĥà°²à±ĭ,", "Ġà°Ńà°¾à°°à°¤à±į,", "Ġà°Ńà°¾à°°à°¤à°¦à±ĩà°¶à°Ĥ,", "Ġà°Ńà°¾à°°à°¤à°¦à±ĩà°¶à°Ĥ.", "Ġà°Ńà°¾à°·,", "Ġà°Ńà°¾à°·à°¾", "Ġà°Ńà°¾à°·à°²à±ģ.", "Ġà°Ńà°¾à°Ĺà°¸à±įà°µà°¾à°®à±ģà°²à±ģ.", "Ġà°Ńà°¾à°Ĺà°Ĥ", "Ġà°Ńà°¾à°Ĺà°Ĥ,", "Ġà°Ńà±Įà°¤à°¿à°ķ,", "<|reserved_0|>", "<|reserved_1|>", "<|reserved_2|>", "<|reserved_3|>", "<|reserved_4|>", "<|reserved_5|>", "<|reserved_6|>", "<|reserved_7|>", "<|reserved_8|>", "<|reserved_9|>", "<|reserved_10|>", "<|reserved_11|>", "<|reserved_12|>", "<|reserved_13|>", "<|reserved_14|>", "<|reserved_15|>", "<|reserved_16|>", "<|reserved_17|>", "<|reserved_18|>", "<|reserved_19|>", "<|reserved_20|>", "<|reserved_21|>", "<|reserved_22|>", "<|reserved_23|>", "<|reserved_24|>", "<|reserved_25|>", "<|reserved_26|>", "<|reserved_27|>", "<|reserved_28|>", "<|reserved_29|>", "<|reserved_30|>", "<|reserved_31|>", "<|reserved_32|>", "<|reserved_33|>", "<|reserved_34|>", "<|reserved_35|>", "<|reserved_36|>", "<|reserved_37|>", "<|reserved_38|>", "<|reserved_39|>", "<|reserved_40|>", "<|reserved_41|>", "<|reserved_42|>", "<|reserved_43|>", "<|reserved_44|>", "<|reserved_45|>", "<|reserved_46|>", "<|reserved_47|>", "<|reserved_48|>", "<|reserved_49|>", "<|reserved_50|>", "<|reserved_51|>", "<|reserved_52|>", "<|reserved_53|>", "<|reserved_54|>", "<|reserved_55|>", "<|reserved_56|>", "<|reserved_57|>", "<|reserved_58|>", "<|reserved_59|>", "<|reserved_60|>", "<|reserved_61|>", "<|reserved_62|>", "<|reserved_63|>", "<|reserved_64|>", "<|reserved_65|>", "<|reserved_66|>", "<|reserved_67|>", "<|reserved_68|>", "<|reserved_69|>", "<|reserved_70|>", "<|reserved_71|>", "<|reserved_72|>", "<|reserved_73|>", "<|reserved_74|>", "<|reserved_75|>", "<|reserved_76|>", "<|reserved_77|>", "<|reserved_78|>", "<|reserved_79|>", "<|reserved_80|>", "<|reserved_81|>", "<|reserved_82|>", "<|reserved_83|>", "<|reserved_84|>", "<|reserved_85|>", "<|reserved_86|>", "<|reserved_87|>", "<|reserved_88|>", "<|reserved_89|>", "<|reserved_90|>", "<|reserved_91|>", "<|reserved_92|>", "<|reserved_93|>", "<|reserved_94|>", "<|reserved_95|>", "<|reserved_96|>", "<|reserved_97|>", "<|reserved_98|>", "<|reserved_99|>", "<|reserved_100|>", "<|reserved_101|>", "<|reserved_102|>", "<|reserved_103|>", "<|reserved_104|>", "<|reserved_105|>", "<|reserved_106|>", "<|reserved_107|>", "<|reserved_108|>", "<|reserved_109|>", "<|reserved_110|>", "<|reserved_111|>", "<|reserved_112|>", "<|reserved_113|>", "<|reserved_114|>", "<|reserved_115|>", "<|reserved_116|>", "<|reserved_117|>", "<|reserved_118|>", "<|reserved_119|>", "<|reserved_120|>", "<|reserved_121|>", "<|reserved_122|>", "<|reserved_123|>", "<|reserved_124|>", "<|reserved_125|>", "<|reserved_126|>", "<|reserved_127|>", "<|reserved_128|>", "<|reserved_129|>", "<|reserved_130|>", "<|reserved_131|>", "<|reserved_132|>", "<|reserved_133|>", "<|reserved_134|>", "<|reserved_135|>", "<|reserved_136|>", "<|reserved_137|>", "<|reserved_138|>", "<|reserved_139|>", "<|reserved_140|>", "<|reserved_141|>", "<|reserved_142|>", "<|reserved_143|>", "<|reserved_144|>", "<|reserved_145|>", "<|reserved_146|>", "<|reserved_147|>", "<|reserved_148|>", "<|reserved_149|>", "<|reserved_150|>", "<|reserved_151|>", "<|reserved_152|>", "<|reserved_153|>", "<|reserved_154|>", "<|reserved_155|>", "<|reserved_156|>", "<|reserved_157|>", "<|reserved_158|>", "<|reserved_159|>", "<|reserved_160|>", "<|reserved_161|>", "<|reserved_162|>", "<|reserved_163|>", "<|reserved_164|>", "<|reserved_165|>", "<|reserved_166|>", "<|reserved_167|>", "<|reserved_168|>", "<|reserved_169|>", "<|reserved_170|>", "<|reserved_171|>", "<|reserved_172|>", "<|reserved_173|>", "<|reserved_174|>", "<|reserved_175|>", "<|reserved_176|>", "<|reserved_177|>", "<|reserved_178|>", "<|reserved_179|>", "<|reserved_180|>", "<|reserved_181|>", "<|reserved_182|>", "<|reserved_183|>", "<|reserved_184|>", "<|reserved_185|>", "<|reserved_186|>", "<|reserved_187|>", "<|reserved_188|>", "<|reserved_189|>", "<|reserved_190|>", "<|reserved_191|>", "<|reserved_192|>", "<|reserved_193|>", "<|reserved_194|>", "<|reserved_195|>", "<|reserved_196|>", "<|reserved_197|>", "<|reserved_198|>", "<|reserved_199|>", "<|reserved_200|>", "<|reserved_201|>", "<|reserved_202|>", "<|reserved_203|>", "<|reserved_204|>", "<|reserved_205|>", "<|reserved_206|>", "<|reserved_207|>", "<|reserved_208|>", "<|reserved_209|>", "<|reserved_210|>", "<|reserved_211|>", "<|reserved_212|>", "<|reserved_213|>", "<|reserved_214|>", "<|reserved_215|>", "<|reserved_216|>", "<|reserved_217|>", "<|reserved_218|>", "<|reserved_219|>", "<|reserved_220|>", "<|reserved_221|>", "<|reserved_222|>", "<|reserved_223|>", "<|reserved_224|>", "<|reserved_225|>", "<|reserved_226|>", "<|reserved_227|>", "<|reserved_228|>", "<|reserved_229|>", "<|reserved_230|>", "<|reserved_231|>", "<|reserved_232|>", "<|reserved_233|>", "<|reserved_234|>", "<|reserved_235|>", "<|reserved_236|>", "<|reserved_237|>", "<|reserved_238|>", "<|reserved_239|>", "<|reserved_240|>", "<|reserved_241|>", "<|reserved_242|>", "<|reserved_243|>", "<|reserved_244|>", "<|reserved_245|>", "<|reserved_246|>", "<|reserved_247|>", "<|reserved_248|>", "<|reserved_249|>", "<|reserved_250|>", "<|reserved_251|>", "<|reserved_252|>", "<|reserved_253|>", "<|reserved_254|>", "<|reserved_255|>", "<|reserved_256|>", "<|reserved_257|>", "<|reserved_258|>", "<|reserved_259|>", "<|reserved_260|>", "<|reserved_261|>", "<|reserved_262|>", "<|reserved_263|>", "<|reserved_264|>", "<|reserved_265|>", "<|reserved_266|>", "<|reserved_267|>", "<|reserved_268|>", "<|reserved_269|>", "<|reserved_270|>", "<|reserved_271|>", "<|reserved_272|>", "<|reserved_273|>", "<|reserved_274|>", "<|reserved_275|>", "<|reserved_276|>", "<|reserved_277|>", "<|reserved_278|>", "<|reserved_279|>", "<|reserved_280|>", "<|reserved_281|>", "<|reserved_282|>", "<|reserved_283|>", "<|reserved_284|>", "<|reserved_285|>", "<|reserved_286|>", "<|reserved_287|>", "<|reserved_288|>", "<|reserved_289|>", "<|reserved_290|>", "<|reserved_291|>", "<|reserved_292|>", "<|reserved_293|>", "<|reserved_294|>", "<|reserved_295|>", "<|reserved_296|>", "<|reserved_297|>", "<|reserved_298|>", "<|reserved_299|>", "<|reserved_300|>", "<|reserved_301|>", "<|reserved_302|>", "<|reserved_303|>", "<|reserved_304|>", "<|reserved_305|>", "<|reserved_306|>", "<|reserved_307|>", "<|reserved_308|>", "<|reserved_309|>", "<|reserved_310|>", "<|reserved_311|>", "<|reserved_312|>", "<|reserved_313|>", "<|reserved_314|>", "<|reserved_315|>", "<|reserved_316|>", "<|reserved_317|>", "<|reserved_318|>", "<|reserved_319|>", "<|reserved_320|>", "<|reserved_321|>", "<|reserved_322|>", "<|reserved_323|>", "<|reserved_324|>", "<|reserved_325|>", "<|reserved_326|>", "<|reserved_327|>", "<|reserved_328|>", "<|reserved_329|>", "<|reserved_330|>", "<|reserved_331|>", "<|reserved_332|>", "<|reserved_333|>", "<|reserved_334|>", "<|reserved_335|>", "<|reserved_336|>", "<|reserved_337|>", "<|reserved_338|>", "<|reserved_339|>", "<|reserved_340|>", "<|reserved_341|>", "<|reserved_342|>", "<|reserved_343|>", "<|reserved_344|>", "<|reserved_345|>", "<|reserved_346|>", "<|reserved_347|>", "<|reserved_348|>", "<|reserved_349|>", "<|reserved_350|>", "<|reserved_351|>", "<|reserved_352|>", "<|reserved_353|>", "<|reserved_354|>", "<|reserved_355|>", "<|reserved_356|>", "<|reserved_357|>", "<|reserved_358|>", "<|reserved_359|>", "<|reserved_360|>", "<|reserved_361|>", "<|reserved_362|>", "<|reserved_363|>", "<|reserved_364|>", "<|reserved_365|>", "<|reserved_366|>", "<|reserved_367|>", "<|reserved_368|>", "<|reserved_369|>", "<|reserved_370|>", "<|reserved_371|>", "<|reserved_372|>", "<|reserved_373|>", "<|reserved_374|>", "<|reserved_375|>", "<|reserved_376|>", "<|reserved_377|>", "<|reserved_378|>", "<|reserved_379|>", "<|reserved_380|>", "<|reserved_381|>", "<|reserved_382|>", "<|reserved_383|>", "<|reserved_384|>", "<|reserved_385|>", "<|reserved_386|>", "<|reserved_387|>", "<|reserved_388|>", "<|reserved_389|>", "<|reserved_390|>", "<|reserved_391|>", "<|reserved_392|>", "<|reserved_393|>", "<|reserved_394|>", "<|reserved_395|>", "<|reserved_396|>", "<|reserved_397|>", "<|reserved_398|>", "<|reserved_399|>", "<|reserved_400|>", "<|reserved_401|>", "<|reserved_402|>", "<|reserved_403|>", "<|reserved_404|>", "<|reserved_405|>", "<|reserved_406|>", "<|reserved_407|>", "<|reserved_408|>", "<|reserved_409|>", "<|reserved_410|>", "<|reserved_411|>", "<|reserved_412|>", "<|reserved_413|>", "<|reserved_414|>", "<|reserved_415|>", "<|reserved_416|>", "<|reserved_417|>", "<|reserved_418|>", "<|reserved_419|>", "<|reserved_420|>", "<|reserved_421|>", "<|reserved_422|>", "<|reserved_423|>", "<|reserved_424|>", "<|reserved_425|>", "<|reserved_426|>", "<|reserved_427|>", "<|reserved_428|>", "<|reserved_429|>", "<|reserved_430|>", "<|reserved_431|>", "<|reserved_432|>", "<|reserved_433|>", "<|reserved_434|>", "<|reserved_435|>", "<|reserved_436|>", "<|reserved_437|>", "<|reserved_438|>", "<|reserved_439|>", "<|reserved_440|>", "<|reserved_441|>", "<|reserved_442|>", "<|reserved_443|>", "<|reserved_444|>", "<|reserved_445|>", "<|reserved_446|>", "<|reserved_447|>", "<|reserved_448|>", "<|reserved_449|>", "<|reserved_450|>", "<|reserved_451|>", "<|reserved_452|>", "<|reserved_453|>", "<|reserved_454|>", "<|reserved_455|>", "<|reserved_456|>", "<|reserved_457|>", "<|reserved_458|>", "<|reserved_459|>", "<|reserved_460|>", "<|reserved_461|>", "<|reserved_462|>", "<|reserved_463|>", "<|reserved_464|>", "<|reserved_465|>", "<|reserved_466|>", "<|reserved_467|>", "<|reserved_468|>", "<|reserved_469|>", "<|reserved_470|>", "<|reserved_471|>", "<|reserved_472|>", "<|reserved_473|>", "<|reserved_474|>", "<|reserved_475|>", "<|reserved_476|>", "<|reserved_477|>", "<|reserved_478|>", "<|reserved_479|>", "<|reserved_480|>", "<|reserved_481|>", "<|reserved_482|>", "<|reserved_483|>", "<|reserved_484|>", "<|reserved_485|>", "<|reserved_486|>", "<|reserved_487|>", "<|reserved_488|>", "<|reserved_489|>", "<|reserved_490|>", "<|reserved_491|>", "<|reserved_492|>", "<|reserved_493|>", "<|reserved_494|>", "<|reserved_495|>", "<|reserved_496|>", "<|reserved_497|>", "<|reserved_498|>", "<|reserved_499|>", "<|reserved_500|>", "<|reserved_501|>", "<|reserved_502|>", "<|reserved_503|>", "<|reserved_504|>", "<|reserved_505|>", "<|reserved_506|>", "<|reserved_507|>", "<|reserved_508|>", "<|reserved_509|>", "<|reserved_510|>", "<|reserved_511|>", "<|reserved_512|>", "<|reserved_513|>", "<|reserved_514|>", "<|reserved_515|>", "<|reserved_516|>", "<|reserved_517|>", "<|reserved_518|>", "<|reserved_519|>", "<|reserved_520|>", "<|reserved_521|>", "<|reserved_522|>", "<|reserved_523|>", "<|reserved_524|>", "<|reserved_525|>", "<|reserved_526|>", "<|reserved_527|>", "<|reserved_528|>", "<|reserved_529|>", "<|reserved_530|>", "<|reserved_531|>", "<|reserved_532|>", "<|reserved_533|>", "<|reserved_534|>", "<|reserved_535|>", "<|reserved_536|>", "<|reserved_537|>", "<|reserved_538|>", "<|reserved_539|>", "<|reserved_540|>", "<|reserved_541|>", "<|reserved_542|>", "<|reserved_543|>", "<|reserved_544|>", "<|reserved_545|>", "<|reserved_546|>", "<|reserved_547|>", "<|reserved_548|>", "<|reserved_549|>", "<|reserved_550|>", "<|reserved_551|>", "<|reserved_552|>", "<|reserved_553|>", "<|reserved_554|>", "<|reserved_555|>", "<|reserved_556|>", "<|reserved_557|>", "<|reserved_558|>", "<|reserved_559|>", "<|reserved_560|>", "<|reserved_561|>", "<|reserved_562|>", "<|reserved_563|>", "<|reserved_564|>", "<|reserved_565|>", "<|reserved_566|>", "<|reserved_567|>", "<|reserved_568|>", "<|reserved_569|>", "<|reserved_570|>", "<|reserved_571|>", "<|reserved_572|>", "<|reserved_573|>", "<|reserved_574|>", "<|reserved_575|>", "<|reserved_576|>", "<|reserved_577|>", "<|reserved_578|>", "<|reserved_579|>", "<|reserved_580|>", "<|reserved_581|>", "<|reserved_582|>", "<|reserved_583|>", "<|reserved_584|>", "<|reserved_585|>", "<|reserved_586|>", "<|reserved_587|>", "<|reserved_588|>", "<|reserved_589|>", "<|reserved_590|>", "<|reserved_591|>", "<|reserved_592|>", "<|reserved_593|>", "<|reserved_594|>", "<|reserved_595|>", "<|reserved_596|>", "<|reserved_597|>", "<|reserved_598|>", "<|reserved_599|>", "<|reserved_600|>", "<|reserved_601|>", "<|reserved_602|>", "<|reserved_603|>", "<|reserved_604|>", "<|reserved_605|>", "<|reserved_606|>", "<|reserved_607|>", "<|reserved_608|>", "<|reserved_609|>", "<|reserved_610|>", "<|reserved_611|>", "<|reserved_612|>", "<|reserved_613|>", "<|reserved_614|>", "<|reserved_615|>", "<|reserved_616|>", "<|reserved_617|>", "<|reserved_618|>", "<|reserved_619|>", "<|reserved_620|>", "<|reserved_621|>", "<|reserved_622|>", "<|reserved_623|>", "<|reserved_624|>", "<|reserved_625|>", "<|reserved_626|>", "<|reserved_627|>", "<|reserved_628|>", "<|reserved_629|>", "<|reserved_630|>", "<|reserved_631|>", "<|reserved_632|>", "<|reserved_633|>", "<|reserved_634|>", "<|reserved_635|>", "<|reserved_636|>", "<|reserved_637|>", "<|reserved_638|>", "<|reserved_639|>", "<|reserved_640|>", "<|reserved_641|>", "<|reserved_642|>", "<|reserved_643|>", "<|reserved_644|>", "<|reserved_645|>", "<|reserved_646|>", "<|reserved_647|>", "<|reserved_648|>", "<|reserved_649|>", "<|reserved_650|>", "<|reserved_651|>", "<|reserved_652|>", "<|reserved_653|>", "<|reserved_654|>", "<|reserved_655|>", "<|reserved_656|>", "<|reserved_657|>", "<|reserved_658|>", "<|reserved_659|>", "<|reserved_660|>", "<|reserved_661|>", "<|reserved_662|>", "<|reserved_663|>", "<|reserved_664|>", "<|reserved_665|>", "<|reserved_666|>", "<|reserved_667|>", "<|reserved_668|>", "<|reserved_669|>", "<|reserved_670|>", "<|reserved_671|>", "<|reserved_672|>", "<|reserved_673|>", "<|reserved_674|>", "<|reserved_675|>", "<|reserved_676|>", "<|reserved_677|>", "<|reserved_678|>", "<|reserved_679|>", "<|reserved_680|>", "<|reserved_681|>", "<|reserved_682|>", "<|reserved_683|>", "<|reserved_684|>", "<|reserved_685|>", "<|reserved_686|>", "<|reserved_687|>", "<|reserved_688|>", "<|reserved_689|>", "<|reserved_690|>", "<|reserved_691|>", "<|reserved_692|>", "<|reserved_693|>", "<|reserved_694|>", "<|reserved_695|>", "<|reserved_696|>", "<|reserved_697|>", "<|reserved_698|>", "<|reserved_699|>", "<|reserved_700|>", "<|reserved_701|>", "<|reserved_702|>", "<|reserved_703|>", "<|reserved_704|>", "<|reserved_705|>", "<|reserved_706|>", "<|reserved_707|>", "<|reserved_708|>", "<|reserved_709|>", "<|reserved_710|>", "<|reserved_711|>", "<|reserved_712|>", "<|reserved_713|>", "<|reserved_714|>", "<|reserved_715|>", "<|reserved_716|>", "<|reserved_717|>", "<|reserved_718|>", "<|reserved_719|>", "<|reserved_720|>", "<|reserved_721|>", "<|reserved_722|>", "<|reserved_723|>", "<|reserved_724|>", "<|reserved_725|>", "<|reserved_726|>", "<|reserved_727|>", "<|reserved_728|>"], "merges": [["a", "n"], ["t", "h"], ["i", "n"], ["th", "e"], ["Ġ", "the"], ["r", "e"], ["o", "n"], ["s", "t"], ["e", "d"], ["Ġ", "I"], ["n", "d"], ["Ġ", "an"], ["e", "r"], ["Ġ", "a"], ["Ġ", "o"], ["Ġ", "in"], ["e", "n"], ["i", "t"], ["a", "l"], ["Ġan", "d"], ["ĠI", "nd"], ["a", "t"], ["i", "s"], ["in", "g"], ["o", "r"], ["i", "c"], ["Ġ", "s"], ["Ġ", "w"], ["Ġo", "f"], ["Ġ", "c"], ["a", "r"], ["i", "a"], ["i", "on"], ["Ġ", "t"], ["Ġ", "p"], ["o", "m"], ["Ġ", "b"], ["Ġ", "m"], ["Ġ", "e"], ["Ġ", "f"], ["o", "u"], ["Ġ", "h"], ["Ġ", "B"], ["Ġ", "l"], ["Ġ", "n"], ["ĠInd", "ia"], ["a", "s"], ["e", "s"], ["l", "y"], ["Ġ", "A"], ["Ġt", "o"], ["en", "t"], ["Ġ", "re"], ["Ġ", "d"], ["i", "v"], ["u", "r"], ["c", "e"], ["o", "l"], ["Ġ", "r"], ["i", "st"], ["i", "an"], ["i", "g"], ["Ġ", "S"], ["e", "c"], ["i", "d"], ["i", "l"], ["l", "e"], ["r", "a"], ["Ġ", "M"], ["T", "h"], ["at", "ion"], ["d", "u"], ["u", "s"], ["Ġ", "E"], ["Ġ", "Th"], ["0", "0"], ["Ġ", "C"], ["e", "st"], ["m", "p"], ["o", "p"], ["r", "it"], ["r", "om"], ["t", "s"], ["ĠTh", "e"], ["Ġa", "r"], ["a", "m"], ["a", "st"], ["al", "ly"], ["c", "h"], ["e", "t"], ["o", "s"], ["Ġ", "g"], ["Ġ", "is"], ["Ġ", "it"], ["Ġf", "or"], ["an", "g"], ["e", "re"], ["i", "f"], ["i", "m"], ["i", "re"], ["u", "l"], ["Ġ", "1"], ["Ġ", "H"], ["Ġ", "on"], ["Ġ", "th"], ["a", "d"], ["er", "s"], ["i", "th"], ["is", "m"], ["o", "c"], ["ou", "th"], ["u", "b"], ["u", "m"], ["u", "re"], ["Ġ", "D"], ["ĠA", "s"], ["Ġf", "rom"], ["Ġn", "or"], ["C", "E"], ["a", ","], ["a", "g"], ["c", "on"], ["er", "n"], ["it", "y"], ["mp", "ire"], ["u", "t"], ["Ġ", "P"], ["ĠB", "CE"], ["Ġb", "y"], ["Ġit", "s"], ["Ġo", "r"], ["Ġw", "ith"], ["a", "k"], ["an", "s"], ["ic", "al"], ["il", "l"], ["is", "h"], ["o", "d"], ["s", ","], ["the", "r"], ["u", "d"], ["Ġ", "("], ["Ġ", "st"], ["ĠInd", "ian"], ["Ġin", "t"], ["an", "d"], ["e", ","], ["e", "m"], ["i", "r"], ["ig", "h"], ["ist", "an"], ["r", "o"], ["s", "."], ["t", "ed"], ["ul", "t"], ["ĠE", "mpire"], ["Ġe", "x"], ["Ġre", "g"], ["Ġw", "as"], ["a", "in"], ["am", "e"], ["ang", "u"], ["angu", "ag"], ["e", "l"], ["en", "ce"], ["g", "h"], ["in", "du"], ["n", "t"], ["oc", "i"], ["r", "i"], ["ther", "n"], ["Ġ", "G"], ["ĠAs", "ia"], ["ĠH", "indu"], ["Ġh", "as"], ["Ġint", "o"], ["Ġl", "anguag"], ["Ġp", "l"], ["Ġreg", "ion"], ["Ġw", "h"], ["00", "0"], ["a", "c"], ["a", "y"], ["ans", "k"], ["ansk", "rit"], ["ar", "y"], ["d", "h"], ["e", "ar"], ["er", "g"], ["ic", "h"], ["iv", "er"], ["m", "erg"], ["or", "d"], ["r", "y"], ["y", "."], ["Ġ", "v"], ["ĠI", "n"], ["ĠInd", "us"], ["ĠIndia", ","], ["ĠS", "anskrit"], ["ĠS", "outh"], ["Ġa", "g"], ["Ġc", "on"], ["Ġe", "merg"], ["Ġh", "ad"], ["Ġnor", "thern"], ["Ġs", "oci"], [",", "000"], ["=", "="], ["a", "b"], ["a", "v"], ["ak", "istan"], ["con", "om"], ["du", "c"], ["en", "n"], ["enn", "i"], ["enni", "um"], ["et", "t"], ["i", "es"], ["ill", "ennium"], ["in", "ce"], ["l", "d"], ["o", "w"], ["om", "p"], ["p", "t"], ["us", "ed"], ["v", "er"], ["v", "id"], ["Ġ", "=="], ["ĠC", "h"], ["ĠInd", "o"], ["ĠIndia", "'"], ["ĠP", "akistan"], ["Ġa", "s"], ["Ġb", "ec"], ["Ġe", "conom"], ["Ġin", "c"], ["Ġm", "o"], ["Ġre", "l"], ["Ġs", "ub"], ["Ġw", "ere"], ["Ġw", "est"], ["a", "j"], ["aj", "or"], ["ar", "g"], ["at", "e"], ["c", "c"], ["con", "t"], ["cont", "in"], ["contin", "ent"], ["e", "en"], ["e", "f"], ["e", "p"], ["ear", "s"], ["ed", ","], ["en", "s"], ["et", "w"], ["is", "ed"], ["iv", "ers"], ["n", "c"], ["o", "k"], ["o", "t"], ["od", "ern"], ["om", "in"], ["ou", "gh"], ["ou", "nd"], ["p", "p"], ["re", "d"], ["rit", "ish"], ["t", "er"], ["u", "n"], ["ud", "dh"], ["ult", "ure"], ["ur", "ing"], ["ur", "y"], ["w", "o"], ["y", "ears"], ["Ä", "ģ"], ["Ġ", "N"], ["Ġ", "R"], ["Ġ", "years"], ["Ġ1", "9"], ["ĠB", "ritish"], ["ĠB", "uddh"], ["ĠM", "a"], ["Ġag", "o"], ["Ġar", "ch"], ["Ġbec", "ame"], ["Ġc", "ent"], ["Ġc", "h"], ["Ġex", "p"], ["Ġh", "um"], ["Ġl", "if"], ["Ġm", "id"], ["Ġm", "illennium"], ["Ġn", "e"], ["Ġnor", "th"], ["Ġr", "iver"], ["Ġrel", "ig"], ["Ġs", "ince"], ["Ġs", "outh"], ["Ġsub", "continent"], ["Ġt", "wo"], ["Ġwh", "ich"], ["a", "."], ["as", "ed"], ["as", "s"], ["at", "iv"], ["c", "ri"], ["e", "a"], ["e", "an"], ["e", "g"], ["e", "nd"], ["ec", "t"], ["i", "ed"], ["ic", "ally"], ["ism", ","], ["ist", "or"], ["k", "s"], ["l", "ed"], ["l", "ic"], ["l", "ud"], ["o", "g"], ["ol", "v"], ["om", "e"], ["on", "g"], ["op", "ul"], ["os", "e"], ["os", "s"], ["ou", "r"], ["ou", "s"], ["q", "u"], ["r", "at"], ["r", "ic"], ["ra", "vid"], ["ravid", "ian"], ["re", "e"], ["re", "s"], ["u", "le"], ["ub", "lic"], ["â", "Ģ"], ["Ġ", "2"], ["Ġ", "O"], ["Ġ", "V"], ["ĠA", "f"], ["ĠB", "h"], ["ĠB", "y"], ["ĠBCE", ","], ["ĠD", "ravidian"], ["ĠI", "t"], ["ĠIndia", "."], ["Ġb", "ut"], ["Ġc", "ou"], ["Ġc", "re"], ["Ġc", "ulture"], ["Ġe", "ast"], ["Ġemerg", "ed"], ["Ġfor", "m"], ["Ġg", "ra"], ["Ġh", "igh"], ["Ġlanguag", "es"], ["Ġlif", "e"], ["Ġm", "odern"], ["Ġmo", "st"], ["Ġn", "on"], ["Ġp", "ar"], ["Ġp", "opul"], ["Ġp", "r"], ["Ġr", "is"], ["Ġr", "ule"], ["Ġre", "f"], ["Ġrelig", "ion"], ["Ġs", "u"], ["Ġsoci", "al"], ["Ġv", "ar"], ["Ġwest", "ern"], [")", ","], ["0", ",000"], ["4", "00"], ["A", "ry"], ["Ary", "an"], ["E", "ur"], ["Eur", "op"], ["Europ", "ean"], ["a", "the"], ["al", "ist"], ["an", "ted"], ["ang", "es"], ["ar", "at"], ["ar", "ly"], ["as", "in"], ["ass", "ical"], ["at", "ed"], ["at", "er"], ["ation", ","], ["b", "an"], ["cri", "pt"], ["d", "ay"], ["d", "le"], ["du", "ally"], ["e", "op"], ["e", "qu"], ["e", "v"], ["ec", "on"], ["el", "l"], ["eop", "le"], ["er", "i"], ["ere", "d"], ["etw", "een"], ["i", "ent"], ["i", "ol"], ["if", "f"], ["igh", "ts"], ["im", "al"], ["ing", "s"], ["it", "ect"], ["it", "ies"], ["it", "ion"], ["ity", "."], ["k", "n"], ["l", "assical"], ["l", "in"], ["l", "ish"], ["le", "y"], ["lud", "ing"], ["m", "ent"], ["nc", "ient"], ["nt", "ry"], ["o", "ose"], ["ol", "og"], ["olv", "ed"], ["omin", "ion"], ["omp", "os"], ["p", "ic"], ["pp", "l"], ["re", "w"], ["ric", "a"], ["ro", "duc"], ["s", "l"], ["st", "em"], ["t", ","], ["t", "y"], ["u", "nt"], ["ur", "ban"], ["ury", "a"], ["ut", "ion"], ["v", "iol"], ["w", "est"], ["w", "n"], ["y", "stem"], ["á", "¹"], ["Ġ", "3"], ["Ġ", "400"], ["Ġ", "5"], ["Ġ", "J"], ["Ġ", "ed"], ["Ġ", "un"], ["Ġ", "urban"], ["Ġ", "used"], ["ĠA", "ncient"], ["ĠAf", "rica"], ["ĠBh", "arat"], ["ĠCh", "in"], ["ĠD", "uring"], ["ĠG", "ree"], ["ĠI", "sl"], ["ĠI", "ts"], ["ĠMa", "urya"], ["ĠSanskrit", ","], ["Ġa", "d"], ["Ġa", "re"], ["Ġa", "t"], ["Ġago", "."], ["Ġan", "imal"], ["Ġarch", "itect"], ["Ġb", "asin"], ["Ġb", "ord"], ["Ġc", "ities"], ["Ġc", "o"], ["Ġc", "ompos"], ["Ġcou", "ntry"], ["Ġd", "iff"], ["Ġd", "ivers"], ["Ġd", "ominion"], ["Ġe", "th"], ["Ġeconom", "y"], ["Ġex", "t"], ["Ġh", "istor"], ["Ġhum", "an"], ["Ġinc", "re"], ["Ġl", "ater"], ["Ġl", "ong"], ["Ġl", "oose"], ["Ġm", "ajor"], ["Ġn", "ame"], ["Ġo", "cc"], ["Ġo", "ver"], ["Ġp", "eople"], ["Ġp", "ol"], ["Ġpl", "ain"], ["Ġris", "e"], ["Ġs", "ett"], ["Ġs", "p"], ["Ġs", "ystem"], ["Ġt", "im"], ["Ġth", "at"], ["Ġth", "is"], ["Ġw", "or"], [")", ";"], ["0", ","], ["1", "9"], ["2", "00"], ["2", "3"], ["4", "7"], ["47", ","], ["5", ",000"], ["5", "00"], ["I", "nd"], ["Ind", "ia"], ["U", "S"], ["a", "ce"], ["a", "em"], ["a", "ic"], ["a", "p"], ["a", "re"], ["a", "Ë"], ["ad", "e"], ["aem", "en"], ["ag", "es"], ["ain", "ism"], ["ajor", "ity"], ["ak", "ing"], ["al", "ley"], ["an", "m"], ["an", "t"], ["an", "y"], ["and", "ar"], ["and", "ing"], ["and", "s"], ["andar", "d"], ["andard", "ised"], ["anm", "ar"], ["ar", "a"], ["ar", "h"], ["ar", "l"], ["arg", "e"], ["arg", "in"], ["argin", "s"], ["arl", "i"], ["arli", "est"], ["athe", "re"], ["athere", "r"], ["atherer", "s,"], ["ation", "alist"], ["ation", "s"], ["ativ", "e"], ["ativ", "ity"], ["av", "e"], ["av", "i"], ["avi", "ra"], ["aË", "Ĳ"], ["c", "luding"], ["c", "ord"], ["ce", "an"], ["ch", "aemen"], ["cord", "ed"], ["d", "ep"], ["d", "iv"], ["d", "om"], ["dep", "end"], ["dom", "s"], ["e", "aking"], ["e", "at"], ["e", "ver"], ["e", "x"], ["ec", "h"], ["ec", "lin"], ["ech", "n"], ["echn", "olog"], ["econ", "d"], ["ed", "i"], ["el", "i"], ["em", "ent"], ["em", "oc"], ["en", "g"], ["ent", "ly"], ["equ", "al"], ["er", "m"], ["eri", "od"], ["ers", "ian"], ["es", "."], ["ett", "led"], ["etw", "or"], ["etwor", "ks"], ["ever", ","], ["f", "ter"], ["g", "atherers,"], ["g", "lish"], ["gh", "al"], ["h", "m"], ["h", "ok"], ["h", "Äģ"], ["hok", "a"], ["hÄģ", "rat"], ["i", ","], ["i", "ally"], ["i", "k"], ["ic", "ts"], ["id", "dle"], ["id", "e"], ["if", "ied"], ["il", "d"], ["il", "is"], ["ill", "ion"], ["im", "m"], ["in", "cluding"], ["in", "ed"], ["ing", ","], ["ing", "doms"], ["ir", "st"], ["is", "en"], ["ist", "ic"], ["ist", "ing"], ["it", "ary"], ["it", "e"], ["it", "ution"], ["ity", ","], ["iv", "ilis"], ["iv", "ing"], ["j", "ab"], ["j", "o"], ["k", "ingdoms"], ["kn", "it"], ["l", "im"], ["l", "ing"], ["l", "our"], ["l", "ow"], ["le", "ment"], ["lour", "ish"], ["m", "ajority"], ["n", "glish"], ["o", "ch"], ["o", "th"], ["o", "v"], ["ol", "ation"], ["ol", "id"], ["om", "en"], ["or", "ted"], ["ou", "t"], ["ou", "the"], ["outhe", "ast"], ["ow", "ever,"], ["p", "ation,"], ["ppl", "anted"], ["r", "al"], ["r", "ough"], ["ra", "c"], ["s", "olid"], ["st", "an"], ["st", "itution"], ["t", "ition"], ["ty", "m"], ["u", "c"], ["u", "ghal"], ["u", "pation,"], ["un", "jab"], ["unt", "er"], ["ure", ","], ["ure", "s"], ["us", "lim"], ["v", "ement"], ["v", "olved"], ["vid", "ence"], ["viol", "ence"], ["west", "."], ["y", "anmar"], ["¸", "Î"], ["¸Î", "½"], ["¸Î½", "Î"], ["¸Î½Î", "´"], ["¼", "¸Î½Î´"], ["Äģ", "y"], ["Ë", "Ī"], ["á", "¼¸Î½Î´"], ["á¹", "ĩ"], ["âĢ", "ĵ"], ["âĢ", "Ķ"], ["Ġ", "\""], ["Ġ", "7"], ["Ġ", "F"], ["Ġ", "K"], ["Ġ", "L"], ["Ġ", "US"], ["Ġ", "er"], ["Ġ", "imm"], ["Ġ", "kingdoms"], ["Ġ(", "including"], ["Ġ(", "á¼¸Î½Î´"], ["Ġ1", "200"], ["Ġ19", "47,"], ["Ġ19", "5"], ["Ġ5", "5,000"], ["Ġ==", "="], ["ĠA", "chaemen"], ["ĠAs", "hoka"], ["ĠAsia", "."], ["ĠBCE", "."], ["ĠBuddh", "ism"], ["ĠC", "ent"], ["ĠC", "ivilis"], ["ĠC", "lassical"], ["ĠCh", "r"], ["ĠChin", "a,"], ["ĠE", "arly"], ["ĠE", "nglish"], ["ĠEmpire", "."], ["ĠG", "anges"], ["ĠGree", "k"], ["ĠHindu", "ism"], ["ĠHindu", "stan"], ["ĠIsl", "am"], ["ĠJ", "ainism"], ["ĠM", "iddle"], ["ĠM", "ughal"], ["ĠM", "uslim"], ["ĠM", "yanmar"], ["ĠO", "cean"], ["ĠP", "ersian"], ["ĠP", "unjab"], ["ĠThe", "ir"], ["ĠV", "alley"], ["Ġa", "b"], ["Ġa", "fter"], ["Ġad", "op"], ["Ġago", ","], ["Ġar", "isen"], ["Ġar", "ound"], ["Ġar", "t,"], ["Ġarch", "aic"], ["Ġarchitect", "ure,"], ["Ġb", "een"], ["Ġb", "eg"], ["Ġb", "etween"], ["Ġbord", "ers"], ["Ġc", "ast"], ["Ġcent", "ur"], ["Ġcent", "ury"], ["Ġcompos", "ed"], ["Ġcon", "duc"], ["Ġcon", "solid"], ["Ġcon", "t"], ["Ġcre", "ativity"], ["Ġculture", "s"], ["Ġd", "at"], ["Ġd", "eclin"], ["Ġd", "emoc"], ["Ġd", "uring"], ["Ġdiff", "used"], ["Ġe", "arliest"], ["Ġe", "mpire"], ["Ġe", "pic"], ["Ġeconom", "ic"], ["Ġed", "icts"], ["Ġeth", "ical"], ["Ġexp", "anding"], ["Ġext", "ens"], ["Ġf", "ac"], ["Ġf", "irst"], ["Ġf", "lourish"], ["Ġf", "ound"], ["Ġg", "r"], ["Ġg", "rew"], ["Ġgra", "dually"], ["Ġh", "ered"], ["Ġh", "is"], ["Ġh", "ub"], ["Ġh", "unter"], ["Ġhigh", "ly"], ["Ġhistor", "ical"], ["Ġhum", "ans"], ["Ġin", "depend"], ["Ġin", "equal"], ["Ġin", "f"], ["Ġincre", "ased"], ["Ġis", "olation"], ["Ġl", "and"], ["Ġl", "arge"], ["Ġl", "oss"], ["Ġlanguag", "e"], ["Ġlanguag", "e,"], ["Ġm", "ade"], ["Ġm", "ain"], ["Ġm", "argins"], ["Ġm", "ig"], ["Ġm", "ult"], ["Ġmo", "vement"], ["Ġn", "ationalist"], ["Ġn", "ear"], ["Ġne", "w"], ["Ġnorth", "west."], ["Ġocc", "upation,"], ["Ġp", "eriod"], ["Ġp", "o"], ["Ġp", "re"], ["Ġp", "ro"], ["Ġp", "rom"], ["Ġp", "ublic"], ["Ġpar", "tition"], ["Ġpl", "ace"], ["Ġpl", "an"], ["Ġpopul", "ous"], ["Ġr", "ights"], ["Ġre", "corded"], ["Ġre", "s"], ["Ġref", "er"], ["Ġregion", "s."], ["Ġreligion", "s"], ["Ġs", "cript"], ["Ġs", "econd"], ["Ġs", "h"], ["Ġsouth", "."], ["Ġst", "andardised"], ["Ġst", "at"], ["Ġsu", "pplanted"], ["Ġt", "echnolog"], ["Ġth", "ough"], ["Ġth", "rough"], ["Ġthe", "re"], ["Ġto", "day"], ["Ġto", "ok"], ["Ġvar", "i"], ["Ġvar", "n"], ["Ġw", "omen"], ["Ġw", "rit"], ["Ġwh", "at"], ["Ġwor", "ld"], ["%", "."], ["'", ")"], ["'", "."], ["'", "E"], ["'", "the"], ["'E", "igh"], ["'Eigh", "t"], [",", "\""], [",", "6"], [",6", "0"], [",60", "1"], [",601", ","], [".", "4"], [".", "6"], [".6", "%"], ["0", "23"], ["023", "."], ["19", "00"], ["2", ",601,"], ["2", "0"], ["2", "0,"], ["23", "2"], ["4", "%."], ["5", "8"], ["58", "."], ["6", ".6%"], ["6", "1"], ["6", "4"], ["6", "8"], ["8", "0,000"], ["8", "58."], ["9", ",000"], ["B", "hÄģrat"], ["BhÄģrat", ";"], ["E", ","], ["India", "\""], ["India", ","], ["N", "A"], ["Z", "or"], ["Zor", "o"], ["Zoro", "ast"], ["Zoroast", "r"], ["Zoroastr", "ian"], ["Zoroastrian", "ism"], ["[", "É"], ["[", "ËĪ"], ["[É", "¦"], ["[É¦", "É"], ["[É¦É", "ª"], ["[É¦Éª", "nd"], ["[É¦Éªnd", "Ê"], ["[É¦ÉªndÊ", "Ĭ"], ["[É¦ÉªndÊĬ", "ËĪ"], ["[É¦ÉªndÊĬËĪ", "st"], ["[É¦ÉªndÊĬËĪst", "aËĲ"], ["[É¦ÉªndÊĬËĪstaËĲ", "n"], ["[É¦ÉªndÊĬËĪstaËĲn", "]"], ["[ËĪ", "b"], ["[ËĪb", "Ê"], ["[ËĪbÊ", "±"], ["[ËĪbÊ±", "aËĲ"], ["[ËĪbÊ±aËĲ", "É"], ["[ËĪbÊ±aËĲÉ", "¾"], ["[ËĪbÊ±aËĲÉ¾", "É"], ["[ËĪbÊ±aËĲÉ¾É", "Ļ"], ["[ËĪbÊ±aËĲÉ¾ÉĻ", "t"], ["[ËĪbÊ±aËĲÉ¾ÉĻt", "]"], ["a", "ch"], ["a", "il"], ["a", "im"], ["a", "ism,"], ["a", "pt"], ["a", "red"], ["a", "res"], ["a", "used"], ["a", "wn"], ["a", "á¹ĩ"], ["ab", "il"], ["ab", "it"], ["ab", "le"], ["ab", "lish"], ["abil", "ity"], ["abit", "at"], ["abitat", "s."], ["ablish", "ed"], ["ac", "k"], ["ac", "r"], ["ac", "ter"], ["ac", "y"], ["ac", "y."], ["ach", "ed"], ["ack", "d"], ["ackd", "r"], ["ackdr", "op"], ["acr", "if"], ["acrif", "ic"], ["acrific", "es"], ["acter", "istic"], ["ad", "es"], ["ad", "ivers"], ["ades", "h"], ["adivers", "e"], ["ag", "ara"], ["ail", "and"], ["aim", "ing"], ["ain", "ed"], ["ak", "en"], ["ak", "h"], ["akh", "ig"], ["akhig", "arh"], ["akhigarh", "i,"], ["al", "a,"], ["al", "div"], ["al", "e"], ["al", "es"], ["al", "ing"], ["al", "ised"], ["al", "l"], ["al", "led"], ["al", "n"], ["al", "och"], ["al", "s,"], ["aldiv", "es."], ["ales", "c"], ["alesc", "ence"], ["aling", "a,"], ["alist", "ic"], ["alistic", ","], ["all", "eng"], ["alleng", "es"], ["aln", "ut"], ["alnut", "rit"], ["alnutrit", "ion"], ["alnutrition", ","], ["aloch", "istan"], ["alochistan", ","], ["am", "an"], ["am", "i"], ["am", "m"], ["ami", "ly"], ["amm", "a"], ["an", "agara"], ["an", "ate"], ["an", "ce"], ["an", "ied"], ["an", "ised"], ["an", "ism,"], ["an", "istan"], ["an", "k"], ["an", "ks"], ["an", "w"], ["ands", "on"], ["andson", ","], ["ang", "e"], ["ang", "l"], ["angl", "adesh"], ["ank", "a"], ["ans", "ion"], ["ant", "ly"], ["anw", "eri"], ["anweri", "w"], ["anweriw", "ala,"], ["ap", "i"], ["ap", "it"], ["api", "ens"], ["apit", "a"], ["apt", "ers"], ["apters", "')"], ["ar", "acteristic"], ["ar", "it"], ["ar", "ley"], ["ar", "o"], ["ar", "s"], ["ara", "pp"], ["arapp", "a,"], ["are", "."], ["arg", "est"], ["arit", "im"], ["aritim", "e"], ["arley", ")"], ["aro", ","], ["ars", "h"], ["arsh", "a,"], ["ary", ","], ["ary", "ing"], ["as", "hm"], ["as", "ing"], ["as", "s."], ["ashm", "ir"], ["ass", "ing"], ["ast", "ing"], ["ast", "or"], ["ast", "s."], ["astor", "al"], ["at", "e,"], ["at", "ical"], ["at", "in"], ["at", "ing"], ["at", "om"], ["at", "t"], ["ate", "ly"], ["athe", "s"], ["atom", "ically"], ["att", "le"], ["attle", ")"], ["av", "arsha,"], ["av", "ing"], ["avira", ","], ["awn", "ings"], ["ay", "anagara"], ["aá¹ĩ", "a,"], ["b", "ar"], ["b", "es"], ["b", "hÄģrat"], ["b",
[...]
