{"vocab_size": 10000, "learned_tokens": 9824, "reserved_tokens": 176, "byte_to_unicode": {"0": "Ā", "1": "ā", "2": "Ă", "3": "ă", "4": "Ą", "5": "ą", "6": "Ć", "7": "ć", "8": "Ĉ", "9": "ĉ", "10": "Ċ", "11": "ċ", "12": "Č", "13": "č", "14": "Ď", "15": "ď", "16": "Đ", "17": "đ", "18": "Ē", "19": "ē", "20": "Ĕ", "21": "ĕ", "22": "Ė", "23": "ė", "24": "Ę", "25": "ę", "26": "Ě", "27": "ě", "28": "Ĝ", "29": "ĝ", "30": "Ğ", "31": "ğ", "32": "Ġ", "33": "!", "34": "\"", "35": "#", "36": "$", "37": "%", "38": "&", "39": "'", "40": "(", "41": ")", "42": "*", "43": "+", "44": ",", "45": "-", "46": ".", "47": "/", "48": "0", "49": "1", "50": "2", "51": "3", "52": "4", "53": "5", "54": "6", "55": "7", "56": "8", "57": "9", "58": ":", "59": ";", "60": "<", "61": "=", "62": ">", "63": "?", "64": "@", "65": "A", "66": "B", "67": "C", "68": "D", "69": "E", "70": "F", "71": "G", "72": "H", "73": "I", "74": "J", "75": "K", "76": "L", "77": "M", "78": "N", "79": "O", "80": "P", "81": "Q", "82": "R", "83": "S", "84": "T", "85": "U", "86": "V", "87": "W", "88": "X", "89": "Y", "90": "Z", "91": "[", "92": "\\", "93": "]", "94": "^", "95": "_", "96": "`", "97": "a", "98": "b", "99": "c", "100": "d", "101": "e", "102": "f", "103": "g", "104": "h", "105": "i", "106": "j", "107": "k", "108": "l", "109": "m", "110": "n", "111": "o", "112": "p", "113": "q", "114": "r", "115": "s", "116": "t", "117": "u", "118": "v", "119": "w", "120": "x", "121": "y", "122": "z", "123": "{", "124": "|", "125": "}", "126": "~", "127": "ġ", "128": "Ģ", "129": "ģ", "130": "Ĥ", "131": "ĥ", "132": "Ħ", "133": "ħ", "134": "Ĩ", "135": "ĩ", "136": "Ī", "137": "ī", "138": "Ĭ", "139": "ĭ", "140": "Į", "141": "į", "142": "İ", "143": "ı", "144": "Ĳ", "145": "ĳ", "146": "Ĵ", "147": "ĵ", "148": "Ķ", "149": "ķ", "150": "ĸ", "151": "Ĺ", "152": "ĺ", "153": "Ļ", "154": "ļ", "155": "Ľ", "156": "ľ", "157": "Ŀ", "158": "ŀ", "159": "Ł", "160": "ł", "161": "¡", "162": "¢", "163": "£", "164": "¤", "165": "¥", "166": "¦", "167": "§", "168": "¨", "169": "©", "170": "ª", "171": "«", "172": "¬", "173": "Ń", "174": "®", "175": "¯", "176": "°", "177": "±", "178": "²", "179": "³", "180": "´", "181": "µ", "182": "¶", "183": "·", "184": "¸", "185": "¹", "186": "º", "187": "»", "188": "¼", "189": "½", "190": "¾", "191": "¿", "192": "À", "193": "Á", "194": "Â", "195": "Ã", "196": "Ä", "197": "Å", "198": "Æ", "199": "Ç", "200": "È", "201": "É", "202": "Ê", "203": "Ë", "204": "Ì", "205": "Í", "206": "Î", "207": "Ï", "208": "Ð", "209": "Ñ", "210": "Ò", "211": "Ó", "212": "Ô", "213": "Õ", "214": "Ö", "215": "×", "216": "Ø", "217": "Ù", "218": "Ú", "219": "Û", "220": "Ü", "221": "Ý", "222": "Þ", "223": "ß", "224": "à", "225": "á", "226": "â", "227": "ã", "228": "ä", "229": "å", "230": "æ", "231": "ç", "232": "è", "233": "é", "234": "ê", "235": "ë", "236": "ì", "237": "í", "238": "î", "239": "ï", "240": "ð", "241": "ñ", "242": "ò", "243": "ó", "244": "ô", "245": "õ", "246": "ö", "247": "÷", "248": "ø", "249": "ù", "250": "ú", "251": "û", "252": "ü", "253": "ý", "254": "þ", "255": "ÿ"}, "vocab": ["Ā", "ā", "Ă", "ă", "Ą", "ą", "Ć", "ć", "Ĉ", "ĉ", "Ċ", "ċ", "Č", "č", "Ď", "ď", "Đ", "đ", "Ē", "ē", "Ĕ", "ĕ", "Ė", "ė", "Ę", "ę", "Ě", "ě", "Ĝ", "ĝ", "Ğ", "ğ", "Ġ", "!", "\"", "#", "$", "%", "&", "'", "(", ")", "*", "+", ",", "-", ".", "/", "0", "1", "2", "3", "4", "5", "6", "7", "8", "9", ":", ";", "<", "=", ">", "?", "@", "A", "B", "C", "D", "E", "F", "G", "H", "I", "J", "K", "L", "M", "N", "O", "P", "Q", "R", "S", "T", "U", "V", "W", "X", "Y", "Z", "[", "\\", "]", "^", "_", "`", "a", "b", "c", "d", "e", "f", "g", "h", "i", "j", "k", "l", "m", "n", "o", "p", "q", "r", "s", "t", "u", "v", "w", "x", "y", "z", "{", "|", "}", "~", "ġ", "Ģ", "ģ", "Ĥ", "ĥ", "Ħ", "ħ", "Ĩ", "ĩ", "Ī", "ī", "Ĭ", "ĭ", "Į", "į", "İ", "ı", "Ĳ", "ĳ", "Ĵ", "ĵ", "Ķ", "ķ", "ĸ", "Ĺ", "ĺ", "Ļ", "ļ", "Ľ", "ľ", "Ŀ", "ŀ", "Ł", "ł", "¡", "¢", "£", "¤", "¥", "¦", "§", "¨", "©", "ª", "«", "¬", "Ń", "®", "¯", "°", "±", "²", "³", "´", "µ", "¶", "·", "¸", "¹", "º", "»", "¼", "½", "¾", "¿", "À", "Á", "Â", "Ã", "Ä", "Å", "Æ", "Ç", "È", "É", "Ê", "Ë", "Ì", "Í", "Î", "Ï", "Ð", "Ñ", "Ò", "Ó", "Ô", "Õ", "Ö", "×", "Ø", "Ù", "Ú", "Û", "Ü", "Ý", "Þ", "ß", "à", "á", "â", "ã", "ä", "å", "æ", "ç", "è", "é", "ê", "ë", "ì", "í", "î", "ï", "ð", "ñ", "ò", "ó", "ô", "õ", "ö", "÷", "ø", "ù", "ú", "û", "ü", "ý", "þ", "ÿ", "th", "an", "in", "the", "Ġthe", "re", "on", "er", "st", "Ġan", "ed", "Ġa", "en", "Ġo", "ĠI", "al", "Ġin", "nd", "Ġand", "it", "at", "is", "Ġof", "Ġw", "ĠInd", "ing", "Ġs", "or", "ic", "Ġc", "ar", "ion", "Ġb", "Ġp", "Ġt", "ia", "Ġf", "om", "ou", "Ġm", "Ġe", "Ġh", "ĠB", "as", "Ġl", "ly", "Ġn", "ĠIndia", "Ġre", "es", "ent", "ĠA", "Ġto", "iv", "Ġd", "Ġr", "ur", "ist", "ĠS", "ce", "ol", "ec", "ian", "ig", "il", "ul", "ad", "ĠT", "am", "ation", "id", "ĠC", "ĠE", "ĠM", "ĠTh", "00", "est", "im", "le", "od", "us", "Ġg", "Ġth", "ĠThe", "ast", "ang", "ism", "mp", "Ġar", "Ġfor", "ac", "et", "ire", "op", "os", "rit", "rom", "ts", "ĠP", "Ġis", "Ġit", "av", "ally", "ere", "ern", "ith", "iver", "oc", "outh", "ure", "ĠH", "Ġon", "ĠAs", "Ġby", "ag", "em", "if", "mpire", "ther", "Ġ1", "Ġwith", "CE", "a,", "ain", "du", "ir", "s,", "ub", "um", "ĠD", "ĠBCE", "Ġfrom", "Ġits", "Ġnor", "ak", "ans", "con", "ill", "ity", "ow", "ud", "ut", "ĠG", "ĠEmpire", "ĠIndian", "Ġint", "Ġor", "Ġwas", "ame", "and", "ch", "el", "ical", "ish", "s.", "ted", "ult", "Ġ(", "Ġst", "Ġex", "Ġhad", "Ġpl", "Ġreg", "Ġwh", "angu", "anguag", "e,", "ence", "ich", "igh", "indu", "istan", "ter", "thern", "Ġv", "ĠAsia", "ĠHindu", "Ġinto", "Ġlanguag", "Ġregion", "dh", "ev", "gh", "ot", "oci", "ri", "un", "up", "y.", "ĠCh", "ĠIn", "ĠIndia,", "ĠSouth", "Ġas", "Ġbec", "Ġcon", "Ġem", "Ġhas", "000", "==", "ab", "ay", "ansk", "anskrit", "ary", "ear", "een", "erg", "ies", "ov", "omp", "ord", "ry", "Ġ==", "ĠIndus", "ĠSanskrit", "Ġag", "Ġbecame", "Ġcent", "Ġemerg", "Ġgr", "Ġnorthern", "Ġpr", "Ġriver", "Ġsoci", "Ġwere", "Ġwest", "Ġwhich", ",000", "ap", "akistan", "conom", "enn", "ens", "enni", "ennium", "ers", "ett", "etw", "illennium", "ince", "ism,", "ive", "ld", "ok", "odern", "ong", "reat", "red", "uc", "uddh", "ury", "used", "Ġ2", "ĠR", "Ġk", "ĠBuddh", "ĠBy", "ĠIndo", "ĠIndia'", "ĠPakistan", "Ġch", "Ġeconom", "Ġinc", "Ġpar", "Ġrel", "Ġsouth", "Ġsub", "aj", "ajor", "arg", "ased", "ate", "cc", "cont", "contin", "continent", "ef", "eg", "ep", "ew", "ears", "ect", "ed,", "end", "ised", "istor", "ivers", "nc", "nt", "ost", "ome", "omin", "ough", "ound", "ous", "ritish", "stem", "t,", "ulture", "uring", "wo", "years", "ystem", "Äģ", "ĠN", "ĠV", "Ġyears", "Ġ19", "ĠBh", "ĠBritish", "ĠMa", "Ġago", "Ġarch", "Ġcreat", "Ġeast", "Ġexp", "Ġhum", "Ġlif", "Ġmid", "Ġmillennium", "Ġmodern", "Ġnorth", "Ġrul", "Ġref", "Ġrelig", "Ġsince", "Ġsystem", "Ġsubcontinent", "Ġtwo", "Ġthat", "Ġwestern", "a.", "all", "alle", "anges", "arly", "ass", "ater", "avid", "avidian", "cri", "crip", "ean", "ex", "ement", "eri", "etween", "ied", "ically", "imal", "istic", "ks", "lic", "lud", "ment", "og", "olv", "opul", "ose", "oss", "our", "pl", "qu", "rat", "ravidian", "ric", "res", "tion", "ually", "ublic", "âĢ", "Ġ4", "Ġ5", "ĠJ", "ĠO", "Ġun", "ĠAf", "ĠBCE,", "ĠDravidian", "ĠIt", "ĠIndia.", "Ġad", "Ġanimal", "Ġbut", "Ġcomp", "Ġcou", "Ġculture", "Ġeth", "Ġemerged", "Ġext", "Ġform", "Ġhigh", "Ġhistor", "Ġking", "Ġlater", "Ġlanguages", "Ġlife", "Ġmost", "Ġnon", "Ġpe", "Ġpopul", "Ġpart", "Ġplain", "Ġris", "Ġreligion", "Ġrule", "Ġsocial", "Ġthis", "Ġvar", "),", "0,000", "Ary", "Aryan", "Eur", "Europ", "European", "ace", "athe", "ade", "adually", "alley", "anted", "arat", "as,", "asin", "assical", "ative", "ature", "ation,", "ban", "day", "dle", "dom", "duc", "equ", "econ", "edi", "ell", "err", "ered", "ettl", "hok", "hoka", "ient", "iol", "iff", "ights", "ild", "ins", "ings", "itect", "iter", "ities", "ition", "ity.", "lassical", "lin", "lish", "low", "luding", "ly,", "ncient", "ntry", "oose", "oth", "oduc", "olog", "olved", "ominion", "ople", "outhe", "outheast", "ovement", "own", "pic", "ree", "rew", "rica", "sl", "ta", "ty", "urban", "urya", "ution", "viol", "west", "á¹", "Ġ3", "ĠK", "ĠU", "Ġed", "Ġim", "Ġurban", "Ġused", "Ġ400", "Ġ===", "ĠAncient", "ĠAfrica", "ĠAshoka", "ĠAsia.", "ĠBharat", "ĠBuddhism", "ĠChin", "ĠDuring", "ĠGanges", "ĠGree", "ĠGup", "ĠHinduism", "ĠIsl", "ĠIts", "ĠJain", "ĠMaurya", "ĠSanskrit,", "Ġal", "Ġare", "Ġat", "Ġago.", "Ġart,", "Ġarchitect", "Ġbasin", "Ġbeg", "Ġbetween", "Ġbord", "Ġcities", "Ġcentur", "Ġcentury", "Ġcompos", "Ġcons", "Ġcountry", "Ġdiff", "Ġdivers", "Ġdominion", "Ġev", "Ġeconomy", "Ġextens", "Ġhuman", "Ġincre", "Ġkingdom", "Ġliter", "Ġlong", "Ġloose", "Ġlanguage", "Ġmajor", "Ġmovement", "Ġname", "Ġocc", "Ġov", "Ġpol", "Ġpre", "Ġpeople", "Ġres", "Ġrise", "Ġscrip", "Ġsp", "Ġsup", "Ġtim", "Ġtr", "Ġwor", ");", "0,", "19", "200", "23", "47", "47,", "5,000", "500", "E,", "Ind", "India", "aem", "aic", "are", "aË", "aces", "ach", "acter", "acy.", "acteristic", "aemen", "ages", "ajority", "aking", "alist", "allav", "amm", "anag", "anm", "ant", "any", "andar", "anding", "ands", "andard", "andardised", "anmar", "aracteristic", "arh", "arl", "arge", "argins", "arli", "arliest", "ated", "athere", "atherer", "atherers,", "ationalist", "ations", "ave", "avir", "aËĲ", "cluding", "cord", "cean", "chaemen", "corded", "dep", "div", "depend", "eaking", "eal", "ech", "eclin", "ected", "echn", "echnolog", "econd", "ediev", "edieval", "elf", "eli", "emoc", "eng", "ently", "equal", "er,", "ering", "erm", "eriod", "ersian", "es.", "ettled", "etwor", "etworks", "ever,", "evot", "evotion", "ewed", "exist", "existing", "fter", "gatherers,", "glish", "ghal", "hm", "hÄģ", "hÄģrat", "i,", "ially", "ik", "ix", "ians", "icts", "icul", "icular", "iddle", "ide", "idence", "ified", "ilis", "illion", "including", "ined", "ing,", "iron", "irst", "isen", "itary", "ite", "itution", "ity,", "ivilis", "iving", "ivity", "jab", "jo", "kn", "knit", "lim", "lour", "lement", "lourish", "majority", "nglish", "nings", "ns", "oast", "ore", "och", "olation", "olid", "omen", "orted", "orest", "out", "outhern", "ower", "owever,", "planted", "ra", "ral", "ration", "ro", "roduc", "rough", "stan", "stitution", "tym", "ual", "ughal", "ultan", "unjab", "unter", "upation,", "ural", "ure,", "uslim", "violence", "west.", "yanmar", "¸Î", "¸Î½", "¸Î½Î", "¸Î½Î´", "¼¸Î½Î´", "Äģy", "ËĪ", "á¼¸Î½Î´", "á¹ĩ", "âĢĵ", "âĢĶ", "Ġ\"", "Ġ7", "ĠF", "ĠL", "Ġen", "Ġer", "Ġ(including", "Ġ(á¼¸Î½Î´", "Ġ1200", "Ġ1947,", "Ġ195", "Ġ200", "Ġ55,000", "ĠAchaemen", "ĠBCE.", "ĠCE,", "ĠCent", "ĠCivilis", "ĠClassical", "ĠChr", "ĠChina,", "ĠEarly", "ĠEnglish", "ĠEmpire.", "ĠGreek", "ĠGupta", "ĠHindustan", "ĠIslam", "ĠJainism", "ĠMiddle", "ĠMughal", "ĠMuslim", "ĠMyanmar", "ĠOcean", "ĠPallav", "ĠPersian", "ĠPunjab", "ĠSoutheast", "ĠTheir", "ĠUS", "ĠValley", "Ġab", "Ġafter", "Ġadop", "Ġago,", "Ġalong", "Ġanimals", "Ġarisen", "Ġaround", "Ġarchaic", "Ġarchitecture,", "Ġass", "Ġbased", "Ġbeen", "Ġboth", "Ġbegan", "Ġborders", "Ġcast", "Ġcenturies", "Ġcentury,", "Ġcharacteristic", "Ġcomposed", "Ġconduc", "Ġcont", "Ġconsolid", "Ġcreated", "Ġcreativity", "Ġcultures", "Ġdat", "Ġdeclin", "Ġdemoc", "Ġdevotion", "Ġduring", "Ġdiffused", "Ġearliest", "Ġearly", "Ġempire", "Ġepic", "Ġeastern", "Ġeconomic", "Ġedicts", "Ġethical", "Ġexpanding", "Ġextensive", "Ġfirst", "Ġflourish", "Ġfound", "Ġgrew", "Ġgradually", "Ġhered", "Ġhis", "Ġhub", "Ġhunter", "Ġhighly", "Ġhistorical", "Ġhumans", "Ġimm", "Ġindepend", "Ġinequal", "Ġinf", "Ġincreased", "Ġisolation", "Ġkingdoms", "Ġland", "Ġlarge", "Ġloss", "Ġlanguage,", "Ġliterature", "Ġmade", "Ġmain", "Ġmargins", "Ġmig", "Ġmult", "Ġnationalist", "Ġne", "Ġnear", "Ġnew", "Ġnorthwest.", "Ġoccupation,", "Ġover", "Ġperiod", "Ġpower", "Ġprom", "Ġpublic", "Ġparticular", "Ġpartition", "Ġplace", "Ġplan", "Ġpopulous", "Ġrights", "Ġrecorded", "Ġren", "Ġregions.", "Ġreligions", "Ġsecond", "Ġsett", "Ġsh", "Ġsome", "Ġsouthern", "Ġsouth.", "Ġstandardised", "Ġstat", "Ġsupplanted", "Ġtechnolog", "Ġthan", "Ġthough", "Ġthrough", "Ġthere", "Ġtoday", "Ġtook", "Ġtrad", "Ġvari", "Ġvarn", "Ġwild", "Ġwomen", "Ġwrit", "Ġwhat", "Ġworld", "%.", "')", "'.", "'E", "'the", "'Eigh", "'Eight", ",\"", ",6", ",60", ",601", ",601,", ".4", ".6", ".6%", "023", "023.", "1900", "2,601,", "20", "20,", "232", "4%.", "58", "58.", "6.6%", "61", "64", "68", "80,000", "858.", "9,000", "BhÄģrat", "BhÄģrat;", "India\"", "India,", "NA", "West", "Zor", "Zoroast", "Zoroastr", "Zoroastrian", "Zoroastrianism", "[É", "[ËĪ", "[É¦", "[É¦É", "[É¦Éª", "[É¦Éªnd", "[É¦ÉªndÊ", "[É¦ÉªndÊĬ", "[É¦ÉªndÊĬËĪ", "[É¦ÉªndÊĬËĪst", "[É¦ÉªndÊĬËĪstaËĲ", "[É¦ÉªndÊĬËĪstaËĲn", "[É¦ÉªndÊĬËĪstaËĲn]", "[ËĪb", "[ËĪbÊ", "[ËĪbÊ±", "[ËĪbÊ±aËĲ", "[ËĪbÊ±aËĲÉ", "[ËĪbÊ±aËĲÉ¾", "[ËĪbÊ±aËĲÉ¾É", "[ËĪbÊ±aËĲÉ¾ÉĻ", "[ËĪbÊ±aËĲÉ¾ÉĻt", "[ËĪbÊ±aËĲÉ¾ÉĻt]", "ai", "aig", "ail", "aim", "aism,", "ared", "ares", "ather", "aused", "aw", "ax", "aá¹ĩ", "abian", "abil", "abit", "able", "ablish", "ability", "abitat", "abitats.", "ablished", "aced", "ack", "acot", "acr", "act", "action", "acy", "ace,", "aces,", "ached", "achings", "ackd", "ackdr", "ackdrop", "acotta", "acrif", "acrific", "acrifices", "actor", "actional", "actionalism,", "ades", "adivers", "adesh", "adiverse", "aigai", "ailand", "aiming", "ain;", "ained", "aken", "akh", "akt", "akhig", "akhigarh", "akhigarhi,", "akti", "ala,", "aldiv", "ale", "ales", "aling", "alised", "aln", "aloch", "aldives.", "alesc", "alescence", "alinga,", "alled", "alleng", "alley.", "allenges", "alley,", "alnut", "alnutrit", "alnutrition", "alnutrition,", "alochistan", "alochistan,", "aman", "ami", "amil", "amily", "amma", "ammat", "ammatical", "ance", "anied", "anised", "anism,", "anistan", "ank", "anks", "anw", "anagar", "anagement", "anagara", "andy", "andson", "andson,", "andyas", "angam", "ange", "angl", "angladesh", "anka", "ansactionalism,", "ansion", "antly", "anweri", "anweriw", "anweriwala,", "aph", "api", "apit", "apon", "app", "apter", "aphically", "apiens", "apita", "appa,", "apters", "apters')", "arappa,", "arit", "arle", "aro", "ars", "arther", "are.", "argest", "aritim", "aritime", "arley", "arley)", "aro,", "arsh", "arsha,", "ary,", "arying", "ashm", "asing", "ass.", "ashmir", "assing", "asting", "astor", "astoral", "ate,", "atin", "atite", "atom", "att", "ately", "athes", "atomically", "attle", "attle)", "atures", "avarsha,", "averi", "aving", "avou", "avira", "avira,", "avoured", "awnings", "axation", "ayanagara", "aá¹ĩa,", "bade", "bar", "bes", "bhÄģrat", "bod", "bour", "bu", "bhÄģrata", "bodim", "bodiment", "bours,", "ca.", "cale", "ced", "ces", "ci", "comp", "cr", "ccomp", "ccord", "ccompanied", "ccording", "cep", "cedent", "cedented", "cept", "chability", "ching", "cience", "cience.", "compassing", "cross", "cription", "criptions,", "daro,", "def", "ders", "dri", "defined", "dhu", "dhy", "dhu,", "dhyÄģy", "dhyÄģyÄ", "dhyÄģyÄ«", "divid", "divide,", "drial", "duced", "e.", "ea", "eachings", "eages", "eapon", "eatite", "eatures", "ebu", "eep", "eh", "eights", "eing", "emp", "eog", "eous", "eth", "eals", "eals,", "eaning", "ecif", "ecifically", "econom", "economic", "ecting", "ective", "ectively,", "eda", "eder", "ederal", "ediately", "ef.", "efly", "eforest", "eft", "eforested,", "egacy.", "egadiverse", "ehr", "ehrg", "ehrgarh", "eights,", "elh", "els", "elf.", "elfare.", "elhi", "elief.", "elih", "eliho", "elihood", "ellen", "elling", "ellenistic", "empor", "emporary", "enet", "enins", "enjo", "enth", "ender", "ending", "endit", "enditure", "enditure.", "enetic", "engal", "eninsul", "eninsula", "ense", "ensl", "enslaving", "ention", "entire", "entioned", "entiret", "entirety.", "eogr", "eographically", "eously,", "epal", "epublic", "equently", "er'", "erance", "eras", "eriv", "erous", "erred", "ert", "erty", "erv", "ere.", "ereig", "eren", "erent", "ereignt", "ereignty.", "erence", "erenti", "erentiation", "erives", "ermit", "ermitt", "ermittently", "erned", "erracotta", "erran", "erring", "ervative", "es,", "ese", "esia", "esia.", "estic", "estr", "estication", "estruc", "estruction", "etry", "ety.", "ethn", "ethnic", "ettes.", "ettling", "evels", "eventh", "ewal", "ext", "exts", "exts,", "fic", "ford", "fts", "ficially", "ganised", "gr", "ghanistan", "grow", "growing", "hamma", "havira", "henjo", "hered", "hich", "hism", "hol", "hmanism,", "holavira,", "hÄģbhÄģrata", "i.", "ial", "iewed", "ij", "iod", "ious", "iament", "iamentary", "ianity,", "icl", "ico", "iction", "icy", "ically,", "icling", "icobar", "ictionary,", "ideas", "idely", "ife,", "igin", "igure", "ighbours,", "iginally", "igures", "ijayanagara", "ikelihood", "ikhism", "iling", "ilitary", "ils", "ilingual", "illages", "illar", "illing", "imary", "imultan", "imultaneously,", "indhu,", "ineages", "ini.", "ining", "inist", "innings", "inistration", "iodivers", "iodiversity", "ioning", "ird", "irth", "ires,", "ironment", "ironmental", "isation", "isp", "iss", "isput", "isputes", "issioning", "isters", "istianity,", "istance", "istic,", "istory", "itan", "itially", "itical", "itoch", "itual", "ithic", "itionally", "itochon", "itochondrial", "itual,", "ived", "iver,\"", "ixed", "ixth", "jecting", "jure", "joining", "jured", "ked", "ks,", "laiming", "lain;", "largest", "lass.", "lasting", "lected", "led", "lerance", "les,", "liamentary", "life,", "lo", "lu", "lution", "ldest", "lear", "lex", "lements,", "linked", "loy", "lowering", "lowing", "lowly,", "loying", "luence", "luded", "lution.", "m.", "mation", "mies", "millennium", "ministration", "missioning", "mns", "mong", "mop", "mÄģy", "mopol", "mopolitan", "mped", "mploying", "mÄģyaá¹ĩa,", "ned", "ning,", "nown", "nually", "nced", "ncy", "ndaman", "nder", "ndering", "oalescence", "oetry", "ohenjo", "oot", "oted", "ots", "oasts.", "ock", "oclaiming", "ociated", "odel", "odified", "ods", "oduced", "oken", "olas,", "olithic", "olled", "ollowing", "olon", "ology", "olonial", "olving", "oman", "omestication", "ommissioning", "omo", "ominal", "ominantly", "ompany", "onesia.", "onicling", "onou", "ons", "onstitution", "onounced", "oot.", "oper", "orally", "ormation", "orth", "ory", "orests,", "oryt", "orytelling", "os.", "osmopolitan", "osome", "ossils", "otable", "ote", "otected", "otter", "ots.", "otsp", "otspots.", "ottery", "ouchability", "ould", "oun", "oughly", "ounded", "outheast,", "overeignty.", "overned", "overty", "ovince", "pared", "pastoral", "peaking", "pectively,", "plements,", "ported", "ppl", "pre", "pres", "produc", "public", "placed", "pplied", "precedented", "present", "producing", "quest", "rabian", "racy.", "radually", "rived", "river,\"", "riving", "rolled", "rown", "rafts", "rahmanism,", "ratic", "rating", "ream", "rency", "ret", "reater", "redominantly", "resolved", "ress", "ressed", "retching", "ribes", "riefly", "riculture", "riculture.", "road", "roduced,", "romosome", "scale", "scriptions,", "se", "sequently", "settled", "so", "speaking", "stablished", "stream", "stitutionalised", "tas,", "ten", "tified", "ting", "touchability", "ture", "teries", "tymology", "tymons", "uch", "uettes.", "umped", "ucation", "uclear", "udaism,", "ulting", "ultanate", "umerous", "urned", "urred", "urrency", "urther", "uralistic,", "ushered", "utan", "veals", "vidence", "vironmental", "volved", "violent", "violence,", "wathes", "weapon", "which", "wns", "west,", "xford", "y,", "yles,", "ymns", "zebu", "£á¹", "£á¹Ń", "£á¹ŃÄģ", "£á¹ŃÄģdhyÄģyÄ«", "¯Î", "¯Î±", "¯Î±);", "ÄģmÄģyaá¹ĩa,", "Äģá¹ĩ", "Äģá¹ĩini.", "Î¯Î±);", "ÏĤ", "ÏĮ", "ÏĤ),", "ÏĮÏĤ),", "á¹£á¹ŃÄģdhyÄģyÄ«", "Ġ'the", "Ġ)", "Ġ),", "Ġ80,000", "Ġ9,000", "ĠWest", "ĠY", "ĠZoroastrianism", "Ġ[ËĪbÊ±aËĲÉ¾ÉĻt]", "Ġending", "Ġenslaving", "Ġentirety.", "Ġideas", "Ġiron", "Ġushered", "Ġzebu", "Ġ\"India\"", "Ġ\"river,\"", "Ġ('Eight", "Ġ(BhÄģrat;", "Ġ([É¦ÉªndÊĬËĪstaËĲn]", "Ġ(an", "Ġ(ca.", "Ġ(present", "Ġ(á¼¸Î½Î´Î¯Î±);", "Ġ(á¼¸Î½Î´ÏĮÏĤ),", "Ġ1.4", "Ġ13", "Ġ1500", "Ġ16.6%", "Ġ1858.", "Ġ1920,", "Ġ1950,", "Ġ1951", "Ġ2023.", "Ġ2500", "Ġ268", "Ġ30,000", "Ġ300", "Ġ361", "Ġ50,000", "Ġ7000", "Ġ74%.", "ĠAccording", "ĠAmong", "ĠAndaman", "ĠArabian", "ĠAá¹£á¹ŃÄģdhyÄģyÄ«", "ĠAchaemenian", "ĠAchaemenid", "ĠAfghanistan", "ĠAsians", "ĠAsia,", "ĠBalochistan,", "ĠBangladesh", "ĠBased", "ĠBay", "ĠBengal", "ĠBetween", "ĠBoth", "ĠBounded", "ĠBrahmanism,", "ĠBCE),", "ĠBhakti", "ĠBhutan", "ĠBharatavarsha,", "ĠBuddha", "ĠBuddha.", "ĠBuddhism,", "ĠCompany", "ĠConstitution", "ĠCrown", "ĠCentral", "ĠCentred", "ĠCheras", "ĠCholas,", "ĠChromosome", "ĠChina.", "ĠChristianity,", "ĠChronicling", "ĠCivilisation", "ĠCivilisation,", "ĠDNA", "ĠDelhi", "ĠDholavira,", "ĠDictionary,", "ĠDomestication", "ĠEast", "ĠEpic", "ĠEtymology", "ĠEvidence", "ĠEmpire);", "ĠEmpires.", "ĠFollowing", "ĠFurther", "ĠGanweriwala,", "ĠGradually", "ĠGreeks", "ĠGuptas,", "ĠHarappa,", "ĠHellenistic", "ĠHistory", "ĠHomo", "ĠHowever,", "ĠHinduism,", "ĠIndonesia.", "ĠIndos", "ĠIndians", "ĠIndoi,", "ĠIndus'.", "ĠIndus;", "ĠIslands", "ĠIslam,", "ĠIslam.", "ĠJudaism,", "ĠJainism,", "ĠKalinga,", "ĠKashmir", "ĠKaveri", "ĠLanka", "ĠLatin", "ĠMaldives.", "ĠMedieval", "ĠMehrgarh", "ĠMitochondrial", "ĠModern", "ĠMohenjo", "ĠMahavira", "ĠMahÄģbhÄģrata", "ĠMyanmar,", "ĠNepal", "ĠNetworks", "ĠNicobar", "ĠNorth", "ĠNoted", "ĠOld", "ĠOxford", "ĠOcean,", "ĠPandyas", "ĠPlain;", "ĠPÄģá¹ĩini.", "ĠPakistan)", "ĠPakistan,", "ĠPakistan.", "ĠPallavas", "ĠPallavas,", "ĠPunjab,", "ĠRakhigarhi,", "ĠRepublic", "ĠRig", "ĠRiver", "ĠRoman", "ĠRÄģmÄģyaá¹ĩa,", "ĠSangam", "ĠSea", "ĠSettled", "ĠSikhism", "ĠSimultaneously,", "ĠSindhu,", "ĠSri", "ĠSultanate", "ĠSanskrit.", "ĠTamil", "ĠThailand", "ĠThese", "ĠUnder", "ĠVaigai", "ĠVeda", "ĠVijayanagara", "Ġaccompanied", "Ġacross", "Ġair", "Ġapplied", "Ġabjured", "Ġabout", "Ġadjoining", "Ġadministration", "Ġadopted", "Ġadopting", "Ġagriculture.", "Ġagro", "Ġalso", "Ġanatomically", "Ġannually", "Ġand,", "Ġarmies", "Ġarrived", "Ġarteries", "Ġarts", "Ġarchitectural", "Ġare:", "Ġarea,", "Ġarisen,", "Ġarisen:", "Ġassert", "Ġassociated", "Ġbackdrop", "Ġbarley)", "Ġbeing", "Ġbelief.", "Ġbillion", "Ġbiodiversity", "Ġbirth", "Ġbriefly", "Ġbroad", "Ġbasin,", "Ġbasin.", "Ġbecome", "Ġbeginnings", "Ġborder", "Ġcalled", "Ġcapita", "Ġcattle)", "Ġcaused", "Ġclass.", "Ġclassical", "Ġcoalescence", "Ġcoasts.", "Ġcodified", "Ġcolonial", "Ġcommissioning", "Ġcosmopolitan", "Ġcost", "Ġcrafts", "Ġcurrency", "Ġcaste", "Ġcaste,", "Ġcentral", "Ġcentury.", "Ġcenturies,", "Ġchallenges", "Ġchanges", "Ġchapters')", "Ġchild", "Ġcities,", "Ġcomplex", "Ġcomposite", "Ġconquest", "Ġconduct,", "Ġconducted", "Ġconservative", "Ġconsolidated", "Ġconsolidations", "Ġcontemporary", "Ġcontrolled", "Ġcould", "Ġcreating", "Ġculture,", "Ġculture.", "Ġdate", "Ġdawnings", "Ġdeep", "Ġdeforested,", "Ġderives", "Ġdestruction", "Ġdhamma", "Ġdisputes", "Ġdrew", "Ġdriving", "Ġdata,", "Ġdates", "Ġdeclined,", "Ġdeclining", "Ġdemocracy.", "Ġdemocratic", "Ġdevotion,", "Ġdifferentiation", "Ġdiverse,", "Ġdiverse.", "Ġdiversity.", "Ġdominions,", "Ġemploying", "Ġestablished", "Ġetymons", "Ġeast.", "Ġeconomy.", "Ġeducation", "Ġembodiment", "Ġemerge", "Ġemerged,", "Ġemergence", "Ġemerged.", "Ġempire'", "Ġencompassing", "Ġenvironmental", "Ġepics,", "Ġera", "Ġera,", "Ġethically,", "Ġethos.", "Ġevidence", "Ġevolved", "Ġevolving", "Ġexcept", "Ġexpansion", "Ġexpenditure.", "Ġexported", "Ġextant", "Ġextension", "Ġextensively", "Ġfaces", "Ġfactor", "Ġfamily", "Ġfarther", "Ġfast", "Ġfavoured", "Ġfeatures", "Ġfederal", "Ġfigures", "Ġfires,", "Ġfixed", "Ġflowering", "Ġforests,", "Ġfossils", "Ġfour", "Ġflourished", "Ġflourishing", "Ġforbade", "Ġforces", "Ġfortified", "Ġforms", "Ġfounder'", "Ġgained", "Ġgave", "Ġgender", "Ġgenetic", "Ġgeographically", "Ġgods", "Ġgoverned", "Ġgreater", "Ġgrain", "Ġgrammatical", "Ġgrandson,", "Ġgranted", "Ġgrown", "Ġhabitats.", "Ġhave", "Ġhere.", "Ġhotspots.", "Ġhowever,", "Ġhumped", "Ġhymns", "Ġhereditary", "Ġheredity.", "Ġhistorians", "Ġhistory", "Ġhubs", "Ġimplements,", "Ġimmediately", "Ġimmense", "Ġinitially", "Ġinscriptions,", "Ġinstitutionalised", "Ġinvolved", "Ġincluded", "Ġincluding", "Ġincome", "Ġincreasing", "Ġindependence", "Ġindependent", "Ġinequality,", "Ġinequality.", "Ġinfluence", "Ġinformation", "Ġintermittently", "Ġintroduced,", "Ġitself.", "Ġkilling", "Ġknown", "Ġkingly", "Ġkingdoms.", "Ġlay", "Ġleft", "Ġlegacy.", "Ġlevels", "Ġlikelihood", "Ġlineages", "Ġliving", "Ġlanguages.", "Ġlife,", "Ġliteracy", "Ġliterature,", "Ġloosely", "Ġmalnutrition,", "Ġmanagement", "Ġmany", "Ġmaritime", "Ġmay", "Ġmeaning", "Ġmedieval", "Ġmegadiverse", "Ġmentioned", "Ġmilitary", "Ġmillion", "Ġmodel", "Ġmorally", "Ġmainly", "Ġmainstream", "Ġmiddle", "Ġmigrating", "Ġmigration", "Ġmillennium,", "Ġmovement.", "Ġmovements.", "Ġmulti", "Ġmultilingual", "Ġnative", "Ġnetworks", "Ġnext", "Ġno", "Ġnominal", "Ġnotable", "Ġnoun", "Ġnuclear", "Ġnumerous", "Ġneighbours,", "Ġneolithic", "Ġnonviolent", "Ġnorth,", "Ġnorth;", "Ġoldest", "Ġother", "Ġout", "Ġoccurred", "Ġofficially", "Ġonly", "Ġoral", "Ġorders", "Ġorganised", "Ġoriginally", "Ġoverran", "Ġpeninsula", "Ġper", "Ġpillar", "Ġpoetry", "Ġpottery", "Ġpoverty", "Ġpredominantly", "Ġparliamentary", "Ġparts", "Ġparticular,", "Ġpartition.", "Ġpartitioned", "Ġpeace,", "Ġplaces,", "Ġpluralistic,", "Ġplain.", "Ġplains,", "Ġplains.", "Ġplanning,", "Ġplants", "Ġpolicy", "Ġpolitical", "Ġpollution.", "Ġpopular", "Ġpopulation", "Ġpower.", "Ġprimary", "Ġproclaiming", "Ġproduced", "Ġpronounced", "Ġproper", "Ġprotected", "Ġprovince", "Ġpreexisting", "Ġprepared", "Ġpromised", "Ġpromote", "Ġrange", "Ġranks", "Ġrate", "Ġrate,", "Ġrather", "Ġrich", "Ġritual,", "Ġrock", "Ġroot.", "Ġroughly", "Ġreached", "Ġreduced", "Ġrejecting", "Ġrendering", "Ġreplaced", "Ġrepublic", "Ġreveals", "Ġreference", "Ġreferred", "Ġreferring", "Ġrefined", "Ġreflected", "Ġregisters", "Ġregion.", "Ġregional", "Ġregions", "Ġrelative", "Ġreligious", "Ġreligion.", "Ġreligions.", "Ġrenewal", "Ġrenewed", "Ġresistance", "Ġrespectively,", "Ġresulting", "Ġrising", "Ġriver,", "Ġruled", "Ġrule.", "Ġsacrifices", "Ġsapiens", "Ġscience.", "Ġseals,", "Ġseen", "Ġsettling", "Ġseventh", "Ġsixth", "Ġslowly,", "Ġsoutheast,", "Ġsovereignty.", "Ġsuch", "Ġswathes", "Ġscript,", "Ġscripts", "Ġscripture", "Ġsetting", "Ġsettlement", "Ġshare", "Ġshares", "Ġsocially", "Ġsociety.", "Ġsocio", "Ġsouth,", "Ġsouthwest,", "Ġspeaking", "Ġspecifically", "Ġspoken", "Ġstate", "Ġsteatite", "Ġstorytelling", "Ġstressed", "Ġstretching", "Ġstyles,", "Ġstatuettes.", "Ġstatus", "Ġsubsequently", "Ġsubcontinent,", "Ġsupported", "Ġsystem'", "Ġsystem.", "Ġsystems", "Ġtaken", "Ġtaxation", "Ġteachings", "Ġterm", "Ġterracotta", "Ġtexts,", "Ġtribes", "Ġturned", "Ġtechnological", "Ġtechnology,", "Ġthird", "Ġthose", "Ġthat,", "Ġthem.", "à¤", "à°", "à®", "Ġà¤", "Ġà°", "Ġà®", "à¥", "à±", "à¯", "à¤¾", "à±į", "à¯į", "à¤°", "à±įà°", "à¯įà®", "à¥į", "à°¾", "à¯ģ", "à¥įà¤", "à°¾à°", "à®¿", "à¥ĩ", "à°¿", "à®¿à®", "à¤¾à¤", "à°Ĥ", "à¯ģà®", "à¤¿", "à±ģ", "à®¾", "Ġà¤ķ", "à°¿à°", "à®¾à®", "à¤¿à¤", "à°Ĥà°", "à®¤", "à¤Ĥ", "à°¤", "à¯įà®¤", "à¥Ģ", "à°¨", "à®°", "à¤¤", "à°²", "à¯įà®ķ", "à¤¨", "à°°", "à¯Ī", "Ġà¤¸", "à±ĩ", "Ġà®ª", "Ġà¤®", "à±ĭ", "à®¿à®¯", "à¥ĭ", "à±įà°°", "à®ķ", "Ġà¤ª", "Ġà°ª", "Ġà®ĩ", "à¤ķ", "à°¾à°°", "à®Ł", "à¤¾à¤°", "à°ķ", "à®³", "à¥įà¤°", "à°¾à°²", "Ġà®®", "à¥ģ", "à°¦", "¨à¯įà®¤", "Ġà¤¹", "à±ĩà°", "à¯įà®ª", "à¥ĩà¤Ĥ", "Ġà°¸", "à®¤à¯ģ", "à¥¤", "à±Ģ", "à®±", "Ġà¤Ń", "Ġà°ķ", "à®©", "à¤¸", "à±įà°¯", "à®ª", "à¥įà¤¯", "Ġà°®", "à®®", "Ġà¤®à¥ĩà¤Ĥ", "Ġà°µ", "à¯įà®Ł", "à¤®", "à°Ĥà°¦", "Ġà®µ", "à¤°à¥įà¤", "à°µ", "Ġà®ķ", "Ġà¤ķà¥ĩ", "à°¿.", "à®¯", "Ġà¤µ", "à±ĩà°¶", "à®¿à®²", "à¤¾à¤°à¤¤", "Ġà°°", "à¯įà®±", "¯à¤¾", "à°®", "à¯ģà®®", "à¥Ī", "à°²à±ģ", "à®²", "Ġà¤Ńà¤¾à¤°à¤¤", "Ġà°ªà±įà°°", "Ġà®¤", "à¥ģà¤", "Ġà°Ń", "à¯ģà®ķ", "à¥įà¤¤", "Ġà°ħ", "à®¨à¯įà®¤", "Ġà¤ľ", "²à±ĭ", "à®¿à®©", "Ġà¤¦", "à°ª", "à®µ", "Ġà¤¨", "à±įà°¨", "à¯ģà®®à¯į", "Ġà¤¬", "à°¿à°ķ", "à®¾à®ķ", "à¤¹", "à°°à±įà°", "à®¾à®©", "Ġà¤ħ", "à±Ĥ", "à¯įà®ķà®³", "à¤Ĥà¤", "à±Ī", "Ġà®ļ", "Ġà¤¤", "¸à±įà°", "Ġà®ħ", "¥à¤¾", "à°¾à°¨", "à®ªà¯įà®ª", "à¥Ĥ", "Ġà°¦", "Ġà®¨", "à¥ĭà¤Ĥ", "à°¾à°²à±ģ", "à®£", "à¤¾à¤¨", "à°¡", "à¯Ĭ", "à¤¾à¤ľ", "à°¾à°°à°¤", "à®¤à¯įà®¤", "à¤¼", "à°Ł", "à®¿à®²à¯į", "à¤¿à¤¯à¤¾", "à±Ĩ", "à¯Ĩ", "Ġà¤ªà¥įà¤°", "Ġà°Ńà°¾à°°à°¤", "à®±à¯įà®±", "à¤¦", "à°Ĺ", "à¯ĩ", "Ġà¤¹à¥Ī", "Ġà°ī", "à®¤à¯ģ.", "à¤¶", "à°¨à±įà°¨", "à¯ģà®¤", "Ġà¤°", "à°¿à°¨", "à®¿à®©à¯į", "à¤²", "à±įà°µ", "Ġà®ĩà®¨à¯įà®¤", "Ġà¤¶", "à°Ĥà°¦à°¿.", "à®¿à®ķ", "Ġà¤ī", "à°¯", "à¯Īà®¯", "Ġà¤Ĺ", "Ġà°¨", "à®Ļ", "à¤ª", "à°¾à°¯", "à®¿à®°", "à¥įà¤·", "à°Ĥà°ļ", "à®Łà¯įà®Ł", "Ġà¤Ķ", "à°¦à±ĩà°¶", "à®ķà¯įà®ķ", "Ġà¤¸à¥ĩ", "à°¾à°¤", "à®ļ", "Ġà¤ķà¤¾", "Ġà°ľ", "Ġà®Ĩ", "à¤¾à¤®", "à°§", "à®£à¯įà®Ł", "Ġà¤Ķà¤°", "à°Ĥà°²à±ĭ", "à®¾à®²", "à¤µ", "à°¨à±ģ", "Ġà®ī", "Ġà¤ķà¥Ģ", "à±įà°Ł", "Ġà®ĩà®¨à¯įà®¤à®¿à®¯", "à¤¿à¤ķ", "Ġà°ļ", "à®°à¯ģà®", "à¤§", "à°Ĥà°Ĺ", "à¯ĭ", "à¤¯", "Ġà°ĩ", "à®®à¯į", "Ġà¤Ĩ", "à±įà°²", "à®ªà¯į", "à¤¿à¤¤", "à°¿à°Ĥà°ļ", "Ġà®®à®±à¯įà®±", "à¥įà¤µ", "à°ķà±įà°", "Ġà®®à®±à¯įà®±à¯ģà®®à¯į", "Ġà¤²", "à±ģà°²à±ģ", "à®¾à®µ", "Ġà¤ĩ", "à°²à±ĭ", "à®Ļà¯įà®ķà®³", "à¤Ĺ", "à°¾à°Ĥ", "à®¾à®Ł", "à¤¾à¤²", "à°¸à±įà°", "à¯ģà®ķà¯įà®ķ", "à¤¾à¤¸", "à°Ĥà°¡", "à®°à¯į", "Ġà¤¤à¤", "à°¿à°Ĥà°¦à°¿.", "à®ªà¯įà®ªà®Łà¯įà®Ł", "Ġà¤ªà¤°", "à°Ń", "à¯Ģ", "Ġà¤¨à¥ĩ", "Ġà°¦à±ĩà°¶", "à®´", "à¤¿à¤¨", "Ġà°Ńà°¾à°°à°¤à°¦à±ĩà°¶", "à®±à¯įà®ķ", "Ġà¤ı", "à°ķà±ģ", "à®¿à®¤", "Ġà¤¤à¤¥à¤¾", "à±Ĭ", "à®¿à®±", "Ġà¤ķà¥ĭ", "Ġà°°à°¾à°", "à¯Ĥ", "¡à¤¼", "à°¹", "à¯įà®ļ", "à¤°à¥įà¤®", "à°¸", "Ġà®İ", "à¤¾à¤ľà¥įà¤¯", "à°ļ", "Ġà®ªà¯Ĩ", "Ġà¤§", "à°£", "à¯ģà®ª", "à¤£", "Ġà°Ĺ", "à®¾à®°", "à¤¸à¥įà¤", "à®¾à®©à®¤à¯ģ", "à¤ķà¥įà¤·", "¤à±įà°°", "à®ķà¯į", "à¤¿à¤£", "à¯ģà®ķà®³", "Ġà¤µà¤¿à¤", "à°°à±ģ", "Ġà®Ĵ", "Ġà¤¹à¥ģà¤", "Ġà°¤", "à®¿à®ª", "Ġà¤ķà¤°", "à°¨à°¿", "à®©.", "à¤¡à¤¼", "à¯ģà®Ł", "à¤¨à¤¾", "à°¾à°¯à°¿.", "à®°à¯įà®ķà®³", "à¤¨à¥ĩ", "à°¿à°Ĺ", "à®¿à®ķà¯įà®ķ", "à¥įà¤¦", "Ġà°Ĩ", "à®©à¯įà®±", "à¤¬", "à±ģ.", "à¯ģà®±", "à¤ķà¥įà¤·à¤¿à¤£", "à±ģà°¤", "Ġà®¤à¯Ĭ", "à¥ĥ", "Ġà°µà°¿à°", "Ġà®ļà®®", "Ġà¤¦à¤ķà¥įà¤·à¤¿à¤£", "à°Ĥà°Ĺà°¾", "à®°à®ļ", "à¤Ĥà¤Ĺ", "à°ķà±įà°·", "à®°à¯ģ", "à¥Ģà¤¨", "à±įà°ļ", "¨à¯įà®¤à¯ģ", "à¥įà¤¥", "Ġà°¬", "à®²à¯įà®", "Ġà¤¥à¤¾", "Ġà°İ", "à®¿à®ªà¯įà®ª", "Ġà¤ļ", "Ġà°īà°¨à±įà°¨", "à®Ļà¯įà®ķ", "Ġà¤Ĺà¤", "à°Ĥà°Ł", "à¯ģà®¤à¯įà®¤", "à¤Ń", "à±Ģà°¯", "à¯įà®³", "à¤°à¥įà¤µ", "à°¦à±įà°", "à®µà¯Ī", "à¤¾à¤¤", "à°¿à°ª", "à®¿à®¤à¯įà®¤", "à¥Ģà¤¯", "à°Ĥ,", "à®¤à¯į", "Ġà¤¯", "à±Īà°¨", "à®©à¯į", "Ġà¤§à¤°à¥įà¤®", "à°¾à°¦", "à®¾à®ķà¯įà®ķ", "à¤¤à¥įà¤°", "à°¾à°°à±įà°", "à®¿à®Ł", "à¤¿à¤®", "à°¿,", "Ġà®ªà¯Ĭ", "à¤¿à¤²", "Ġà°¶", "Ġà®ķà®¾à®²", "à¥ĩà¤", "Ġà°°à±Ī", "à®²à¯į", "Ġà¤īà¤¤", "Ġà°°à°¾à°ľ", "à®¾à®£", "à¤¤à¤¾", "à°¾à°®", "à¯ģà®³", "à¥Į", "à±ģà°²", "à®Ĩ", "à¥Ĥà¤°à¥įà¤µ", "Ġà°¹", "à¯ĩà®°", "Ġà¤¸à¤®", "Ġà°Ī", "à¯Īà®ªà¯įà®ª", "Ġà¤¸à¤¾à¤®", "à°Ĺà°¾", "Ġà®¤à¯Ĩ", "Ġà¤¸à¥įà¤¥", "à°ļà±įà°ļ", "Ġà®ªà®ķ", "Ġà¤ħà¤¨", "à±į,", "Ġà®Ĵà®°à¯ģ", "Ġà¤ıà¤ķ", "à°¤à±įà°", "à®¤à¯įà®¤à®¿à®©à¯į", "Ġà¤ķà¤¿à¤¯à¤¾", "à°¿à°¤", "Ġà®ĩà®¤à¯ģ", "à¤ļ", "à°¿à°¯", "Ġà®ĩà®¨à¯įà®¤à®¿à®¯à®¾à®µ", "à¥įà¤¤à¤°", "à°¿à°¸à±įà°", "Ġà®ķà¯Ĭ", "Ġà¤°à¤¾à¤ľ", "à°Ĥà°¤à±įà°°", "à®°à¯ģà®µ", "à¤¾à¤¦", "à®¾à®¤", "·à±įà°Ł", "à¯įà®©", "Ġà¤Ī", "à°ĸ", "Ġà®ĩà®°à¯ģà®", "à¤¾à¤ª", "à°¿à°²", "Ġà®īà®°à¯ģà®µ", "à¤¿à¤¸", "Ġà°ªà±ĩ", "à¯ģà®ķà¯įà®ķà¯ģ", "à¤ķà¤°", "à°§à°¿à°ķ", "Ġà®ħà®¤", "à¥ĥà¤¤", "à°¾à°¬", "à®²à¯įà®²", "à¥įà¤°à¤¾à¤ľà¥įà¤¯", "à°¾à°°à±ģ.", "à®¿à®µ", "Ġà¤¨à¤¾à¤®", "à±Ĥà°¡", "à®Łà¯ģà®ķ", "Ġà¤ªà¥Ĥà¤°à¥įà¤µ", "Ġà®¨à®¿à®²", "Ġà¤¸à¤¾à¤®à¥įà¤°à¤¾à¤ľà¥įà¤¯", "Ġà°®à±Ĭ", "Ġà®ªà®ķà¯ģà®¤", "Ġà¤ĩà¤¸", "Ġà°¸à°Ĥà°", "Ġà®®à¯ģà®", "Ġà°Ńà°¾à°°à°¤à°¦à±ĩà°¶à°Ĥ", "Ġà®µà®Ł", "à¤¶à¥įà¤", "¥à°¾à°¨", "Ġà®µà¯ĩ", "à¤¾à¤ļ", "à°¾à°ķ", "Ġà®ķà¯Ĭà®£à¯įà®Ł", "à¤¿à¤¨à¥įà¤¦", "à°¿à°Ĥà°¦", "à®®à®¾à®ķ", "à¥ĩà¤¤à¥įà¤°", "à±Į", "à®¾à®Łà¯įà®Ł", "à¥įà¤·à¥ĩà¤¤à¥įà¤°", "à±ģà°²à±ģ,", "à®¿à®ķà®³", "âĢĮ", "à®Ĩà®®à¯į", "Ġà¤µà¤°à¥įà¤", "Ġà°®à°¾à°°à±įà°", "à¯ģà®µ", "Ġà¤¶à¤¾à¤¸", "Ġà°ľà°¨", "à¯ģà®³à¯įà®³", "Ġà¤¹à¤¿à¤¨à¥įà¤¦", "·à±įà°Łà±įà°°", "Ġà®µà®°", "Ġà¤¹à¥ĭ", "à°³", "Ġà®ħà®®", "Ġà¤Īà¤¸", "à°¤à±įà°¤", "à®°à¯įà®", "Ġà¤īà¤¤à¥įà¤¤à¤°", "à°¾à°£", "à®°à¯įà®ķà®³à¯į", "Ġà¤ķà¥įà¤·à¥ĩà¤¤à¥įà¤°", "à°¾à°Ĥà°¤", "à®Łà¯ģà®¤à¯įà®¤", "Ġà¤Ĺà¤¯à¤¾", "à°¿à°°", "à®Łà¯Īà®¯", "Ġà¤Ńà¤¾à¤°à¤¤à¥Ģà¤¯", "à°Łà±įà°Ł", "Ġà®¤à¯Ĭà®Ł", "à¤°à¥Ģ", "à±įà°¯à°µ", "Ġà®Ĩà®ķ", "à¤¶à¥įà¤ļ", "Ġà®ĩà®°", "à¤¶à¥įà¤ļà¤¿à¤®", "Ġà°²à±ĭ", "Ġà®ķà¯ģà®±", "à¤¸à¥įà¤ķ", "Ġà°®à°¾à°°à±įà°Ĺ", "Ġà®ļà¯Ĩ", "à¤¸à¥įà¤ķà¥ĥà¤¤", "à°¬", "à¤¾à¤¬", "à°ľ", "à®©à®°à¯į", "à¥ĩà¤¶", "à°¨à±ĩ", "à¯įà®®", "à¥įà¤ª", "à°®à±ģ", "Ġà®Ĭ", "Ġà¤¥", "à°¾à°¸", "à®¤à¯įà®¤à®¿à®²à¯į", "Ġà¤¤à¤ķ", "à°¾à°Ĺ", "à®¤à¯įà®¤à¯Ī", "Ġà¤®à¤¹", "à°¿à°ķà°¿", "à®©à®°à¯į.", "Ġà¤ľà¤¾à¤¤", "à±ĥ", "à®¾à®ļ", "Ġà¤Ńà¥Ģ", "à±įà°ª", "à®¿à®¨à¯įà®¤", "¢à¤¼", "à¤¢à¤¼", "Ġà®ªà¯ĭ", "à¤·", "Ġà°²", "Ġà®ªà¯Ĭ.", "à¤ľ", "Ġà°ı", "Ġà®ħà®®à¯Īà®ªà¯įà®ª", "à¤§à¥įà¤¯", "Ġà°®à±ģ", "Ġà®Ĭ.", "à¤°à¥ĩ", "Ġà°°à°¾à°·à±įà°Łà±įà°°", "Ġà®ļà®®à®¯", "à¤¾à¤ĵ", "Ġà°¸à±įà°", "à®ªà¯įà®ªà®Łà¯ģà®ķ", "à¤¾à¤¨à¤¾", "Ġà°¸à±įà°µ", "à®°à®¿à®¯", "à¤¾à¤ļà¥Ģà¤¨", "Ġà°īà°¨à±įà°¨à°¾à°¯à°¿.", "à®¾à®²à¯į", "à¤ķà¤¾", "Ġà°ķà°²", "à®¿à®¯à®¤à¯ģ.", "à¥Ģà¤Ĥ", "à°¸à±įà°¥", "à®¿à®¯à®¾à®µ", "à¥Īà¤¦", "à°¾à°²à±ģ,", "à®¿à®±à®¤à¯ģ.", "Ġà¤¬à¤¡à¤¼", "à°¿à°µ", "à®Ļà¯įà®ķà®³à¯į", "Ġà¤¯à¤¹", "à°¿à°¸à±įà°¤", "à¯ģà®³à¯įà®³à®¤à¯ģ.", "Ġà¤¸à¤¾à¤", "à±ģà°µ", "à¯Īà®ķà¯įà®ķ", "Ġà¤¸à¤Ĥ", "à±ģà°ķ", "à¯įà®ļà®¿à®¯", "Ġà¤¹à¥ģà¤Ĩ", "à±įâĢĮ", "Ġà®®à¯ĩ", "Ġà¤īà¤¨", "Ġà°ªà°¾à°°", "Ġà®ĩà®¤", "Ġà°®à°§", "Ġà®ĩà®¨à¯įà®¤à®¿à®¯à®¾", "à¤¤à¤¾à¤¬", "Ġà°°à±Īà°²à±ģ", "à®®à®¾à®©à®¤à¯ģ", "à¤¤à¤¾à¤¬à¥įà¤¦", "Ġà°µà°ļà±įà°ļ", "à®¾à®±", "à¤¤à¤¾à¤¬à¥įà¤¦à¥Ģ", "Ġà°ħà°¤", "à®¾à®£à¯įà®Ł", "à¤¶à¤¿à¤¯à¤¾", "Ġà°İà°¨à±įà°¨", "à®¿à®´", "à¤¸à¥ĩ", "à°¦à±įà°¦", "à®¿à®°à¯ģà®", "à¤¾à¤£", "à°§à°¾à°¨", "à®ķà®³", "à¤¾à¤ĵà¤Ĥ", "à°ªà±ģ", "à®ļà¯į", "à¥Ģà¤ª", "à°ķà±įà°ķ", "à¯ĩà®°à®°à®ļ", "à¥Ĥà¤ª", "à±įà°¯à°µà°¸à±įà°¥", "à¯Īà®¨à¯įà®¤", "à¥ĭà¤²", "Ġà°Ĵ", "à¯Īà®ķà¯į", "à¥įà¤¤à¤¾à¤¨", "Ġà°¦à°ķà±įà°·", "Ġà°¦à±ĩà°¶à°¾à°²", "Ġà®ªà®°", "Ġà¥", "Ġà°ªà°°", "Ġà®®à¯Ĭ", "Ġà¤ªà¤¾à¤", "Ġà°ªà±ĩà°°à±ģ", "Ġà®Ĩà®£à¯įà®Ł", "Ġà¤ªà¥įà¤°à¤¾à¤ļà¥Ģà¤¨", "Ġà°ªà±įà°°à°¾à°Ĥà°¤", "Ġà®Ĩà®ķà®¿à®¯", "Ġà¤¬à¤¢à¤¼", "Ġà°®à°§à±įà°¯", "à®£à¯įà®ª", "Ġà¤®à¤§à¥įà¤¯", "Ġà°°à°¾à°ľà±įà°¯", "à®©à¯įà®ª", "Ġà¤¶à¤¤à¤¾à¤¬à¥įà¤¦à¥Ģ", "Ġà°ħà°§à°¿à°ķ", "à®¾à®¯", "Ġà¤¶à¤¾à¤¸à¤¨", "Ġà°Ĵà°ķ", "à®¾à®³", "Ġà¤¸à¤Ĥà¤¸à¥įà¤ķà¥ĥà¤¤", "Ġà°ķà±Ĥà°¡", "à®¾à®©à®µà¯Ī", "Ġà¤Īà¤¸à¤¾", "à°¶", "à¯ģà®ªà¯į", "à¤¾à¤µ", "à°·", "Ġà®¤à¯Ĩà®±à¯įà®ķ", "à¤¿à¤ı", "à°¤à°°", "Ġà®®à®ķ", "à¤Ĥà¤¡", "à°¦à±įà°§", "Ġà®®à¯ģà®©", "à¤Ĥà¤¶", "à°®à±Īà°¨", "Ġà®µà®¨à¯įà®¤", "à¤ķà¥ĩ", "à°°à±įà°µ", "Ġà®ħà®°à®ļ", "à¥ģà¤°", "à°¸à±įà°¤", "Ġà®ħà®¤à®¿à®ķ", "à¥ģà¤ª", "à°¾à°µ", "Ġà®İà®©à¯įà®±", "à¥ģà¤Ĺ", "à°¾à°¤à±įà°°", "à®²à¯Ī", "à¥ĭà¤¡à¤¼", "à°¾à°Ĥà°Ĺ", "à®³à®µ", "à¥įà¤®", "à°¿à°£", "à®¾à®®", "à¥įà¤¹", "à°¿à°²à±įà°²", "à®¾à®ķà®ķà¯į", "à¥įà¤µà¥Ģà¤ª", "à°Ĥà°²à±ĭà°¨à°¿", "à®¿à®©à¯įà®±", "Ġà¤¦à¤¿à¤¯à¤¾", "à°Łà°¿", "à®ķà®°", "Ġà¤ªà¤¶à¥įà¤ļà¤¿à¤®", "à±Ģ,", "à®Łà®¿à®ªà¯įà®ª", "Ġà¤ªà¥įà¤°à¤®", "à±įà°®", "à¯įà®µ", "Ġà¤¬à¤¨", "à±įà°²à±ĭ", "à¯įà®ķà®³à¯į", "Ġà¤°à¤¾à¤ľà¥įà¤¯", "Ġà°¦à°ķà±įà°·à°¿à°£", "Ġà®¤à¯ĭ", "Ġà¤µà¥įà¤¯", "Ġà°ªà°¾à°°à±įà°Ł", "Ġà®¨à¯Ĥ", "Ġà¤¸à¥įà¤µ", "Ġà°ªà±įà°°à°§à°¾à°¨", "Ġà®ªà®£à¯įà®ª", "Ġà¤¸à¥įà¤¥à¤¾à¤ª", "Ġà°®à°¤", "Ġà®ªà®¿à®°", "Ġà¤¹à¥ģà¤Ī", "Ġà°¹à°¿à°Ĥà°¦", "Ġà®ªà¯ĩà®°à®°à®ļ", "Ġà¤ıà¤¶à¤¿à¤¯à¤¾", "Ġà°īà°Ĥà°¦à°¿.", "Ġà®®à¯Ĭà®´", "Ġà¤ľà¤¿à¤¨", "Ġà°ķà±ĭ", "à®ªà¯įà®ªà®Łà¯ģà®ķà®¿à®±à®¤à¯ģ.", "à¤Ł", "à°¤à±ĭ", "à®¾à®±à¯įà®±", "à¤¦à¥įà¤", "à°¦à°¿", "à®¿à®¤à¯įà®¤à¯ģ", "à¤°à¥įà¤¯", "à°°à±įà°ª", "à®¿à®¯à®¾à®©", "à¤¸à¥įà¤²", "à°¾à°Ł", "à®¿à®´à®ķà¯įà®ķ", "à¤¾à¤¨à¥Ģ", "à°¾à°Ń", "à¯ģ.", "à¤¾à¤²à¥Ģ", "à°¿à°®", "à¯Īà®ªà¯į", "à¤¿à¤°", "à°¿à°¨à±įà°¨", "à¯Īà®ķà®³", "à¤¿à¤¯", "à°¿à°Ĥà°ļà°¿à°Ĥà°¦à°¿.", "Ġà®ªà¯Ĩà®¯", "à¤¿à¤¸à¥įà¤¤à¤¾à¤¨", "à±Ĩà°¸", "Ġà®®à¯ģ.", "à¤Ĥà¤Ĺà¤¾", "à±įà°¯à°Ĥ", "Ġà®®à¯ģà®©à¯įà®©", "à¥Ģà¤°à¥ĩ", "Ġà°ªà°¾à°ķ", "Ġà®ĩà®¨à¯įà®¤à®¿à®¯à®¾à®µà®¿à®©à¯į", "à¥ģà¤¸", "Ġà°µà±įà°¯à°µà°¸à±įà°¥", "Ġà®ĩà®°à¯ģà®¨à¯įà®¤", "à¥ģà¤ĸ", "Ġà°¸à°Ń", "Ġà®ĩà®°à¯ģà®¨à¯įà®¤à¯ģ", "à¥įà¤²", "Ġà°ħà°¯", "Ġà®ķà¯ģà®Ł", "à¥įà¤¤à¤¿", "à°¤à°¿", "à®±à¯įà®±à®¾à®£à¯įà®Ł", "Ġà¤¥à¥Ģ", "à°ªà±įà°ª", "à®³à¯įà®³", "Ġà¤¦à¥ĩà¤¶", "à°µà°¾à°£", "à®¾à®´", "Ġà¤¨à¤¿", "à°µà°¾à°£à°¾", "à®¾à®©à¯į", "Ġà¤ªà¥įà¤°à¤®à¥ģà¤ĸ", "à°¾,", "à®¿à®©.", "Ġà¤®à¥Īà¤¦", "à°¾à°·", "à®¿à®¯à®¾à®ķ", "Ġà¤¯à¥ģà¤Ĺ", "à°¾à°¸à±įà°", "à®¿à®°à¯ģà®¨à¯įà®¤", "Ġà¤²à¤¿à¤ı", "à°¾à°ľ", "à®¿à®ķà¯įà®ķà®ªà¯įà®ªà®Łà¯įà®Ł", "Ġà¤µà¤¿à¤¸", "à°Ĥà°¤", "à®¿à®Łà¯įà®Ł", "Ġà¤¶à¤¹", "à°Ĥà°¦à±įà°°", "à®ķà¯įà®ķà®¾à®²", "Ġà¤¸à¤Ń", "à°ĸà±įà°¯", "à®Łà¯Īà®¨à¯įà®¤", "Ġà¤¹à¥Īà¤Ĥ", "à°Ńà±ģà°¤", "à¯ģà®®à¯įà®ª", "Ġà¤ħà¤¨à¥įà¤¯", "à°Ńà±ģà°¤à±įà°µ", "à¯ģà®ķà¯į", "Ġà¤Ĩà¤§", "à±ģà°ķà±ģ", "à¯ģà®Łà¯Īà®¯", "Ġà¤Ĩà¤ķ", "à±ģà°ķà±ĭ", "à¯Ĩà®³", "Ġà¤ķà¥ģà¤", "à±Ĩà°Ĥà°¡", "à¯Īà®¤à¯įà®¤", "Ġà¤ķà¤°à¤¨à¤¾", "à±ĩà°Ĥà°¦à±įà°°", "à¯Īà®¯à¯ģà®®à¯į", "Ġà¤ľà¤¾à¤¤à¤¾", "Ġà°¦à±įà°µ", "Ġà®¤à®©", "§à¥", "Ġà°ªà°¾à°°à±įà°Łà±Ģ", "Ġà®¤à¯ģà®", "à¤¤à¥Ģ", "Ġà°ªà±įà°°à°Ńà±ģà°¤à±įà°µ", "Ġà®¨à®¾à®Ł", "à¤¤à¥ĩ", "Ġà°®à°¾à°°à±įà°Ĺà°¾à°²à±ģ", "Ġà®¨à¯Ĥà®±à¯įà®±à®¾à®£à¯įà®Ł", "à¤¦à¥įà¤§", "Ġà°µà°ļà±įà°ļà°¿à°Ĥà°¦à°¿.", "Ġà®ªà®¾à®°", "à¤¨à¥Ģ", "Ġà°¹à°¿à°Ĥà°¦à±Ĥ", "Ġà®ªà®ķà¯ģà®¤à®¿à®ķà®³", "à¤ªà¤®", "Ġà°ĩà°¤à°°", "Ġà®ªà¯Ĭà®°à¯ģà®", "à¤ªà¤®à¤¹", "Ġà°ķà°¾à°²", "Ġà®ªà¯ĭà®¤à¯ģ", "à¤ªà¤®à¤¹à¤¾à¤¦", "Ġà°ķà±ĩà°Ĥà°¦à±įà°°", "Ġà®ĩà®ķà¯įà®ķà®¾à®²", "à¤ªà¤®à¤¹à¤¾à¤¦à¥įà¤µà¥Ģà¤ª", "Ġà°ļà±ĩà°", "Ġà®ķà®Łà¯įà®Ł", "à¤¬à¤¸à¥ĩ", "Ġà°ľà°¾à°¤", "Ġà®ļà¯Ĩà®¯", "à¤®à¥įà¤", "Ġà°ľà°¨à°¾à°Ń", "à¤®à¥įà¤Ń", "à°¬à°¡", "à®ĩ", "à¤°à¤¾", "à°°à°¿à°Ĺ", "à®©à¯įà®©", "à¤¼à¥Ģ", "à°°à±įà°¯", "à®²à¯įà®µ", "à¤¾à¤ģ", "à°°à±ģà°µ", "à®¿à®©à¯įà®±à®©.", "à¤¾à¤Ī", "à°°à±ģà°µà°¾à°¤", "à®¿à®¯à®¾", "à¤¾à¤Ĺ", "à°¾à°ĸ", "à®Ļà¯įà®ķà®³à®¿à®²à¯į", "à¤Ĥà¤¬", "à°¾à°¨à°¿à°ķà°¿", "à®Łà®¿à®ªà¯įà®ªà®Łà¯Īà®¯", "à¥Ģà¤µ", "à°¾à°µà°°", "à¯Į", "à¥ģà¤ķ", "à°¾à°Ĥà°Ĺà±įà°°", "à¯Ģà®©", "à¥ģà¤ªà¥įà¤¤", "à°¾à°Ĥà°Ĺà±įà°°à±Ĩà°¸", "à¯ģà®¤à®²à¯į", "à¥ĩà¤ĸ", "à°¿à°Ĥà°", "à¯ģà®®à¯į.", "à¥ĩà¤ľ", "à°¿à°²à±ĭ", "à¯ģà®ķà®³à¯į", "à¥įà¤¨", "à°¿à°ļ", "à¯ģà®Łà®©à¯į", "à°¿à°Ł", "Ġà¤«", "à°¿à°¯à°¾", "Ġà®¤à¯ģà®£", "Ġà¤ĺ", "à°¿à°Ĺà°¾", "Ġà®¨à®ķà®°", "Ġà¤¦à¥ĭ", "à±ģà°¨à±įà°¨", "Ġà®ªà®²", "Ġà¤ªà¤¾à¤ķ", "à±įà°¡", "Ġà®ªà¯Ĩà®°", "Ġà¤ªà¤¾à¤ķà¤¿à¤¸à¥įà¤¤à¤¾à¤¨", "à±įà°¦", "Ġà®ªà¯Ĩà®¯à®°", "Ġà¤¬à¤¡à¤¼à¥ĩ", "à±įà°°à°®", "Ġà®®à¯ĩà®±à¯įà®ķ", "Ġà¤®à¤¿à¤²", "à±įà°°à±Ģ", "Ġà®µà®³", "Ġà¤°à¥Ĥà¤ª", "Ġà°¯", "Ġà®µà®¾à®´", "Ġà¤²à¤¿à¤¯à¤¾", "Ġà°¤à°°à±ģà°µà°¾à°¤", "Ġà®ħà®±", "Ġà¤²à¤Ĺ", "Ġà°ªà°Łà±įà°Ł", "Ġà®ħà®Łà®¿à®ªà¯įà®ªà®Łà¯Īà®¯", "Ġà¤µà¥Ģà¤Ĥ", "Ġà°¬à±įà°°", "Ġà®īà®³à¯įà®³", "Ġà¤µà¤¿à¤¸à¥įà¤¤", "Ġà°®à±Ĭà°¦", "Ġà®īà®°à¯ģà®µà®¾à®ķà¯įà®ķ", "Ġà¤¸à¤¬à¤¸à¥ĩ", "Ġà°°à°µà°¾à°£à°¾", "Ġà®İà®©à¯įà®±à¯ģ", "Ġà¤¸à¤®à¤¯", "Ġà°¸à±įà°¥à°¾à°¨", "Ġà®ķà¯ģà®±à®¿à®ªà¯įà®ª", "Ġà¤¸à¤Ĥà¤¸à¥įà¤ķà¥ĥà¤¤à¤¿", "Ġà°ħà°§à°¿à°ķà°¾à°°", "à®¨", "Ġà¤¸à¥įà¤¥à¤¿à¤¤", "Ġà°ħà°¯à°¿à°¨", "à®ªà¯įà®ªà®Łà¯įà®Łà®©.", "Ġà¤¸à¥įà¤¥à¤¾à¤ªà¤¨à¤¾", "Ġà°ĩà°¦à°¿", "à®®à¯įà®ª", "Ġà¤¹à¤¿à¤¨à¥įà¤¦à¥Ĥ", "Ġà°ıà°°à±įà°ª", "à®°à®ª", "Ġà¤¹à¥ģà¤ı", "Ġà°ķà°¾à°Ĥà°Ĺà±įà°°à±Ĩà°¸", "à®±à¯įà®ª", "Ġà¤ħà¤ª", "Ġà°ļà±Ĩ", "à®µà®°à¯įà®ķà®³", "Ġà¤ĩà¤¤", "Ġà°ľà°°à°¿à°Ĺ", "à®¾à®©à®¤à¯ģ.", "Ġà¤ĩà¤Ĥà¤¡", "Ġà°Ńà°¾à°°à°¤à±Ģà°¯", "à®¾à®°à¯į", "Ġà¤ĩà¤¸à¥Ģ", "Ġà°Ńà°¾à°°à°¤à°¦à±ĩà°¶à°Ĥà°²à±ĭ", "à®¿à®£", "Ġà¤īà¤ªà¤®à¤¹à¤¾à¤¦à¥įà¤µà¥Ģà¤ª", "à®¿à®¯à®²à¯į", "Ġà¤ķà¤¾à¤²", "à°¤à±įà°µ", "à®¿à®±à¯įà®ķ", "Ġà¤Ĺà¤Ĥà¤Ĺà¤¾", "à°¤à±įà°¤à°°", "à®Ļà¯įà®ķà¯Ī", "Ġà¤Ĺà¥ģà¤ªà¥įà¤¤", "à°°à°¿à°", "à¯ģà®ªà®Łà¯įà®Ł", "Ġà¤Ĺà¤Ī", "à°²à±įà°²", "à¯ģà®ªà¯įà®ª", "Ġà¤ľà¤¾à¤¨à¤¾", "à°²à±ģ,", "à¯Īà®¯à¯ģà®Łà¯Īà®¯", "Ġà¤ľà¤¿à¤¸", "à°¾à°¨à±įà°¨", "à¯įà®¨", "Ġà¥§à¥", "à°¾à°¨à±įà°¨à°¿", "à¯įà®¤à¯įà®¤", "à°¾à°¬à±įà°¦", "à¯įà®®à¯Īà®¯", "¦à¥", "à°¾à°²à°¨à±ģ", "à¯įà®ļà®¿", "¹à¤¾à¤¸", "à°¾à°²à°²à±ĭ", "à¤«", "à°Ĥà°¬", "Ġà®¤à¯Ĭà®Łà®ķà¯įà®ķ", "à¤¤à¤®", "à°ķà±Ģà°¯", "Ġà®¤à¯Ĭà®Łà®Ļà¯įà®ķ", "à¤¨à¤¤", "à±Ģà°¨", "Ġà®¨à®Ł", "à¤®à¤¾à¤¨", "à±ĩà°°", "Ġà®¨à¯Ģ", "à¤°à¥ĭà¤Ĥ", "à±ĭà°°", "Ġà®ªà®¯", "à¤°à¥įà¤·", "à±Įà°ķ", "Ġà®ªà¯ģà®", "à¤²à¥ĩ", "Ġà°¨à°¿à°°", "Ġà®ªà®£à¯įà®ªà®¾à®Łà¯įà®Ł", "à¤²à¥įà¤¤", "Ġà°¨à±ģ", "Ġà®®à¯ģà®¤à®²à¯į", "à¤²à¥įà¤¤à¤¨à¤¤", "Ġà°ªà°¾à°²", "Ġà®µà®´", "à¤µà¤¸à¥įà¤", "Ġà°ªà±įà°°à°¤", "Ġà®µà®¿à®°", "à¤µà¤Ĥà¤¶", "Ġà°ªà±įà°°à°ľ", "Ġà®µà¯ĩà®¤", "à¤µà¤¸à¥įà¤¥à¤¾", "Ġà°°à±Ĩà°Ĥà°¡", "Ġà®Ĩà®Ł", "à¤¾à¤·", "Ġà°¸à°®", "Ġà®ĩà®¤à®©à¯į", "à¤¾à¤Ĥ", "Ġà°¸à°¾à°®", "Ġà®ĩà®¨à¯įà®¤à¯ģ", "à¤¾à¤Ł", "Ġà°ħà°¨à±ĩ", "Ġà®īà®¯", "à¤¾à¤¨à¤µ", "Ġà°Ĩà°°à±įà°", "Ġà®īà®²", "à¤¾à¤°à¤®à¥įà¤Ń", "Ġà°īà°ª", "Ġà®ķà®¿à®´à®ķà¯įà®ķ", "à¤¾à¤°à¤¾", "Ġà°Ĺà°²", "³à®¾à®¤", "à¤¾à¤°à¥Ģ", "Ġà°Ńà°¾à°·", "³à®¾à®¤à®¾à®°", "à¤¿à¤µ", "à®¤à®¿à®²", "à¤¿à¤¶", "¢à°¿à°²à±įà°²", "à®¤à¯įà®¤à®¿à®±à¯įà®ķ", "à¤¿à¤¹à¤¾à¤¸", "à°¡à°¿à°ª", "à®©à¯įà®ªà®Łà¯ģà®¤à¯įà®¤", "à¤¿à¤Ĥ", "à°¡à±įà°¡", "à®ªà¯įà®ªà®Łà¯įà®Łà®¤à¯ģ.", "à¤¿à¤Ł", "à°¤à°Ĥà°¤à±įà°°", "à®°à®¿à®¤à¯įà®¤à¯ģ", "à¤¿à¤Łà¤¿à¤¶", "à°¦à°¾à°°", "à®°à¯įà®¨à¯įà®¤", "à¤Ĥà¤¤à¥įà¤°", "à°¦à±ĩà°¶à°Ĥ", "à®±à¯ģà®¤", "à¤Ĥà¤Ĺà¥įà¤°", "à°ªà°Ĥà°ļ", "à®²à¯įà®²à®¤à¯ģ", "à¥¦à¥", "à°°à±įà°£", "à®µà®°à¯įà®ķà®³à¯į", "à¥ģà¤¤", "à°°à±įà°¤", "à®µà¯Ģà®©", "à¥ģà¤¨", "à°°à±įà°²", "à®¾à®ļà®¿à®¯à®¾à®µ", "à¥ĥà¤·", "à°°à±įà°Ł", "à®¿à®¯à®¿à®²à¯į", "à¥ĩà¤·", "à°¹à°¦à°¾à°°", "à®ķà¯įà®ķà®¿à®¯", "à¥ĩà¤ľà¤¼à¥Ģ", "à°¾à°§", "à¯Ģà®¤", "à¥ĭà¤Ĺ", "à°¾à°ª", "à¯ģà®¤à¯į", "à¥Įà¤°à¥įà¤¯", "à°¾à°¬à°¾à°¦", "à¯ģà®®à¯į,", "à¥įà¤Ł", "à°¾à°°à±ģ", "à¯ģà®³à¯į", "à¥įà¤¤à¥ģ", "à°¾à°²à±ĭ", "à¯ģà®ķà¯įà®ķà¯ģà®ªà¯į", "à¥įà¤¯à¤¤à¤¾", "à°¾à°²à±įà°²à±ĭ", "à¯įà®ªà¯įà®ª", "à¥įà¤¯à¥ĭà¤Ĥ", "à°¿à°§", "Ġ6", "à¥įà¤°à¤¿à¤Łà¤¿à¤¶", "à°¿à°¶", "à¥įà¤µà¤¾à¤°à¤¾", "à°¿à°¸", "Ġà®ĵ", "à¥įà¤¹à¥ĩà¤Ĥ", "à°¿à°ľ", "Ġà®¤à¯ĭà®©à¯įà®±", "Ġ$", "à°¿à°Ĥà°ļà°¿à°¨", "Ġà®¨à®µà¯Ģà®©", "à°Ĥ.", "Ġà®ªà®¯à®©à¯įà®ªà®Łà¯ģà®¤à¯įà®¤", "à°Ĥà°Ĺà±įà°²", "Ġà®ªà¯Ĩà®±à¯įà®±", "Ġ20", "à°ķà±įà°ķà±ģà°µ", "Ġà®®à®©", "à°Ĺà±ģ", "Ġà®®à®¿à®ķ", "Ġà¤Ľ", "à°Łà°¿à°ķ", "Ġà®®à¯Īà®¯", "Ġà¤¦à¥įà¤µà¤¾à¤°à¤¾", "à°Łà±įà°²", "Ġà®µà®ķ", "Ġà¤§à¥Ģà¤°à¥ĩ", "à±Ģà°ª", "Ġà®µà®¿à®°à®¿à®µ", "Ġà¤ªà¤¹", "à±ģà°Ĥà°¦à°¿.", "Ġà®µà¯ĩà®±", "Ġà¤ªà¥įà¤°à¤¾à¤°à¤®à¥įà¤Ń", "à±ģà°ķà±ĭà°µ", "Ġà®ħà®²à¯įà®²à®¤à¯ģ", "Ġà¤¬à¥įà¤°à¤¿à¤Łà¤¿à¤¶", "à±Ĥà°ª", "Ġà®ħà®¤à®¿à®ķà®°à®¿à®¤à¯įà®¤à¯ģ", "Ġà¤¬à¤¢à¤¼à¤ķà¤°", "Ġà°¦à±ĩà°¶à°Ĥà°²à±ĭà°¨à°¿", "Ġà®ħà®Łà®¿à®ªà¯įà®ªà®Łà¯Īà®¯à®¾à®ķà®ķà¯į", "Ġà¤®à¥Įà¤°à¥įà¤¯", "Ġà°¨à°¡à°¿à°ª", "Ġà®ĩà®¯", "Ġà¤®à¥ĩà¤Ĥ,", "Ġà°ªà±įà°°à°ªà°Ĥà°ļ", "Ġà®ĩà®¨à¯įà®¤à®¿à®¯à®¤à¯į", "Ġà¤®à¥Īà¤¦à¤¾à¤¨à¥Ģ", "Ġà°ªà±įà°°à°¾à°Ĥà°¤à°¾à°²à±ģ", "Ġà®īà®²à®ķ", "Ġà¤°à¤¹", "Ġà°¬à±įà°°à°¿à°Ł", "Ġà®İà®©à¯įà®ª", "Ġà¤°à¤¾à¤ľà¤µà¤Ĥà¤¶", "Ġà°®à±ģà°ĸà±įà°¯", "Ġà®ķà¯ģà®±à®¿à®ķà¯įà®ķ", "Ġà¤°à¤¾à¤ľà¥įà¤¯à¥ĭà¤Ĥ", "Ġà°°à°¹à°¦à°¾à°°", "Ġà®ķà¯ģà®Łà®¿à®¯", "Ġà¤µà¤°à¥įà¤·", "Ġà°°à°¾à°ľà°ķà±Ģà°¯", ",00", "Ġà¤µà¤¿à¤¶", "Ġà°µà°¿à°µ", "Ġà¤µà¤¿à¤¸à¥įà¤¤à¤¾à¤°", "Ġà°¸à±Įà°ķ", "à®¨à¯įà®¨", "Ġà¤¶à¥ģà¤°", "Ġà°ĩà°Ĥà°¡", "à®©à®¾à®²à¯į", "Ġà¤¶à¤¹à¤°à¥Ģ", "Ġà°īà°¤à±įà°¤à°°", "à®®à¯įà®ªà®°à®¿à®¯", "Ġà¤¸à¤²à¥įà¤¤à¤¨à¤¤", "Ġà°ľà°¨à°¾à°Ńà°¾", "à®°à¯įà®µ", "Ġà¤¸à¤Ńà¥įà¤¯à¤¤à¤¾", "¥à°¿à°ķ", "à®µà®±à¯įà®±", "Ġà¤ħà¤§", "µà°¾à°®", "à®µà®²", "Ġà¤ħà¤µ", "¹à°¦à±įà°¦", "à®µà¯Ĩà®³", "Ġà¤ħà¤¨à¥įà¤¤", "à°¤à°¾à°¬à±įà°¦", "à®¾à®ª", "Ġà¤Ĩà¤Ĺ", "à°¤à°¿à°ķ", "à®¾à®ķà®°", "Ġà¤ĩà¤¤à¤¿à¤¹à¤¾à¤¸", "à°¤à±įà°¤à°Ĥ", "à®¾à®ķà¯įà®ķà®¿à®²à¯į", "Ġà¤ĩà¤Ĥà¤¡à¤¿à¤¯à¤¾", "à°¦à°¿.", "à®¾à®ļà¯įà®ļà®¿à®¯", "Ġà¤ľà¥ĭ", "à°¦à±ģ", "à®¾à®Łà¯ģ", "Ġà¤Ńà¥Ĥ", "à°¨à±ģà°ķ", "à®¿à®¨à¯įà®¤à¯ģ", "21", "à°ªà±įà°ªà°Łà°¿à°ķ", "à®¿à®¯à¯Ī", "4%", "à°®à°Ĥà°¤à±įà°°", "à®Łà¯ģà®ķà¯į", "50", "à°®à±ĩ", "à¯Ģà®ķ", "à¤¡", "à°®à±ģà°ĸ", "à¯ģà®²", "à¤ĥ", "à°°à°¿à°ķ", "à¯ģà®ļ", "à¤Ī", "à°°à°¿à°¹à°¦à±įà°¦", "à¯ģà®ķà®³à®¿à®©à¯į", "à¤¤à¤°", "à°°à±įà°·", "à¯ģà®ķà®³à¯Ī", "à¤¤à¤¿", "à°²à±įà°µ", "à¯ģà®ķà¯įà®ķà®¿à®¯", "à¤¤à¤¿à¤ķ", "à°µà°¿", "à¯Ĥà®ķ", "à¤¤à¤Ĥà¤¤à¥įà¤°", "à°·à±įà°", "à¯Īà®¯à¯Ī", "à¤¤à¤ĥ", "à°¸à±įà°²", "à¯Īà®ķà¯įà®ķà®£à¯įà®Ł", "à¤¤à¥įà¤¤à¤¿", "à°¸à±įà°¤à±ģà°¤", "à¯Ĭà®²à¯įà®²", "à¤¤à¥įà¤¯", "à°¾à°¹", "à¯įà®¨à¯įà®¤", "à¤§à¥ģ", "à°¾à°¤à°Ĥà°¤à±įà°°", "à¯įà®²", "à¤¨à¥Ģà¤¤à¤¿à¤ķ", "à°¾à°¨à±į", "à¯įà®ķà®³à¯Ī", "à¤ªà¤¶à¥įà¤ļà¤¿à¤®", "à°¾à°¯à°ķ", "Ġà®¤à¯ģà®£à¯Īà®ķà¯įà®ķà®£à¯įà®Ł", "à¤ªà¥Ĥà¤°à¥įà¤µ", "à°¾à°¸à±įà°¤à±įà°°", "Ġà®¤à¯Ĭà®ķ", "à¤®à¤¨", "à°¿à°·", "Ġà®¨à®Łà¯ģà®ķà¯į", "à¤®à¤¾", "à°¿à°Ĥà°§", "Ġà®ªà®²à¯įà®µ", "à¤°à¥Ĥà¤ª", "à°Ĥà°ª", "Ġà®ªà®Ł", "à¤°à¥įà¤£", "à°Ĥà°¡à°¿", "Ġà®ªà®¾à®°à®®à¯įà®ªà®°à®¿à®¯", "à¤°à¥įà¤¥", "à°Ĥà°¡à±ģ", "Ġà®ªà¯ģà®°", "à¤°à¥įà¤¶", "à°Ĥà°¤à±ĭ", "Ġà®ªà¯Ĩà®°à®¿à®¯", "à¤°à¥įà¤®à¤£", "à°ķà±įà°°à°®", "Ġà®ªà¯Ĩà®°à¯ģà®®à¯įà®ª", "à¤°à¥įà¤®à¤¾à¤£", "à±Ĩà°¦à±įà°¦", "Ġà®ªà¯Ĭà®°à¯ģà®³à®¾à®¤à®¾à®°", "à¤¶à¤¾à¤¸", "à±ĩ,", "Ġà®®à®°à®ª", "à¤·à¤£", "à±įà°¯à°§à°¿à°ķ", "Ġà®®à¯ģà®±", "à¤¸à¥įà¤¤", "à±įà°²à°¨à±ģ", "Ġà®®à®ķà¯įà®ķà®³à¯į", "à¤¸à¥įà¤²à¤¾à¤®", "à±įà°µà°¹", "Ġà®®à¯Ĭà®´à®¿à®ķà®³", "à¤¸à¥įà¤²à¤¿à¤®", "Ġà®µà®¾à®ķà¯įà®ķà®¿à®²à¯į", "à¤¾à¤¶", "Ġ8", "Ġà®µà®°à®²", "à¤¾à¤¹", "Ġ197", "Ġà®µà®³à®°", "à¤¾à¤°à¤£", "Ġà°¨à°¡à°¿à°ªà°¿à°Ĥà°ļ", "Ġà®µà®Łà®¿à®µ", "à¤¾à¤°à¤¿à¤ķ", "Ġà°¨à°¿à°°à±įà°µà°¹", "Ġà®µà®Łà®ķà¯įà®ķ", "à¤¾à¤ľà¤¿à¤¤", "Ġà°ªà±Ĥ", "Ġà®µà¯ĩà®±à¯ģà®ªà®Łà¯įà®Ł", "à¤¿à¤ª", "Ġà°ªà°Łà±įà°Łà°£", "Ġà®ħà®³à®µ", "à¤¿à¤¨à¥įà¤¤à¥ģ", "Ġà°ªà±įà°°à°®à±ģà°ĸ", "Ġà®ħà®±à®¿à®¯", "à¤¿à¤Ĥà¤§à¥ģ", "Ġà°ªà±įà°°à°¸à±įà°¤à±ģà°¤", "Ġà®Ĩà®±à¯įà®±", "à¤¿à¤ķà¥įà¤·", "Ġà°ªà±įà°°à°¤à°¿à°ª", "Ġà®Ĩà®ķà®¿à®¯à®µà®±à¯įà®±", "à¤Ĥà¤¦", "Ġà°ªà±įà°°à°§à°¾à°¨à°®à°Ĥà°¤à±įà°°", "Ġà®Ĩà®ķà®¿à®¯à®µà¯Ī", "à¤Ĥà¤ª", "Ġà°®à°¾à°¤à±įà°°", "Ġà®Ĩà®Łà¯įà®ļà®¿à®¯", "à¤Ĥà¤Ĺà¥įà¤°à¥ĩà¤ľà¤¼à¥Ģ", "Ġà°®à±Ĭà°¤à±įà°¤à°Ĥ", "Ġà®ĩà®²", "à¤ķà¤¾à¤²", "Ġà°°à°¾à°·à±įà°Łà±įà°°à°ª", "Ġà®ĩà®µà¯Ī", "à¤ķà¥įà¤¤à¤¿", "Ġà°°à±Īà°²à±įà°µ", "Ġà®ĩà®Ł", "à¤ķà¤°à¤£", "Ġà°¶à°¤à°¾à°¬à±įà°¦", "Ġà®ĩà®¨à¯įà®¤à®¿à®¯à®¾à®µà®¿à®²à¯į", "à¤ļà¤²", "Ġà°¶à°¾à°¸à±įà°¤à±įà°°", "Ġà®ĩà®°à®£à¯įà®Ł", "à¤Łà¥ĩ", "Ġà°¸à°°à°¿à°¹à°¦à±įà°¦", "Ġà®ĩà®°à®¾à®ļà¯įà®ļà®¿à®¯", "à¥Ģà¤¸", "Ġà°¸à°°à±įà°µ", "Ġà®īà®±à¯ģà®¤", "à¥Ģà¤ļ", "Ġà°¸à°¾à°Ĥ", "Ġà®īà®°à¯ģà®µà®¾à®©à®¤à¯ģ.", "à¥Ģà¤µà¤¨", "Ġà°¸à°¿à°Ĥà°§", "Ġà®īà®°à¯ģà®µà®¾à®ķ", "à¥ģà¤¸à¥įà¤²à¤¿à¤®", "Ġà°¸à±Įà°ķà°°à±įà°¯", "Ġà®ķà®¾à®Łà¯įà®Ł", "à¥ģà¤¦", "Ġà°¸à±įà°¥", "Ġà®ķà¯Ĥ", "à¥ģà¤¸à¤¾à¤°", "Ġà°¸à±įà°µà°¾à°¤à°Ĥà°¤à±įà°°", "Ġà®ļà®¿à®±", "à¥ĩà¤¦", "Ġà°ħà°¨à±ģ", "Ġà®ļà®®à®µà¯Ĩà®³", "à¥Īà¤¦à¤¿à¤ķ", "Ġà°ħà°Ń", "Ġà®ļà®®à¯Ĥà®ķ", "à¥Įà¤¦à¥įà¤§", "Ġà°ħà°¤à±įà°¯à°§à°¿à°ķ", "Ġà®ļà¯Ĩà®¯à¯įà®¤", "à¥įà¤ªà¤¤à¥įà¤¤à¤¿", "Ġà°īà°Ĥà°Ł", "°à¯Ģà®¤", "à¥įà¤°à¥Ģ", "Ġà°İà°¨à±įà°¨à±ĭ", "à®ŀ", "Ġà¤ĸ", "Ġà°ķà°¾à°°", "à®£à¯įà®", "Ġà¤¤à¥Ģà¤¸", "Ġà°ķà±Ĭ", "à®£à¯įà®£", "Ġà¤¥à¥ĩ", "Ġà°ķà°²à°¿à°Ĺ", "à®¤à®¾à®°", "Ġà¤¦à¥ĩà¤ĸ", "Ġà°ķà°¾à°²à°Ĥà°²à±ĭ", "à®©à¯įà®©à®¿à®¨à¯įà®¤", "Ġà¤¨à¤¿à¤°à¥įà¤®à¤¾à¤£", "Ġà°ķà°¾à°Ĥà°Ĺà±įà°°à±Ĩà°¸à±ģ", "à®ªà¯įà®ªà®¿à®°", "Ġà¤ªà¥įà¤°à¤ķ", "Ġà°ķà±Ĥà°¡à°¾", "à®ªà¯įà®ªà®¿à®°à®¿à®ķà¯įà®ķ", "Ġà¤ªà¥įà¤°à¤ļà¤²", "Ġà°ļà°¿à°¨à±įà°¨", "à®ªà¯įà®ªà®¿à®°à®¿à®ķà¯įà®ķà®¾à®µ", "Ġà¤ªà¥įà¤°à¤Ń", "Ġà°ļà±Īà°¨", "à®®à®¾à®©", "Ġà¤ªà¥įà¤°à¤¾à¤ļà¥Ģà¤¨à¤¤à¤®", "Ġà°ļà±Ĩà°Ĥà°¦", "à®°à¯ģà®Ļ", "Ġà¤¬à¥Ģà¤ļ", "Ġà°ļà±ĩà°¸", "à®°à¯ģà®Ļà¯įà®ķ", "Ġà¤¬à¥Įà¤¦à¥įà¤§", "Ġà°ľà°°à°¿à°Ĺà°¿à°¨", "à®¾à®£à¯ģà®µ", "Ġà¤¬à¤¡à¤¼à¤¾", "Ġà°Ńà°¾à°Ĺ", "à®¾à®®à¯į", "Ġà¤®à¤¾à¤¨à¤µ", "%),", "à®¾à®°à¯į.", "Ġà¤®à¤¾à¤¨à¤¾", "01", "à®¾à®ķà¯ģà®®à¯į.", "Ġà¤®à¤¿à¤²à¤¾", "¢à°¿à°²à±įà°²à±Ģ", "à®¾à®ķà®°à®¿à®ķ", "Ġà¤°à¤ļ", "µà°¾à°®à±įà°¯", "à®¾à®ķà¯įà®ķà®¿à®¤à¯įà®¤", "Ġà¤°à¤¹à¤¾", "¸à±įà°ķ", "à®¾à®ķà¯įà®ķà®¿à®¤à¯įà®¤à®¾à®©à¯į", "Ġà¤°à¤¾à¤ľà¤¨à¥Ģà¤¤à¤¿à¤ķ", "à°£à°Ĥ", "à®¿à®®", "Ġà¤µà¤Ĥà¤¶", "à°¤à±įà°°", "à®¿à®¤à¯įà®¤à®¾à®©", "Ġà¤µà¤°à¥įà¤Ĺ", "à°¤à±įà°¸", "à®¿à®¨à¯įà®¤à¯ģà®", "Ġà¤µà¤¿à¤ľ", "à°¦à°¾", "à®¿à®©à®°", "Ġà¤µà¤¿à¤Ń", "à°¦à±įà°°", "à®¿à®ªà¯į", "Ġà¤µà¥įà¤¯à¤¾à¤ª", "à°¨à±įà°¨à°¿", "à®¿à®¯à®¾à®µà®¿à®²à¯į", "Ġà¤¶à¥ģà¤°à¥Ĥ", "à°ªà°¾à°²", "à®¿à®°à¯ģà®¨à¯įà®¤à¯ģ", "Ġà¤¸à¤¿à¤Ĥà¤§à¥ģ", "à°ªà±Ĥ", "à®¿à®°à¯ģà®¨à¯įà®¤à®¤à¯ģ.", "Ġà¤¸à¤Ĥà¤Ĺ", "à°ªà°¾à°²à°¿à°¤", "à®¿à®±à¯ģà®µ", "Ġà¤¸à¤®à¥įà¤ª", "à°®à±Ī", "à®¿à®²à®¾à®©", "Ġà¤¸à¤¾à¤¥", "à°¯à±ĭ", "à®¿à®ķà®³à¯į", "Ġà¤¸à¤¾à¤®à¥įà¤°à¤¾à¤ľà¥įà¤¯à¥ĭà¤Ĥ", "à°°à°¾à°²à±ģ", "à®ĩà®²à¯į", "Ġà¤¸à¥įà¤µà¤¤à¤Ĥà¤¤à¥įà¤°", "à°°à°¾à°¸", "à®ķà¯įà®ķà®¿", "Ġà¤¹à¥Ī,", "à°°à°¾à°¸à±įà°¯", "à®Ļà¯įà®ķà®³à®¿à®©à¯į", "Ġà¤ħà¤°à¥įà¤¥", "à°°à°¾à°¸à±įà°¯à°¤", "à®Ļà¯įà®ķà¯Īà®ļà¯į", "Ġà¤ħà¤Ĥà¤Ĺà¥įà¤°à¥ĩà¤ľà¤¼à¥Ģ", "à°°à±įà°ķ", "à®Łà®¿à®¯à®¾à®ķ", "Ġà¤ħà¤¨à¥ģà¤¸à¤¾à¤°", "à°°à±įà°Ĺ", "à¯ģà®³à¯įà®³à®©.", "Ġà¤ħà¤¨à¥įà¤¤à¤¤à¤ĥ", "à°°à±įà°ķà±Ĭ", "à¯ģà®ķà®¿à®©à¯įà®±à®©.", "Ġà¤ħà¤ªà¤¨à¥ĩ", "à°²à°¤à±ĭ", "à¯ģà®ķà®³à®¾à®©à®µà¯Ī", "Ġà¤Ĩà¤¦", "à°²à±įà°²à±ĭ", "à¯ģà®ķà®³à¯ģà®ķà¯įà®ķà¯ģ", "Ġà¤Ĩà¤§à¤¾à¤°", "à°¶à±įà°ļ", "à¯ĩà®ļ", "Ġà¤Ĩà¤ķà¤°à¥įà¤®à¤£", "à°¶à±įà°ļà°¿à°®", "à¯ĩà®°à®¤à¯įà®¤à®¿à®²à¯į", "Ġà¤ĩà¤¸à¥įà¤²à¤¾à¤®", "à°·à±įà°£", "à¯Īà®µ", "Ġà¤ĩà¤¸à¤ķà¥ĩ", "à°¾à°³", "à¯Īà®¯à®¾à®©", "Ġà¤ķà¤¿à¤¨à¥įà¤¤à¥ģ", "à°¾à°ļ", "à¯Īà®ķà¯įà®ķà®ªà¯įà®ªà®Łà¯įà®Ł", "Ġà¤ķà¤°à¤¨à¥ĩ", "à°¾à°¤à°¾à°µà°°", "à¯Įà®¤à¯įà®¤", "Ġà¤ķà¤°à¥ĭà¤¡à¤¼", "à°¾à°¤à°¾à°µà°°à°£à°Ĥ", "à¯įà®¯", "Ġà¤ķà¥ģà¤Ľ", "à°¾à°¦à°¨", "à¯įà®ķà¯įà®ķ", "Ġà¤Ĺà¤£", "à°¾à°¦à±ĩà°¶", "à¯įà®ķà®³à®¿à®©à¯į", "Ġà¤ļà¤²", "à°¾à°°à°Ĥ", "à¯įà®ķà®³à®¿à®²à¯į", "Ġà¤Ľà¥ĭà¤¡à¤¼", "à°¾à°²à±ģà°Ĺà°¾", "Ġà¤ľà¤¨", "à°¾à°¸à±įà°µà°¾à°®à±įà°¯", "Ġà¤ľà¤¬", "à°¾à°Łà±ģ", "Ġà¤ľà¥Ģà¤µà¤¨", "à°¿à°¤à±įà°°", "Ġà®°à¯Ģà®¤", "Ġà¤ľà¥Ī", "à°¿à°¦", "Ġà®¹", "Ġà¤ľà¤¾à¤¤à¤¿", "à°¿à°¨à°¿", "Ġà®¤à¯Ĩà®©à¯įà®©à®¿à®¨à¯įà®¤", "Ġà¤Ńà¤¾à¤·", "à°¿à°µà±ĥ", "Ġà®¤à¯Ĩà®±à¯įà®ķà¯ģ", "Ġà¤Ńà¥Ĥà¤®", "à°¿à°µà±ĥà°¦à±įà°§", "Ġà®¤à¯Ĭà®Łà®Ļà¯įà®ķà®¿à®¯à®¤à¯ģ.", "Ġà¥¬", "à°¿à°¸à±įà°¥à°¾à°¨", "Ġà®¨à®¿à®°", "à°Ĥà°ķ", "Ġà®¨à®¿à®±à¯ģà®µ", ".1", "à°Ĥà°ļà°¿", "Ġà®ªà®£à¯įà®Ł", "à°Ĥà°Łà°¾à°°à±ģ.", "Ġà®ªà®¤", "In", "à°ķà±įà°·à°°à°¾à°¸à±įà°¯à°¤", "Ġà®ªà®¾à®ķà¯įà®ķà®¿à®¤à¯įà®¤à®¾à®©à¯į", "à°ĸà°Ĥà°¡", "Ġà®ªà®¿à®©", "Indi", "à°Ĺà°²à±ģ", "Ġà®ªà®¿à®±", "à±Ģà°°à±įà°£", "Ġà®ªà¯Įà®¤à¯įà®¤", "£à¤¿à¤¤", "à±Ģà°¸", "Ġà®ªà®°à®ªà¯įà®ª", "¤à¤®à¤¾à¤¨", "à±Ģà°Ł", "Ġà®ªà®¿à®°à®¿à®¤à¯įà®¤à®¾à®©", "¨à¥¦à¥", "à±ģà°¨", "Ġà®ªà®Łà®¿", "²à¥Ģà¤¨", "à±ģà°²à°ķà±ģ", "Ġà®ªà¯ĩà®°à®°à®ļà¯ģ", "µà¤¾à¤¦", "à±ģà°ķà±ĭà°µà°¡", "Ġà®®à®¾à®±à¯įà®±", "·à¤¾à¤£", "à±Ĩà°¨", "Ġà®®à®©à®¿à®¤", "¹à¤¿à¤¤", "à±ĩ.", "Ġà®®à¯ģà®©à¯įà®©à®°à¯į", "¹à¤¿à¤¤à¥įà¤¯", "à±ĩà°Ĺ", "Ġà®®à¯ĩà®²", "à¤¥", "à±ĩà°Ĺà°Ĥà°Ĺà°¾", "Ġà®µà¯Īà®¤à¯įà®¤", "à¤¥à¤¾", "à±Īà°Ĺà°¾", "Ġà®µà®³à®°à¯įà®ļ", "à¤Ĩ", "à±ĭà°³", "Ġà®µà®¾à®´à¯įà®µ", "à¤ł", "à±įà°¤", "Ġà®ħà®¤à®©à¯į", "à¤£à¤¾à¤²à¥Ģ", "à±įà°ķ", "Ġà®Ĩà®ªà¯įà®ªà®¿à®°à®¿à®ķà¯įà®ķà®¾à®µ", "à¤¤à¤¨", "à±įà°¯à°¾à°¯", "Ġà®Ĩà®£à¯įà®Łà¯ģ", "à¤¦à¥Ģ", "à±įà°°à°¾à°ľ", "Ġà®Ĩà®£à¯įà®Łà¯ģà®ķà®³à¯ģà®ķà¯įà®ķà¯ģ", "à¤¦à¥įà¤¯", "Ġà®ĩà®£", "à¤¦à¥įà¤°", "Ġ199", "Ġà®ĩà®£à¯įà®Ł", "à¤¦à¥įà¤µà¥Ģà¤ª", "Ġà°Ĳ", "Ġà®ĩà®¨à¯įà®¨", "à¤¦à¥įà¤¯à¥ĭà¤Ĺ", "Ġà°ĸ", "Ġà®ĩà®°à¯ģ", "à¤¦à¥įà¤¯à¥ĭà¤Ĺà¤¿à¤ķ", "Ġà°¦à°ķà±įà°·à°¿à°£à°¾à°¨", "Ġà®ĩà®ļ", "à¤¦à¥įà¤¯à¥ĭà¤Ĺà¤¿à¤ķà¥Ģ", "Ġà°¦à±ĩà°¶à°Ĥà°²à±ĭ", "Ġà®ĩà®¨à¯įà®¤à®¿à®¯à®ªà¯į", "à¤§à¤¿", "Ġà°¦à±ĩà°¶à°¾à°²à°²à±ĭ", "Ġà®ĩà®°à®¾à®£à¯ģà®µ", "à¤§à¥Ģà¤°à¥ĩ", "Ġà°¦à±įà°µà±Ģà°ª", "Ġà®īà®£", "à¤¨à¤Ĺ", "Ġà°¨à°Ĺ", "Ġà®īà®²à®ķà®¿à®©à¯į", "à¤¨à¥ĭà¤Ĥ", "Ġà°¨à±įà°¯à°¾à°¯", "Ġà®İà®£à¯įà®£", "à¤¨à¥įà¤¨", "Ġà°ªà°¶à±įà°ļà°¿à°®", "Ġà®Ĵà®©à¯įà®±", "à¤¨à¤Ĺà¤°", "Ġà°ªà°¾à°¤à±įà°°", "Ġà®ĵà®°à¯į", "à¤¬à¥Ģ", "Ġà°ªà±ģ", "Ġà®ķà®£à¯įà®Ł", "à¤®à¤¿à¤²", "Ġà°ªà±Īà°Ĺà°¾", "Ġà®ķà¯ĭ", "à¤®à¥ĩà¤Ĥ", "Ġà°ªà°¾à°ķà°¿à°¸à±įà°¥à°¾à°¨", "Ġà®ķà®¾à®²à®ªà¯į", "à¤¯à¤¨à¤Ĺà¤°", "Ġà°¬à°¹", "Ġà®ķà¯ģà®±à®¿à®ªà¯įà®ªà®¿à®Ł", "à¤¯à¤¾à¤¸", "Ġà°¬à±įà°°à°¿à°Łà°¿à°·", "Ġà®ķà¯Ĭà®£à¯įà®Łà¯ģà®³à¯įà®³à®¤à¯ģ.", "à¤°à¤¬", "Ġà°®à°¹", "Ġà®ļà®¾à®¤", "à¤°à¤¾à¤¨", "Ġà°®à±Ĥà°¡", "Ġà®ļà®¿à®¨à¯įà®¤à¯ģ", "à¤°à¤¾à¤ľà¥įà¤¯", "Ġà°°à±ĭ", "Ġà®ļà®ķ", "à¤°à¥Ģà¤¬à¥Ģ", "Ġà°°à°¹à°¦à°¾à°°à±ģà°²à±ģ,", "Ġà®ļà¯ĩà®°", "à¤°à¥įà¤·à¤¿à¤¤", "Ġà°°à±Īà°³", "Ġà®ļà¯Ĭà®²à¯įà®²", "à¤²à¥Ģ", "Ġà°²à±ĩ", "Ġà®ļà¯Ĩà®¯à¯įà®¯", "à¤²à¥įà¤²", "Ġà°²à±ĭà°ķ", ",5", "à¤µà¥Ģ", "Ġà°µà°¹", "à¤µà¥įà¤¯", "Ġà°µà°¾à°¤à°¾à°µà°°à°£à°Ĥ", "à¤µà¥įà¤¯à¤µà¤¸à¥įà¤¥à¤¾", "Ġà°µà±įà°¯", "li", "à¤¶à¥ĩà¤·", "Ġà°µà°¿à°¶", "à¤·à¤£,", "Ġà°µà°¿à°µà°¿à°§", "à¤¸,", "Ġà°¶à°¤à°¾à°¬à±įà°¦à°Ĥ", "¨à¯įà®¤à®¿à®¯", "à¤¸à¤Ĥà¤", "Ġà°¸à°¾à°°", "¯à®±", "à¤¸à¥įà¤µ", "Ġà°¸à±Ĥ", "à¤¸à¤Ĥà¤ĸ", "Ġà°¸à°°à±įà°µà±Ģà°¸", "¸à¯įà®¤", "à¤¸à¤Ĥà¤ĸà¥įà¤¯", "Ġà°¸à°¾à°®à±įà°°à°¾à°ľ", "à¤¸à¤Ĥà¤ĸà¥įà¤¯à¤¾", "Ġà°¸à°Ĥà°¸à±įà°ķ", "à¤¸à¥įà¤µà¤°à¥Ĥà¤ª", "Ġà°¸à°Ĥà°ķ", "à¤¸à¥įà¤ķà¥ĥà¤¤à¤¿à¤ķ", "Ġà°¸à°Ńà±įà°¯", "à¤¼à¤°à¥Ģà¤¬à¥Ģ", "Ġà°¸à±įà°µà°¤à°Ĥà°¤à±įà°°", "à®ħ", "à¤¾,", "Ġà°ħà°¨à°¿", "à®£à®¿à®ķ", "à¤¾à¤¯", "Ġà°ħà°µ", "à®¤à®±à¯įà®ķ", "à¤¾à¤¯à¤¾", "Ġà°ħà°¨à±ĩà°ķ", "à®¤à®¿à®°", "à¤¾à¤ķ", "Ġà°ħà°Ńà°¿à°µà±ĥà°¦à±įà°§", "à®¤à¯Ī", "à¤¾à¤¤à¤¾à¤°", "Ġà°Ĩà°°à±įà°¥à°¿à°ķ", "à®¤à¯įà®¤à¯ģà®ķà¯įà®ķ", "à¤¾à¤¤à¥įà¤®", "Ġà°īà°Ĥà°¡", "à®¤à¯įà®¤à®¿à®±à¯įà®ķà¯ģ", "à¤¾à¤¨,", "Ġà°İà°ķà±įà°ķà±ģà°µ", "à®¤à¯įà®¤à®¿à®±à¯įà®ķà¯ģà®³à¯į", "à¤¾à¤¨à¥ĭà¤Ĥ", "Ġà°Ĵà°ķà°Ł", "à®¨à¯įà®¤à®¿à®°", "à¤¾à¤®à¤¸à¥įà¤µà¤°à¥Ĥà¤ª", "Ġà°ķà±ģ", "à®©à¯įà®ķ", "à¤¾à¤°,", "Ġà°ķà±ĩà°Ĥà°¦à±įà°°à°ªà°¾à°²à°¿à°¤", "à®©à¯įà®ķà®¿à®´à®ķà¯įà®ķ", "à¤¾à¤²à¥ģà¤ķ", "Ġà°ķà±ĭà°°à±įà°Ł", "à®ªà¯įà®ªà®Ł", "à¤¾à¤²à¥ģà¤ķà¥įà¤¯à¥ĭà¤Ĥ", "Ġà°Ĺà°¾à°Ĥ", "à®®à®¯", "à¤¾à¤µà¥Ģ", "Ġà°Ĺà±ģ", "à®®à®¿à®Ł", "à¤¾à¤¸à¤¾à¤Ĺ", "Ġà°ļà±ĩà°¯", "à®®à¯ĩ", "à¤¾à¤¸à¤¾à¤Ĺà¤°", "Ġà°ľà°¾à°¤à±Ģà°¯", "à®®à¯ĩà®±à¯įà®ķ", "à¤¾à¤Łà¥Ģ", "Ġà°Ńà°¾à°°à°¤à°¦à±ĩà°¶à°¾à°¨à°¿à°ķà°¿", "à®®à¯į,", "à¤¿à¤£à¤¾à¤®à¤¸à¥įà¤µà¤°à¥Ĥà¤ª", ").", "à®°à®¿à®©à¯į", "à¤¿à¤°à¤¾à¤ľà¥įà¤¯", "à®°à¯į,", "à¤¿à¤°à¥ĭ", "à®°à¯įà®¨à¯įà®¤à¯ģ", "à¤¿à¤°à¥ĭà¤§", "5,", "à®°à¯įà®·", "à¤¿à¤²à¥įà¤²", "à®±à¯ģ", "à¤¿à¤²à¥įà¤²à¥Ģ", "§à°¿à°ķ", "à®±à¯įà®±à¯ģà®®", "à¤¿à¤µà¤¾à¤¸", "µà°¤à±įà°¸", "à®±à¯įà®ķà®Ł", "à¤¿à¤ķà¤¾à¤°à¤¿à¤ķ", "¸à±įà°¤", "à®±à¯įà®ķà®Łà®¿à®ķà¯įà®ķà®ªà¯įà®ªà®Łà¯įà®Ł", "à¤Ĥà¤ĺ", "à°ĩ", "à®³à®µà®¿à®²à¯į", "à¤Ĥà¤ľ", "à°¡à°¿", "à®µà®°", "à¤Ĥà¤ªà¤°", "à°¡à±ģ", "à®¾,", "à¤Ĥà¤¬à¥ĩ", "à°¡à±įà°¡à±ģ", "à®¾à®£à¯įà®Łà®¿à®¯", "à¤Ĥà¤Ĺà¤¾à¤²", "à°£à°Ĥà°Ĺà°¾", "à®¾à®ªà¯įà®¤", "à¤Ĥà¤ľà¤¾à¤¬", "à°¦à°Łà°¿", "à®¾à®¯à®¿à®©.", "à¤ķà¤¾à¤°à¥Ģ", "à°§à°¾à°°", "à®¾à®°à®£", "à¤ķà¤¿", "à°§à±Ģ", "à®¾à®±à¯ģ", "à¤ķà¥Ģ", "à°¨à°²à±ĭ", "à®¾à®ķà®¤à¯į", "à¤ķà¥ĭà¤Ĥ", "à°¨à±ģà°ķà°Łà°¿", "à®¿à®©à¯įà®±à®©à®°à¯į.", "à¤ķà¤¾à¤²à¥Ģà¤¨", "à°¨à±įà°¨à°¾à°¯à°¿.", "à®¿à®¯à®¿à®©à¯į", "à¤Ĺà¤§", "à°ªà°°", "à®¿à®¯à®¾à®©à¯įà®®", "à¤Ĺà¥ĭà¤²", "à°ªà°¾", "à®¿à®°à¯ģà®¤", "à¤ľà¤¨", "à°ªà±ģà°ķà±ģ", "à®¿à®°à¯ĩ", "à¥Ģà¤¤", "à°ªà±Ĥ.", "à®¿à®°à¯ģà®¨à¯įà®¤à®¤à¯ģ", "à¥Ģà¤®à¤¾", "à°¬à°¡à°¿à°¨", "à®¿à®°à¯ĩà®ķà¯įà®ķ", "à¥Ģà¤µ,", "à°®à°¿à°Ĥà°ļ", "à®¿à®µà¯ģ", "à¥ģà¤¤à¤¾", "à°®à±Ĭ", "à®ķà¯Ī", "à¥ģà¤·", "à°®à±ģà°¦à±įà°°", "à®ķà¯Īà®®", "à¥ģà¤¨à¤¿à¤ķ", "à°®à±Ĭà°¦à°Łà°¿", "à®Ļà¯įà®ķà®¾à®³", "à¥ģà¤¸à¥įà¤¤à¤¾à¤¨", "à°°à°£", "à®Ļà¯įà®ķà¯ģ", "à¥ģà¤ķà¥įà¤¤", "à°°à°¤", "à®Ļà¯įà®ķà®³à®¤à¯ģ", "à¥Ĥà¤°à¥ĩ", "à°°à°Ĥ", "à®Ļà¯įà®ķà®³à®¾à®©à®µà¯Ī", "à¥Ĥà¤°à¥įà¤£", "à°°à±ĭ", "à®Ļà¯įà®ķà®³à¯ģà®ķà¯įà®ķà¯ģ", "à¥ĥà¤·à¥įà¤Ł", "à°°à°¿à°ķà°¤", "à®Ļà¯įà®ķà®³à¯Ī", "à¥ĩà¤ķà¤°", "à°°à±ģà°ªà±ģà°ķà±ģ", "à®ļà¯ģà®ķ", "à¥ĩà¤Ł", "à°²à°¨à±ģ", "à®ļà¯ģà®ķà®¿à®°à¯ģà®¤", "à¥ĩà¤Ĥà¤¦à¥įà¤°", "à°²à°²à±ĭ", "à®ŀà¯įà®ļ", "à¥ĩà¤ĸà¤¨", "à°²à°ķ", "à®Łà®²", "à¥ĭà¤¨à¥ĩ", "à°µà°²", "à®Łà®¿à®ªà¯įà®ªà®Łà®¿à®¯à®¾à®ķ", "à¥ĭà¤·à¤£,", "à°µà°ļà±įà°ļ", "à¯Ģà®´", "à¥ĭà¤¹", "à°µà±Ĩ", "à¯ģà®ªà¯įà®¤", "à¥ĭà¤Łà¥ĩ", "à°µà±Ĩà°¨à±ģà°ķà°Łà°¿", "à¯ģà®ªà¯įà®ªà®¾à®Łà¯įà®Ł", "à¥ĭà¤²à¥ĭà¤Ĥ", "à°¸à°°", "à¯ģà®ļà¯į", "à¥ĭà¤Ĺà¥ĭà¤Ĥ", "à°¸à±įà°°", "à¯Ĥà®°à¯įà®µ", "à¥Įà¤¦à¥įà¤¯à¥ĭà¤Ĺà¤¿à¤ķà¥Ģ", "à°¸à±įà°¥à°¾à°¨", "à¯ĩà®±à¯ģ", "à¥įà¤ŀ", "à°¸à±įà°²à°¾à°®", "à¯ĩà®±à¯įà®±", "à¥įà¤¤à¥įà¤°", "à°¸à±įà°²à°¾à°®à°¾à°¬à°¾à°¦", "à¯Īà®¤à¯įà®¤à¯ģ", "à¥įà¤¥à¤¾à¤¨", "à°¸à±įà°²à°¾à°®à°¾à°¬à°¾à°¦à±į", "à¯Īà®¯à®¿à®©à¯į", "à¥įà¤°à¤®", "à°¾à°¶", "à¯Īà®ķà®³à¯Ī", "à¥įà¤°à¤¾à¤Ł", "à°¾à°£à°¿à°ľ", "à¯ĭà®ķà¯įà®ķà®¿", "à¥įà¤µà¥ĭà¤Ĥ", "à°¾à°£à°¿à°ľà±įà°¯", "à¯Įà®°à®¿à®¯", "à°¾à°¤à±ĭ", "à¯įà®¨à¯įà®¤à¯ģ", "à°¾à°°à°¾", "à¯įà®ªà®±à¯įà®±", "Ġ12", "à°¾à°°à°¿", "à¯įà®ªà¯įà®ªà¯ģà®±", "Ġ16", "à°¾à°°à°¿à°Ĺà°¾", "à¯įà®®à¯Ī", "Ġ194", "à°¾à°°à°Ĥà°", "à¯įà®ļà®¿à®ķà¯įà®ķ", "à°¾à°°à°Ĥà°Ń", "Ġ21", "à°¾à°²à°¤à±ĭ", "Ġ202", "à°¾à°²à°¨à±ĩ", "Ġà¤¯à¤¾", "à°¾à°²à°¯", "Ġà¤ĭ", "à°¾à°²à°ķà±ģ", "Ġà®Ī", "Ġà¤¤à¤®à¤¿à¤²", "à°¾à°²à±ģ.", "Ġà®ı", "Ġà¤¤à¤Ł", "à°¾à°¸à°¿à°¯à°¾", "Ġà®¤à®®", "Ġà¤¤à¤Łà¥ĭà¤Ĥ", "à°¾à°Ĥà°¡", "Ġà®¤à®²à¯Ī", "Ġà¤¤à¥Ģà¤¸à¤°à¥Ģ", "à°¾à°ĸà±įà°¯", "Ġà®¤à®¾à®ķà¯įà®ķ", "Ġà¤¥à¤¾,", "à°¾à°Ĺà°°à°¿à°ķà°¤", "Ġà®¤à®¿à®°", "Ġà¤¦à¤°", "à°¾à°Ĺà°¾", "Ġà®¤à®Ļà¯įà®ķà®³à®¤à¯ģ", "Ġà¤¦à¤¿à¤²à¥įà¤²à¥Ģ", "à°¾à°ļà±Ģà°¨", "Ġà®¤à¯Ģ", "Ġà¤¦à¥ĥà¤·à¥įà¤Ł", "à°¿à°¡", "Ġà®¤à¯ģà®±", "Ġà¤¦à¥ĩà¤ĸà¤¾", "à°¿à°¦à±įà°", "Ġà®¤à¯ģà®£à¯Īà®ķà¯į", "Ġà¤¦à¥ĭà¤¨à¥ĭà¤Ĥ", "à°¿à°¦à±įà°§", "Ġà®¤à¯Ĩà®©à¯į", "Ġà¤§à¤°à¥įà¤®,", "à°¿à°¨à±Ģ", "Ġà®¤à¯Ĩà®©à¯įà®ķà®¿à®´à®ķà¯įà®ķ", "Ġà¤§à¤°à¥įà¤®à¥ĭà¤Ĥ", "à°¿à°®à°¾à°²à°¯", "Ġà®¤à¯Ĩà®©à¯įà®©à®¿à®¨à¯įà®¤à®¿à®¯à®¾à®µà®¿à®²à¯į", "Ġà¤¨à¤¿à¤µà¤¾à¤¸", "à°¿à°Ĥà°ļà°¿,", "Ġà®¤à¯Ĩà®±à¯įà®ķà®¾à®ļà®¿à®¯à®¾à®µ", "Ġà¤¨à¤¿à¤°à¥įà¤", "à°¿à°Ĥà°ļà±ĩ", "Ġà®¤à¯Ĩà®±à¯įà®ķà¯ĩ", "Ġà¤ªà¤¾à¤°", "à°¿à°ķ,", "Ġà®¤à¯Ĭà®²à¯Ī", "Ġà¤ªà¤¾à¤²", "à°Ĥà°¦à°¿", "Ġà®¤à¯Ĭà®Łà®ķà¯įà®ķà®¤à¯įà®¤à®¿à®²à¯į", "Ġà¤ªà¤Ĥà¤ľà¤¾à¤¬", "à°Ĥà°ªà±Ĩà°¨", "Ġà®¤à¯ĭà®±à¯įà®ķà®Łà®¿à®ķà¯įà®ķà®ªà¯įà®ªà®Łà¯įà®Ł", "Ġà¤ªà¥ģà¤°", "à°Ĥà°¬à±Ĥ", "Ġà®¨à®¾à®ķà®°à®¿à®ķ", "Ġà¤ªà¥Ĥà¤°à¥ĩ", "à°Ĥà°²à±ĭ,", "Ġà®¨à¯ĩà®°à®¤à¯įà®¤à®¿à®²à¯į", "Ġà¤ªà¤°à¤¿à¤£à¤¾à¤®à¤¸à¥įà¤µà¤°à¥Ĥà¤ª", "à°Ĥà°Ĺà±įà°²à°¾à°¦à±ĩà°¶", "Ġà®¨à¯ĭà®ķà¯įà®ķà®¿", "Ġà¤ªà¤°à¤Ĥà¤ªà¤°", "à°Ĥà°Łà°¿", "Ġà®¨à®¿à®°à¯įà®µ", "Ġà¤ªà¤¹à¤²à¥ĩ", "à°ķà°¾à°°à°Ĥ", "Ġà®¨à®¿à®²à¯Ī", "Ġà¤ªà¤¾à¤Ĥ", "à°ķà°¾à°²", "Ġà®¨à®ķà®°à¯įà®ªà¯įà®ªà¯ģà®±", "Ġà¤ªà¤¾à¤Ĥà¤¡", "à°ķà±įà°¤", "Ġà®¨à¯Ģà®£à¯įà®Ł", "Ġà¤ªà¥įà¤°à¤£à¤¾à¤²à¥Ģ", "à°Ĺà±ĭà°³", "Ġà®¨à¯Ģà®Ł", "Ġà¤ªà¥įà¤°à¤¦", "à°ļà±ĩ", "Ġà®ªà®Łà®¿à®ªà¯įà®ªà®Łà®¿à®¯à®¾à®ķ", "Ġà¤ªà¥įà¤°à¤¯à¤¾à¤¸", "à°Łà±įà°²à±ģ", "Ġà®ªà¯ģà®¤", "Ġà¤ªà¥įà¤°à¥Įà¤¦à¥įà¤¯à¥ĭà¤Ĺà¤¿à¤ķà¥Ģ", "à°Łà±įà°Łà°®à±Ĭà°¦à°Łà°¿", "Ġà®ªà¯ģà®¤à¯įà®¤", "Ġà¤ªà¥įà¤°à¤¾à¤°à¤®à¥įà¤Ńà¤¿à¤ķ", "à°Ńà°¾à°°à°¤", "Ġà®ªà®£à¯įà®ªà®¾à®Łà¯ģ", "Ġà¤ªà¥įà¤°à¤ķà¤¾à¤¶", "à±Ģà°·", "Ġà®ªà®£à¯įà®ªà®¾à®Łà¯įà®Łà®¿à®²à¯į", "Ġà¤ªà¥įà¤°à¤ļà¤²à¤¿à¤¤", "à±ģà°Ĺ", "Ġà®ªà®£à¯įà®Łà¯Īà®ķà¯į", "Ġà¤ªà¥įà¤°à¤Ńà¤¾à¤µ", "à±ģà°¤à±ģà°¨à±įà°¨", "Ġà®ªà®°à®µà®²", "Ġà¤«à¤¼", "à±ģà°²à°¨à±ģ", "Ġà®ªà®²à¯įà®µà¯ĩà®±à¯ģ", "Ġà¤¬à¤¾à¤¦", "à±ģà°ķà±Ĭ", "Ġà®ªà®¿à®°à®¿à®ķà¯įà®ķà®ªà¯įà®ªà®Łà¯įà®Ł", "Ġà¤¬à¤¾à¤°", "à±ģà°ķà±ģà°Ĥà°Ł", "Ġà®ªà®¿à®°à®¿à®¤à¯įà®¤à®¾à®©à®¿à®¯", "Ġà¤¬à¤¾à¤²", "à±Ĥà°Ł", "Ġà®ªà®ķà¯ģà®¤à®¿", "Ġà¤¬à¤¾à¤Ĥ", "à±ĥà°¤", "Ġà®ªà¯Ĩà®°à¯ģà®Ļà¯įà®ķ", "Ġà¤¬à¤Ĥà¤Ĺà¤¾à¤²", "à±Ĩà°²à±ģ", "Ġà®®à®¿à®¯à®¾à®©à¯įà®®", "Ġà¤¬à¤¢à¤¼à¤¤à¥Ģ", "à±Ĩà°Ł", "Ġà®®à¯ģà®ķà¯įà®ķà®¿à®¯", "Ġà¤¬à¤¨à¤¾à¤Ī", "à±ĩà°²", "Ġà®®à¯ģà®Ł", "Ġà¤®à¤¤", "à±ĩà°µ", "Ġà®®à¯Ĥ", "Ġà¤®à¤¨", "à±ĩà°ľ", "Ġà®®à¯Įà®°à®¿à®¯", "Ġà¤®à¤Ĺà¤§", "à±Īà°¦", "Ġà®®à¯ģà®¯à®±", "Ġà¤®à¥ģà¤¸à¥įà¤²à¤¿à¤®", "à±Ĭà°Ĥà°¦", "Ġà®®à¯ĩà®±à¯įà®ķà¯ģ", "Ġà¤®à¥įà¤¯", "à±ĭà°¦", "Ġà®®à¯Ĭà®´à®¿", "Ġà¤®à¤§à¥įà¤¯à¤ķà¤¾à¤²à¥Ģà¤¨", "à±įà°Ĺ", "Ġà®µà®£à®¿à®ķ", "Ġà¤®à¤¹à¤¾à¤¸à¤¾à¤Ĺà¤°", "à±įà°°à±Ģ.", "Ġà®µà®¿à®Ł", "Ġà¤®à¥Īà¤¦à¤¾à¤¨à¥ĭà¤Ĥ", "à±įà°²à±ģ", "Ġà®µà®¿à®Łà¯įà®Ł", "Ġà¤°à¤¾à¤ľà¤¾à¤ĵà¤Ĥ", "à±įâĢĮà°¸", "Ġà®µà®Ļà¯įà®ķà®¾à®³", "Ġà¤²à¤Ĥà¤¬à¥ĩ", "Ġà®µà®°à¯ģà®®à¯į", "Ġà¤²à¥ĩà¤ķà¤°", "Ġ(à°µà±Ĩà°¨à±ģà°ķà°Łà°¿", "Ġà®µà®°à®²à®¾à®±à¯įà®±", "Ġà¤²à¥ĭà¤Ĺà¥ĭà¤Ĥ", "Ġ18", "Ġà®µà®´à®¿", "Ġà¤²à¤Ĺà¤¾à¤¤à¤¾à¤°", "Ġ1947", "Ġà®µà®¿à®°à®¿à®µà®Łà¯Īà®¯", "Ġà¤µà¤¨", "Ġ26", "Ġà®µà®Łà®®à¯ĩà®±à¯įà®ķ", "Ġà¤µà¤¾à¤²à¥Ģ", "Ġà°¤à°¨", "Ġà®µà®Łà®¿à®µà®Ļà¯įà®ķà®³à®¿à®²à¯į", "Ġà¤µà¤¿à¤°à¥ĭà¤§", "Ġà°¦à°ķà±įà°·à°¿à°£à°¾à°¸à°¿à°¯à°¾", "Ġà®µà®Łà®ķà¯įà®ķà¯ģ", "Ġà¤µà¤¿à¤ķ", "Ġà°¦à±ĩà°¶à°Ĥà°Ĺà°¾", "Ġà®¹à®¿à®¨à¯įà®¤à¯ģà®", "Ġà¤µà¥Īà¤¦à¤¿à¤ķ", "Ġà°¦à±įà°µà°¾à°°à°¾", "Ġà®ħà®µà®°à¯įà®ķà®³à¯į", "Ġà¤µà¤°à¥įà¤£à¤¿à¤¤", "Ġà°¨à°¾à°Ĺà°°à°¿à°ķà°¤", "Ġà®ħà®Łà¯Īà®¨à¯įà®¤", "Ġà¤µà¤°à¥įà¤¤à¤®à¤¾à¤¨", "Ġà°¨à°¿à°¯", "Ġà®ħà®®à¯Īà®ªà¯įà®ªà®¾à®©à®¤à¯ģ", "Ġà¤µà¤¿à¤µà¤¾à¤¦", "Ġà°¨à°¿à°°à±įà°µà°¹à°£", "Ġà®ħà®®à¯Īà®ªà¯įà®ªà¯ģ", "Ġà¤µà¤¿à¤¶à¥ĩà¤·", "Ġà°¨à±ģà°Ĥà°¡à°¿", "Ġà®ħà®®à¯Īà®ªà¯įà®ªà¯Ī", "Ġà¤µà¤¿à¤¶à¥įà¤µ", "Ġà°¨à±ģà°Ĥà°ļà°¿", "Ġà®ħà®°à®ļà®¿à®¯à®²à¯į", "Ġà¤µà¤¿à¤ľà¤¯à¤¨à¤Ĺà¤°", "Ġà°ªà°¦", "Ġà®ħà®°à®ļà¯ģ", "Ġà¤µà¤¿à¤Ńà¤¾à¤ľà¤¿à¤¤", "Ġà°ªà°Ĥà°¡à±ģ", "Ġà®Ĩà®¤à®¾à®°", "Ġà¤µà¥įà¤¯à¤µà¤¸à¥įà¤¥à¤¾", "Ġà°ªà±Ĩà°¦à±įà°¦", "Ġà®Ĩà®©à®¾à®²à¯į", "Ġà¤¶à¤¿à¤ķà¥įà¤·", "Ġà°ªà°¾à°ķà°¿à°¸à±įà°¤", "Ġà®Ĩà®¯", "Ġà¤¶à¥įà¤°à¥Ģ", "Ġà°ªà±ĩà°°à±įà°ķà±Ĭ", "Ġà®Ĩà®ļ", "Ġà¤¶à¤¹à¤°à¥ĭà¤Ĥ", "Ġà°ªà±įà°°à°¾à°°à°Ĥà°Ń", "Ġà®Ĩà®£à¯įà®Łà®¿à®²à¯į", "Ġà¤¶à¤¹à¤°à¥Ģà¤ķà¤°à¤£", "Ġà°ªà±įà°°à°¾à°ļà±Ģà°¨", "Ġà®Ĩà®ªà¯įà®ªà®¿à®°à®¿à®ķà¯įà®ķà®¾à®µà®¿à®²à¯į", "Ġà¤¸à¤¤à¤°", "Ġà°ªà±įà°°à°¤à°¿à°ªà°¾à°¦à°¨", "Ġà®Ĩà®ķà¯ģà®®à¯į.", "Ġà¤¸à¤¹", "Ġà°ªà±įà°°à°§à°¾à°¨à°®à°Ĥà°¤à±įà°°à°¿", "Ġà®ĩà®ªà¯įà®ª", "Ġà¤¸à¤Ĥà¤ĺ", "Ġà°ªà±įà°°à°¸à±įà°¤à±ģà°¤à°Ĥ", "Ġà®ĩà®¯à®ķà¯įà®ķ", "Ġà¤¸à¥Ģà¤®à¤¾", "Ġà°ªà±įà°°à°ľà°¾à°¸à±įà°µà°¾à°®à±įà°¯", "Ġà®ĩà®ķà¯įà®ķà®¾à®²à®¤à¯įà®¤à®¿à®©à¯į", "Ġà¤¸à¤®à¥įà¤°à¤¾à¤Ł", "Ġà°¬à°Ĥà°Ĺà±įà°²à°¾à°¦à±ĩà°¶", "Ġà®īà®Łà¯Īà®¯", "Ġà¤¸à¤¾à¤¹à¤¿à¤¤à¥įà¤¯", "Ġà°®à°¨", "Ġà®īà®¯à®°à¯įà®¨à¯įà®¤", "Ġà¤¸à¤¾à¤Ĥ", "Ġà°®à°Ĥà°¤à±įà°°", "Ġà®īà®¯à®¿à®°", "Ġà¤¸à¤¾à¤Ĥà¤¸à¥įà¤ķà¥ĥà¤¤à¤¿à¤ķ", "Ġà°®à°Ĥà°¦à°¿", "Ġà®īà®°à¯ģà®µà®¾à®¯à®¿à®©.", "Ġà¤¸à¤Ĥà¤Ĺà¤®", "Ġà°®à°¾à°¤à±įà°°à°Ĥ", "Ġà®īà®°à¯ģà®µà®¾à®ķà®¿à®¯à®¤à¯ģ.", "Ġà¤¸à¤Ńà¥Ģ", "Ġà°®à±ģà°Ĥà°¬", "Ġà®īà®³à¯įà®³à®¤à¯ģ.", "Ġà¤¸à¥ĩà¤¨à¤¾", "Ġà°®à±Ĥà°¡à±ģ", "Ġà®īà®³à¯įà®³à®Ł", "Ġà¤¸à¥įà¤¥à¤¾à¤¨", "Ġà°®à±Ĭà°Łà±įà°Łà°®à±Ĭà°¦à°Łà°¿", "Ġà®İà®¤à®¿à®°", "Ġà¤¸à¥įà¤¥à¤¾à¤ªà¤¿à¤¤", "Ġà°®à±Ĭà°¦à°²", "Ġà®İà®©", "Ġà¤¹à¤¿à¤¨à¥įà¤¦à¥ģà¤¸à¥įà¤¤à¤¾à¤¨", "Ġà°®à±Ĭà°¦à°Łà°¿", "Ġà®İà®²à¯įà®²", "Ġà¤¹à¥ģà¤ı,", "Ġà°°à°Ĥà°Ĺ", "Ġà®İà®©à¯įà®ªà®¤à¯ģ", "Ġà¤ħà¤¤à¥įà¤¯", "Ġà°°à±Ĥà°ª", "Ġà®Ĵà®©à¯įà®±à®¿à®£", "Ġà¤ħà¤«", "Ġà°°à°¾à°·à±įà°Łà±įà°°à°ªà°¤à°¿", "Ġà®ķà®¾à®°à®£", "Ġà¤ħà¤°à¤¬", "Ġà°°à°¾à°ľà±įà°¯à°¾à°Ĥà°Ĺ", "Ġà®ķà®¿à®°à¯ĩà®ķà¯įà®ķ", "Ġà¤ħà¤§à¤¿à¤°à¤¾à¤ľà¥įà¤¯", "Ġà°°à±Ĩà°Ĥà°¡à±ģ", "Ġà®ķà®Ļà¯įà®ķà¯Īà®ļà¯į", "Ġà¤ħà¤°à¥įà¤¥à¤µà¥įà¤¯à¤µà¤¸à¥įà¤¥à¤¾", "Ġà°°à±Īà°²à±įà°µà±ĩ", "Ġà®ķà®Ł", "Ġà¤ħà¤µà¤§à¤¿", "Ġà°°à±Īà°³à±įà°²à°¨à±ģ", "Ġà®ķà¯ģà®ªà¯įà®¤", "Ġà¤ħà¤µà¤¶à¥ĩà¤·", "Ġà°°à±ĭà°¡à±įà°¡à±ģ", "Ġà®ķà®¾à®²à®¤à¯įà®¤à®¿à®²à¯į", "Ġà¤Ĩà¤¤à¥ĩ", "Ġà°²à°ķà±įà°·", "Ġà®ķà®¿à®´à®ķà¯įà®ķà¯ĩ", "Ġà¤Ĩà¤¦à¤°à¥įà¤¶", "Ġà°²à±ĩà°¦à°¾", "Ġà®ķà®Łà¯įà®Łà®Ł", "Ġà¤Ĩà¤§à¥ģà¤¨à¤¿à¤ķ", "Ġà°µà°¾à°£à°¿à°ľà±įà°¯", "Ġà®ķà®Łà¯įà®Łà¯ģà®ªà¯įà®ªà®¾à®Łà¯įà®Ł", "Ġà¤Ĩà¤§à¤¾à¤°à¤¿à¤¤", "Ġà°µà°Ĥà°Łà°¿", "Ġà®ķà¯ģà®±à®¿à®ķà¯įà®ķà®ªà¯į", "Ġà¤Ĩà¤ķà¤°à¥įà¤·à¤¿à¤¤", "Ġà°µà±ĩà°Ĺà°Ĥà°Ĺà°¾", "Ġà®ķà¯ģà®Łà¯ģà®®à¯įà®ª", "Ġà¤Ĩà¤Ĺà¤®à¤¨", "Ġà°µà°¿à°§", "Ġà®ķà¯Ĭà®£à¯įà®Łà¯ģ", "Ġà¤Ĩà¤Ĺà¥ĩ", "Ġà°µà°¿à°¸à±įà°¤", "Ġà®ļà®¿à®²", "Ġà¤ĩà¤¨", "Ġà°µà°¿à°Ń", "Ġà®ļà®®à®ļà¯ģà®ķà®¿à®°à¯ģà®¤", "Ġà¤īà¤¸", "Ġà°µà°ļà±įà°ļà°¿à°¨", "Ġà®ļà®®à®¯à®ªà¯į", "Ġà¤īà¤¸à¥ĩ", "Ġà°¶à±įà°°à±Ģ", "Ġà®ļà®®à®¯à®Ļà¯įà®ķà®³", "Ġà¤īà¤¤à¥įà¤ª", "Ġà°¶à°¾à°¸à±įà°¤à±įà°°à°Ĥ,", "Ġà®ļà®¾à®¤à®¿", "Ġà¤īà¤¨à¤ķà¤¾", "Ġà°¸à°¹", "Ġà®ļà®¿à®±à®¿à®¯", "Ġà¤īà¤¨à¤ķà¥ĩ", "Ġà°¸à±ģ", "Ġà®ļà®ķà®¾à®ªà¯įà®¤", "Ġà¤īà¤¨à¥įà¤¹à¥ĩà¤Ĥ", "Ġà°¸à°®à°¾à°ĸà±įà°¯", "))", "Ġà¤ıà¤µ", "Ġà°¸à°°à±įà°µà±Ģà°¸à±ģà°²à±ģ", "Ġà¤ķà¤²", "Ġà°¸à°¾à°®à±įà°°à°¾à°ľà±įà°¯", ",200", "Ġà¤ķà¤¾à¤°à¤£", "Ġà°¸à°¿à°Ĥà°§à±ģ", ",500", "Ġà¤ķà¤Ī", "Ġà°¸à°Ĥà°µà°¤à±įà°¸", "Ġà¤ķà¥ĥà¤·", "Ġà°¸à°Ĥà°ķà±Ģà°°à±įà°£", "Ġà¤ķà¥ĩà¤Ĥà¤¦à¥įà¤°", "Ġà°¸à±Ĥà°ļ", "02", "Ġà¤ķà¤¿à¤¯à¤¾,", "Ġà°¸à±įà°µà°¾à°¤à°Ĥà°¤à±įà°°à±įà°¯", "1,", "Ġà¤ķà¥ģà¤²à¥Ģà¤¨", "Ġà°¹à°¿à°®à°¾à°²à°¯", "Ġà¤Ĺà¤¼à¤°à¥Ģà¤¬à¥Ģ", "Ġà°ħà°¹", "Ġà¤Ĺà¤ı", "Ġà°ħà°¤à°¿", "Ġà¤Ĺà¤£à¤°à¤¾à¤ľà¥įà¤¯", "Ġà°ħà°Ńà°¿à°µà±ĥà°¦à±įà°§à°¿", "Ġà¤ĺà¤¾à¤Łà¥Ģ", "Ġà°Ĩà°§à°¾à°°", "India)", "Ġà¤ļà¤°", "Ġà°Ĩà°ķà±įà°°à°®", "Ġà¤ļà¤¾à¤²à¥ģà¤ķà¥įà¤¯à¥ĭà¤Ĥ", "Ġà°Ĩà°°à±įà°§à°¿à°ķ", "Ġà¤ļà¥Ģà¤¨", "Ġà°ĩà°¸à±įà°²à°¾à°®à°¾à°¬à°¾à°¦à±į", "Ġà¤ļà¤²à¤¨à¥ĩ", "Ġà°ĩà°Ĥà°¡à°¿à°¯à°¾", "en))", "Ġà¤Ľà¥ĭà¤¡à¤¼à¤ķà¤°", "Ġà°īà°ªà°ĸà°Ĥà°¡", "list", "Ġà¤ľà¤¾", "Ġà°İà°¨à±įà°¨à°¿à°ķ", "listen))", "Ġà¤ľà¤¨à¤¸à¤Ĥà¤ĸà¥įà¤¯à¤¾", "Ġà°ıà°°à±įà°ªà°¡", "¨à¯įà®¤à¯ģ,", "Ġà¤ľà¤¿à¤¨à¥įà¤¹", "Ġà°ıà°°à±įà°ªà°¡à±įà°¡", "¸à¯į", "Ġà¤ľà¤¿à¤¨à¥įà¤¹à¥ĩà¤Ĥ", "Ġà°ķà°¿à°Ĥà°¦", "¸à¯įà®¤à®¾à®©à¯į", "Ġà¤ľà¤¿à¤¸à¤ķà¤¾", "Ġà°ķà°Ĥà°ªà±Ĩà°¨", "Ġà¤ľà¥Īà¤¨", "Ġà°ķà±ģà°²", "Î¯", "Ġà¤Ńà¤ķà¥įà¤¤à¤¿", "Ġà°ķà±įà°°à±Ģ.", "à®¸à¯į", "Ġà¤Ńà¤¾à¤·à¤¾", "Ġà°ķà°²à°¿à°¸", "à®Ĳ", "Ġà¤Ńà¥Ĥà¤®à¤¿", "Ġà°ķà°²à±įà°ª", "à®£à¯ģ", "Ġà¥§à¥¨à¥¦à¥", "Ġà°ķà°²à°¿à°Ĺà°¿", "à®¤à®©", "Ġà¥¬à¥¦à¥", "Ġà°ķà°¾à°°à±įà°¯", "à®¤à®©à¯į", "\"à¤", "Ġà°ķà±Ĥà°¡à±ģà°ķà±ģ", "à®¤à®µ", "\"à¤ĩ", "Ġà°ķà±Ĭà°¨à±įà°¨à°¿", "à®¤à®¾à®ķ", "\"à¤ĩà¤Ĥà¤¡", "Ġà°ķà±ĭà°²", "à®¤à¯Ĥ", "\"à¤ĩà¤Ĥà¤¡à¤¸", "Ġà°Ĺà°£", "à®¤à®µà®°à¯įà®·", "\"à¤ĩà¤Ĥà¤¡à¤¸\"", "Ġà°Ĺà°¾à°Ĥà°§à±Ģ", "à®¤à®¿à®²à®¿à®°à¯ģà®¨à¯įà®¤à¯ģ", ",2", "Ġà°Ĺà±ģà°°à±įà°¤", "à®¤à®¿à®²à¯ģà®®à¯į", ",4", "Ġà°ļà±ĩà°¸à°¿à°Ĥà°¦à°¿.", "à®¤à®¿à®²à¯ģà®ķà¯įà®ķà¯ģ", "Ġà°ľà°°à±ģà°ªà±ģà°ķà±ģ", "à®¤à¯Ĥà®°", "Ġà°ľà°Ĥà°¬à±Ĥ", "à®¤à¯įà®¤à®¿à®©à®°", ",49", "Ġà°Ńà±Į", "à®¤à¯įà®¤à®ķà¯įà®ķ", ",498", "Ġà°Ńà°¾à°°à°¤à±į", "à®¤à¯įà®¤à¯Ģ", ",498,", "Ġà°Ńà°¾à°°à°¤à°¦à±ĩà°¶à°ªà±ģ", "à®¤à¯įà®¤à¯ģà®µ", ".0", "Ġà°Ńà°¾à°·à°²à±ģ", "à®¤à¯įà®¤à¯ģà®ķà¯įà®ķà¯ģ", ".4%", "Łà±į", "à®¤à¯įà®¤à¯ģà®µà®¤à¯įà®¤à¯Ī", "\",", "à®¤à¯įà®¤à¯ģà®µà®¤à¯įà®¤à¯Īà®ªà¯į", ".7", "%,", "à®¤à¯įà®¤à¯ģà®ķà¯įà®ķà¯ģà®³à¯į", ".04%", ".3", "à®¤à¯įà®¤à¯Īà®ķà¯į", "à®¨à®¾à®¯", ".76", "0%", "à®¨à®¾à®¯à®ķ", "0%),", "à®¨à¯įà®¤à®¤à¯ģ", "0.76", "à®¨à¯įà®¤à®¿à®¯à®¾", "1,498,", "004", "à®©à®¨à®¾à®¯à®ķ", "11", "2,", "à®©à¯ĩà®ļ", "18", "3,", "à®©à¯Īà®¤à¯įà®¤à¯ģ", "180", "4%,", "à®©à¯ĩà®ļà®¿à®¯à®¾à®µ", "24", "42", "à®ªà¯įà®ªà®¿à®¯", "21.1", "62", "à®ªà¯įà®ªà¯Ģ", "2150", "¡à±ģ", "à®ªà¯įà®ªà®Łà¯ģà®ķà®¿à®©à¯įà®±à®©.", "2150,", "¢à°¾à°ķ", "à®ªà¯įà®ªà®Łà¯įà®Łà¯ģ", "2450", "¢à°¾à°ķà°¾", "à®ªà¯įà®ªà®Łà¯įà®Łà¯ģà®³à¯įà®³à®¤à¯ģ.", "4.04%", "¢à°¿à°²à±įà°²à±Ģ,", "à®ªà¯įà®ªà¯Ģà®Łà¯įà®Ł", "40.76", "¥à±įà°¯à°Ĥ", "à®ªà¯įà®ªà¯Ģà®Łà¯įà®Łà®³à®µà®¿à®²à¯į", "ªà°¾à°²", "à®®à®¾à®©à®¤à¯ģ.", "51", "ªà°¾à°²à±į,", "à®®à®¾à®ķà¯įà®ķ", "55,000", "«à°²", "à®®à¯Īà®ªà¯įà®ª", "6.1", "®à°¾à°¨", "à®®à®¯à®®à®¾à®ķà¯įà®ķ", "600", "¸à±Ģ", "à®®à®¯à®®à®¾à®ķà¯įà®ķà®²", "à°¢à°¿à°²à±įà°²à±Ģ", "à®®à®¾à®ķà®¤à¯į", "9000", "à°«", "à®°à®¾à®²à¯į", "à°·à±įà°Ł", "à®°à¯ģà®¤", "à°Ĩ", "à®°à¯ģà®¤à¯įà®¤", "Re", "à°ĺ", "à®°à¯ĩ", "Rep", "à°ł", "à®°à¯ĭ", "Repu", "à°£à±ģà°²à±ģ", "à®°à¯įà®ķà®³à¯į,", "Repub", "à°¤à°¨à±ģ", "à®±à¯Īà®¯", "Republ", "à°¤à°¾", "à®±à¯įà®ªà®¤à¯įà®¤", "Republi", "à°¤à°¾à°°à±ģ.", "à®±à¯įà®ªà¯ĭ", "Republic", "à°¤à°¿,", "à®±à¯įà®ªà¯ĭà®¤à¯ģ", "of", "à°¤à°¿à°¨à°¿", "à®±à¯įà®ķà®¾à®²", "¡à¤¿à¤¯à¤¾", "à°¤à±įà°°à°¿à°ķ", "à®²à®µ", "¡à¤¼à¤¿à¤¯à¤¾", "à°¤à±įà°µà°Ĥà°²à±ĭ", "à®²à®¾à®¯", "¡à¤¼à¥Ģ", "à°¦à°¾à°¯", "à®²à®¾à®¯à®ªà¯į", "¡à¤¼à¥ĩ", "à°¦à°Ĺà°¾", "à®²à¯įà®²à®µà®°à¯įà®ķà®³", "¡à¤¿à¤¯à¤¾)", "à°¨à°¦à°¿", "à®³à®¾à®£", "£à¥ģà¤¤à¤¾", "à°¨à°¨", "à®³à®µà¯ģ", "¤,", "à°¨à°¾à°²à±ģ", "à®´à¯ģà®¤à¯įà®¤", "¥,", "à°¨à°¿à°ľ", "à®´à¯įà®¨à¯įà®¤", "¥à¤¿", "à°¨à°ķ", "à®µà®©", "¦à¥ĩ", "à°¨à°¿à°ľà°¾à°²à±ģ", "à®µà®°à¯į", "¦à¥ĩà¤ķ", "à°¨à±ģà°®", "à®µà®¿à®°", "§à¤¾à¤°à¤£", "à°¨à±ģà°²à±ģ,", "à®µà¯ģà®®à¯į", "§à¤¿à¤ķ", "à°¨à±įà°¨à±Ī", "à®µà¯ĭ", "§à¤¿à¤ķà¤¾à¤°à¥Ģ", "à°ªà°¡", "à®µà¯įà®µ", "ªà¥", "à°ªà±ģà°¤", "à®µà®¿à®°à¯įà®¤à¯įà®¤", "ªà¥Ń", "à°ªà±įà°°", "à®µà®¿à®°à¯įà®¤à¯įà®¤à¯ģ", "«à¤¼à¥Ģ", "à°ªà±įà°ªà°Łà°¿à°ķà°¿à°¨à±Ģ", "à®¾à®¨à¯įà®¤à®¿à®¯", "«à¤¾à¤", "à°ªà±įà°ªà°Łà°¿à°ķà±Ģ,", "à®¾à®¨à¯įà®¤à¯ģ,", "«à¥", "à°¬à°¡à°¤à°¾à°°à±ģ.", "à®¾à®¤à¯ģà®ķ", "«à¤¾à¤ı", "à°®à°¾à°°à±ģ", "à®¾à®¤à¯ģà®ķà®¾à®ķà¯įà®ķ", "«à¤¾à¤ıà¤", "à°®à±Ģà°Ł", "à®¾à®©à¯įà®®à¯Īà®¯", "«à¤¾à¤ıà¤ģ", "à°®à±ģ.", "à®¾à®©à¯įà®®à¯Īà®¯à®¾à®ķà®ķà¯į", "«à¥®", "à°®à±Ĥ", "à®¾à®ªà¯į", "®à¥", "à°®à±Ĩ", "à®¾à®®à¯į,", "®à¥Ģ", "à°®à±įà°®", "à®¾à®¯à¯įà®²", "®à¥«à¥®", "à°®à±Ģà°Łà°°à±įà°²", "à®¾à®¯à¯įà®²à®¾à®¨à¯įà®¤à¯ģ,", "®à¥Ģà¤°", "à°®à±Ģà°Łà°°à±įà°²à°ķà±ģ", "à®¾à®°à®¾à®¤", "¯à¤¤à¤¨", "à°®à±ģà°¦à±įà°°à°Ĥ,", "à®¾à®²à®¾à®©", "¯à¤¾à¤¯", "à°¯à°¾à°²à±ģ", "à®¾à®²à¯ģà®®à¯į", "¯à¤¤à¤¨à¤¾à¤®", "à°¯à°¿à°Ĥà°¦à°¿.", "à®¾à®³à®°à¯įà®ķà®³à¯į", "¯à¤¤à¤¨à¤¾à¤®,", "à°¯à±ĭà°Ĺ", "à®¾à®³à¯ģà®ķà¯įà®ķà®¿à®¯", "¯à¤¾à¤¯à¤¿à¤", "à°¯à±ĭà°ľ", "à®¾à®µà®¤à¯ģ", "¯à¤¾à¤¯à¤¿à¤ĵ", "à°¯à±ĭà°Ĺà°¿à°¸à±įà°¤", "à®¾à®µà®¿à®Ł", "¯à¤¾à¤¯à¤¿à¤ĵà¤Ĥ", "à°°à°®à±ĩ", "à®¾à®ķà®ªà¯į", "²à¤¨à¤¾", "à°°à°²à±ĭ", "à®¾à®ķà®µà¯ģà®®à¯į", "·à¥įà¤", "à°°à°¾à°¬à°¾à°¦", "à®¾à®Łà®²", "·à¥įà¤£à¥ģà¤¤à¤¾", "à°°à°¿", "à®¾à®Łà¯ģà®ķà®³", "¸à¥ĭà¤Ĥ", "à°°à±ĩà°", "à®¾à®Łà¯ģà®ķà®³à¯į", "à¤¯à¤¾", "à°°à±į", "à®¾à®Łà¯įà®ļà®¿", "à¤ĸ", "à°°à±į,", "à®¾à®Łà¯įà®Łà®¿à®©à¯į", "à¤ĺ", "à°°à°¿à°¤à±įà°°", "à®¿à®ļ", "à¤Ľ", "à°°à±ģà°·", "à®¿à®£à®¾à®®", "à¤¡à¤¿à¤¯à¤¾", "à°°à±ĭà°ªà°¾", "à®¿à®¤à¯į", "à¤¡à¤¼à¤ª", "à°°à±įà°¥à±įà°¯à°Ĥ", "à®¿à®¤à¯įà®¤à®¤à¯ģ.", "à¤¡à¤¼à¤¾", "à°°à±įà°ļ", "à®¿à®¨à¯įà®¤à¯ģà®µ", "à¤¡à¤¼à¥ĩà¤Ĥ", "à°°à±įà°ľ", "à®¿à®¨à¯įà®¤à¯Īà®¯", "à¤¡à¤¼à¥ĭ", "à°°à±įà°²à±ģ", "à®¿à®¨à¯įà®¤à¯ģà®µà¯Ĩà®³", "à¤¡à¤¼à¤ªà¥įà¤ª", "à°°à±įà°µà°¾à°¤", "à®¿à®¨à¯įà®¤à¯ģà®µà¯Ĩà®³à®¿", "à¤¡à¤¼à¤ªà¥įà¤ªà¤¾,", "à°°à±įà°·à°£", "à®¿à®©à®ªà¯į", "à¤¡à¤¼à¥ĭ,", "à°²à°¨", "à®¿à®©à®°à¯į", "à¤¡à¤¿à¤¯à¤¾,", "à°²à°¸", "à®¿à®©à¯Īà®ªà¯į", "à¤£:", "à°²à°¾à°¹", "à®¿à®ªà¯įà®ªà®Łà¯ģà®¤à¯įà®¤", "à¤£à¥įà¤", "à°²à°Ĥ", "à®¿à®¯à®ªà¯į", "à¤£à¥įà¤¡à¤¿à¤¯à¤¾)", "à°²à°Ĥà°ķ", "à®¿à®¯à®±", "à¤¤)", "à°²à±į", "à®¿à®¯à¯ģà®Łà®©à¯į", "à¤¤à¤¿à¤¯", "à°²à°¤à±ĭ,", "à®¿à®¯à®²à¯į,", "à¤¤à¥ĥà¤¤", "à°²à°¾à°¹à±ĭà°°", "à®¿à®¯à®¾,", "à¤¤à¥įà¤ªà¤¤à¥įà¤¤à¤¿", "à°²à°ķà±įà°Ł", "à®¿à®°à®¾à®¤", "à¤¤à¥įà¤µ", "à°²à°ķà±įà°Łà±ĭà°°", "à®¿à®°à¯ģà®ķà¯įà®ķ", "à¤¤à¤°à¤¿à¤ķ", "à°²à°ķà±įà°Łà±ĭà°°à°²à±į", "à®¿à®°à¯įà®¨à¯įà®¤à¯ģ", "à¤¤à¤¾,", "à°³à°¿,", "à®¿à®°à¯įà®ķà®³à¯į", "à¤¤à¤¿à¤¯à¤¾à¤ģ", "à°µà°°à°¿", "à®¿à®²à¯įà®²", "à¤¤à¥ĥà¤¤à¥įà¤µ", "à°µà±ģà°²à±ģ,", "à®¿à®µà®ļ", "à¤¤à¥įà¤°à¥Ģ", "à°µà±ĩà°°", "à®¿à®µà®ļà®¾à®¯", "à¤¤à¥įà¤°à¥Ģà¤ķà¤°à¤£", "à°µà±įà°¯à°µà°¸à±įà°¥", "à®¿à®ķà¯įà®ķà®ªà¯įà®ªà®Łà¯ģà®ķà®¿à®±à®¤à¯ģ.", "à¤¤à¥įà¤µà¤ª", "à°µà°ļà±įà°ļà±ģ.", "à®¿à®ķà¯įà®ķà¯Īà®¯", "à¤¤à¥įà¤µà¤ªà¥Ĥà¤°à¥įà¤£", "à°¶à°¾à°¨", "à®¿à®Łà®Ļà¯įà®ķà®³à®¿à®²à¯į", "à¤¥à¤®", "à°¶à°¾à°¨à±įà°¯", "à®Ĩà®ķ", "à¤¥à¥Ģ", "à°¸à±į,", "à®ĩà®¨à¯įà®¤à®¿à®¯à®¾", "à¤¦à¤¡à¤¼à¥ĭ,", "à°¸à±įà°ķ", "à®ķà¯įà®ķà®¾à®£", "à¤¦à¤¯", "à°¸à±įà°Łà±į", "à®Ļà¯įà®ķà®¿à®²", "à¤¦à¤²", "à°¸à±įà°°à°¾à°¬à±įà°¦", "à®Ļà¯įà®ķà®³à¯ģà®ķà¯įà®ķà¯ģà®ªà¯į", "à¤¦à¤¾", "à°¸à±įà°²à°¿", "à®Ļà¯įà®ķà®³à¯Īà®¯à¯ģà®Łà¯Īà®¯", "à¤¦à¥Ģà¤µ,", "à°¸à±įà°²à°¿à°Ĥ", "à®Ļà¯įà®ķà®³à¯į,", "à¤¦à¥ĩ", "à°¸à±įà°ķà±ĥ", "à®ļà¯Ģà®ķ", "à¤¦à¥į", "à°¸à±įà°ķà±ĥà°¤à°¿à°ķ", "à®ļà¯įà®ļ", "à¤¦à¥įà¤µ", "à°¾à°¡", "à®ŀà¯įà®ļà®¾à®ªà¯į", "à¤¦à¥ĩà¤µ", "à°¾à°«", "à®Łà¯ģà®ªà®Łà¯įà®Ł", "à¤¦à¥įà¤Ń", "à°¾à°¤à°¾", "à®Łà®²à¯ģà®®à¯į,", "à¤¦à¥įà¤§à¤µ", "à°¾à°¤à°Ĥ", "à®Łà¯ģà®¤à¯įà®¤à®ªà¯įà®ªà®Łà¯įà®Ł", "à¤¦à¥įà¤µà¤¿à¤¤", "à°¾à°¤à±įà°®", "à®Łà¯ģà®¤à¯įà®¤à®°", "à¤¦à¥įà¤µà¤¿à¤¤à¥Ģà¤¯", "à°¾à°¤à±įà°®à°¾", "à®Łà¯Īà®¨à¯įà®¤à®¤à¯ģ.", "à¤¦à¥įà¤Ńà¤¾à¤Ĺ", "à°¾à°¦à°¾à°ª", "à®Łà¯Īà®¨à¯įà®¤à®©.", "à¤¦à¥įà¤Ńà¤¾à¤Ĺà¤µ", "à°¾à°¦à°¾à°¯", "à®Łà¯Īà®¯à®¿à®²à¯į", "à¤¦à¥įà¤Ńà¤¾à¤Ĺà¤µà¤¤", "à°¾à°¦à°¾à°ªà±ģ", "à¯Ģà®°", "à¤§à¤¾à¤¨à¥Ģ", "à°¾à°¦à°¾à°¯à°Ĥà°²à±ĭ", "à¯Ģà®´à¯į", "à¤§à¤¿à¤ķà¤¾à¤°à¤¿à¤ķ", "à°¾à°¨à±ģ", "à¯Ģà®ķà®ªà¯į", "à¤§à¥Ģ", "à°¾à°¨à±į,", "à¯ģà®¯", "à¤§à¥įà¤¯à¤¾à¤¤à¥įà¤®", "à°¾à°¬à°¿à°¤", "à¯ģà®¤à®¨à¯įà®¤à®¿à®°", "à¤§à¥įà¤¯à¤¾à¤¤à¥įà¤®à¤¿à¤ķ", "à°¾à°¯à°¿", "à¯ģà®¤à®²", "à¤¨à¤ª", "à°¾à°¯à±ģ", "à¯ģà®¤à®²à¯Ī", "à¤¨à¤¾à¤¨à¥Ģ", "à°¾à°¯à±ģà°¤", "à¯ģà®¤à¯įà®¤à®¤à¯ģ.", "à¤¨à¤¾à¤ĵà¤Ĥ", "à°¾à°°à°¿à°¤à±įà°°", "à¯ģà®ªà¯įà®ªà®¿à®©à®°", "à¤¨à¤¾à¤ķ", "à°¾à°°à°¿à°¤à±įà°°à°ķ", "à¯ģà®®à®¾à®°à¯į", "à¤¨à¤¿à¤µ", "à°¾à°°à±įà°ķ", "à¯ģà®²à®¿à®®", "à¤¨à¤ķà¤¾à¤°à¥Ģ", "à°¾à°²à±ģ:", "à¯ģà®ķà®²à®¾à®¯à®ªà¯į", "à¤¨à¤ľ", "à°¾à°²à±ģà°Ĺà±ģ", "à¯ģà®ķà®¿à®©à¯įà®±à®©à®°à¯į.", "à¤¨à¥įà¤¤à¤°", "à°¾à°µà°°à°¾à°²à±ģ", "à¯ģà®ķà®³à®¿à®²à¯į", "à¤¨à¤ªà¤¦", "à°¾à°¸à°¨", "à¯Ĩà®Łà¯ģà®¤à¯įà®¤", "à¤¨à¤¾à¤¨à¥Ģ,", "à°¾à°Ĥà°¬", "à¯Īà®©", "à¤¨à¤¾à¤ķà¤¾à¤²", "à°¿à°Ĥà°Ĺ", "à¯Īà®ªà¯įà®ªà®Łà¯ģà®¤à¯įà®¤à®ªà¯įà®ªà®Łà¯įà®Ł", "à¤¨à¤¿à¤µà¥ĩà¤¶", "à°¿à°³", "à¯Īà®¯à®¾à®©à®¤à¯ģ", "à¤¨à¤¿à¤µà¥ĩà¤¶à¤¿à¤ķ", "à°¿à°¡à°¿à°µ", "à¯Īà®µà®¿à®©à¯Īà®ªà¯į", "à¤¨à¤ľà¥ĭ", "à°¿à°¤à±įà°µ", "à¯Īà®ķà®³à®¿à®²à¯į", "à¤¨à¤ľà¥ĭà¤¦à¤¡à¤¼à¥ĭ,", "à°¿à°ªà°¾à°²", "à¯Īà®ķà®³à¯į", "à¤¨à¥ĩà¤ķ", "à°¿à°ªà±ģ", "à¯Īà®ķà¯įà®ķà®ªà¯įà®ªà®Łà¯įà®Łà®©à®°à¯į.", "à¤¨à¥įà¤¤à¤°à¤£:", "à°¿à°ªà±Ĩà°¦à±įà°¦", "à¯ĭà®©à¯ĩà®ļà®¿à®¯à®¾à®µ", "à¤¨à¥įà¤¨à¥Į", "à°¿à°ªà±ĭ", "à¯ĭà®°", "à¤¨à¥įà¤¨à¥Įà¤ľ", "à°¿à°ªà±ģà°£à±ģà°²à±ģ", "à¯ĭà®´", "à¤ªà¤¨à¤¿à¤µà¥ĩà¤¶à¤¿à¤ķ", "à°¿à°ªà±ĭà°¯à°¿à°Ĥà°¦à°¿.", "à¯ĭà®¸à¯į", "à¤ªà¤°à¥Ģ", "à°¿à°¯à°¾à°²à±ĭ", "à¯ĭà®ķ", "à¤ªà¤¾à¤²", "à°¿à°²à°¿à°ļ", "à¯ĭà®Ł", "à¤ªà¤¾à¤¸", "à°¿à°²à±ĭà°®à±Ģà°Łà°°à±įà°²à°ķà±ģ", "à¯įà®©à®°à¯į", "à¤ªà¤¾à¤ģ", "à°¿à°¶à±įà°°", "à¯įà®ķà¯įà®ķà®¤à¯įà®¤à®¿à®©à®°", "à¤ªà¤¿à¤¯", "à°¿à°¶à±įà°°à°®", "âĤ", "à¤ªà¥įà¤°", "à°¿à°¶à±įà°°à°®à°²à±ģ", "âĤ¹", "à¤ªà¤¶à¥įà¤ļà¤¿à¤®à¥Ģ", "à°¿à°¸à±įà°¤à°¾à°°à±ģ.", "à¤ªà¤¾à¤ģà¤ļ", "à°¿à°¸à±įà°¤à±ģà°¨à±įà°¨", "à¤ªà¤¾à¤ģà¤ļà¤µà¥Ģ", "à°¿à°Ĥà°¦à°¿", "Ġ9", "à¤ªà¤¿à¤¯à¤Ĥ", "à°¿à°Ĥà°ļà°¾à°°à±ģ.", "ĠIndia)", "à¤ªà¤¿à¤¯à¤Ĥà¤¸", "à°¿à°Ĥà°ļà°¿à°¨à°Łà±įà°²à±ģ", "Ġlisten))", "à¤ªà¥įà¤°à¤¾à¤ļà¥Ģà¤¨", "à°¿à°ķà±įà°ķ", "Ġ(âĤ¹", "à¤«à¤¼", "à°¿à°ļà±ĩ", "Ġ1,200", "à¤«à¥Ĥ", "à°¿à°ļà±įà°ļ", "Ġ15", "à¤«à¤¼à¥į", "à°Ĥà°¦à±ģ", "à¤«à¥Ĥà¤²à¥ĩ", "à°Ĥà°Ĺà°¾,", "à¤«à¥Ĥà¤²à¥ĩ,", "à°Ĥà°Łà±ģà°¨à±įà°¨", "à¤¬à¤Ĥà¤Ĺà¤¾", "à°Ĥà°Łà±ĩ", "à¤¬à¥Ĥ", "à°ķà°¾à°¤à°¾", "à¤¬à¥ĩà¤Ł", "à°ķà°¿", "à¤¬à¥ĭà¤²", "à°ķà±ģà°²à±ģ", "Ġà®Ĳ", "à¤¬à¥įà¤¦", "à°ķà±Ĥ", "Ġà®¤à®±à¯įà®ªà¯ĭà®¤à¯ģ", "à¤¬à¥įà¤²", "à°ķà±ĩ", "Ġà®¤à®µà®¿à®°à¯įà®¤à¯įà®¤à¯ģ", "à¤¬à¥Ĥà¤¤", "à°ķà±ģ,", "Ġà®¤à®¾à®¯à¯įà®²à®¾à®¨à¯įà®¤à¯ģ,", "à¤¬à¥ĩà¤Łà¤ķà¤¾", "à°ķà±ĩà°¤à°¿à°ķ", "Ġà®¤à®¿à®ķ", "à¤¬à¥ĩà¤Łà¤ķà¤¾,", "à°ķà±įà°·à°Ĥ", "Ġà®¤à®¿à®Łà¯įà®Ł", "à¤¬à¥ĭà¤²à¤¾", "à°ķà±įà°ķà°¨à±ģ", "Ġà®¤à®ķà¯įà®ķà®¾à®£", "à¤¬à¥įà¤²à¤¿à¤ķ", "à°Ĺà±ģà°µ", "Ġà®¤à®©à®¿", "à¤¬à¥įà¤²à¤¿à¤ķà¥į", "à°Ĺà±įà°Ĺ", "Ġà®¤à®©à¯įà®®à¯Ī", "à¤®à¤¦à¥įà¤Ńà¤¾à¤Ĺà¤µà¤¤", "à°Ĺà±ĭà°³à°¿à°ķ", "Ġà®¤à®©à¯įà®®à¯Īà®¯", "à¤®à¤¬à¥ĩà¤Łà¤ķà¤¾,", "à°ļà±ģà°ķà±ĭà°µà°¡", "Ġà®¤à®®à®¿à®´", "à¤®à¤¾à¤£", "à°ļà±ģà°ķà±ĭà°µà°¡à°Ĥ", "Ġà®¤à®¿à®°à®¾à®µà®¿à®Ł", "à¤®à¤¾à¤°,", "à°Łà°Ĥ", "Ġà®¤à¯ģà®±à®µ", "à¤®à¥ģà¤¸à¥įà¤²à¤¿à¤®", "à°Łà±Ģ", "Ġà®¤à¯Ĩà®©à¯įà®ķà®¿à®´à®ķà¯įà®ķà®¾à®ļà®¿à®¯à®¾à®µ", "à¤®à¥ĭ", "à°Łà±Ĩ", "Ġà®¤à¯Ĩà®±à¯įà®ķà®¾à®ļà®¿à®¯à®¾à®µà®¿à®²à¯į", "à¤®à¥įà¤®", "à°Łà±Ģà°µà°²", "Ġà®¤à¯Ĭà®Łà¯įà®Ł", "à¤®à¤¨à¥įà¤¤à¥ģ", "à°Łà±įà°²à°ķà±ģ", "Ġà®¤à¯Ĭà®²à¯Īà®¤à¯Ĥà®°", "à¤®à¤¾à¤£à¥ģ", "à°łà°Ń", "Ġà®¤à¯Ĭà®ķà¯Īà®¯à¯ģà®Łà¯Īà®¯", "à¤®à¤¾à¤¨à¤¤à¤¾,", "à°łà°Ńà±Ĥ", "Ġà®¤à¯Ĭà®Łà®°", "à¤®à¤¾à¤¨à¥ĩ", "à°łà°Ńà±Ĥà°®", "Ġà®¤à¯ĭà®©à¯įà®±à®¿à®¯à®¤à¯ģ.", "à¤®à¥ģà¤¸à¥įà¤²à¤¿à¤®à¥ĭà¤Ĥ", "à°Ńà°°à°¤", "Ġà®¤à¯ĭà®±à¯įà®ķà®Łà®¿à®ķà¯įà®ķà®ªà¯įà®ªà®Łà¯įà®Łà®¾à®°à¯į.", "à¤¯à¤Ĥ", "à°Ńà°¾à°·", "Ġà®¨à®Łà¯ģà®¤à¯įà®¤à®°", "à¤¯à¥ģà¤Ĺ", "à°Ńà°¾à°°à°¤à°¦à±ĩà°¶à°Ĥ", "Ġà®¨à®¾à®ķà®°à®¿à®ķà®®à®¾à®ķ", "à¤¯à¥ĩ", "à±Ģà°¦à°Ĺà°¾", "Ġà®¨à®¾à®Łà®¾à®ķ", "à¤¯à¥ģà¤Ĺà¥Ģà¤¨", "à±Ģà°²à±ģ", "Ġà®¨à®¿à®°à¯įà®µà®ķ", "à¤°à¤¤", "à±Ģà°ķ", "Ġà®¨à®¿à®±à¯ģà®µà®¿à®©.", "à¤°à¤¤à¤¾", "à±Ģà°ķà±įà°·", "Ġà®¨à®¿à®²à®¤à¯įà®¤à¯Ī", "à¤°à¤®à¥įà¤Ń", "à±Ģà°łà°Ńà±Ĥà°®", "Ġà®¨à®¿à®²à¯Īà®¯à®¾à®©", "à¤°à¤µ", "à±Ģà°·à±ģ", "Ġà®¨à®¿à®²à¯Īà®ķà¯įà®ķ", "à¤°à¤ķà¥įà¤·", "à±Ģà°Łà°¿à°²à±ĭ", "Ġà®¨à®ķà®°à®®à®¯à®®à®¾à®ķà¯įà®ķà®²", "à¤°à¤Ĺ", "à±ģà°¦à±įà°§", "Ġà®¨à®Łà®¤à¯įà®¤", "à¤°à¥ģà¤¤", "à±ģà°¨à±ģ", "Ġà®¨à¯Ģà®Łà®¿à®¤à¯įà®¤", "à¤°à¥ģà¤ª", "à±ģà°³", "Ġà®¨à¯Ĥà®²", "à¤°à¤µà¤°à¥Ģ", "à±ģà°ĸà±įà°¯", "Ġà®¨à¯Ĥà®±à¯įà®±à®¾à®£à¯įà®Łà®¿à®©à¯į", "à¤°à¤¾,", "à±ģà°¤à±ĭ", "Ġà®¨à¯Ĥà®±à¯įà®±à®¾à®£à¯įà®Łà®¿à®²à¯į", "à¤°à¤¾à¤¨à¥ĭ", "à±ģà°ķà±Ĭà°¨", "Ġà®¨à¯Ĥà®±à¯įà®±à®¾à®£à¯įà®Łà¯ģà®ķà®³à®¿à®©à¯į", "à¤°à¤ķà¥įà¤·à¤¿à¤¤", "à±ģà°ķà±ĭà°¬à°¡à°¤à°¾à°°à±ģ.", "Ġà®ªà®¤à®¿à®²à¯ģà®ķà¯įà®ķà¯ģ", "à¤°à¤Ĺà¤¢à¤¼", "à±ģà°ķà±ĭà°µà°ļà±įà°ļ", "Ġà®ªà®²à¯įà®²à®µà®°à¯įà®ķà®³", "à¤°à¥ģà¤¤à¥įà¤¥à¤¾à¤¨", "à±Ĥà°°à±ģ", "Ġà®ªà®´", "à¤°à¥Ĥà¤ªà¥Ģ", "à±Ĥà°°à±įà°ª", "Ġà®ªà®¾à®£à¯įà®Łà®¿à®¯", "à¤°à¥įà¤¤,", "à±ĥà°·à±įà°£", "Ġà®ªà®¾à®¤à¯ģà®ķà®¾à®ķà¯įà®ķ", "à¤°à¥įà¤Ĺ", "à±Ĩà°²", "Ġà®ªà®¾à®²", "à¤°à¥įà¤ľ", "à±Ĩà°²à±ģà°ļà±ģà°ķà±ĭà°µà°¡à°Ĥ", "Ġà®ªà®¾à®Łà®²", "à¤°à¥įà¤£à¤¿à¤®", "à±Ĩà°¸à±į", "Ġà®ªà®¿à®¨à¯įà®¤à¯Īà®¯", "à¤°à¥įà¤¯à¤¨", "à±ĩà°¤", "Ġà®ªà®ŀà¯įà®ļà®¾à®ªà¯į", "à¤°à¥įà¤¯à¤¾à¤µ", "à±ĩà°ªà°¾à°²à±į,", "Ġà®ªà¯Ĥà®°à¯įà®µ", "à¤°à¥įà¤¯à¤¾à¤µà¤°à¥įà¤¤,", "à±ĩà°¯", "Ġà®ªà®¤à®¿à®µà¯ģ", "à¤°à¥įà¤µà¤¤", "à±ĩà°·", "Ġà®ªà®¯à®©à¯įà®ªà®Łà¯ģà®¤à¯įà®¤à®ªà¯įà®ªà®Łà¯ģà®ķà®¿à®±à®¤à¯ģ.", "à¤°à¥įà¤µà¤¾à¤¹", "à±ĩà°¸", "Ġà®ªà®¯à®©à¯įà®ªà®Łà¯ģà®¤à¯įà®¤à®ªà¯įà®ªà®Łà¯įà®Łà®¤à¯ģ.", "à¤°à¥įà¤¶à¤¨", "à±ĩà°ļ", "Ġà®ªà®°à®¤à®µà®°à¯įà®·", "à¤°à¥įà¤·,", "à±ĩà°µà°²à°Ĥ", "Ġà®ªà®°à®¿à®£à®¾à®®", "à¤°à¥įà¤Ĺà¤¤", "à±ĩà°¶à°¾à°ĸ", "Ġà®ªà®°à®µà®²à®¾à®©", "à¤°à¥įà¤ľà¤¿à¤¤", "à±ĩà°ľà°¿", "Ġà®ªà®²à¯įà®µà®ķà¯Īà®®", "à¤²à¤¤à¤¾", "à±Īà°ª", "Ġà®ªà®¾à®°à®¤à¯į", "à¤²à¤¬", "à±Īà°¦à°°à°¾à°¬à°¾à°¦", "Ġà®ªà®¾à®°à®ļà¯Ģà®ķ", "à¤²à¤¾à¤¯à¤¾", "à±Ĭà°Ĥà°¦à°¿à°¨", "Ġà®ªà®¿à®©à¯įà®©à®°à¯į", "à¤²à¤Ĥ", "à±ĭà°¨", "Ġà®ªà®¿à®©à¯įà®ªà®±à¯įà®±", "à¤²à¤Ĺ", "à±ĭà°²", "Ġà®ªà®¿à®°à®¾à®¨à¯įà®¤à®¿à®¯", "à¤²à¥ĩà¤¶", "à±ĭà°¦à°¾à°µà°°", "Ġà®ªà®¿à®°à®¿à®ķà¯įà®ķà®ªà¯įà®ªà®Łà¯įà®Łà®¤à¯ģ.", "à¤²à¥Ī", "à±Įà°¦à±įà°§", "Ġà®ªà®ķà®¿à®°à¯įà®¨à¯įà®¤à¯ģ", "à¤²à¥ĭà¤Ĥ", "à±Įà°°à±įà°¯", "Ġà®ªà®ķà¯įà®¤", "à¤²à¤Ĥà¤ķà¤¾", "à±įà°Ń", "Ġà®ªà®ķà¯ģà®¤à®¿à®¯", "à¤²à¥ĩà¤¶à¤¿à¤¯à¤¾", "à±įà°µà°¤à±įà°°à°¿à°ķ", "Ġà®ªà®ķà¯ģà®¤à®¿à®¯à®¿à®²à¯į", "à¤²à¥Īà¤Ĥà¤¡", "à±įâĢĮà°²", "Ġà®ªà®ķà¯ģà®¤à®¿à®¯à¯Ī", "à¤²à¥Īà¤Ĥà¤¡,", "à±įâĢĮà°ķà°¾à°¤à°¾", "Ġà®ªà®ķà¯ģà®¤à®¿à®ķà®³à®¾à®©à®µà¯Ī", "à¤²à¥įà¤²à¥ĩà¤ĸà¤¨", "à±įâĢĮà°¸à°Ń", "Ġà®ªà®ķà¯ģà®¤à®¿à®ķà®³à®¿à®²à¯į", "à¤²à¥įà¤²à¥įà¤µà¥ĭà¤Ĥ", "Ġà®ªà¯ģà®¤à¯ģà®ªà¯įà®ª", "à¤²à¥įà¤²à¥ĩà¤ĸà¤¨à¥Ģà¤¯", "Ġà®ªà¯ģà®¤à¯įà®¤à®°à®¿à®©à¯į", "à¤µà¤°à¥įà¤·,", "ĠâĢĵ", "Ġà®ªà¯ģà®°à®µà®²", "à¤µà¤¾à¤¦", "Ġ\"à°Ńà°°à°¤", "Ġà®ªà¯Ĩà®£", "à¤µà¤¾à¤¸", "Ġà®ªà¯Ĩà®±", "à¤µà¤¾à¤ģ", "Ġ185", "Ġà®ªà¯Ĩà®°à¯ģà®®à¯į", "à¤µà¤¾à¤ĵà¤Ĥ", "Ġ1950", "Ġà®ªà¯Ĩà®°à¯ģà®®à¯įà®ªà®¾à®©à¯įà®®à¯Īà®¯à®¾à®ķà®ķà¯į", "à¤µà¥Īà¤¦à¤¿à¤ķ", "Ġ1977", "Ġà®ªà¯Ĩà®°à¯ģà®®à¯įà®ªà®¾à®²à®¾à®©", "à¤µà¤¾à¤¦à¥Ģ", "Ġ1991", "Ġà®ªà¯Ĩà®±à¯įà®±à®¤à¯ģ.", "à¤µà¤¾à¤¸à¥ĭà¤Ĥ", "Ġ201", "Ġà®ªà¯ĩà®°à®°à®ļà®¾à®©à®¤à¯ģ", "à¤¶à¤¾à¤²à¥Ģ", "Ġà®ªà¯ĩà®°à®°à®ļà®¿à®©à¯į", "à¤¶à¤¾à¤¹", "Ġ29", "Ġà®ªà¯Ĭà®°à¯ģà®Ł", "à¤¶à¥Ģ", "Ġà°¢à°¿à°²à±įà°²à±Ģ", "Ġà®ªà¯Ĭà®°à¯ģà®³à®¾à®¤à®¾à®°à®®à®¾à®ķ", "à¤¶à¥ĭ", "Ġà°¢à°¿à°²à±įà°²à±Ģ,", "Ġà®ªà¯ĭà®¤à®©", "à¤¶à¥įà¤µ", "Ġà°ĵ", "Ġà®ªà¯ĭà®©à¯įà®±", "à¤¶à¤¾à¤¸à¤¨", "Ġà°ĺ", "Ġà®ªà¯Įà®¤à¯įà®¤à®®à¯į", "à¤¶à¤¾à¤¸à¤¿à¤¤", "Ġà°Ł", "Ġà®®à®©à¯įà®©", "à¤¶à¤¾à¤¸à¥įà¤¤à¥įà¤°", "Ġà°¤à°°à±įà°µà°¾à°¤", "Ġà®®à®²", "à¤¶à¤¾à¤¸à¥įà¤¤à¥įà¤°,", "Ġà°¤à°¿à°°", "Ġà®®à¯ģà®ķà®²à®¾à®¯à®ªà¯į", "à¤¶à¤¾à¤¹à¥Ģ", "Ġà°¤à°ķà±įà°ķà±ģà°µ", "Ġà®®à®©à®¿à®¤à®°à¯įà®ķà®³à¯į", "à¤¶à¥Ģà¤²à¤¤à¤¾", "Ġà°¤à±Ĥà°°à±įà°ª", "Ġà®®à®¿à®¯à®¾à®©à¯įà®®à®°à¯į", "à¤¶à¥ĭà¤ķ", "Ġà°¤à°°à±ģà°µà°¾à°¤à°¿", "Ġà®®à®¿à®ķà®ªà¯į", "à¤¶à¥įà¤®à¥Ģà¤°", "Ġà°¦à°¾à°¦à°¾à°ªà±ģ", "Ġà®®à®ķà¯įà®ķà®³à®¿à®©à¯į", "à¤¶à¥įà¤µà¤¿à¤ķ", "Ġà°¦à°¾à°Ł", "Ġà®®à®ķà¯įà®ķà®³à¯Ī", "à¤·à¤Ń", "Ġà°¦à±Ģà°¨", "Ġà®®à¯ģà®´", "à¤·à¥įà¤Ł", "Ġà°¦à±ĩà°¶à°ªà±ģ", "Ġà®®à¯ģà®ļ", "à¤·à¤Ńà¤¦à¥ĩà¤µ", "Ġà°¦à±ĩà°¶à°Ĥ", "Ġà®®à¯ģà®©à¯įà®©à®°à¯ĩ", "à¤·à¥įà¤Łà¤¾à¤ļ", "Ġà°¦à±ĩà°¶à°Ĥ.", "Ġà®®à¯ģà®©à¯įà®©à¯ĩà®±à¯įà®±", "à¤·à¥įà¤Łà¤¾à¤ļà¤¾à¤°,", "Ġà°¨à°¾à°¯à°ķ", "Ġà®®à¯ģà®¯à®±à¯įà®ļà®¿", "à¤¸à¤ªà¤¾à¤¸", "Ġà°¨à°¾à°²à±ģà°Ĺà±ģ", "Ġà®®à¯ģà®±à¯Ī", "à¤¸à¤®à¤¾à¤¨à¤¤à¤¾,", "Ġà°¨à°¿à°¡à°¿à°µ", "Ġà®®à¯ģà®±à¯Īà®¯à¯Ī", "à¤¸à¤¿à¤¤", "Ġà°¨à°¿à°ªà±ģà°£à±ģà°²à±ģ", "Ġà®®à¯ģà®ķà¯įà®ķà®¿à®¯à®¤à¯įà®¤à¯ģà®µà®¤à¯įà®¤à¯Īà®ªà¯į", "à¤¸à¤¿à¤¨", "Ġà°¨à°¿à°µ", "Ġà®®à¯ģà®ļà¯ģà®²à®¿à®®", "à¤¸à¤ķ", "Ġà°¨à±Ĩ", "Ġà®®à¯Ĥà®²", "à¤¸à¥Ģ", "Ġà°¨à±ĩà°ªà°¾à°²à±į,", "Ġà®®à¯ĩà®±à¯įà®ķà¯ĩ", "à¤¸à¥įà¤¥à¤¿", "Ġà°¨à°¿à°¯à°®à°¿à°Ĥà°ļ", "Ġà®®à¯ĩà®²à®¾à®Łà¯įà®ļà®¿", "à¤¸à¥įà¤Ł", "Ġà°¨à°¿à°°à±įà°µà°¹à°¿à°Ĥà°ļà°¿à°Ĥà°¦à°¿.", "Ġà®®à¯Īà®¯à®ªà¯į", "à¤¸à¥įà¤¤à¤¿à¤¤", "Ġà°¨à°Ĺà°°", "Ġà®®à¯Īà®¯à®®à®¾à®ķ", "à¤¸à¥įà¤¤à¤¿à¤¯", "Ġà°¨à°Ĺà°°à°¾à°²à±ģ", "Ġà®°à¯Ģà®¤à®¿à®¯à®¾à®©", "à¤¸à¥įà¤¤à¥įà¤°", "Ġà°¨à±įà°¯à°¾à°¯à°µà±įà°¯à°µà°¸à±įà°¥", "Ġà®µà®±", "à¤¸à¥įà¤¤à¤¿à¤¤à¥įà¤µ", "Ġà°ªà°¦à±įà°§", "Ġà®µà®¿à®²", "à¤¸à¥įà¤¤à¤¿à¤¯à¥ĭà¤Ĥ", "Ġà°ªà°²à±ģ", "Ġà®µà®¿à®µà®ļà®¾à®¯", "à¤¹à¤¦à¥į", "Ġà°ªà°²à±įà°²", "Ġà®µà¯Ģà®¤", "à¤¹à¤¬à¥ĭà¤²à¤¾", "Ġà°ªà°Ĥà°ļ", "Ġà®µà¯Īà®ķà¯įà®ķ", "à¤¹à¤°à¤Ĺà¤¢à¤¼", "Ġà°ªà±Ģà°łà°Ńà±Ĥà°®", "Ġà®µà®¨à¯įà®¤à®©à®°à¯į.", "à¤¹à¤²à¤¾à¤¯à¤¾", "Ġà°ªà±Ĭà°Ĥà°¦à°¿à°¨", "Ġà®µà®°à¯Ī", "à¤¹à¤¿à¤Ĥ", "Ġà°ªà±ĭ", "Ġà®µà®°à¯įà®ķà¯įà®ķà®¤à¯įà®¤à®¿à®©à®°", "à¤¹à¥Ģà¤Ĥ", "Ġà°ªà°°à°¿à°ªà°¾à°²", "Ġà®µà®°à®²à®¾à®±à¯ģ", "à¤¹à¥ģà¤¤", "Ġà°ªà°°à°¿à°¶à±įà°°à°®à°²à±ģ", "Ġà®µà®°à®²à®¾à®±à¯įà®±à®¾à®³à®°à¯įà®ķà®³à¯į", "à¤¹à¥ĭà¤Ĥ", "Ġà°ªà°°à±Ģà°ķà±įà°·", "Ġà®µà®³à®°à¯įà®¨à¯įà®¤à¯ģ", "à¤¹à¤¿à¤Ĥà¤¸à¤ķ", "Ġà°ªà°¶à±įà°ļà°¿à°®à°¾à°¨", "Ġà®µà®³à®°à¯įà®ļà¯įà®ļà®¿à®ķà¯įà®ķ", "à¤¼à¤¬à¥Ĥà¤¤", "Ġà°ªà°¾à°°à±įà°Łà±Ģ,", "Ġà®µà®¿à®Łà¯ģà®¤à®²à¯Ī", "à¤¾à¤¡à¤¼à¥Ģ", "Ġà°ªà°¾à°²à°¨à°²à±ĭ", "Ġà®µà®ķà¯ģà®¤à¯įà®¤à®¤à¯ģ.", "à¤¾à¤§à¤¿à¤ķà¤¾à¤°à¥Ģ", "Ġà°ªà°¾à°²à°¿à°Ĥà°ļà°¾à°°à±ģ.", "Ġà®µà®ķà¯ģà®ªà¯įà®ªà®¿à®©à®°", "à¤¾à¤«à¤¼à¥Ģ", "Ġà°ªà°¾à°ķà±į", "Ġà®µà®Łà®¿", "à¤¾à¤Ń", "Ġà°ªà°¾à°ķà°¿à°¸à±įà°¥à°¾à°¨à±į,", "Ġà®µà®Łà®®à¯ĩà®±à¯įà®ķà®¿à®²à¯į", "à¤¾à¤¤à¤µà¤¾à¤ģ", "Ġà°ªà°Ĥà°¡à±ģà°Ĺà°²à±ģ", "Ġà®µà¯ĩà®±à¯įà®±à¯ģà®®", "à¤¾à¤¤à¥Ģ", "Ġà°ªà°Łà±įà°Łà°£à°¾à°²à±ģ,", "Ġà®µà¯ĩà®³à®¾à®£", "à¤¾à¤¤à¥įà¤®à¤¾", "Ġà°ªà±ģà°°à±ģà°·", "Ġà®ħà®©à¯Īà®¤à¯įà®¤à¯ģ", "à¤¾à¤¦à¤¨", "Ġà°ªà±ģà°Łà±įà°Ł", "Ġà®ħà®°", "à¤¾à¤¦à¤¿", "Ġà°ªà±Ĥà°°à±įà°µ", "Ġà®ħà®´", "à¤¾à¤¦à¥ĩà¤¶", "Ġà°ªà±ĩà°°à±įà°²à±ģ", "Ġà®ħà®µà®°à¯įà®ķà®³", "à¤¾à¤¨à¤¨à¤¾", "Ġà°ªà±ĩà°°à±ģ,", "Ġà®ħà®¤à®±à¯įà®ķ", "à¤¾à¤¨à¤¿à¤¸à¥įà¤¤à¤¾à¤¨", "Ġà°ªà±įà°°à°¦à±ĩà°¶", "Ġà®ħà®¤à¯ĩ", "à¤¾à¤¨à¥ĩ", "Ġà°ªà±įà°°à°¯à±ĭà°ľ", "Ġà®ħà®¤à®¿à®ķà®¾à®°", "à¤¾à¤¨à¥įà¤®", "Ġà°ªà±įà°°à°ķà°¾à°°à°Ĥ", "Ġà®ħà®®à¯Īà®¨à¯įà®¤", "à¤¾à¤¨à¥įà¤¯", "Ġà°ªà±įà°°à°¤à°¿à°ªà°¾à°¦à°¨à°ķà±ģ", "Ġà®ħà®®à¯Īà®ªà¯įà®ªà¯ģà®ķà®³à®¾à®©à®µà¯Ī", "à¤¾à¤¨à¤µà¤°à¥ĭà¤Ĥ", "Ġà°ªà±įà°°à°ªà°Ĥà°ļà°Ĥà°²à±ĭ", "Ġà®ħà®®à¯Īà®ªà¯įà®ªà¯ģà®ķà®³à¯į", "à¤¾à¤¨à¤¿à¤¸à¥įà¤¤à¤¾à¤¨,", "Ġà°ªà±įà°°à°ªà°Ĥà°ļà°Ĥà°²à±ĭà°¨à°¿", "Ġà®ħà®±à®¿à®µ", "à¤¾à¤¨à¥įà¤®à¤¾à¤°", "Ġà°ªà±įà°°à°¾à°°à°Ĥà°Ńà°¿à°Ĥà°ļ", "Ġà®ħà®³à®µà¯ģà®ķà¯įà®ķà¯ģ", "à¤¾à¤ªà¥ģà¤°", "Ġà°ªà±įà°°à°¾à°Ĥà°¤à°¾à°²à±įà°²à±ĭ", "Ġà®ħà®Łà®¿à®ªà¯įà®ªà®Łà¯Īà®¯à®¿à®²à¯į", "à¤¾à¤ªà¥įà¤¤", "Ġà°ªà±įà°°à°¾à°Ĥà°¤à±Ģà°¯", "Ġà®Ĩà®³", "à¤¾à¤ªà¥ģà¤°à¤¾à¤£", "Ġà°ªà±įà°°à°ľà°²", "Ġà®Ĩà®©à®¾à®²à¯į,", "à¤¾à¤®à¤¿à¤²", "Ġà°ªà±įà°°à°ľà°²à±ģ", "Ġà®Ĩà®±à¯įà®±à¯ģ", "à¤¾à¤®à¥įà¤°", "Ġà°ªà±įà°°à°Ńà±ģà°¤à±įà°µà°¾à°¨à±įà°¨à°¿", "Ġà®Ĩà®ļà®¿à®¯à®¾", "à¤¾à¤¯à¤¦à¥įà¤µà¥Ģà¤ª", "Ġà°ªà±įà°°à°Ńà±ģà°¤à±įà°µà°Ĥ", "Ġà®Ĩà®Łà¯įà®ļà®¿à®¯à®¾à®©à®¤à¯ģ", "à¤¾à¤°à¤¨à¤¾", "Ġà°¬à±Įà°¦à±įà°§", "Ġà®Ĩà®Łà¯įà®ļà®¿à®¯à®¾à®³", "à¤¾à¤°à¤ķ", "Ġà°¬à±įà°°à°¿à°Łà°¿à°·à±ģ", "Ġà®ĩà®±à¯Īà®¯", "à¤¾à¤°à¥ĭà¤Ĥ", "Ġà°¬à±įà°°à°¿à°Łà°¿à°·à±į", "Ġà®ĩà®µà®°à¯įà®ķà®³à¯į", "à¤¾à¤²à¤¦à¥Ģà¤µ,", "Ġà°®à±Ģà°¦à°Ĺà°¾", "Ġà®ĩà®Łà¯Īà®¯à®¿à®²à¯į", "à¤¾à¤²à¤¯", "Ġà°®à±ĩà°°", "Ġà®ĩà®£à¯Īà®ķà¯įà®ķà®ªà¯įà®ªà®Łà¯įà®Łà®©à®°à¯į.", "à¤¾à¤²à¤¾", "Ġà°®à±Įà°°à±įà°¯", "Ġà®ĩà®¤à®±à¯įà®ķ", "à¤¾à¤²à¥Ģà¤¬à¤Ĥà¤Ĺà¤¾", "Ġà°®à°¤à°®", "Ġà®ĩà®¨à¯įà®¤à¯ĭà®©à¯ĩà®ļà®¿à®¯à®¾à®µ", "à¤¾à¤µà¤¾", "Ġà°®à°¨à°¦à±ĩà°¶à°Ĥ", "Ġà®ĩà®¨à¯įà®¤à®¿à®¯à®¾à®µà¯Ī", "à¤¾à¤µà¥įà¤¯", "Ġà°®à°¹à°¾à°¤à±įà°®à°¾", "Ġà®ĩà®¨à¯įà®¤à®¿à®¯à®¾à®µà¯Īà®ķà¯į", "à¤¾à¤µà¥Ģà¤°", "Ġà°®à°¾à°¤à±įà°°à°®à±ĩ", "Ġà®ĩà®¨à¯įà®¨à®¿à®²", "à¤¾à¤µà¥Ģà¤°à¤¾,", "Ġà°®à±ģà°¡à°¿", "Ġà®ĩà®ªà¯įà®ªà¯ĩà®°à®°à®ļ", "à¤¾à¤¶à¤ķà¤¾à¤°à¥Ģ", "Ġà°®à±ģà°¸à±įà°²à°¿à°Ĥ", "Ġà®ĩà®°à¯ģà®ķà¯įà®ķà¯ģ", "à¤¾à¤·à¥įà¤Ł", "Ġà°®à±ģà°Ĥà°¬à±Ī", "Ġà®ĩà®°à®¾à®£à¯ģà®µà®Ļà¯įà®ķà®³à¯į", "à¤¾à¤·à¥įà¤Łà¥įà¤°", "Ġà°®à±ģà°ĸà±įà°¯à°®à±Īà°¨", "Ġà®ĩà®°à®¾à®ļà¯įà®ļà®¿à®¯à®Ļà¯įà®ķà®³à¯į", "à¤¾à¤·à¥įà¤Łà¥įà¤°à¤µà¤¾à¤¦à¥Ģ", "Ġà°®à±ģà°ĸà±įà°¯à°Ĥà°Ĺà°¾", "Ġà®ĩà®°à¯ģà®¨à¯įà®¤à®¤à¯ģ.", "à¤¾à¤¹à¤¾", "Ġà°®à±Ĭà°¦à°Ł", "Ġà®ĩà®²à®ķà¯įà®ķà®¿à®¯", "à¤¾à¤ģà¤§à¥Ģ", "Ġà°¯à±ģà°¦à±įà°§", "Ġà®ĩà®ķà¯įà®ķà®¾à®²à®®à¯į", "à¤¾à¤Ĥà¤®à¤¾à¤°,", "Ġà°°à°¿à°Ł", "Ġà®ĩà®ļà¯ģà®²", "à¤¾à¤Īà¤²à¥Īà¤Ĥà¤¡,", "Ġà°°à°ķ", "Ġà®Īà®Łà¯ģà®ªà®Łà¯įà®Ł", "à¤¾à¤ĵà¤¸,", "Ġà°°à°¾à°·à±įà°Łà±įà°°à°¾à°²", "Ġà®īà®±à¯įà®ªà®¤à¯įà®¤", "à¤¾à¤ķà¤¾à¤µà¥įà¤¯", "Ġà°°à°¾à°·à±įà°Łà±įà°°à°¾à°²à±ģ,", "Ġà®īà®¯à®°à¯įà®¨à¯įà®¤à¯ģà®³à¯įà®³à®¤à¯ģ.", "à¤¾à¤Ĺà¤¤", "Ġà°°à°¾à°ľà±ģ", "Ġà®īà®°à¯ģà®µà®¾à®ķà¯įà®ķà®¿à®¯", "à¤¾à¤ļà¤¾à¤°", "Ġà°°à°¾à°ľà±įà°¯à°¾à°²à±ģ", "Ġà®īà®°à¯ģà®µà®¾à®ķà¯įà®ķà®¿à®¯à®¤à¯ģ.", "à¤¾à¤ľà¤¨à¤ªà¤¦", "Ġà°°à°¾à°ľà±įà°¯à°¾à°²à±ģà°Ĺà°¾", "Ġà®īà®±à¯ģà®¤à®¿à®ªà¯įà®ªà®Łà¯ģà®¤à¯įà®¤", "à¤¾à¤ľà¤¾à¤°", "Ġà°°à°¾à°ľà±įà°¯à°Ĥà°Ĺà°¾", "Ġà®īà®³à¯įà®³à®Łà®ķà¯įà®ķà®¿à®¯", "à¤¾à¤ľà¥ĭà¤Ĥ", "Ġà°°à°¾à°ľà±įà°¯à°¾à°Ĥà°Ĺà°Ĥ", "Ġà®İà®£à¯įà®£à®¿à®ķà¯įà®ķà¯Īà®¯", "à¤¾à¤Ńà¤¾à¤°à¤¤", "Ġà°°à±Ĥà°ªà°¾à°Ĥà°¤", "Ġà®İà®©à¯įà®ªà®¤à¯Ī", "à¤¿à¤¡à¤¼à¤¿à¤¯à¤¾", "Ġà°°à±Ĩà°Ĥà°¡à°µ", "Ġà®Ĳà®ħ", "à¤¿à¤·à¥įà¤£à¥ģà¤¤à¤¾", "Ġà°°à±Īà°²à±įà°µà±ĩà°¶à°¾à°ĸ", "Ġà®Ĵà®ªà¯įà®ªà¯Ģà®Łà¯įà®Łà®³à®µà®¿à®²à¯į", "à¤¿à¤ĸ", "Ġà°²à±Ĩ", "Ġà®ķà®°à¯ģà®¤", "à¤¿à¤Ń", "Ġà°²à°ķà±įà°·à°£", "Ġà®ķà®²à¯Ī", "à¤¿à¤¤,", "Ġà°²à±ĭà°ķà±į", "Ġà®ķà®¾à®Łà¯ģà®ķà®³à¯į", "à¤¿à¤¨à¤¾à¤¶à¤ķà¤¾à¤°à¥Ģ", "Ġà°²à±ĭà°ķà±įâĢĮà°¸à°Ń", "Ġà®ķà¯Ģà®´à¯į", "à¤¿à¤¨à¥Ģ", "Ġà°µà°°à±įà°Ĺ", "Ġà®ķà¯Īà®µà®¿à®©à¯Īà®ªà¯į", "à¤¿à¤¨à¥įà¤¨", "Ġà°µà°²à°¨", "Ġà®ķà®¾à®²à®¤à¯įà®¤à®¿à®©à¯į", "à¤¿à¤ªà¤¤à¥įà¤¯", "Ġà°µà°¾à°¯à±ģ", "Ġà®ķà®¾à®²à®®à®¿à®Ł", "à¤¿à¤ªà¤¬à¥įà¤²à¤¿à¤ķà¥į", "Ġà°µà°¾à°Ł", "Ġà®ķà®¾à®Łà¯įà®Łà¯ģà®ķà®¿à®©à¯įà®±à®©.", "à¤¿à¤ªà¥įà¤¯", "Ġà°µà±Ģà°Łà°¿à°²à±ĭ", "Ġà®ķà®¿à®´à®ķà¯įà®ķà¯ģ", "à¤¿à¤ªà¥įà¤¯à¤¨à¥įà¤¤à¤°à¤£:", "Ġà°µà±ĩà°²", "Ġà®ķà®Łà¯įà®Łà®Łà®ķà¯į", "à¤¿à¤®à¤¾à¤²à¤¯", "Ġà°µà±Ī", "Ġà®ķà®Łà¯įà®Łà¯ģà®ªà¯įà®ªà®¾à®Łà¯įà®Łà®¿à®²à¯į", "à¤¿à¤®à¥ĭà¤¹", "Ġà°µà°¿à°®à°¾à°¨", "Ġà®ķà¯ģà®ªà¯įà®¤à®ªà¯į", "à¤¿à¤®à¥ĭà¤¹à¤¿à¤¨à¥Ģ", "Ġà°µà°¿à°Ńà°¿à°¨à±įà°¨", "Ġà®ķà¯ģà®±à®¿à®ªà¯įà®ªà®¾à®ķ", "à¤¿à¤¯à¤¤à¤¾", "Ġà°µà±įà°¯à°¾à°ª", "Ġà®ķà¯ģà®±à®¿à®ªà¯įà®ªà®¿à®Łà¯įà®Ł", "à¤¿à¤¯à¤Ĥà¤¤à¥įà¤°", "Ġà°µà±įà°¯à°µà°¸à±įà°¥à°²à±ĭ", "Ġà®ķà¯ģà®±à®¿à®ªà¯įà®ªà®¿à®Łà®¤à¯įà®¤à®ķà¯įà®ķ", "à¤¿à¤¯à¥ĩ", "Ġà°¶à°¾à°¸à°¨", "Ġà®ķà¯ģà®±à®¿à®ķà¯įà®ķà®¿à®±à®¤à¯ģ.", "à¤¿à¤¯à¤Ĥà¤¤à¥įà¤°à¤¿à¤¤", "Ġà°¶à°ķà±įà°¤", "Ġà®ķà¯ģà®Łà®¿à®¯à®®", "à¤¿à¤°à¤¿à¤µ", "Ġà°¸à°¾à°§", "Ġà®ķà¯ģà®Łà®¿à®¯à®°à®ļ", "à¤¿à¤°à¥ĭà¤Ĥ", "Ġà°¸à°¿à°¦à±įà°§", "Ġà®ķà¯Ĥà®±", "à¤¿à¤°à¤¿à¤µà¤¾à¤ľà¥ĭà¤Ĥ", "Ġà°¸à°¿à°ķà±įà°ķ", "Ġà®ķà¯Ĥà®Ł", "à¤¿à¤²à¤¾à¤ĵà¤Ĥ", "Ġà°¸à°®à°°à°Ĥ", "Ġà®ķà¯Ĭà®£à¯įà®Łà®¿à®°à¯ģà®¨à¯įà®¤à®¤à¯ģ.", "à¤¿à¤²à¤¿à¤¤", "Ġà°¸à°®à°¾à°ĸà±įà°¯.", "Ġà®ķà¯ĭà®¯", "à¤¿à¤²à¥Ģà¤ª", "Ġà°¸à°¹à°¸à±įà°°à°¾à°¬à±įà°¦", "Ġà®ļà®©à®¨à®¾à®¯à®ķ", "à¤¿à¤²à¥įà¤ª", "Ġà°¸à°¾à°®à°°à±įà°¥à±įà°¯à°Ĥ", "Ġà®ļà®¾à®°à®¾à®¤", "à¤¿à¤²à¥įà¤®", "Ġà°¸à°¾à°°à±įà°µà°¤à±įà°°à°¿à°ķ", "Ġà®ļà®¾à®³à¯ģà®ķà¯įà®ķà®¿à®¯", "à¤¿à¤²à¥Ģà¤ªà¥Ģà¤Ĥ", "Ġà°¸à°¾à°Ĥà°¸à±įà°ķà±ĥà°¤à°¿à°ķ", "Ġà®ļà®¿à®¨à¯įà®¤à¯ģà®µà¯Ĩà®³à®¿", "à¤¿à¤²à¥Ģà¤ªà¥Ģà¤Ĥà¤¸,", "Ġà°¸à°¾à°Ĥà°ķà±ĩà°¤à°¿à°ķ", "Ġà®ļà¯ģà®¤à®¨à¯įà®¤à®¿à®°", "à¤¿à¤²à¥įà¤®à¥ĩà¤Ĥ", "Ġà°¸à°¿à°Ĥà°§à±Ĥ", "Ġà®ļà¯ģà®®à®¾à®°à¯į", "à¤¿à¤²à¥įà¤®à¥ĩà¤Ĥ,", "Ġà°¸à°Ĥà°ĸ", "Ġà®ļà¯ĩ", "à¤¿à¤¸à¥įà¤", "Ġà°¸à°Ĥà°ĺ", "Ġà®ļà¯Īà®©", "à¤¿à¤¸à¥įà¤¸à¥ĭà¤Ĥ", "Ġà°¸à°Ĥà°µà°¤à±įà°¸à°°", "Ġà®ļà¯ĭà®´", "à¤¿à¤ķà¤¾", "Ġà°¸à°Ĥà°¸à±įà°ķà°°à°£", "Ġà®ļà®®à®¯à®¤à¯įà®¤à®¿à®©à¯į", "à¤¿à¤ķà¥ĭ", "Ġà°¸à°Ĥà°ĸà±įà°¯", "Ġà®ļà®®à®¯à®Ļà¯įà®ķà®³à¯ģà®®à¯į", "à¤¿à¤ķà¥ĭà¤£", "Ġà°¸à°Ńà°¨à±ģ", "Ġà®ļà¯Ĩà®©à¯įà®±", "à¤¿à¤Ńà¤¾à¤¤à¥Ģ", "Ġà°¸à°Ńà±įà°¯à±ģà°²à±ģ", "Ġà®ļà¯Ĩà®¯à¯įà®¯à®ªà¯įà®ªà®Łà¯įà®Łà®©.", "à¤Ĥà¤¤", "Ġà°¸à±Ĥà°ļà°¿à°Ĥà°ļà°¿à°¨à°Łà±įà°²à±ģ", "Ġà®ļà¯ĩà®°à¯įà®¨à¯įà®¤", "à¤Ĥà¤¤à¤°à¤¿à¤ķ", "Ġà°¸à±Įà°ķà°°à±įà°¯à°¾à°²à°²à±ĭ", "Ġà®ļà¯Ĭà®²à¯įà®²à®¾à®©", "à¤Ĥà¤¹à¤¬à¥ĭà¤²à¤¾", "Ġà°¸à±Įà°ķà°°à±įà°¯à°¾à°²à±ģ", "Ġà®ļà¯Ĭà®²à¯įà®²à®¾à®©à®¤à¯ģ", "à¤Ĥà¤¥,", "Ġà°¸à±įà°¥à°¾à°µà°°à°¾à°²à±ģ", "'à®Ĩ", "à¤Ĥà¤§", "Ġà°¸à±įà°¥à°¾à°¨à°¾à°²à°¨à±ģ", "'à®Ĩà®±", "à¤Ĥà¤¦à¤°", "Ġà°¸à±įà°¥à°¾à°¨à°Ĥà°²à±ĭ", "'à®Ĩà®±à®¿à®²à¯į", "à¤Ĥà¤¦à¤¿à¤°à¥ĭà¤Ĥ", "Ġà°¸à±įà°µà°¾à°¤à°Ĥà°¤à±įà°°à±įà°¯à°Ĥ", "'à®Ĩà®±à®¿à®²à¯į'", "à¤Ĥà¤¦à¥ĭà¤²", "Ġà°¹à±Īà°¦à°°à°¾à°¬à°¾à°¦", ",01", "à¤Ĥà¤¦à¥ĭà¤²à¤¨", "Ġà°¹à°¿à°Ĥà°¦à±Ĥà°¦à±ĩà°¶à°Ĥ", "à¤Ĥà¤ªà¤¨à¥Ģ", "Ġà°ħà°£", ",013", "à¤Ĥà¤¬à¤Ĥà¤§", "Ġà°ħà°ªà±įà°ª", ",013.1", "à¤Ĥà¤¬à¥Ĥ", "Ġà°ħà°ķà±įà°·à°°à°¾à°¸à±įà°¯à°¤", ",013.1)", "à¤Ĥà¤¬à¥ĭ", "Ġà°ħà°¤à°¿à°ªà±Ĩà°¦à±įà°¦", ",57", "à¤Ĥà¤¬à¥Ĥà¤¦à¥įà¤µà¥Ģà¤ª", "Ġà°ħà°§à°¿à°ķà°¾à°°à°Ĥ", ",577", "à¤Ĥà¤¬à¥ĭà¤¡à¤¿à¤¯à¤¾,", "Ġà°ħà°¯à°¿à°¨à°¾,", ",577)", "à¤Ĥà¤Ĺà¤²à¥ĭà¤Ĥ", "Ġà°Ĩà°Ĺ", "à¤Ĥà¤Ĺà¤¿à¤ķ", "Ġà°ĩà°Ĥà°Ĺà±įà°²", "à¤Ĥà¤Ĺà¥ĭà¤²à¥ĭà¤Ĥ", "Ġà°ĩà°ķà±įà°ķ", "à¤Ĥà¤Ĺà¥įà¤°à¤¾à¤®", "Ġà°ĩà°Łà±Ģà°µà°²", ".10", "à¤Ĩà¤§à¤¿à¤ķà¤¾à¤°à¤¿à¤ķ", "Ġà°ĩà°¤à°°à°¦à±ĩà°¶", "à¤Ĩà¤°à¥įà¤¯à¤¨", "Ġà°Īà°¶à°¾à°¨à±įà°¯", ".7%", "à¤ķ,", "Ġà°Īà°¸à±įà°Łà±į", "à¤ķà¤¤à¤¾", "Ġà°īà°¤à±įà°¤à°°à°¾à°¨", "06", "à¤ķà¤²", "Ġà°īà°¨à±įà°¨à°¾à°°à±ģ.", "1.7%", "à¤ķà¤¾à¤°à¥ĭà¤Ĥ", "Ġà°īà°ªà°¯à±ĭà°Ĺà°¿à°¸à±įà°¤", "1,8", "à¤ķà¥įà¤", "Ġà°īà°Ĥà°Łà±ģà°Ĥà°¦à°¿.", "1,9", "à¤ķà¥įà¤ķ", "Ġà°İà°²à°ķà±įà°Łà±ĭà°°à°²à±į", "1,86", "à¤ķà¥įà¤·à¤®", "Ġà°İà°¨à±įà°¨à±ģà°ķà±ĭà°¬à°¡à°¤à°¾à°°à±ģ.", "1,86,013.1)", "à¤ķà¥įà¤·à¤¾", "Ġà°İà°¨à±įà°¨à°¿à°ķà°²à±įà°²à±ĭ", "1,900", "à¤ķà¥įà¤ķà¥įà¤¨", "Ġà°İà°ķà±įà°ķà±ģà°µà°Ĺà°¾", "2,601", "à¤ĸà¤¨à¥ĩ", "Ġà°ıà°°à±įà°ªà°¡à±įà°¡à°¾à°¯à°¿.", "26", "à¤Ĺà¤¤à¤¿", "Ġà°Ĳà°°à±ĭà°ªà°¾", "2009", "à¤Ĺà¤¹à¥ĭà¤Ĥ", "Ġà°Ĵà°ķà°Łà°¿à°Ĺà°¾", "à¤Ĺà¤¾à¤¨à¤¿à¤¸à¥įà¤¤à¤¾à¤¨,", "Ġà°ķà°¨à±ģà°®", "4,577)", "à¤Ĺà¥įà¤°", "Ġà°ķà°¨à±ģà°ķ", "40", "à¤Ĺà¥įà¤²", "Ġà°ķà°²à±ģ", "à¤Ĺà¥įà¤µ", "Ġà°ķà°³", "6.10", "à¤Ĺà¥ĭà¤²à¤¶à¤¾à¤¸à¥įà¤¤à¥įà¤°,", "Ġà°ķà°¿à°²à±ĭà°®à±Ģà°Łà°°à±įà°²à°ķà±ģ", "à¤Ĺà¥ĭà¤²à¤¿à¤ķ", "Ġà°ķà±ĥà°·à±įà°£", "858", "à¤Ĺà¥įà¤²à¤¾à¤¦à¥ĩà¤¶", "Ġà°ķà±ĩà°µà°²à°Ĥ", "à¤Ĺà¥įà¤µà¥ĩà¤¦", "Ġà°ķà±įà°°", "à¤ĺà¤°à¤¾à¤¨à¥ĭ", "Ġà°ķà°²à°¿à°¸à°¿", "à¤ļà¤¨à¤¾", "Ġà°ķà°¾à°°à°£à°Ĥà°Ĺà°¾", "à¤ļà¥Ģà¤¨", "Ġà°ķà°¾à°°à±įà°¯à°ķà±įà°°à°®", "à¤ļà¥ĩ", "Ġà°ķà°¾à°Ĥà°Ĺà±įà°°à±Ĩà°¸à±į", "à¤ļà¥įà¤", "Ġà°ķà°¿à°Ĥà°¦à°ķà±ģ", "à¤ļà¥įà¤ļ", "Ġà°ķà°Ĥà°ªà±Ĩà°¨à±Ģ", "à¤Ľà¥ĭà¤Łà¥ĩ", "Ġà°ķà±ģà°²à°¾à°²à±ģ,", "à¤ľà¤¼à¤¬à¥Ĥà¤¤", "Ġà°ķà±Ĥà°¡à±ģà°ķà±ģà°¨à°¿", "à¤ľà¥Ģà¤µ,", "Ġà°ķà±ĭà°²à±įâĢĮà°ķà°¾à°¤à°¾", "à¤ľà¤¨à¤¶à¥Ģà¤²à¤¤à¤¾", "Ġà°ĸà°¨à°¿à°ľà°¾à°²à±ģ", "à¤Łà¤¨à¤ķà¤¾à¤°à¥Ģ", "Ġà°Ĺà°Ĥà°Ĺ", "à¤Łà¤¾à¤¨,", "Ġà°Ĺà±Ĩà°²à±ģà°ļà±ģà°ķà±ĭà°µà°¡à°Ĥ", "à¤Łà¤¿à¤²", "Ġà°Ĺà±ĭà°¦à°¾à°µà°°", "à¤łà¤¿à¤¤", "Ġà°Ĺà°£à°¤à°Ĥà°¤à±įà°°", "à¤Ńà¤°à¤¾", "Ġà°ļà°°à°¿à°¤à±įà°°", "à¤Ńà¤¾", "Ġà°ļà°µ", "à¤Ńà¤¾à¤°à¤¤", "Ġà°ļà°¾à°°à°¿à°¤à±įà°°à°ķ", "à¤Ńà¤Ĺ", "Ġà°ļà±Ĩà°¨à±įà°¨à±Ī", "à¤Ńà¥Ģ", "Ġà°ļà±Ĩà°Ĥà°¦à°¾à°¯à°¿.", "à¤Ńà¥ģà¤¤à¤¾", "Ġà°ļà±Ĩà°Ĥà°¦à±ģà°¤à±ģà°¨à±įà°¨", "à¤Ńà¥ĩà¤¦", "Ġà°ļà±Īà°¨à°¾,", "à¥ªà¥Ń", "Ġà°ļà±Īà°¨à°¾à°¨à±ģ", "à¥Ģà¤ķ", "Ġà°ľà°²", "à¥Ģà¤¤à¤¿à¤°à¤¿à¤µà¤¾à¤ľà¥ĭà¤Ĥ", "Ġà°ľà°¾à°¬à°¿à°¤", "à¥ģà¤®à¤¨à¥įà¤¤à¥ģ", "Ġà°ľà°¨à°¤à°¾", "à¥ģà¤Ĥà¤¹à¤¬à¥ĭà¤²à¤¾", "Ġà°ľà°¨à°µà°°à°¿", "à¥ģà¤ķà¤¾", "Ġà°ľà°¨à±įà°®", "à¥ģà¤¡à¤¼à¥ĩ", "Ġà°ľà°¨à°¾à°Ńà°¾à°¤à±ĭ", "à¥ģà¤«à¤¾à¤ıà¤ģ", "Ġà°ľà°°à±ģà°ªà±ģà°ķà±ģà°Ĥà°Łà°¾à°°à±ģ.", "¨à®¿à®²", "à¥ģà¤¯à¤¾à¤¯à¤¿à¤ĵà¤Ĥ", "Ġà°ľà°¾à°¤à±ģà°²à±ģ,", "¨à®¿à®²à®¤à¯įà®¤à®¿à®©à¯į", "à¥ģà¤²à¤¨à¤¾", "Ġà°Ńà±Ĥà°Ł", "¨à¯įà®¤à®¿à®¯à®¿à®°à®¾à®¤", "à¥ģà¤ģ", "Ġà°Ńà°¾à°°à°¤à±į,", "©à®¿à®¤", "à¥ģà¤Ĩ", "Ġà°Ńà°¾à°°à°¤à°¦à±ĩà°¶à°Ĥà°²à±ĭà°¨à°¿", "ªà¯įà®ª", "à¥ģà¤¤à¥įà¤ªà¤¤à¥įà¤¤à¤¿", "Ġà°Ńà°¾à°·à°²à°¨à±ģ", "ªà¯įà®ªà¯Īà®ªà¯į", "à¥ģà¤¤à¥įà¤µà¥ĭà¤Ĥ", "Ġà°Ńà°¾à°Ĺà°¾à°¨à±įà°¨à°¿", "¯à¯Ĥ", "à¥ģà¤¦à¥Ĥ", "Ġà°Ńà±Įà°Ĺà±ĭà°³à°¿à°ķ", "¯à¯Ĥà®¤", "à¥ģà¤¦à¥įà¤", "\".", "¯à¯Ĥà®¤à®®à¯į", "à¥ģà¤¦à¥įà¤°", "%)", "°à¯Ī", "à¥ģà¤¦à¥Ĥà¤°", "%).", "°à¯Īà®ķ", "à¥ģà¤¦à¥įà¤§", "°à¯Īà®ķà®¿à®©à¯įà®±à®©.", "à¥ģà¤¦à¥įà¤°à¤¿à¤ķ", "±),", "à¥ģà¤¨à¤°à¥ģà¤¤à¥įà¤¥à¤¾à¤¨", "²à®ªà¯įà®ª", "à¥ģà¤¨à¥Į", "²à®¾à®µ", "à¥ģà¤¨à¥Įà¤¤à¤¿à¤¯à¤¾à¤ģ", ",9", "²à¯įà®²", "à¥ģà¤ªà¥ĭà¤·à¤£,", ",01,9", "²à®ªà¯įà®ªà¯Ĩ", "à¥ģà¤·à¥ĭà¤Ĥ", ",01,93,", "²à®ªà¯įà®ªà¯Ĩà®¯", "à¥ģà¤·à¥įà¤¯", ",01,93,42", "²à®ªà¯įà®ªà¯Ĩà®¯à®°à¯įà®µ", "à¥ģà¤¸à¤°à¥ĩ", ",01,93,422", "²à®ªà¯įà®ªà¯Ĩà®¯à®°à¯įà®µà¯ģà®ķà®³", "à¥ģà¤ģà¤ļà¥ĩ", ",01,93,422.", "²à®ªà¯įà®ªà¯Ĩà®¯à®°à¯įà®µà¯ģà®ķà®³à¯Īà®¯à¯ģà®®à¯į", "à¥ģà¤Ĩà¤¤à¥Ģ", ",26", "²à®¾à®µà¯ĭà®¸à¯į", "à¥ģà¤ķà¥Ģ", ",263", "²à®¾à®µà¯ĭà®¸à¯į,", "à¥Ĥà¤¦à¥Ģ", ".).", "²à¯įà®²à®¿à®¯", "à¥Ĥà¤¨à¤¾à¤¨à¥Ģ,", "..).", "²à¯įà®²à®¿à®¯à®®à®¾à®ķà®¤à¯į", "à¥Ĥà¤²", ".2", "³à®¾à®©à®¤à¯ģ", "à¥Ĥà¤·à¤£", ".8", "³à¯Īà®µ", "à¥Ĥà¤ļà¤¨à¤¾", ".9", "³à®¾à®¤à®¾à®°à®ļà¯į", "à¥ĥà¤¦à¥įà¤§", ".23", "³à¯Īà®µà¯ģà®ķà®³à¯į", "à¥ĥà¤¹à¤¦à¥į", ".23%).", "´à®¨à¯įà®¤", "à¥ĥà¤ľà¤¨à¤¶à¥Ģà¤²à¤¤à¤¾", ".30%),", "´à®¨à¯įà®¤à¯Īà®ķà®³", "à¥ĩà¤¤à¥Ģ", ".36", "´à®¨à¯įà®¤à¯Īà®ķà®³à®¿à®©à¯į", "à¥ĩà¤°", ".36%),", "·à¯į", "à¥ĩà¤¸à¤¿à¤¨", ".70%),", "¸à¯įà®¤à®¾à®©", "à¥ĩà¤¹à¤°à¤Ĺà¤¢à¤¼", ".72", "¸à¯įà®¤à®¾à®©à®¿à®©à¯į", "à¥ĩà¤¦à¥ĭà¤Ĥ", ".72%),", "¿Î¯", "à¥ĩà¤Łà¥ĩ", ".80%", "¿Î¯)", "à¥Īà¤®à¤¾à¤¨à¥ĩ", ".9%)", "Î±),", "à¥Īà¤°", "0.36%),", "Î¿Î¯)", "à¥Īà¤²à¥Ģ", "0.9%)", "Î¯Î±),", "à¥Īà¤¶à¥įà¤µà¤¿à¤ķ", "04%,", "à¥Īà¤Ĥà¤Ĺà¤¿à¤ķ", "003", "à¥ĭà¤¤à¥įà¤ªà¤¤à¥įà¤¤à¤¿", "010", "à¥ĭà¤®", "1,01,93,422.", "à¥ĭà¤¡à¤¼à¥ĭà¤Ĥ", "14%,", "à®£à®¿à®¤", "à¥ĭà¤¨à¥ĩà¤¶à¤¿à¤¯à¤¾", "17", "à®£à®¿à®ķà®³à¯į", "à¥ĭà¤²à¤¾à¤µà¥Ģà¤°à¤¾,", "17.23%).", "à®£à®Ļà¯įà®ķà®³à¯į", "à¥ĭà¤¹à¤¨à¤ľà¥ĭà¤¦à¤¡à¤¼à¥ĭ,", "à®£à¯ģà®ķ", "à¥ĭà¤Ĥà¤¨à¥ĩ", "2004", "à®£à¯Ī", "à¥Įà¤¤à¤®", "2,14%,", "à®£à®¿à®¤à®®à¯į", "à¥Įà¤¥à¥Ģ", "2,8", "à®£à¯ģà®ķà®ªà¯įà®ªà®Łà¯įà®Łà¯ģ", "à¥Įà¤¹", "2,87", "à®£à¯Ī,", "à¥Įà¤Ĺà¥ĭà¤²à¤¿à¤ķ", "2,87,263", "à®£à¯įà®ªà®µà®°à¯įà®ķà®³", "à¥įà¤¤à¤°à¤¿à¤ķà¥įà¤·", "3.72%),", "à®£à¯įà®ªà®µà®°à¯įà®ķà®³à®¾à®ķ", "à¥įà¤¤à¥įà¤°à¥Ģà¤¯", "3.80%", "à®£à¯įà®Łà®¾à®®", "à¥įà¤¥à¥Ģ", "3,04%,", "à®£à¯įà®Łà®¾à®°à¯į.", "à¥įà¤¨à¤¤à¤¿", "5%", "à®£à¯įà®Łà®¿à®¯à®¾", "à¥įà¤®à¤¿à¤²à¤¿à¤¤", "5.30%),", "à®£à¯įà®Łà®¾à®®à¯Īà®¯à¯Ī", "à¥įà¤¯à¤¾à¤¦à¤¿", "52", "à®£à¯įà®Łà®¿à®¯à®¾\"", "à¥įà¤¯à¤¾à¤Ĺ", "5,7", "à®¤à®®", "à¥įà¤¯à¤ľà¥Ģà¤µ,", "5,7%.", "à®¤à®°", "à¥įà¤¯à¥ĭà¤Ĥà¤ķà¤¿", "65,", "à®¤à®¾à®²à¯į", "à¥įà¤°à¤·à¥įà¤Łà¤¾à¤ļà¤¾à¤°,", "652", "à®¤à®¾à®ķà¯ģà®®à¯į.", "à¥įà¤°à¤¿à¤®à¥ĭà¤¹à¤¿à¤¨à¥Ģ", "8.70%),", "à®¤à®¾à®ķà¯įà®ķ", "à¥įà¤°à¤Ĥà¤¥,", "à®¤à®¿", "à¥įà¤°à¤Ńà¥ģà¤¤à¤¾", "¡à°¾à°²", "à®¤à®¿à®ª", "à¥įà¤°à¤®à¤£", "¡à°¿à°ªà±ĭà°¯à°¿à°Ĥà°¦à°¿.", "à®¤à®¿à®¯à®¾à®©", "à¥įà¤°à¥Ģà¤ķà¤¾", "¡à°¾à°²à°°à±įà°²", "à®¤à®¿à®²à¯į", "à¥įà¤µà¥Ģ", "¡à°¾à°²à°°à±įà°²à±ģ.", "à®¤à¯ģà®®à¯į", "à¥įà¤·à¤°à¤¤à¤¾", "¡à±ģ\"", "à®¤à¯ģà®ķà¯įà®ķ", "à¥įà¤¹à¥Ģà¤Ĥ", "¢à°µ", "à®¤à¯ģà®ļ", "à¥įà¤ŀà¤¾à¤¤", "¢à°µà°¿à°²à±įà°²", "à®¤à¯ĩà®ļ", "à¥įà¤ŀà¤¾à¤¨,", "¢à°µà°¿à°²à±įà°²à°¾à°¯à°¿.", "à®¤à¯Īà®¯à¯ģà®®à¯į", "¤à±Ĩ", "à®¤à¯Īà®ķà¯į", "¤à±įà°°à±Ģà°²à±ģ", "à®¤à®°à®µ", "Ġ\"à¤ĩà¤Ĥà¤¡à¤¸\"", "¥à°¨", "à®¤à®°à®µà¯ģ", "Ġ+", "¥à°®", "à®¤à®±à¯įà®ķà®¾à®©", "Ġ500", "¥à°¾à°°", "à®¤à®±à¯įà®ķà®¾à®²", "¥à°¿à°¤", "à®¤à®±à¯įà®ķà®¾à®ķ", "Ġ9000", "¥à°¨à°²à°²à±ĭ", "à®¤à®¾à®°à¯ĭ", "¥à°¾à°¨à±ĩ", "à®¤à®¾à®°à¯ĭ,", "¥à°¾à°°à±į", "à®¤à®¾à®ķà¯įà®ķà®¿", "¥à°¿à°¤à°¿", "à®¤à®¿à®ªà®²", "Ġ|", "¥à°¿à°ķà±į", "à®¤à®¿à®ªà®²à®¿à®ķà¯įà®ķà®ªà¯įà®ªà®Łà¯ģà®ķà®¿à®±à®¤à¯ģ.", "Ġ(India)", "¦à±ĩà°¶", "à®¤à¯ģà®ķà¯įà®ķà®¿", "Ġ(à¤ªà¥įà¤°à¤¾à¤ļà¥Ģà¤¨", "¦à±ĩà°¶à±Ģ", "à®¤à¯ģà®ļà®®à¯į", "Ġ(à¤Ĩà¤§à¤¿à¤ķà¤¾à¤°à¤¿à¤ķ", "§à°¿à°²à±įà°²", "à®¤à¯ĩà®ļà®®à¯į", "Ġ(à¤Ńà¤¾", "§à°Ĥ,", "à®¤à¯įà®¤à®¾à®²à¯į", "§à°¿à°²à±įà°²à°¿à°¨", "à®¤à¯įà®¤à®¿à®¯à®¿à®²à¯į", "Ġ121.1", "ªà°¸à±į,", "à®¤à¯įà®¤à®Łà¯įà®Ł", "Ġ140.76", "ªà±ģ", "à®¤à¯įà®¤à¯ģà®ķà¯į", "ªà±įà°°", "à®¤à¯įà®¤à¯ģà®Łà®©à¯į", "ªà±įà°°à°¦à°¾à°¯", "à®¤à¯įà®¤à¯Ģà®©à¯į", "Ġ1900", "ªà±įà°°à°¦à°¾à°¯à°¾à°²à±ģ", "à®¤à¯įà®¤à¯Ģà®µ", "«à±įà°°", "à®¤à¯įà®¤à¯Ģà®µà¯ģà®ķà¯įà®ķà¯ģ", "«à°²à°¿à°¤", "à®¤à¯įà®¤à¯ģà®ķà¯įà®ķà¯ģà®ķà¯į", "«à°²à°¿à°¤à°Ĥà°Ĺà°¾", "à®¤à¯įà®¤à¯Īà®¤à¯į", "Ġ1948", "«à±įà°°à°¾à°¨", "à®¤à¯įà®¤à¯Īà®ļà¯į", "Ġ2000", "«à±įà°°à°¾à°¨à±įà°", "à®¨à¯įà®¤à®®", "Ġ23", "«à±įà°°à°¾à°¨à±įà°¸", "à®¨à¯įà®¤à¯Īà®¯à®¿à®©à¯į", "Ġ2600", "«à±įà°°à°¾à°¨à±įà°¸à±į,", "à®¨à¯įà®¤à®®à®¾à®©à¯į", "Ġ2011", "¬à°¿à°¯à°¾", "à®¨à¯įà®¤à®¿à®°à®¾à®¤", "Ġ2021", "¬à°Ĥà°", "à®¨à¯įà®¨à¯ĩà®°à®¤à¯įà®¤à®¿à®²à¯į", "Ġ2020", "¬à±Ĩà°Ł", "à®©à®¤à¯į", "Ġ2022", "¬à°Ĥà°§", "à®©à®¤à¯įà®¤à®¿à®©à¯į", "Ġ21.4%", "¬à±Ĩà°Łà±įà°ķ", "à®©à®ª", "¬à±Ĩà°Łà±įà°ķà°¾", "à®©à®¿à®¯", "Ġ36.1", "®à°¾à°¦", "à®©à®¿à®ļ", "Ġ6,500", "®à±ĩà°·", "à®©à®Ļà¯įà®ķà®³à¯Īà®¯à¯ģà®Łà¯Īà®¯", "Ġ64%", "®à°¾à°¦à°¿à°°", "à®©à¯įà®®", "Ġ74.04%", "®à°¾à°¦à°¿à°°à°¿à°Ĺà°¾", "à®©à¯įà®ķà®³à¯į", "Ġà¤Ĭ", "®à±ĩà°·à°¨", "à®©à®ªà®¾à®¤", "Ġà¤ĳ", "®à±ĩà°·à°¨à±į", "à®©à®ªà®¾à®¤à®Ļà¯įà®ķà®³à¯į", "Ġà¤ĵ", "²à±ģà°µ", "à®©à®¿à®ļà®¿à®¯à®ªà¯į", "Ġà¤¤à¤¾à¤®à¥įà¤°", "²à±ĩà°ļ", "à®©à¯įà®©à¯ģà®®à¯į", "Ġà¤¤à¥ģà¤²à¤¨à¤¾", "²à±ģà°µà±Īà°¨", "à®©à¯įà®©à¯ĭ", "Ġà¤¤à¥ĩà¤ľ", "²à±ĩà°ļà°°à±į,", "à®©à¯įà®©à¯ĭà®ļ", "Ġà¤¤à¥ĩà¤ľà¤¼à¥Ģ", "³à°ª", "à®©à¯įà®©à¯ĭà®ļà®¿à®¯à®¿à®©à¯į", "Ġà¤¤à¥ĭ", "³à°ªà°¾à°Łà±ģ", "à®©à¯įà®®à¯Ģà®ķà®ªà¯į", "Ġà¤¤à¥įà¤¯à¤¾à¤Ĺ", "µà°¤", "à®©à¯įà®±à®¾à®®à¯į", "Ġà¤¤à¥įà¤°à¤¿à¤®à¥ĭà¤¹à¤¿à¤¨à¥Ģ", "µà°¤à°Ĥ,", "à®©à¯įà®±à®¾à®ķà®ķà¯į", "Ġà¤¤à¤¬", "µà°¾à°®à±ģà°²à±ģ", "à®ªà®°à¯į", "Ġà¤¤à¥Ģà¤¸à¤°à¤¾", "µà°¾à°®à±ģà°²à±ģ.", "à®ªà®²", "Ġà¤¥à¤¾à¤Īà¤²à¥Īà¤Ĥà¤¡,", "¶à°¿à°Ĥà°ļà±ĩ", "à®ªà®¾à®°à¯į", "Ġà¤¥à¥Ģ,", "¶à°Ĥà°²à±ĭà°¨à°¿", "à®ªà®¾à®³", "Ġà¤¥à¥ĩ,", "·à°¯à°¾à°²à±ģ", "à®ªà®¾à®Łà¯ģ", "Ġà¤¦à¤°à¥įà¤¶à¤¨", "·à°¿à°ķ", "à®ªà®ķ", "Ġà¤¦à¤ķà¥įà¤ķà¥įà¤¨", "·à±įà°Łà±įà°°à°ª", "à®ªà¯Ĥ", "Ġà¤¦à¥ģà¤¸à¤°à¥ĩ", "·à±įà°Łà±įà°°à°ªà°¤", "à®ªà¯Ĭ", "Ġà¤¦à¤¿à¤¯à¤¾,", "·à±įà°Łà±įà°°à°ªà°¤à±ģà°²à±ģ", "à®ªà®²à®®à®¾à®©à®¤à¯ģ.", "Ġà¤¦à¤ķà¥įà¤·à¤¿à¤£à¥Ģ", "¸à°¾à°¯à±ģà°¤", "à®ªà®¾à®³à®®à¯į,", "Ġà¤¦à¥ĥà¤·à¥įà¤Łà¤¿", "¸à°¿à°Ĥà°Ĺ", "à®ªà®ķà®±à¯įà®ª", "Ġà¤¦à¥ĥà¤·à¥įà¤Łà¤¿à¤ķà¥ĭà¤£", "¸à°¿à°Ĥà°Ĺà±į", "à®ªà®ķà®±à¯įà®ªà®ªà¯į", "Ġà¤¦à¥ĩà¤¶à¥ĭà¤Ĥ", "¸à±Ģà°²à±ģ,", "à®ªà¯Ĥà®®", "Ġà¤¦à¥ĩà¤ĸà¤¨à¥ĩ", "à°¢à°¾à°ķà°¾", "à®ªà¯Ĥà®®à®¿à®¯à®¿à®²à¯į", "Ġà¤§à¤®à¥įà¤®", "à°¥à°®", "à®ªà¯Ĭà®°à¯ģà®", "Ġà¤§à¥ĭà¤²à¤¾à¤µà¥Ģà¤°à¤¾,", "à°ĥ", "à®ªà¯Ĭà®°à¯ģà®³à®¾à®¤à®¾à®°à®ļà¯į", "Ġà¤¨à¤¦à¥Ģ", "à°Ī", "à®ªà¯įà®ªà®¾,", "Ġà¤¨à¤¯à¥ĩ", "à°ī", "à®ªà¯įà®ªà®¾à®Ł", "Ġà¤¨à¤¹à¥Ģà¤Ĥ", "à°ı", "à®ªà¯įà®ªà¯ģ", "Ġà¤¨à¤¿à¤¯à¤Ĥà¤¤à¥įà¤°à¤¿à¤¤", "à°¡à°¤", "à®ªà¯įà®ªà¯ģà®ķà¯į", "Ġà¤¨à¤¿à¤Ńà¤¾à¤¤à¥Ģ", "à°¡à°µ", "à®ªà¯įà®ªà¯Ĥà®°à¯įà®µ", "Ġà¤¨à¤ķà¤²", "à°¡à°¾à°¨à°¿à°ķà°¿", "à®ªà¯įà®ªà®¾à®Łà®®à¯į", "Ġà¤¨à¤¾à¤®:", "à°¡à°¾à°°à°¿", "à®ªà¯įà®ªà®¿à®¯à®©à¯įà®ķà®³à¯į", "Ġà¤¨à¤¾à¤®à¥ĭà¤¤à¥įà¤ªà¤¤à¥įà¤¤à¤¿", "à°¡à°¿à°Ĥà°ļà°¿,", "à®ªà¯įà®ªà®Łà¯ģà®¤à®²", "Ġà¤¨à¤¾à¤®à¥ĭà¤Ĥ", "à°¡à°¿à°Ĥà°ļà°¿à°Ĥà°¦à°¿.", "à®ªà¯įà®ªà®Łà¯ģà®ª", "Ġà¤¨à¤¿à¤°à¥įà¤µà¤¾à¤¹", "à°¡à°¿à°Ĺ", "à®ªà¯įà®ªà®Łà¯ģà®®à¯į", "Ġà¤¨à¤¿à¤°à¥įà¤§à¤¾à¤°à¤£", "à°¡à°Ĥ", "à®ªà¯įà®ªà®Łà¯ģà®¤à®²à®¿à®©à¯į", "Ġà¤¨à¤¿à¤°à¥įà¤Ń", "à°¡à°Ĥ,", "à®ªà¯įà®ªà®Łà¯ģà®ªà®µà®°à¯įà®ķà®³à¯į", "Ġà¤¨à¤¿à¤°à¥įà¤Ńà¤°", "à°¡à±ģ.", "à®ªà¯įà®ªà®Łà¯ģà®ķà®¿à®©à¯įà®±à®©à®°à¯į.", "Ġà¤¨à¥ĩà¤¤à¥ĥà¤¤à¥įà¤µ", "à°¡à±į", "à®ªà¯įà®ªà®Łà¯ģà®ķà®¿à®±", "Ġà¤¨à¥ĩà¤ªà¤¾à¤²", "à°¡à±įà°¯", "à®ªà¯įà®ªà®Łà¯įà®Łà®¤à¯ģ", "Ġà¤ªà¤¡à¤¼à¤¾", "à°¡à±įà°²", "à®ªà¯įà®ªà®Łà¯įà®Łà®©à®°à¯į.", "Ġà¤ªà¤¤à¤¨", "à°¡à°¤à°¾à°¯à°¿.", "à®ªà¯įà®ªà¯Ĥà®°à¯įà®µà®®à®¾à®ķ", "Ġà¤ªà¤°à¥įà¤µà¤¤", "à°¡à°µà°¸à±įà°¥à°¾à°¨", "à®®à®°à®ª", "Ġà¤ªà¤²à¥įà¤²à¥įà¤µà¥ĭà¤Ĥ", "à°¡à°µà°¸à±įà°¥à°¾à°¨à°Ĥà°²à±ĭ", "à®®à®¾à®±à¯įà®±", "Ġà¤ªà¥ģà¤¨à¤°à¥ģà¤¤à¥įà¤¥à¤¾à¤¨", "à°¡à°¿à°Ĺà°¿à°Ĥà°ļ", "à®®à®¿à®¤à¯įà®¤à¯ģ", "Ġà¤ªà¥Īà¤®à¤¾à¤¨à¥ĩ", "à°¡à°¿à°Ĺà°¿à°Ĥà°ļà±ģà°ķà±ĭà°µà°ļà±įà°ļ", "à®®à®¿à®°à¯ģà®¨à¯įà®¤", "Ġà¤ªà¤°à¤®à¤¾à¤£à¥ģ", "à°¡à°¿à°Ĺà°¿à°Ĥà°ļà±ģà°ķà±ĭà°µà°ļà±įà°ļà°¨à°¿", "à®®à®Łà¯Īà®¨à¯įà®¤à®©.", "Ġà¤ªà¤°à¤¾à¤ľà¤¿à¤¤", "à°¡à±ģ\".", "à®®à¯ģà®®à¯į", "Ġà¤ªà¤°à¤Ĥà¤ªà¤°à¤¾à¤ĵà¤Ĥ", "à°¡à±įà°¯à°ļ", "à®®à¯Īà®ªà¯į", "Ġà¤ªà¤°à¤Ĥà¤ªà¤°à¤¾à¤Ĺà¤¤", "à°¡à±įà°¯à°ļà°¿à°¤à±įà°°", "à®®à¯Īà®¯à®¾à®©", "Ġà¤ªà¤¶à¥įà¤ļà¤¿à¤®à¥Ģ", "à°¡à±įà°¯à°ļà°¿à°¤à±įà°°à°¾à°²à±ģ", "à®®à¯ĭ", "Ġà¤ªà¤¹à¤²à¥Ģ", "à°£à°¨", "à®®à®¯à®®à¯į", "Ġà¤ªà¤¹à¥ģà¤ģà¤ļà¥ĩ", "à°£à°¾à°³", "à®®à®°à®ªà¯ģà®ķà®³à¯į", "Ġà¤ªà¤¾à¤·à¤¾à¤£", "à°£à°¾à°¸", "à®®à®¾à®±à¯įà®±à®®à¯į", "Ġà¤ªà¤¾à¤°à¤¸à¥Ģ", "à°£à±ĩ", "à®®à®¾à®ķà¯ģà®®à¯į.", "Ġà¤ªà¤¾à¤°à¥įà¤¥à¥Ģ", "à°£à°¾à°³à°¿à°ķ", "à®®à®¿à®°à¯ģà®¨à¯įà®¤à¯ģà®®à¯į", "Ġà¤ªà¤¾à¤²à¤¨à¤¾", "à°£à°¾à°³à°¿à°ķà°²à±ģ", "à®®à®¿à®Łà®ªà¯įà®ªà®Łà¯įà®Ł", "Ġà¤ªà¤¾à¤Ĥà¤¡à¥įà¤¯", "à°£à°¾à°¸à°¿à°¯à°¾à°²à±ĭ", "à®®à¯Īà®ªà¯įà®ªà®¾à®ķ", "Ġà¤ªà¤¾à¤Ĥà¤¡à¥įà¤¯à¥ĭà¤Ĥ", "à°¤à°²", "à®®à¯Īà®ªà¯įà®ªà¯ģ", "Ġà¤ªà¤¾à¤ķà¤¿à¤¸à¥įà¤¤à¤¾à¤¨,", "à°¤à°¾à°¯", "à®®à¯į)", "Ġà¤ªà¥ģà¤°à¤¾à¤¨à¤¾", "à°¤à°¾à°²à°¤à±ĭ", "à®®à¯į:", "Ġà¤ªà¥ģà¤°à¥ģà¤·à¥ĭà¤Ĥ", "à°¤à°¿à°²à±ĭ", "à®®à¯įà®ªà®¿à®ķà¯įà®ķ", "Ġà¤ªà¥įà¤°à¤¤à¤¿", "à°¤à°¿à°ļà±ĩ", "à®®à¯įà®ªà¯ĭà®Ł", "Ġà¤ªà¥įà¤°à¤¥à¤®", "à°¤à°Ĥ", "à®®à¯įà®ªà®¿à®ķà¯įà®ķà¯Ī", "Ġà¤ªà¥įà¤°à¤¥à¤¾", "à°¤à°Ĥà°²à±ĭ", "à®®à¯įà®ªà¯ĭà®Łà®¿à®¯à®¾,", "Ġà¤ªà¥įà¤°à¤¶à¤¾à¤¸à¤¨", "à°¤à±Ģ", "à®¯à®Ļà¯įà®ķà®³", "Ġà¤ªà¥įà¤°à¤¾à¤¯à¤¦à¥įà¤µà¥Ģà¤ª", "à°¤à±ģ", "à®¯à¯į", "Ġà¤ªà¥įà¤°à¤Ĺà¤¤à¤¿", "à°¤à±Ĥ", "à®¯à¯įà®®à¯Īà®¯", "Ġà¤ªà¥įà¤°à¤¦à¥Ĥà¤·à¤£", "à°¤à±ĩ", "à®¯à¯įà®ļ", "Ġà¤ªà¥įà¤°à¤¦à¥ĩà¤¶", "à°¤à±įà°¯à°Ĥ", "à®¯à®Ļà¯įà®ķà®³à®¾à®²à¯ģà®®à¯į", "Ġà¤ªà¥įà¤°à¤®à¤¾à¤£", "à°¤à°°à°¿à°Ĥà°ļà°¿à°Ĥà°¦à°¿.", "à®¯à¯įà®®à¯Īà®¯à®±à¯įà®±", "Ġà¤ªà¥įà¤°à¤ķà¤¾à¤°", "à°¤à°¾à°¯à°¨à°¿", "à®¯à¯įà®®à¯Īà®¯à®±à¯įà®±à®µà¯Ī", "Ġà¤ªà¥įà¤°à¤ļà¤²à¤¨", "à°¤à°¿à°ķ,", "à®¯à¯įà®ļà¯įà®ļ", "Ġà¤ªà¥įà¤°à¤Ńà¥ģà¤¤à¥įà¤µà¥ĭà¤Ĥ", "à°¤à±Ģà°°", "à®¯à¯įà®ļà¯įà®ļà®²à¯į", "Ġà¤ªà¥įà¤°à¤Ńà¤¾à¤µà¤¶à¤¾à¤²à¥Ģ", "à°¤à±Ģà°°à°®à±ģ", "à®°à®¤à¯ģà®ļà®®à¯į", "Ġà¤ªà¥įà¤°à¥Įà¤¦à¥įà¤¯à¥ĭà¤Ĺà¤¿à¤ķà¥Ģ,", "à°¤à±ģà°ª", "à®°à®ªà¯įà®ªà®Łà¯įà®Ł", "Ġà¤«à¤²à¥ĩ", "à°¤à±ģà°ªà°µ", "à®°à®ªà¯įà®ªà®Łà¯įà®Łà®©.", "Ġà¤«à¤¿à¤²à¥Ģà¤ªà¥Ģà¤Ĥà¤¸,", "à°¤à±ģà°ªà°µà°¨à°¾à°²à±ģ", "à®°à®¾à®²à¯ģà®®à¯į", "Ġà¤«à¥Īà¤²à¥Ģ", "à°¤à±ĭà°·à±įà°£", "à®°à®¿à®¨à¯įà®¤", "Ġà¤«à¤¼à¤°à¤µà¤°à¥Ģ", "à°¤à±įà°¤à°¾", "à®°à¯ģà®ķà¯įà®ķ", "Ġà¤«à¤¼à¤¿à¤²à¥įà¤®à¥ĩà¤Ĥ,", "à°¤à±įà°¤à°¾à°ķ", "à®°à¯Īà®ķà®³à®¿à®²à¯į", "Ġà¤¬à¤¦à¤²", "à°¤à±įà°¤à°°à°¾à°²à±ģ", "à®°à¯įà®¤à¯įà®¤", "Ġà¤¬à¤®", "à°¤à±įà°¤à°¾),", "à®°à¯įà®ªà¯įà®ª", "Ġà¤¬à¤¸à¥įà¤¤à¤¿à¤¯à¥ĭà¤Ĥ", "à°¤à±įà°¤à°¾à°ķ,", "à®°à®ªà®¿à®ķà¯įà®ķ", "Ġà¤¬à¤¹à¥ģà¤¤", "à°¤à±įà°°à°¿", "à®°à®ªà®¿à®ķà¯įà®ķà®Łà®²à¯ģà®®à¯į,", "Ġà¤¬à¤¾à¤ľà¤¾à¤°", "à°¤à±įà°°à°¿,", "à®°à®¿à®¨à¯įà®¤à®¿à®°à®¾à®¤", "Ġà¤¬à¥ģà¤¦à¥įà¤§", "à°¤à±įà°µà°¾à°¨", "à®°à®¿à®¯à®ªà¯į", "Ġà¤¬à¥ĩà¤¸à¤¿à¤¨", "à°¤à±įà°µà°¾à°¨à°¿à°ķà°¿", "à®°à®ļà¯ģà®ķà®³", "Ġà¤¬à¥ĩà¤Łà¥ĩ", "à°¤à±įà°µà°¾à°²à±ģ", "à®°à®ļà¯ģà®ķà®³à®¾à®ķ", "Ġà¤¬à¤¡à¤¼à¥Ģ", "à°¤à±įà°µà°Ĥà°Ĺ", "à®°à¯ģà®¤à¯įà®¤à®¾à®ķ", "Ġà¤¬à¤¢à¤¼à¤¤à¥ĩ", "à°¤à±įà°µà°Ĥà°Ĺà°²", "à®°à¯ģà®¤à¯įà®¤à¯ģà®µ", "Ġà¤¬à¤¢à¤¼à¤¨à¥ĩ", "à°¤à±įà°¸à°¾à°¹", "à®°à¯ģà®¤à¯įà®¤à¯ģà®µà®®à¯į", "Ġà¤¬à¤¨à¤¾à¤¨à¥ĩ", "à°¤à±įà°¸à°¾à°¹à°Ĥà°Ĺà°¾,", "à®°à¯ģà®ķà¯įà®ķà®®à®¾à®©", "Ġà¤¬à¤¨à¤¾à¤¯à¤¾", "à°¦à°°à°¿à°ķ", "à®°à¯ģà®Ļà¯įà®ķà®¿à®£", "Ġà¤¬à¤¨à¤¾à¤Ī;", "à°¦à°¾à°¬à°¾à°¦", "à®°à¯ģà®Ļà¯įà®ķà®¿à®£à¯Īà®ķà¯įà®ķà®ªà¯įà®ªà®Łà¯įà®Ł", "Ġà¤¬à¤¾à¤Ĥà¤Ĺà¥įà¤²à¤¾à¤¦à¥ĩà¤¶", "à°¦à°¾à°¯à°ķ", "à®°à¯ĭà®ªà¯įà®ªà®¿à®¯", "Ġà¤¬à¤¾à¤Ĥà¤Łà¥ĩ", "à°¦à°¾à°²à°²à±ĭ", "à®°à¯ĭà®®à¯Īà®ªà¯į", "Ġà¤®à¤²à¥ĩà¤¶à¤¿à¤¯à¤¾", "à°¦à°¿,", "à®°à¯įà®¤à¯įà®¤à®¤à¯ģ.", "Ġà¤®à¤¾à¤¨à¤¨à¤¾", "à°¦à°¿à°ķà°¿", "à®°à¯įà®¨à¯įà®¤à®¤à®©à¯į", "Ġà¤®à¤¾à¤²à¤¦à¥Ģà¤µ,", "à°¦à°¿à°Ĺ", "à®°à¯įà®¨à¯įà®¤à®¤à¯ģ.", "Ġà¤®à¤Ĥà¤¦à¤¿à¤°à¥ĭà¤Ĥ", "à°¦à±Ģ", "à®°à¯įà®ªà¯įà®ªà®¾à®ļ", "Ġà¤®à¤Ĥà¤Ĺà¥ĭà¤²à¥ĭà¤Ĥ", "à°¦à±Ģà°¯", "à®°à¯įà®ªà¯įà®ªà®¾à®ļà®©à®¤à¯į", "Ġà¤®à¤ľà¤¼à¤¬à¥Ĥà¤¤", "à°¦à±ģà°²à±ģ", "à®°à¯įà®µà¯ģà®ķà¯įà®ķà¯ģ", "Ġà¤®à¤ł", "à°¦à±ģà°²à±ģ,", "à®°à¯įà®·à®µà®°", "Ġà¤®à¥ģà¤Ĥà¤¹à¤¬à¥ĭà¤²à¤¾", "à°¦à±ĩ", "à®°à¯įà®·à®µà®°à¯įà®¤", "Ġà¤®à¥ģà¤ķà¥įà¤¤", "à°¦à±ĩ,", "à®°à¯įà®·à®µà®°à¯įà®¤à®©à®°à¯į", "Ġà¤®à¥Ĥà¤²", "à°¦à±ĩ.", "à®°à¯įà®ķà®³à®¾à®²à¯į", "Ġà¤®à¥ĩà¤¹à¤°à¤Ĺà¤¢à¤¼", "à°¦à°°à°¿à°ķà°Ĥ,", "à®°à¯įà®ķà®³à®¿à®©à¯į", "Ġà¤®à¥ĭà¤¹à¤¨à¤ľà¥ĭà¤¦à¤¡à¤¼à¥ĭ,", "à°¦à°¾:", "à®°à¯įà®ķà®³à¯ģà®®à¯į", "Ġà¤®à¤¤à¤²à¤¬", "à°¦à°¾à°¬à°¾à°¦à±ģ", "à®°à¯įà®ķà®³à¯ģà®ķà¯įà®ķ", "Ġà¤®à¤¤à¤Ńà¥ĩà¤¦", "à°¦à°¾à°¯à°Ĥ", "à®°à¯įà®ķà®³à¯Ī", "Ġà¤®à¤§à¥įà¤¯à¤®", "à°¦à°¾à°¯à°ķà°®à±ĩ", "à®°à¯įà®ķà®³à¯Īà®ªà¯į", "Ġà¤®à¤§à¥įà¤¯à¤¯à¥ģà¤Ĺà¥Ģà¤¨", "à°¦à°¾à°¯à°ķà°®à±ĩà°¨à°¨", "à®°à¯įà®ķà®³à¯ģà®ķà¯įà®ķà¯ģà®ķà¯į", "Ġà¤®à¤¨à¥ģ", "à°¦à°¾à°¯à°ķà°®à±ĩà°¨à°¨à±Ģ,", "à®±à¯ģà®¤à®¿à®¯à®¾à®ķ", "Ġà¤®à¤¨à¥ģà¤·à¥įà¤¯", "à°¦à°¿à°Ĺà±įà°Ń", "à®±à¯įà®ªà®Łà¯ģà®¤à¯įà®¤", "Ġà¤®à¤¹à¤¤à¥įà¤µà¤ªà¥Ĥà¤°à¥įà¤£", "à°¦à°¿à°Ĺà±įà°Ńà°¾à°Ĺ", "à®±à¯įà®ªà®Łà¯ģà®¤à¯įà®¤à®¿à®¯", "Ġà¤®à¤¹à¤¾à¤¤à¥įà¤®à¤¾", "à°¦à°¿à°Ĺà±įà°Ńà°¾à°Ĺà±ĩ,", "à®±à¯įà®±à®¤à¯įà®¤à¯Ī", "Ġà¤®à¤¹à¤¾à¤ªà¥ģà¤°à¤¾à¤£", "à°¦à±Ģà°°à±įà°", "à®±à¯įà®±à®ªà¯įà®ªà®Łà¯įà®Łà®©.", "Ġà¤®à¤¹à¤¾à¤µà¥Ģà¤°", "à°¦à±Ģà°¯à±ģà°²à±ģ,", "à®±à¯įà®±à¯ģà®®à®¤à®¿", "Ġà¤®à¤¹à¤¾à¤ķà¤¾à¤µà¥įà¤¯", "à°¦à±Ģà°°à±įà°ĺ", "à®±à¯įà®ķà®°à¯Īà®ķà®³à®¿à®²à¯į", "Ġà¤®à¤¹à¤¾à¤ľà¤¨à¤ªà¤¦", "à°¦à±ģà°ªà°°", "à®±à¯įà®ķà®¾à®²à®¿à®ķ", "Ġà¤®à¤¹à¤¾à¤Ńà¤¾à¤°à¤¤", "à°¦à±ģà°°à±įà°ķà±Ĭ", "à®±à¯įà®ķà®¾à®²à®¿à®ķà®®à®¾à®ķà®¤à¯į", "Ġà¤®à¤¹à¤¿à¤²à¤¾à¤ĵà¤Ĥ", "à°¦à±ģà°Ĺà°¾", "à®²à®©à®¿à®¯", "Ġà¤®à¤¾à¤¨à¤¾,", "à°¦à±ģà°ªà°°à°¿", "à®²à®®à¯Īà®ªà¯įà®ªà¯ģ", "Ġà¤®à¤¿à¤²à¤¤à¤¾", "à°¦à±ģà°°à±įà°ķà±Ĭà°Ĥà°Łà±ģà°¨à±įà°¨", "à®²à®¾à®©", "Ġà¤®à¥ĩà¤ĤâĢĮ", "à°¦à±ģà°°à±įà°ķà±Ĭà°Ĥà°Łà±ģà°¨à±įà°¨à°¦à°¿.", "à®²à®¾à®©à®¤à¯ģ", "Ġà¤®à¥įà¤¯à¤¾à¤¨à¥įà¤®à¤¾à¤°", "à°¦à±ĩà°¶à°¾à°²à°²à±ĭ", "à®²à®¾à®µ", "Ġà¤®à¥įà¤¯à¤¾à¤Ĥà¤®à¤¾à¤°,", "à°¦à±ĩà°¶à°¾à°²à±ģ,", "à®²à®¿à®°à¯ģà®¨à¯įà®¤à¯ģ", "Ġà¤¯à¥ģà¤ķà¥įà¤¤", "à°¦à±ĩà°¶à°¾à°²à±ģ.", "à®²à¯Īà®ķà¯į", "Ġà¤¯à¥Ĥà¤¨à¤¾à¤¨à¥Ģ,", "à°¦à±ĩà°¶à°Ĥ,", "à®²à¯įà®ª", "Ġà¤¯à¤¹à¤¾à¤ģ", "à°¦à±ĩà°¶à°Ĥà°²à±ĭ", "à®²à®µà®¿à®©", "Ġà¤¯à¤¹à¤¾à¤Ĥ", "à°¦à±įà°¦à°¿à°", "à®²à®µà®¿à®²à¯įà®²", "Ġà¤¯à¤¹à¥Ĥà¤¦à¥Ģ", "à°¦à±įà°¦à°¿à°Ń", "à®²à®µà®¿à®©à®Ļà¯įà®ķà®³", "Ġà¤°à¤¤)", "à°¦à±įà°¦à°¿à°Ńà°¾à°Ĺ", "à®²à®µà®¿à®©à®Ļà¯įà®ķà®³à¯Īà®¯à¯ģà®®à¯į", "Ġà¤°à¤¾à¤·à¥įà¤Łà¥įà¤°à¤µà¤¾à¤¦à¥Ģ", "à°¦à±įà°¦à°¿à°Ńà°¾à°Ĺà°Ĥ", "à®²à®µà®¿à®²à¯įà®²à¯Ī", "Ġà¤°à¤¿à¤ªà¤¬à¥įà¤²à¤¿à¤ķà¥į", "à°¦à±įà°§à°²à°¤à±ĭ,", "à®²à®µà®¿à®²à¯įà®²à¯Ī.", "Ġà¤°à¤ķà¥įà¤·à¤¾", "à°¦à±įà°°à°¾à°¸", "à®²à®¾à®µà®¿à®°", "Ġà¤°à¤ĸà¤¨à¥ĩ", "à°¦à±įà°°à°¾à°¸à±ģ", "à®²à®¾à®µà®¿à®°à®¾,", "Ġà¤°à¥Ģà¤¤à¤¿à¤°à¤¿à¤µà¤¾à¤ľà¥ĭà¤Ĥ", "à°¦à±įà°°à°¾à°¸à±ģ),", "à®²à¯Īà®ķà®³", "Ġà¤°à¥ĭà¤®", "à°§à°¿à°Ĺ", "à®²à¯Īà®ķà®³à®¾à®ķ", "Ġà¤°à¤¹à¥ĩ", "à°§à°¾à°¨à±ģà°²à±ģ,", "à®²à¯įà®ªà¯ģà®ķà®³", "Ġà¤°à¤¾à¤ľà¤§à¤¾à¤¨à¥Ģ", "à°§à°¿à°Ĺà°®à°¿à°Ĥà°ļ", "à®²à¯įà®ªà¯ģà®ķà®³à®¾à®ķà®ķà¯į", "Ġà¤°à¤¾à¤ľà¤¶à¤¾à¤¹à¥Ģ", "à°§à°¿à°Ĺà°®à°¿à°Ĥà°ļà°¿", "à®²à¯įà®²à®¾à®¤", "Ġà¤°à¤¾à¤ľà¤¾", "à°¨,", "à®²à¯įà®²à®¿à®¯à®²à¯į", "Ġà¤°à¤¾à¤ľà¤ĺà¤°à¤¾à¤¨à¥ĭ", "à°¨à°¦à°¿à°ķà°¿", "à®²à¯įà®²à¯Īà®ªà¯įà®ªà®Łà¯ģà®¤à¯įà®¤à®ªà¯įà®ªà®Łà¯įà®Ł", "Ġà¤°à¤¾à¤ľà¤µà¤Ĥà¤¶,", "à°¨à°¨à°¿", "à®²à¯įà®²à¯Īà®ªà¯įà®ªà®Łà¯ģà®¤à¯įà®¤à®ªà¯įà®ªà®Łà¯įà®Łà®¤à®±à¯įà®ķà®¾à®©", "Ġà¤°à¤ļà¤¨à¤¾", "à°¨à°²", "à®²à¯įà®µà®¤à¯įà®¤à®¿à®©à¯į", "Ġà¤°à¤ļà¤¨à¤¾à¤ķà¤¾à¤²", "à°¨à°²à±ģ,", "à®²à¯įà®µà®¿à®¯à®±", "Ġà¤°à¤ļà¤¾", "à°¨à°µ", "à®²à¯įà®µà®ķà¯Īà®®", "Ġà¤²à¤¾à¤ĵà¤¸,", "à°¨à°µà°¿", "à®²à¯įà®µà®¿à®¯à®±à®¿à®µà¯ģ", "Ġà¤²à¤¿à¤ªà¥įà¤¯à¤¨à¥įà¤¤à¤°à¤£:", "à°¨à°µà°ļà±įà°ļà±ģ.", "à®²à¯įà®µà®ķà¯Īà®®à¯Īà®¯à¯Ī", "Ġà¤²à¥Ģà¤¨", "à°¨à°¾à°¦", "à®³à®¿à®°", "Ġà¤²à¥Ģà¤Ĥ", "à°¨à°¿à°ª", "à®³à®Ļà¯įà®ķà®³à®¿à®²à¯į", "Ġà¤²à¥ĩà¤ĸà¤¨", "à°¨à°¿à°°", "à®³à¯įà®ķ", "Ġà¤²à¥Īà¤Ĥà¤Ĺà¤¿à¤ķ", "à°¨à°¿à°µ", "à®³à®µà®¿à®²à®¾à®©", "Ġà¤²à¥Įà¤¹", "à°¨à°¿à°Ĥà°ļà°¿,", "à®³à®¿à®°à¯ģà®®à¯į", "Ġà¤²à¤Ĺà¤¤à¥Ģ", "à°¨à°¿à°ķ", "à®³à¯įà®³à¯ģà®®à¯į", "Ġà¤²à¤Ĺà¤Ńà¤Ĺ", "à°¨à°¿à°ļà±įà°ļ", "à®³à¯įà®ķà®¿à®©à¯įà®±à®©.", "Ġà¤²à¤Ĺà¥ĩ", "à°¨à±Ĥ", "à®´à®¾à®µà®¤à¯ģ", "Ġà¤µà¤¾à¤²à¤¾", "à°¨à±į,", "à®´à®¿à®ªà¯įà®ª", "Ġà¤µà¤¿à¤¨à¤¾à¤¶à¤ķà¤¾à¤°à¥Ģ", "à°¨à±įà°®", "à®´à®¿à®²", "Ġà¤µà¥ĥà¤¹à¤¦à¥į", "à°¨à±įà°¯", "à®´à¯ģà®ļ", "Ġà¤µà¥ĩà¤¦à¥ĭà¤Ĥ", "à°¨à±įâĢĮ", "à®´à¯Īà®¤à¯įà®¤", "Ġà¤µà¥Īà¤¶à¥įà¤µà¤¿à¤ķ", "à°¨à°¨à±Ģ", "à®´à¯įà®ķ", "Ġà¤µà¤¨à¥įà¤¯à¤ľà¥Ģà¤µ,", "à°¨à°²à°¬", "à®´à®¿à®ªà¯įà®ªà®Łà¯Īà®¨à¯įà®¤à®¤à¯ģ.", "Ġà¤µà¤¿à¤¦à¥ĩà¤ķ", "à°¨à°²à°¬à±Ī", "à®´à®¿à®²à¯įà®¨", "Ġà¤µà¤¿à¤¯à¤¤à¤¨à¤¾à¤®,", "à°¨à°²à°¬à±Īà°°", "à®´à®¿à®²à¯įà®¨à¯ģà®Ł", "Ġà¤µà¤¿à¤ĺ", "à°¨à°²à°¬à±Īà°°à±Ĩà°Ĥà°¡", "à®´à®¿à®²à¯įà®¨à¯ģà®Łà¯įà®ª", "Ġà¤µà¤¿à¤¶à¥ĩà¤·à¤ķà¤°", "à°¨à°²à°¬à±Īà°°à±Ĩà°Ĥà°¡à±ģà°ķà±ĭ", "à®´à®¿à®²à¯įà®¨à¯ģà®Łà¯įà®ªà®ļà¯į", "Ġà¤µà¤¿à¤¸à¤°à¥įà¤ľà¤¿à¤¤", "à°¨à°²à°¬à±Īà°°à±Ĩà°Ĥà°¡à±ģà°ķà±ĭà°Łà±įà°²à°ķà±ģ", "à®´à¯ģà®¤à¯įà®¤à®©.", "Ġà¤µà¤¿à¤¸à¥įà¤¤à¥ĥà¤¤", "à°¨à°µà°®", "à®´à¯ģà®¤à¯įà®¤à¯ģ", "Ġà¤µà¤¿à¤ķà¤¸à¤¿à¤¤", "à°¨à°µà°®à°¿,", "à®´à¯ģà®ļà¯įà®ļà®¿", "Ġà¤µà¤¿à¤ķà¤¾à¤¸", "à°¨à°µà°¿).", "à®´à¯Īà®¤à¯įà®¤à®©.", "Ġà¤µà¤¿à¤ĺà¤Łà¤¨à¤ķà¤¾à¤°à¥Ģ", "à°¨à°¾à°¦à°¿", "à®´à¯įà®¨à¯įà®¤à¯ģà®³à¯įà®³à®©.", "Ġà¤µà¤¿à¤ľà¥įà¤ŀà¤¾à¤¨,", "à°¨à°¿à°ªà°¿à°Ĥà°ļà°¿à°Ĥà°¦à°¿.", "à®´à¯įà®ķà®¿à®±à®¤à¯ģ.", "Ġà¤µà¤¿à¤Ńà¤¿à¤¨à¥įà¤¨", "à°¨à°¿à°°à±įà°µ", "à®µà®¤à¯ģ", "Ġà¤µà¤Ĥà¤¶à¤ľ", "à°¨à°¿à°°à±įà°µà°¾à°¹", "à®µà®®à¯į,", "Ġà¤µà¤Ĥà¤¶à¥ĭà¤Ĥ", "à°¨à°¿à°°à±įà°µà°¾à°¹à°ķ", "à®µà®²à¯į", "Ġà¤µà¥įà¤¯à¤ķà¥įà¤¤à¤¿", "à°¨à°¿à°µà°¿.", "à®µà®´à¯Īà®¤à¯įà®¤à®©.", "Ġà¤µà¥įà¤¯à¥ģà¤¤à¥įà¤ªà¤¤à¥įà¤¤à¤¿", "à°¨à°¿à°ķà°¿à°ķà°¿", "à®µà®¾à®²", "Ġà¤µà¥įà¤¯à¤¾à¤ªà¤°", "à°¨à°¿à°ļà±įà°ļà°¿à°Ĥà°¦à°¿.", "à®µà®¾à®ķà¯ģà®®à¯į.", "Ġà¤µà¥įà¤¯à¤¾à¤ªà¤¾à¤°à¤¿à¤ķ", "à°¨à°ķà°°à°®à±ĩ", "à®µà®¿à®¯à®¤à¯ģ.", "Ġà¤µà¥įà¤¯à¤¾à¤ªà¤ķ", "à°¨à°ķà°²", "à®µà®¿à®²à¯į", "Ġà¤¶à¤¬à¥įà¤¦", "à°¨à°ķà°°à°®à±ĩà°¨à°¨à°¿", "à®µà¯ģà®ªà¯į", "Ġà¤¶à¤¸à¥įà¤¤à¥įà¤°", "à°¨à±ģà°®à±ģ", "à®µà¯ģà®®à¯į,", "Ġà¤¶à¤¾à¤®à¤¿à¤²", "à°¨à±ģà°²à±ģ", "à®µà¯ģà®ķà®³à®¾à®©à®µà¯Ī", "Ġà¤¶à¤¿à¤²à¥įà¤ª", "à°¨à±ģà°®à±ģ,", "à®µà¯Īà®¯", "Ġà¤¶à¤ķ,", "à°¨à±ĩà°°à±ĩà°", "à®µà®©à®®à®¾à®ķ", "Ġà¤¶à¥ĭà¤·à¤£,", "à°¨à±ĩà°°à±ĩà°¡à±ģ\"", "à®µà®©à¯Ī", "Ġà¤¶à¤¾à¤¸à¤ķ", "à°¨à±įà°¨à°¡à°Ĥ,", "à®µà®°à¯ģà®®à¯į", "Ġà¤¶à¤¾à¤¸à¤ķà¥ĭà¤Ĥ", "à°¨à±įà°¨à°¤", "à®µà®°à¯ģà®ķà¯įà®ķà¯ģà®ªà¯į", "Ġà¤¶à¤¾à¤¸à¥įà¤¤à¥įà¤°à¥Ģà¤¯", "à°¨à±įà°¨à°¦à°¿.", "à®µà®°à¯įà®ķà®³à¯Ī", "Ġà¤¶à¤¾à¤¸à¤¨à¤ķà¤¾à¤²", "à°¨à±įà°¨à°¾à°°à±ģ.", "à®µà®°à¯įà®ķà®³à¯Īà®ķà¯į", "Ġà¤¶à¤¿à¤ķà¥įà¤·à¤¾", "à°¨à±įà°¨à±Ģ", "à®µà®¾à®²à¯įà®ķà®³à®¿à®²à¯į", "Ġà¤¶à¤¿à¤ķà¥įà¤·à¤¾à¤ĵà¤Ĥ", "à°¨à±įà°®à°¾à°°", "à®µà¯Īà®ķà®³", "Ġà¤¶à¥ģà¤°à¥ģà¤Ĩà¤¤à¥Ģ", "à°¨à±įà°®à°¾à°°à±į,", "à®µà¯Īà®ķà¯į", "Ġà¤¶à¥įà¤°à¥Ģà¤®à¤¦à¥įà¤Ńà¤¾à¤Ĺà¤µà¤¤", "à°¨à±įà°¯à°ªà±įà°°", "à®µà¯Īà®¯à®¾à®ķà®¤à¯į", "Ġà¤¶à¥įà¤°à¥Ģà¤²à¤Ĥà¤ķà¤¾", "à°¨à±įà°¯à°ªà±įà°°à°¾à°£", "à®µà¯Īà®ķà®³à¯ģà®ķà¯įà®ķà¯ģ", "Ġà¤¸à¤¾à¤¤à¤µà¤¾à¤ģ", "à°¨à±įà°¯à°ªà±įà°°à°¾à°£à±ģà°²", "à®µà¯įà®µà®¾à®±à¯ģ", "Ġà¤¸à¤¿à¤ĸ", "à°¨à±įâĢĮà°«", "à®µà¯įà®µà®¿à®¯à®²à¯į", "Ġà¤¸à¤Ĥà¤¬à¤Ĥà¤§", "à°¨à±įâĢĮà°«à°°à±įà°", "à®¾à®ľ", "Ġà¤¸à¤Ĥà¤Ĺà¥įà¤°à¤¾à¤®", "à°¨à±įâĢĮà°«à°°à±įà°®à±ĩà°·à°¨à±į", "à®¾à®£à®ªà¯įà®ªà®Łà¯ģà®ķà®¿à®±à®¤à¯ģ.", "Ġà¤¸à¤ķà¤¤à¤¾", "à°ªà°¾à°Ĥà°¡", "à®¾à®£à®®à¯į)", "Ġà¤¸à¤ķà¥įà¤·à¤®", "à°ªà°Ĥ", "à®¾à®£à¯įà®®à¯Īà®¯", "Ġà¤¸à¥ģà¤¦à¥Ĥà¤°", "à°ªà°Ł", "à®¾à®£à¯įà®®à¯Īà®¯à¯Īà®¯à¯ģà®®à¯į", "Ġà¤¸à¥Ĥà¤ļà¤¨à¤¾", "à°ªà±Ī", "à®¾à®£à¯įà®Łà®¿", "Ġà¤¸à¥ĥà¤ľà¤¨à¤¶à¥Ģà¤²à¤¤à¤¾", "à°ªà±įà°¤", "à®¾à®¤à®¿à®¯à®¿à®©à¯į", "Ġà¤¸à¥ĭà¤¨à¥ĩ", "à°ªà±įà°°à±Ģ", "à®¾à®¤à®¿à®°", "Ġà¤¸à¥įà¤¤à¤°", "à°ªà°¡à°¿à°¨", "à®¾à®¤à®¿à®°à®¿à®¯à®¾à®ķ", "Ġà¤¸à¤®à¤¾à¤ªà¥įà¤¤", "à°ªà°¡à±ģà°¤à±ģà°¨à±įà°¨", "à®¾à®©à®®à®¾à®©à®¤à¯ģ", "Ġà¤¸à¤®à¤¾à¤ľ", "à°ªà°¡à±ģà°¤à±ģà°¨à±įà°¨à°¾à°°à±ģ.", "à®¾à®©à®¿à®¯à®²à¯į,", "Ġà¤¸à¤®à¤Ĺà¥įà¤°", "à°ªà°°à°¿à°®", "à®¾à®©à®ķ", "Ġà¤¸à¤®à¥ĥà¤¦à¥įà¤§", "à°ªà°°à°Ĥà°Ĺà°¾", "à®¾à®©à¯įà®ķ", "Ġà¤¸à¤®à¥įà¤®à¤¿à¤²à¤¿à¤¤", "à°ªà°°à°¿à°®à°¿à°¤", "à®¾à®©à®ķà®¤à¯įà®¤à¯Ī", "Ġà¤¸à¤®à¥įà¤ªà¤¦à¤¾", "à°ªà°°à°¿à°®à°¿à°¤à°¿à°ķà°¿", "à®¾à®©à¯į,", "Ġà¤¸à¤®à¥įà¤ªà¥Ĥà¤°à¥įà¤£", "à°ªà°¾à°Ĥà°¡à°¿à°ļà±įà°ļ", "à®¾à®©à¯įà®ķà¯ģ", "Ġà¤¸à¤®à¥įà¤ªà¥įà¤°à¤Ńà¥ģà¤¤à¤¾", "à°ªà°¾à°Ĥà°¡à°¿à°ļà±įà°ļà±ĩà°°", "à®¾à®®à®©à®¿à®ļà®¿à®¯à®ªà¯į", "Ġà¤¸à¤¹à¤¿à¤·à¥įà¤£à¥ģà¤¤à¤¾", "à°ªà°¾à°Ĥà°¡à°¿à°ļà±įà°ļà±ĩà°°à°¿,", "à®¾à®®à®²à¯į", "Ġà¤¸à¤¹à¤ľ", "à°ªà°Łà±įà°¨", "à®¾à®®à®¿à®©à¯į", "Ġà¤¸à¤¾à¤ķ", "à°ªà°Łà±įà°¨à°Ĥ", "à®¾à®®à®¿à®Ł", "Ġà¤¸à¤¾à¤Ĺ", "à°ªà±ģà°¤à±Ĥ", "à®¾à®®à®¿à®Łà®¤à¯įà®¤à¯Īà®ķà¯į", "Ġà¤¸à¤¾à¤®à¤¨à¥ĩ", "à°ªà±ģà°¤à±įà°°", "à®¾à®¯à¯į", "Ġà¤¸à¤¾à¤®à¤¾à¤¨à¥įà¤¯", "à°ªà±ģà°¤à±įà°°,", "à®¾à®°à¯įà®¤à¯įà®¤", "Ġà¤¸à¤¾à¤®à¥ģà¤¦à¥įà¤°à¤¿à¤ķ", "à°ªà±Ĥà°°à±įà°µ", "à®¾à®°à¯įà®¤à¯įà®¤à¯Īà®¯à®¾à®©", "Ġà¤¸à¤¾à¤¹à¤¿à¤¤à¥įà¤¯,", "à°ªà±Ĥà°°à±įà°µà±ĭ", "à®¾à®±à¯įà®±à®²à¯Īà®ķà¯į", "Ġà¤¸à¤¾à¤ķà¥įà¤·à¤°à¤¤à¤¾", "à°ªà±Ĥà°°à±įà°µà±ĭà°¤à±įà°¤à°°à°¾à°²à±ģ", "à®¾à®±à¯įà®±à¯ģ", "Ġà¤¸à¤¾à¤Ĺà¤°", "à°ªà±įà°¤à±ģà°²", "à®¾à®²à®¤à¯įà®¤à¯Ģà®µà¯ģà®ķà¯įà®ķà¯ģ", "Ġà¤¸à¤Ĥà¤°à¤ķà¥įà¤·à¤¿à¤¤", "à°ªà±įà°¤à±ģà°²à°ķà°¾à°²", "à®¾à®³à®¿à®ª", "Ġà¤¸à¤Ĥà¤Ĺà¥Ģà¤¤", "à°ªà±įà°¤à±ģà°²à°ķà°¾à°²à°Ĥ", "à®¾à®³à¯ģà®®", "Ġà¤¸à¤Ĥà¤ĺà¤łà¤¿à¤¤", "à°ªà±įà°ªà°¿à°Ĥà°ļ", "à®¾à®³à®¿à®ªà®Ļà¯įà®ķ", "Ġà¤¸à¤Ĥà¤ĺà¥Ģà¤¯", "à°ªà±įà°ªà±ģà°ķà±ĭà°µà°ļà±įà°ļ", "à®¾à®³à®¿à®ªà®Ļà¯įà®ķà®¾à®©à¯į", "Ġà¤¸à¥ĩà¤¨à¤¾à¤ĵà¤Ĥ", "à°ªà±įà°ªà°¿à°Ĥà°ļà±ģà°ķà±ĭà°µà°¡", "à®¾à®³à¯ģà®®à®©à¯įà®±", "Ġà¤¸à¥ĩà¤ªà¤¿à¤¯à¤Ĥà¤¸", "à°ªà±įà°ªà°¿à°Ĥà°ļà±ģà°ķà±ĭà°µà°¡à°¾à°¨", "à®¾à®´à¯įà®¤à¯įà®¤", "Ġà¤¸à¥ĩà¤µà¤¾à¤ĵà¤Ĥ", "à°ªà±įà°ªà°¿à°Ĥà°ļà±ģà°ķà±ĭà°µà°¡à°¾à°¨à°¿à°ķ", "à®¾à®´à¯įà®¤à¯įà®¤à®ªà¯įà®ªà®Łà¯įà®Ł", "Ġà¤¸à¥įà¤¥à¤¾à¤Ī", "à°ªà±įà°ªà°¿à°Ĥà°ļà±ģà°ķà±ĭà°µà°¡à°¾à°¨à°¿à°ķà°¿,", "à®¾à®µà®¿à®¯", "Ġà¤¸à¥įà¤¥à¤¾à¤¨à¥Ģà¤¯", "à°ªà±įà°ªà°Łà°¿à°ķà±Ģ", "à®¾à®µà¯Ģà®°", "Ġà¤¸à¥įà¤µà¤¯à¤Ĥ", "à°ªà±įà°ªà±ģà°ķà±ĭà°µà°ļà±įà°ļà±ģ.", "à®¾à®µà¯ģà®®à¯į", "Ġà¤¸à¥įà¤µà¤°à¥ģà¤ª", "à°ªà±įà°°à°¿à°²", "à®¾à®µà¯Ģà®°à®°à®¿à®©à¯į", "Ġà¤¸à¥įà¤µà¤°à¥įà¤£à¤¿à¤®", "à°ªà±įà°°à°¿à°²à±į", "à®¾à®ķà®®à¯į", "Ġà¤¸à¥įà¤µà¤¶à¤¾à¤¸à¤¿à¤¤", "à°ªà±įà°°à±Ģà°Ĥ", "à®¾à®ķà®¾à®£à®®à¯į)", "Ġà¤¸à¥įà¤µà¤¤à¤Ĥà¤¤à¥įà¤°à¤¤à¤¾", "à°«à±įà°", "à®¾à®ķà¯ģà®ª", "Ġà¤¹à¤¡à¤¼à¤ªà¥įà¤ªà¤¾,", "à°«à±įà°ĺ", "à®¾à®ķà®°à®¿à®¤à¯įà®¤à®¤à¯ģ.", "Ġà¤¹à¤¦", "à°«à±įà°ĺà°¾à°¨", "à®¾à®ķà®°à®¿à®ķà®®à®¾à®©à®¤à¯ģ", "Ġà¤¹à¤°à¤¾", "à°«à±įà°ĺà°¾à°¨à°¿à°¸à±įà°¤", "à®¾à®ķà¯ģà®ªà®¾à®Łà¯ģ", "Ġà¤¹à¤°à¥įà¤·", "à°«à±įà°ĺà°¾à°¨à°¿à°¸à±įà°¤à°¾à°¨à±į", "à®¾à®ķà¯ģà®ªà®¾à®Łà¯ģ,", "Ġà¤¹à¤¾à¤°à¤¨à¤¾", "à°¬à°¾à°Łà±ģ", "à®¾à®ļà®®à¯į", "Ġà¤¹à¤¿à¤®à¤¾à¤²à¤¯", "à°¬à°¿à°¯", "à®¾à®ļà®¿à®¯", "Ġà¤¹à¤¿à¤¸à¥įà¤¸à¥ĭà¤Ĥ", "à°¬à±Ĩ", "à®¾à®ļà¯ģà®ª", "Ġà¤¹à¤¿à¤¨à¥įà¤¦,", "à°¬à°¡à°¿à°Ĥà°¦à°¿", "à®¾à®ļà®¿à®¯à®°à¯įà®ķà®³à¯ģà®®à¯į", "Ġà¤¹à¤¿à¤¨à¥įà¤¦à¥Ģ", "à°¬à°¡à°¿à°Ĥà°¦à°¿.", "à®¾à®ļà®¿à®¯à®¾à®µà®¿à®²", "Ġà¤¹à¤¿à¤¨à¥įà¤¦à¥ģà¤¸à¥įà¤¤à¤¾à¤¨,", "à°¬à°¡à±įà°¡", "à®¾à®ļà®¿à®¯à®¾à®µà®¿à®²à¯ģà®®à¯į", "Ġà¤¹à¥ģà¤Ĩ,", "à°¬à°¿à°¯à°¸", "à®¾à®ļà¯ģà®ªà®¾à®Łà¯įà®Łà®¿à®©à¯į", "Ġà¤¹à¥ĭà¤¤à¤¾", "à°¬à°¿à°¯à°¸à±į", "à®¾à®ľà®©à®ªà®¾à®¤à®Ļà¯įà®ķà®³à¯į", "Ġà¤¹à¥ĭà¤¤à¥ĩ", "à°¬à±Ĩà°Łà±įà°Ł", "à®¾à®Łà®¿", "Ġà¤¹à¥ĭà¤¨à¥ĩ", "à°¬à±Ĩà°Łà±įà°Łà±ģà°ķà±ģ", "à®¾à®Łà¯įà®ķà®³à®¿à®²à¯į", "Ġà¤¹à¥ĭà¤®à¥ĭ", "à°¬à±Ĩà°Łà±įà°Łà±ģà°ķà±ģà°¨à±įà°¨à°¾à°¯à°¿.", "à®¾à®Łà¯įà®ļà®¿à®¯", "Ġà¤ħà¤¦à¥įà¤µà¤¿à¤¤à¥Ģà¤¯", "à°®à°¤à°¿", "à®¾à®Łà¯ģà®ķà®³à¯Īà®¯à¯ģà®®à¯į", "Ġà¤ħà¤¨à¥ĩà¤ķ", "à°®à°¤à°¿à°¨à°¿", "à®¾à®Łà¯ģà®ķà®³à¯Īà®ķà¯į", "Ġà¤ħà¤²à¤Ĺ", "à°®à°¨à°¿à°Ĥà°ļà°¿,", "à®¾à®Łà¯įà®ļà®¿à®¯à¯ģà®Łà¯Īà®¯", "Ġà¤ħà¤¶à¥ĭà¤ķ", "à°®à°°à±įà°ľ", "à®¾à®Łà¯įà®Łà®¾à®ķà®¤à¯į", "Ġà¤ħà¤¸à¤®à¤¾à¤¨à¤¤à¤¾,", "à°®à°²", "à®¿à®¨à®¿à®²à®¤à¯įà®¤à®¿à®©à¯į", "Ġà¤ħà¤¸à¥įà¤¤à¤¿à¤¤à¥įà¤µ", "à°®à°¸à±į,", "à®¿à®³à¯Īà®µà¯ģà®ķà®³à¯į", "Ġà¤ħà¤¸à¥įà¤¥à¤¿", "à°®à°¾à°£", "à®¿à®¸à¯įà®¤à®¾à®©à¯į", "Ġà¤ħà¤¹à¤¿à¤Ĥà¤¸à¤ķ", "à°®à°¾à°°à±įà°", "à®¿à®ŀ", "Ġà¤ħà¤Ĥà¤¦à¤°", "à°®à°¿à°³", "à®¿à®£à¯įà®µ", "Ġà¤ħà¤Ńà¥Ģ", "à°®à°Ĥà°²à±ĭ", "à®¿à®£à¯įà®µà¯Ĩà®³", "Ġà¤ħà¤¤à¥įà¤¯à¤¾à¤ļà¤¾à¤°", "à°®à±Ģ", "à®¿à®£à¯įà®µà¯Ĩà®³à®¿à®¤à¯į", "Ġà¤ħà¤¤à¥įà¤¯à¤Ĥà¤¤", "à°®à±ĭ", "à®¿à®¤à®°à¯įà®ķà®³à¯į,", "Ġà¤ħà¤§à¤¿à¤ªà¤¤à¥įà¤¯", "à°®à±į", "à®¿à®¤à®¿à®ªà¯įà®ª", "Ġà¤ħà¤§à¤¿à¤ķ", "à°®à±įà°¯", "à®¿à®¤à®¿à®ªà¯įà®ªà®¿à®©à¯į", "Ġà¤ħà¤§à¤¿à¤°à¤¾à¤ľà¥įà¤¯,", "à°®à°°à±įà°ľà±Ĩà°¨", "à®¿à®¤à¯įà®¤à®¤à¯ģ", "Ġà¤ħà¤¨à¥ģà¤¯à¤¾à¤¯à¤¿à¤ĵà¤Ĥ", "à°®à°°à±įà°ľà±Ĩà°¨à±įà°", "à®¿à®¤à¯įà®¤à®©.", "Ġà¤ħà¤¨à¥įà¤¤à¤°à¤¿à¤ķà¥įà¤·", "à°®à°°à±įà°ľà±Ĩà°¨à±įà°¸à±Ģ", "à®¿à®¤à¯įà®¤à®µà®®à¯į,", "Ġà¤ħà¤¨à¥įà¤¤à¤°à¥įà¤Ĺà¤¤", "à°®à°²à°µ", "à®¿à®¨à¯įà®¤à®©à®°à¯į.", "Ġà¤ħà¤ªà¤¨à¤¾", "à°®à°²à°µà±ģà°¤", "à®¿à®¨à¯įà®¤à®¿à®¯", "Ġà¤ħà¤ªà¤¨à¥Ģ", "à°®à°²à°µà±ģà°¤à±ģà°Ĥà°¦à°¿.", "à®¿à®¨à¯įà®¤à¯ģà®°à¯Īà®ķà®¿à®©à¯įà®±à®©.", "Ġà¤ħà¤«à¤Ĺà¤¾à¤¨à¤¿à¤¸à¥įà¤¤à¤¾à¤¨,", "à°®à°¾à°°à±ģà°¡à±ģ.", "à®¿à®©à¯Īà®µ", "Ġà¤ħà¤«à¥įà¤°à¥Ģà¤ķà¤¾", "à°®à°¾à°°à±įà°¤à±Ĩ", "à®¿à®©à¯įà®©", "Ġà¤ħà¤Ĥà¤Ĺà¥įà¤°à¥ĩà¤ľà¤¼à¥Ģ:", "à°®à°¿à°³à°Ĥ.", "à®¿à®©à®°à¯į.", "Ġà¤Ĩà¤¤à¤¾", "à°®à±ģà°¨,", "à®¿à®©à¯Īà®µà¯ģà®ļà¯į", "Ġà¤Ĩà¤§à¥įà¤¯à¤¾à¤¤à¥įà¤®à¤¿à¤ķ", "à°®à±ģà°°à±ģ", "à®¿à®©à¯įà®©à®Ļà¯įà®ķà®³à®¿à®©à¯į", "Ġà¤Ĩà¤¯", "à°®à±ģà°²à±ĭ", "à®¿à®ªà¯įà®ªà®¾à®©à®¤à¯ģ", "Ġà¤Ĩà¤¯à¤¾", "à°®à±ģà°¦à±įà°°à°¤à±Ģà°°à°®à±ģ", "à®¿à®ªà¯įà®ªà¯Ģà®©", "Ġà¤Ĩà¤°à¤®à¥įà¤Ń", "à°®à±ģà°°à±ģ,", "à®¿à®ªà¯įà®ªà¯ģ", "Ġà¤Ĩà¤°à¥įà¤¯à¤¾à¤µà¤°à¥įà¤¤,", "à°®à±Ĥà°²", "à®¿à®ªà¯įà®ªà¯ģà®¤à¯į", "Ġà¤Ĩà¤µà¤¾à¤¸à¥ĭà¤Ĥ", "à°®à±Ĩà°°à°¿à°ķ", "à®¿à®ªà¯įà®ªà¯Ģà®©à¯įà®ļ", "Ġà¤Ĩà¤¸à¤ªà¤¾à¤¸", "à°®à±Ĩà°Ĥà°Ł", "à®¿à®ªà¯įà®ªà¯Ģà®©à¯įà®ļà¯ģ", "Ġà¤Ĩà¤Ĥà¤¤à¤°à¤¿à¤ķ", "à°®à±Ĩà°°à°¿à°ķà°¾,", "à®¿à®ªà¯įà®ªà¯Ģà®©à¯įà®ļà¯ģ,", "Ġà¤Ĩà¤Ĥà¤¦à¥ĭà¤²à¤¨", "à°®à±Ĩà°Ĥà°Łà°°", "à®¿à®ªà¯įà®ªà¯ģ)", "Ġà¤Ĩà¤ľ", "à°®à±Ĩà°Ĥà°Łà°°à±Ģ", "à®¿à®®à¯Īà®ªà¯įà®ªà®Łà¯ģà®¤à¯įà®¤à®ªà¯įà®ªà®Łà¯įà®Ł", "Ġà¤Ĩà¤¦à¤¿", "à°®à±Īà°¤à±ĩ", "à®¿à®®à¯įà®ļ", "Ġà¤Ĩà¤§à¤¿à¤ķà¤¾à¤°à¤¿à¤ķ", "à°®à±Īà°Ĥà°¦à°¿.", "à®¿à®®à¯Īà®ªà¯įà®ªà®Łà¯ģà®¤à¯įà®¤à®ªà¯įà®ªà®Łà¯įà®Łà®¤à®©à¯į", "Ġà¤Ĩà¤ķà¥įà¤°à¤®à¤£", "à°®à±Īà°¨à°¦à°¿.", "à®¿à®®à¯įà®ļà¯Ī", "Ġà¤ĩà¤£à¥įà¤¡à¤¿à¤¯à¤¾)", "à°®à±Īà°¨à°¦à±ĩ.", "à®¿à®¯à®¤à¯ģ", "Ġà¤ĩà¤¤à¥įà¤¯à¤¾à¤¦à¤¿", "à°®à±ĭà°¨à±įà°¨à°¤", "à®¿à®¯à®°à®ļà¯ģà®ķà®³à®¾à®ķ", "Ġà¤ĩà¤¤à¤¿à¤¹à¤¾à¤¸à¤ķà¤¾à¤°à¥ĭà¤Ĥ", "à°®à±įà°®à°¦à°¾à°¬à°¾à°¦à±ģ", "à®¿à®¯à®²à®®à¯Īà®ªà¯įà®ªà¯ģ", "Ġà¤ĩà¤¨à¥įà¤¹à¥Ģà¤Ĥ", "à°®à±įà°®à±Ĥ", "à®¿à®¯à®¾à®²à¯į", "Ġà¤ĩà¤¸à¤¨à¥ĩ", "à°®à±įà°¯à°¾à°²à±ģ", "à®¿à®¯à®¿à®²", "Ġà¤ĩà¤¸à¤ķà¥Ģ", "à°®à±įà°¯à°¾à°²à±ģà°¨à±įà°¨à°¾à°¯à°¿.", "à®¿à®¯à®¿à®²à®¾à®©", "Ġà¤ĩà¤¸à¥įà¤²à¤¾à¤®,", "à°¯à°¨à±įà°®à°¾à°°à±į,", "à®¿à®¯à®Ł", "Ġà¤ĩà¤¸à¥įà¤²à¤¾à¤®à¥Ģà¤ķ", "à°¯à°¾à°£", "à®¿à®¯à¯ģà®³à¯įà®³à®¤à¯ģ.", "Ġà¤ĩà¤Ĥà¤¡à¥ĭà¤¨à¥ĩà¤¶à¤¿à¤¯à¤¾", "à°¯à°¾à°¤à±įà°°", "à®¿à®¯à®±à¯į", "Ġà¤ĩà¤Ĥà¤¡à¤¿à¤¯à¤¾,", "à°¯à°¿à°Ĥà°¦à°¿", "à®¿à®¯à®¾à®µà®¿à®©à¯į", "Ġà¤Īà¤°à¤¾à¤¨", "à°¯à°Ĥ", "à®¿à®¯à®¾à®µà¯Ī", "Ġà¤Īà¤¸à¥įà¤Ł", "à°¯à°Ĥà°¤à±ĭ", "à®¿à®¯à®¾à®µà¯Īà®ļà¯į", "Ġà¤Īà¤¸à¤µà¥Ģ", "à°¯à°Ĥà°²à±ĭ,", "à®¿à®¯à®¾à®ķà®ªà¯į", "Ġà¤Īà¤¸à¤¾à¤Ī", "à°¯à±Ĥ", "à®¿à®¯à®¿à®²à®¿à®°à¯ģà®¨à¯įà®¤à¯ģ", "Ġà¤Īà¤¸à¥įà¤µà¥Ģ", "à°¯à°¾à°£à°¿à°ķ", "à®¿à®¯à®Łà¯įà®¨", "Ġà¤īà¤¦à¤¯", "à°¯à°¾à°£à°¿à°ķà±ģà°²", "à®¿à®¯à®Łà¯įà®¨à®¾à®®à¯į,", "Ġà¤īà¤¦à¥įà¤§à¤µ", "à°¯à°¾à°¤à±įà°°à°²à°¤à±ĭ,", "à®¿à®°à®®à¯į", "Ġà¤īà¤²à¥įà¤²à¥ĩà¤ĸà¤¨à¥Ģà¤¯", "à°¯à±Ĥà°¦à±ģà°²à±ģ,", "à®¿à®°à¯Īà®¯", "Ġà¤īà¤ļà¥įà¤ļ", "à°°à°µà±ĩà°°", "à®¿à®°à¯ģà®¨à¯įà®¤à®©à®°à¯į.", "Ġà¤īà¤Ńà¤°à¤¾", "à°°à°¾à°", "à®¿à®°à¯ģà®ķà¯įà®ķà®¾à®®à®²à¯į", "Ġà¤īà¤¤à¤°", "à°°à°¾à°®", "à®¿à®°à¯ģà®ķà¯įà®ķà¯ģà®®à¯į", "Ġà¤īà¤¤à¥įà¤¥à¤¾à¤¨", "à°°à°¾à°ļ", "à®¿à®°à¯Īà®¯à®¿à®Łà¯įà®Ł", "Ġà¤īà¤¤à¥įà¤ªà¤¤à¥įà¤¤à¤¿", "à°°à°¾à°ľ", "à®¿à®°à¯Īà®¯à®¿à®Łà¯įà®Łà¯ģ", "Ġà¤īà¤¤à¥įà¤¤à¤°à¤¾à¤§à¤¿à¤ķà¤¾à¤°à¥Ģ", "à°°à°¿à°Ĥà°ļà°¿à°¨", "à®¿à®±à®¿à®¤à¯įà®¤à®µà®®à¯į,", "Ġà¤īà¤¤à¥įà¤¤à¤°à¥Ģ", "à°°à°ķà±Ĥ", "à®¿à®±à¯įà®ķà¯ģ", "Ġà¤īà¤¤à¥įà¤ªà¤¨à¥įà¤¨", "à°°à°ļ", "à®¿à®²à®¾à®©à®µà¯Ī", "Ġà¤īà¤¤à¥įà¤ªà¤¾à¤¦à¤¨", "à°°à±Ĥ", "à®¿à®²à®¿à®ªà¯įà®ªà¯Ģà®©à¯įà®ļà¯ģ,", "Ġà¤īà¤¨à¤®à¥ĩà¤Ĥ", "à°°à±Ĥà°ª", "à®¿à®²à¯ģà®®", "Ġà¤īà¤¨à¤ķà¥Ģ", "à°°à±įà°¯à°µ", "à®¿à®²à¯įà®ķà®³à®¿à®²à¯į", "Ġà¤īà¤¨à¥įà¤¨à¤¤à¤¿", "à°°à°£à°²à±ĭ", "à®¿à®²à¯įà®ķà®³à¯į", "Ġà¤īà¤¸à¤¨à¥ĩ", "à°°à°¤à±į", "à®¿à®²à¯ģà®®à¯ĩ", "Ġà¤īà¤¸à¤ķà¥ĩ", "à°°à°®à±ĩ.", "à®¿à®²à¯įà®²à®¿", "Ġà¤Ĭà¤ªà¤°à¥Ģ", "à°°à°²à±ĭà°¨à±ĩ", "à®¿à®´à®ªà¯įà®ªà¯ģ", "Ġà¤ĭà¤·à¤Ńà¤¦à¥ĩà¤µ", "à°°à°µà±ĩà°°à°¤à°¾à°¯à°¨à°¿", "à®¿à®µà®¿à®Ł", "Ġà¤ĭà¤Ĺà¥įà¤µà¥ĩà¤¦", "à°°à°¾à°·à±įà°Łà±įà°°à°ªà°¤à±ģà°²à±ģ", "à®¿à®µà®¿à®Łà¯ģà®ķ", "Ġà¤ıà¤µà¤®", "à°°à°¾à°®à°¨à°µà°®à°¿,", "à®¿à®µà®¿à®Łà¯ģà®ķà®¿à®±à®¤à¯ģ.", "Ġà¤ıà¤µà¤Ĥ", "à°°à°¾à°²à±ģ.", "à®¿à®ķà®¾à®ļà®®à¯į", "Ġà¤ıà¤ķà¤¤à¥įà¤°à¥Ģà¤ķà¤°à¤£", "à°°à°¾à°ļà±Ģ,", "à®¿à®ķà¯ģà®Ł", "Ġà¤ĳà¤«à¤¼à¥į", "à°°à°¾à°ľà°ķà±Ģà°¯", "à®¿à®ķà¯į", "Ġà¤ĵà¤°", "à°°à°¾à°ľà°ķà±Ģà°¯à°¾à°²à±įà°²à±ĭ", "à®¿à®ķà¯ģà®Łà®¾à®µà¯ģà®®à¯į", "Ġà¤Ķà¤ªà¤¨à¤¿à¤µà¥ĩà¤¶à¤¿à¤ķ", "à°°à°ļà°¿à°Ĥà°¦à°¿.", "à®¿à®ķà¯įà®ķà®²à®¾à®©", "Ġà¤ķà¤¥à¤¾", "à°°à±ģà°¦à±ģà°Ĺà°¾", "à®¿à®ķà¯įà®ķà¯ĭ", "Ġà¤ķà¤¨à¥įà¤¨à¥Įà¤ľ", "à°°à±ģà°·à±įà°", "à®¿à®ķà¯įà®ķà®ªà¯įà®ªà®Łà¯įà®Łà®©.", "Ġà¤ķà¤®", "à°°à±ģà°Ĺà°¾", "à®¿à®ķà¯įà®ķà¯ĭà®ªà®¾à®°à¯į", "Ġà¤ķà¤¶à¥įà¤®à¥Ģà¤°", "à°°à±ģà°·à±įà°ķ", "à®¿à®ļà®¯", "Ġà¤ķà¤¹à¤²à¤¾à¤¯à¤¾", "à°°à±ģà°·à±įà°ķà±ģà°²", "à®¿à®ŀà®°à¯įà®ķà®³à¯į", "Ġà¤ķà¤¾à¤«à¤¼à¥Ģ", "à°°à±Ĥà°ªà°Ĥ,", "à®¿à®Łà®®à®¿à®°à¯ģà®¨à¯įà®¤à¯ģà®®à¯į", "Ġà¤ķà¤¾à¤°à¤ķ", "à°°à±ĩà°¬à°¿à°¯à°¾", "à®¿à®Łà¯įà®Łà®¤à¯įà®¤à®Łà¯įà®Ł", "Ġà¤ķà¤¾à¤²à¥Ģà¤¬à¤Ĥà¤Ĺà¤¾", "à°°à±įà°§à°¿à°²à±įà°²à°¿à°¨", "à®ħà®ķ", "Ġà¤ķà¤¿", "à°°à±įà°¶à°¿à°Ĥà°ļà±ĩ", "à®ħà®ķà®¾à®®à®©à®¿à®ļà®¿à®¯à®ªà¯į", "Ġà¤ķà¤¿à¤¯à¥ĩ", "à°°à±įà°¸à°¿à°Ĥà°Ĺà±į", "à®Ĩà®°à®¿à®¯à®ªà¯į", "Ġà¤ķà¤¿à¤ı", "à°°à±įà°£à°¿à°Ĥà°ļ", "à®Ĩà®Ļà¯įà®ķà®¿à®²", "Ġà¤ķà¤Ĥà¤ªà¤¨à¥Ģ", "à°°à±įà°£à°¿à°Ĥà°ļà°¬à°¡à°¿à°Ĥà°¦à°¿.", "à®Ĩà®Ļà¯įà®ķà®¿à®²à®®à¯į:", "Ġà¤ķà¤Ĥà¤¬à¥ĭà¤¡à¤¿à¤¯à¤¾,", "à°°à±įà°¤à°¿", "à®ĩà®£à¯įà®Łà®¿à®¯à®¾\"", "Ġà¤ķà¥ģà¤ªà¥ĭà¤·à¤£,", "à°°à±įà°¤à°¿à°¤à±įà°µ", "à®ĩà®²à®¿à®°à¯ģà®¨à¯įà®¤à¯ģ", "Ġà¤ķà¥įà¤¯à¥ĭà¤Ĥà¤ķà¤¿", "à°°à±įà°¤à°¿à°Ĺà°¾", "à®ĩà®¨à¯įà®¤à®¿à®¯à®¾\"", "Ġà¤ķà¥įà¤°à¤®", "à°°à±įà°¤à°¿à°¤à±įà°µà°Ĥ", "à®Ĳà®°à¯ĭà®ªà¯įà®ªà®¿à®¯", "Ġà¤ķà¤°à¤¤à¥ĩ", "à°°à±įà°¯à°¨à±į,", "à®Ĳà®ķà¯į", "Ġà¤ķà¤°à¤¨à¤¾,", "à°°à±įà°¯à°µà°Ĥà°¤", "à®ķà®®à®¾à®ķ", "Ġà¤ķà¤°à¥ĭà¤¡à¤¼,", "à°°à±įà°¯à°µà°Ĥà°¤à°Ĥà°Ĺà°¾,", "à®ķà®µà®²à¯į", "Ġà¤ķà¤²à¤¶", "à°°à±įà°²à°ªà±Ī", "à®ķà®¿à®®à¯įà®ļà¯Ī", "Ġà¤ķà¤²à¤¾,", "à°°à±įà°µà°¤à°¾à°²à°¤à±ĭ", "à®ķà®Ļà¯įà®ķà¯Īà®ļà¯į", "Ġà¤ķà¤¿à¤¯à¤¾;", "à°°à±įà°·à°¾à°²à±ģ", "à®ķà®Łà¯įà®Ł", "Ġà¤ķà¥ģà¤·à¤¾à¤£", "à°°à±įà°·à°¿à°¯", "à®ķà¯ģà®¤", "Ġà¤ķà¥ĥà¤·à¤¿", "à°°à±įà°·à°Ĥ", "à®ķà¯Ĩ", "Ġà¤ķà¥ĥà¤·à¤ķà¥ĭà¤Ĥ", "à°°à±įà°·à°£à°¨à±ģ", "à®ķà®°à®¾à®¤à®¿à®¯à®¿à®©à¯į", "Ġà¤ķà¥ĩà¤Ĥà¤¦à¥įà¤°à¤¿à¤¤", "à°°à±įà°·à°£à°²à°¨à±ģ", "à®ķà®°à®¿à®¤à¯įà®¤à¯ģ", "Ġà¤ķà¥ĭà¤Ī", "à°°à±įà°·à°¿à°¯à°¨à±ģà°²à±ģ,", "à®ķà®°à¯įà®ķ", "Ġà¤ķà¥įà¤·à¥ĩà¤¤à¥įà¤°à¥Ģà¤¯", "à°°à±įà°·à°Ĥ\",", "à®ķà®°à¯įà®ķà®°à¯į", "Ġà¤ķà¥įà¤·à¥ĩà¤¤à¥įà¤°à¥ĭà¤Ĥ", "à°°à±įà°Ĺà°°à±į,", "à®ķà®³à®¾à®µà®¿à®¯", "Ġà¤ĸà¤¾à¤¡à¤¼à¥Ģ", "à°°à±įà°Ĺà°Ĥ", "à®ķà®Łà¯įà®Łà®®à®¾à®©à®¤à¯ģ", "Ġà¤ĸà¤Ĺà¥ĭà¤²à¤¶à¤¾à¤¸à¥įà¤¤à¥įà¤°,", "à°°à±įà°ļà±ģà°¤à±ĭ", "à®ķà¯ģà®¤à®¿à®¯à¯Ī", "Ġà¤ĸà¥ĩà¤¤à¥Ģ", "à°°à±įà°ļà±ģà°Ĺ", "à®ķà¯Ĩà®ŀà¯įà®ļ", "Ġà¤Ĺà¤¾à¤ģà¤§à¥Ģ", "à°°à±įà°ļà±ģà°Ĺà°²", "à®ķà¯Ĩà®ŀà¯įà®ļà®¤à®¾à®°à¯ĭ,", "Ġà¤Ĺà¥ģà¤«à¤¾à¤ıà¤ģ", "à°°à±įà°ļà±ģà°Ĺà°²à±į,", "à®ķà¯įà®ķà®²à®¾à®©à®¤à¯ģ", "Ġà¤Ĺà¥Īà¤°", "à°°à±įà°ľà°¾à°¤", "à®ķà¯įà®ķà®¿à®²à¯į", "Ġà¤Ĺà¥Įà¤¤à¤®", "à°°à±įà°ľà°¾à°¤à±Ģà°¯", "à®ķà¯įà®ķà®ķà¯į", "Ġà¤Ĺà¥įà¤°à¤Ĥà¤¥,", "à°°à±įà°Łà°¿à°¯", "à®ķà¯įà®ķà¯ģ", "Ġà¤Ĺà¤£à¤¿à¤¤,", "à°°à±įà°Łà±ģà°²à±ģ", "à®ķà¯įà®ķà¯ģà®ķà®³à¯Ī", "Ġà¤Ĺà¤£à¤°à¤¾à¤ľà¥įà¤¯,", "à°°à±įà°Łà°¿à°¯à±ĭà°°", "à®ķà¯įà®ķà®¿à®¯à®®à¯į", "Ġà¤Ĺà¤¯à¤¾,", "à°°à±įà°Łà°¿à°¯à±ĭà°°à°¾à°°à°¿", "à®ķà¯įà®ķà®¿à®¯à¯ģà®³à¯įà®³à®¤à¯ģ.", "Ġà¤Ĺà¤¼à¤°à¥Ģà¤¬à¥Ģ,", "à°²,", "à®Ļà¯įà®ķà®¿à®©à®°à¯į.", "Ġà¤ĺà¤°à¥ĭà¤Ĥ", "à°²à°¹", "à®Ļà¯įà®ķà¯ģà®ķà®³à¯į", "Ġà¤ĺà¥ģà¤®à¤¨à¥įà¤¤à¥ģ", "à°²à°¾à°¦à°¾à°¯à°Ĥà°²à±ĭ", "à®Ļà¯įà®ķà¯Ĩà®Łà¯ģà®¤à¯įà®¤", "Ġà¤ĺà¥ĭà¤¡à¤¼à¥ĭà¤Ĥ", "à°²à°Ĥà°ª", "à®Ļà¯įà®ķà®³à®¾à®ķà®µà¯ģà®®à¯į", "Ġà¤ļà¤¾à¤¹à¤¾", "à°²à±Ģ", "à®Ļà¯įà®ķà®³à¯Īà®ªà¯į", "Ġà¤ļà¤¿à¤¡à¤¼à¤¿à¤¯à¤¾", "à°²à±Ģ,", "à®Ļà¯įà®ķà®³à¯Īà®¤à¯į", "Ġà¤ļà¥ģà¤¨à¥Įà¤¤à¤¿à¤¯à¤¾à¤ģ", "à°²à±Ģà°¨", "à®Ļà¯įà®ķà®³à¯Īà®ļà¯į", "Ġà¤ļà¥ģà¤ķà¤¾", "à°²à±ĩ", "à®Ļà¯įà®ķà¯Ĩà®Łà¯ģà®¤à¯įà®¤à®©.", "Ġà¤ļà¥ģà¤ķà¥Ģ", "à°²à±įà°ª", "à®ļà®¿à®¨à¯įà®¤à¯ģ", "Ġà¤ļà¥ĩà¤°", "à°²à±įà°¯à°Ĥ", "à®ļà®¿à®¸à¯įà®¤à®¾à®©à¯į", "Ġà¤ļà¥ĭà¤²", "à°²à°¸à±įà°¯", "à®ļà¯ĩ", "Ġà¤ļà¥ĭà¤²à¥ĭà¤Ĥ", "à°²à°¸à±įà°¯à°Ĥ", "à®ļà¯ĭà®ķ", "Ġà¤ļà¥Įà¤¥à¥Ģ", "à°²à°¹à°¾", "à®ļà¯ĩà®ķà®°à®¿à®¤à¯įà®¤à¯ģ", "Ġà¤ļà¤°à¤£", "à°²à°¾à°¹à±ĭà°°à±į", "à®ļà¯ĭà®ķà®°à¯į", "Ġà¤ļà¤°à¤®", "à°²à°¾à°¹à±ĭà°°à±įâĢĮà°²", "à®ļà¯įà®ļà®¤à¯įà®¤à¯ģà®ķà¯į", "Ġà¤ļà¥Ģà¤¨,", "à°²à°Ĥà°ªà±ģà°¤à±ĭ", "à®ļà¯įà®ļà®®à®¯à®®à¯į", "Ġà¤Ľà¥ĭà¤Łà¥ĩ", "à°²à°Ĥà°ķ,", "à®ŀà¯įà®ļà®¿à®¯", "Ġà¤ľà¤¡à¤¼à¥ĩà¤Ĥ", "à°²à°Ĥà°ķà°¾à°°", "à®Łà®ªà¯Ĥà®®à®¿à®¯à®¿à®²à¯į", "Ġà¤ľà¤®à¤¾", "à°²à°ķà±Ĭ", "à®Łà®¯à®Ļà¯įà®ķà®³à®¾à®²à¯ģà®®à¯į", "Ġà¤ľà¤¾à¤¨à¤µà¤°à¥ĭà¤Ĥ", "à°²à°ķà±Ĭà°¨à°¿", "à®Łà®¿à®¯à®¿à®²à®¿à®°à¯ģà®¨à¯įà®¤à¯ģ", "Ġà¤ľà¤¾à¤°à¥Ģ", "à°²à±Ģà°¨à±ĭà°¦", "à®Łà®Ļà¯įà®ķà®³à¯į,", "Ġà¤ľà¤¾à¤µà¤¾", "à°²à±Ģà°¨à±ĭà°¦à±įà°¯", "à®Łà®Ļà¯įà®ķà¯ģ", "Ġà¤ľà¤Ĥà¤¬à¥Ĥà¤¦à¥įà¤µà¥Ģà¤ª", "à°²à±Ģà°¨à±ĭà°¦à±įà°¯à°®à°Ĥà°²à±ĭ", "à®Łà¯įà®ķ", "Ġà¤ľà¤Ĥà¤Ĺà¤²à¥ĭà¤Ĥ", "à°²à±ģ.", "à®Łà®²à®¿à®²à¯į", "Ġà¤ľà¤Ĺà¤¹à¥ĭà¤Ĥ", "à°²à±ģà°Ĺà°¾", "à®Łà¯ģà®¤à¯įà®¤à¯ģ", "Ġà¤ľà¤Łà¤¿à¤²", "à°²à±ĩà°¦à±ģ", "à®Łà¯ģà®¤à¯įà®¤à¯ģà®ķà¯įà®ķ", "Ġà¤ľà¥ģà¤¡à¤¼à¥ĩ", "à°²à±ĭ,", "à®Łà¯ģà®¤à¯įà®¤à¯ģà®ķà¯įà®ķà®¾à®Łà¯įà®Łà®¾à®ķà®¤à¯į", "Ġà¤ľà¥įà¤ŀà¤¾à¤¤", "à°²à±ĭà°¨à±ģ", "à®Łà¯Īà®¨à¯įà®¤à®¤à¯Īà®¯à¯ģà®®à¯į", "Ġà¤ľà¤¨à¥įà¤®", "à°²à±ĭà°¯", "à®Łà¯Īà®¨à¯įà®¤à¯ģ", "Ġà¤ľà¤¬à¤ķà¤¿", "à°²à±ĭà°ļ", "à®Łà¯įà®ķà®°à¯ģà®¤à¯įà®¤à®¾à®ķ", "Ġà¤ľà¤¾à¤¤à¤¿à¤¯à¤¤à¤¾", "à°²à±ĭà°ļà°¨", "à®Łà¯įà®Łà®£à®Ļà¯įà®ķà®³à¯į", "Ġà¤ľà¤¿à¤¨à¤ķà¤¾", "à°²à±įà°ªà°Ĥ", "à®Łà¯įà®Łà®®à¯Īà®ªà¯įà®ªà®¾à®ķ", "Ġà¤ľà¤¿à¤¨à¤ķà¥ĩ", "à°²à±įà°²à°¡à°¿à°Ĥà°ļà°¿à°Ĥà°¦à°¿.", "à®Łà¯įà®Łà®®à¯į", "Ġà¤ľà¤¿à¤¨à¥įà¤¹à¥ĩ", "à°²à±įà°²à°²à±ģà°Ĺà°¾", "à®Łà¯įà®Łà®¾à®©à¯į,", "Ġà¤ľà¤¿à¤¨à¥įà¤¹à¥ĭà¤Ĥà¤¨à¥ĩ", "à°²à±įà°²à±ĭà°¨à°¿", "à®Łà¯įà®Łà®ļà¯įà®ļà®¤à¯įà®¤à¯ģà®ķà¯į", "Ġà¤ľà¤¿à¤¸à¤¨à¥ĩ", "à°³à±įà°", "à®Łà¯įà®Łà¯ģ", "Ġà¤ľà¤¿à¤¸à¤®à¥ĩà¤Ĥ", "à°³à±įà°³à°ªà°¾à°Łà±ģ", "à®Łà¯įà®Łà¯Īà®¯", "Ġà¤ľà¤¿à¤¸à¥ĩ", "à°µà°°à±įà°¤à°¿", "à®Łà¯įà®Łà¯Īà®¯à®¾à®Łà®¿", "Ġà¤ľà¥Īà¤¸à¥ĩ", "à°µà°°à±įà°·à°Ĥ\",", "à¯Ģà®¤à¯ģ", "Ġà¤Ńà¤°à¤¤", "à°µà°¾à°°", "à¯Ģà®ķà¯įà®ķà®¿à®¯à®®à¯į", "Ġà¤Ńà¤°à¤¾", "à°µà°¾à°³", "à¯Ģà®Łà®ªà¯Ĥà®®à®¿à®¯à®¿à®²à¯į", "Ġà¤Ńà¤ľà¤¨", "à°µà°¿.", "à¯Ģà®©à®¾,", "Ġà¤Ńà¥Įà¤Ĺà¥ĭà¤²à¤¿à¤ķ", "à°µà°¿à°§", "à¯Ģà®°à®°à¯įà®ķà®³à¯į", "Ġà¤Ńà¥įà¤°à¤·à¥įà¤Łà¤¾à¤ļà¤¾à¤°,", "à°µà°¿à°°", "à¯Ģà®´à¯įà®ļ", "Ġà¤Ńà¤¾à¤°à¤¤)", "à°µà°¿à°Ĥà°ļà°¿à°Ĥà°¦à°¿.", "à¯Ģà®´à¯įà®ļà¯įà®ļà®¿à®¯", "Ġà¤Ńà¤¾à¤°à¤¤à¤µà¤°à¥įà¤·,", "à°µà°Ĥà°¤", "à¯Ģà®´à¯įà®ļà¯įà®ļà®¿à®¯à®Łà¯Īà®¨à¯įà®¤à®¤à¯Īà®¯à¯ģà®®à¯į", "Ġà¤Ńà¤¾à¤·à¤¾à¤ĵà¤Ĥ", "à°µà±ģ", "à¯ģà®´à®¨à¯įà®¤à¯Īà®ķà®³à®¿à®©à¯į", "Ġà¤Ńà¥Ģà¤®à¤¬à¥ĩà¤Łà¤ķà¤¾,", "à°µà±ģà°²à±ģ", "à¯ģà®¤à®¿à®¯à®¾à®©", "Ġà¤Ńà¥Ĥà¤Łà¤¾à¤¨,", "à°µà±Īà°¨", "à¯ģà®¤à®Ļà¯įà®ķà®³à¯Īà®¯à¯ģà®Łà¯Īà®¯", "Ġà¤Ńà¥Ĥà¤®à¤¿à¤ķà¤¾", "à°µà±įà°µ", "à¯ģà®¤à®²à®¾à®®à®¿à®Łà®¤à¯įà®¤à¯Īà®ķà¯į", "Ġà¤Ńà¥Ĥà¤®à¤¿,", "à°µâĢĮ", "à¯ģà®¤à¯įà®¤à®¿à®°à¯Īà®¯à®¿à®Łà¯įà®Łà¯ģ", "Ġà¥§à¥¦", "à°µà°¾à°°à°Ĥà°Ł", "à¯ģà®ªà®µà®°à¯įà®ķà®³à¯Ī", "Ġà¥§à¥©", "à°µà°¾à°°à°Ĥà°Łà±ĭ", "à¯ģà®ªà®¾à®Łà¯ģà®ķà®³à¯Īà®ķà¯į", "Ġà¥§à¥®à¥«à¥®", "à°µà°¾à°°à°Ĥà°Łà±ĭ,", "à¯ģà®ªà¯ĭà®°", "Ġà¥§à¥¨à¥¦à¥¦", "à°µà°¾à°³à±įà°²à°¨à±ģ", "à¯ģà®ªà¯ĭà®°à¯įà®Ł", "Ġà¥§à¥¨à¥¦à¥¬", "à°µà°¿à°§à±įà°¯à°Ĥ", "à¯ģà®ªà¯ĭà®°à¯įà®Łà¯ģ", "Ġà¥¬à¥ªà¥Ń", "à°µà°¿à°°à±įà°Ń", "à¯ģà®®à®³à®µà®¿à®²à®¾à®©", "Ġà¥¬à¥¦à¥¦", "à°µà°¿à°°à±įà°Ńà°µà°¿à°Ĥà°ļà°¿à°Ĥà°¦à°¿.", "à¯ģà®®à®¾à®©à®®à®¾à®©à®¤à¯ģ", "Ġà¥¬à¥¦à¥¬", "à°µà°Ĥà°¤à°®à±Īà°¨", "à¯ģà®®à¯Ī", "à°µà°ļà±įà°ļà°¨à°¿", "à¯ģà®®à¯Īà®¯", "à°µà±ģà°¨à°¿", "à¯ģà®®à¯Ĭ", "à°µà±ĩà°°à±į,", "à¯ģà®®à¯Īà®¯à®¾à®ķ", "à°µà±Īà°¨à°¦à°¿.", "à¯ģà®®à¯Ĭà®°à¯ģ", "à°µà±įà°µà°¬à°¡à°¿à°¨", "à¯ģà®®à¯įà®ªà¯ģà®ķà¯į", "à°µâĢĮà°¸à±įà°¥", "à¯ģà®¯à®¾à®Łà¯įà®ļà®¿à®¯à¯ģà®Łà¯Īà®¯", "à°µâĢĮà°¸à±įà°¥âĢĮ", "à¯ģà®¯à®¿à®°à¯įà®ķà®³à¯į", "à°¶à°²à±ĭ", "à¯ģà®±à¯įà®±", "à°¶à°¾à°²", "à¯ģà®±à¯įà®±à®¿", "à°¶à±Ģ", "à¯ģà®²à¯įà®¤", "à°¶à±Ī", "à¯ģà®²à¯įà®¤à®¾à®©à®ķà®¤à¯įà®¤à¯Ī", "à°¶à±ĭ", "à¯ģà®µà®¤à®±à¯įà®ķà®¾à®ķ", "à°¶à°¾à°²à±įà°¯", "à¯ģà®µà®¤à¯ģà®®à¯į", "à°¶à°¾à°²à±įà°¯à°Ĥà°²à±ĭ", "à¯ģà®µà®¾à®ķà¯ģà®®à¯į.", "à°¶à±Ģà°¤à±ĭà°·à±įà°£", "à¯ģà®µà®¿", "à°¶à±Īà°²à°¸à±įà°¯", "à¯ģà®µà®¿à®²à¯į", "à°¶à±ĭà°ķà±ģ", "à¯ģà®ķà®¿à®²à¯į", "à°¶à±ĭà°ķà±ģà°¡à±ģ", "à¯ģà®ķà¯Ī", "à°·à°ķ", "à¯ģà®ķà¯įà®ķà®³", "à°·à°ķà°¾à°¹", "à¯ģà®ķà®³à¯Īà®¯à¯ģà®Łà¯Īà®¯", "à°·à°ķà°¾à°¹à°¾à°°", "à¯ģà®ķà®³à¯Īà®¤à¯į", "à°·à±įà°Łà°Ĥà°ķ", "à¯ģà®ķà®³à¯Īà®¯à¯ģà®Łà¯Īà®¯,", "à°·à±įà°Łà±ģ", "à¯ģà®ķà¯įà®ķà®¾à®²", "à°·à±įà°Łà°Ĥà°ķà°¾à°Ĺà°¾", "à¯ģà®ķà¯įà®ķà®¾à®ķ", "à°¸à°¤à±įà°¤à°¾à°ķ,", "à¯ģà®ķà¯įà®ķà®¾à®ķà®µà¯ģà®®à¯į", "à°¸à°¤à±įà°µà°¾à°¨à°¿à°ķà°¿", "à¯ģà®ķà¯įà®ķà¯ģà®³à¯į", "à°¸à°¾à°¯", "à¯ģà®ķà¯įà®ķà®³à¯Īà®ªà¯į", "à°¸à°¿à°¯à°¾à°²à±ĭ", "à¯Ĥà®£à¯Ī,", "à°¸à°¿à°Ĥà°¦à°¿.", "à¯Ĥà®¯à¯įà®®à¯Īà®¯à®±à¯įà®±à®µà¯Ī", "à°¸à°Ĥ", "à¯Ĥà®´à¯įà®¨à¯įà®¤à¯ģà®³à¯įà®³à®©.", "à°¸à°°à°®à±Īà°¤à±ĩ", "à¯Ĥà®ļà®¿à®¸à¯įà®¤à®¾à®©à¯į", "à°¸à°°à°¾", "à¯Ĥà®Łà¯įà®Łà®¾à®©à¯į,", "à°¸à°°à°¿à°¸à±įà°¤", "à¯Ĩà®°à¯ģà®ķà¯įà®ķà®®à®¾à®©", "à°¸à°°à°¾.", "à¯Ĩà®´à¯ģà®ļà¯įà®ļà®¿", "à°¸à°°à°¿à°¸à±įà°¤à±Ĥ", "à¯Ĩà®ķà®°à¯įà®ķà®°à¯į", "à°¸à°°à°¿à°¸à±įà°¤à±Ĥ,", "à¯Ĩà®³à®¿à®ķà¯į", "à°¸à°¾à°¯à°Ĥ", "à¯Ĩà®Łà¯ģà®¤à¯įà®¤à®©à®°à¯į.", "à°¸à±įà°¤à±įà°°", "à¯ĩà®ªà®¾à®³à®®à¯į,", "à°¸à±įà°µà°¤à°Ĥ,", "à¯ĩà®°à®Ļà¯įà®ķà®³à®¿à®²à¯į", "à°¸à±įà°µà°¾à°®à±ģà°²à±ģ.", "à¯ĩà®°à¯įà®ļ", "à°¸à±įà°¤à°µà±ģà°²à±ģ", "à¯ĩà®°à¯įà®ļà¯į", "à°¸à±įà°¤à°¾à°¨à±į", "à¯ĩà®±à¯įà®±à®ªà¯į", "à°¸à±įà°¤à°¾à°Ĥà°¬", "à¯ĩà®ļà®¿à®¯à®¾,", "à°¸à±įà°¤à±ģ", "à¯Īà®¤à®¿à®¯à®¾à®©", "à°¸à±įà°¤à±ģà°²à±ģ", "à¯Īà®¤à¯į", "à°¸à±įà°¤à°¾à°Ĥà°¬à±ģà°²", "à¯Īà®ªà®¾à®Łà¯ģ", "à°¸à±įà°¤à°¾à°Ĥà°¬à±ģà°²à±į", "à¯Īà®ªà¯įà®ªà®Łà¯įà®Ł", "à°¸à±įà°¤à±ģà°Ĥà°¦", "à¯Īà®¤à¯įà®¤à¯ģà®³à¯įà®³à®¤à¯ģ.", "à°¸à±įà°¤à±ģà°Ĥà°¦à°¨à°¿", "à¯Īà®¨à¯įà®¤à®¤à¯ģ", "à°¸à±įà°¥à°¾à°¨à°®à±Īà°¨", "à¯Īà®¨à¯įà®¤à®©.", "à°¸à±įà°¥à°¾à°¨à°Ĥ.", "à¯Īà®ªà¯įà®ªà®¾à®±à¯įà®±à®²à¯Īà®ķà¯į", "à°¸à±įà°°à°¿à°¦à±įà°§", "à¯Īà®ªà¯įà®ªà®Łà®Ļà¯įà®ķà®³à¯į,", "à°¸à±įà°°à°¿à°¦à±įà°§à°¿", "à¯Īà®ªà¯įà®ªà¯ģà®ķà®³à®¾à®©à®µà¯Ī", "à°¹à°°à±įà°Ĺà°°à±į,", "à¯Īà®ªà¯įà®ªà¯ģà®Łà®©à¯į", "à°¹à°¾à°¯", "à¯Īà®¯à®¤à¯įà®¤à®¿à®±à¯įà®ķà¯ģà®³à¯į", "à°¹à°¾à°²à±ģ,", "à¯Īà®¯à®±à¯įà®±", "à°¹à±įà°®", "à¯Īà®¯à®¿à®²à®¾à®©", "à°¹à±įà°°", "à¯Īà®¯à®¿à®²à¯į", "à°¹à°¾à°¯à°¿à°Ĥà°ļà°¿,", "à¯Īà®¯à¯Īà®ªà¯į", "à°¹à±įà°®à°ªà±ģà°¤à±įà°°,", "à¯Īà®¯à¯ģà®®à¯į,", "à°¹à±įà°°à°¾à°¨à±į", "à¯Īà®ķà®³à®¾à®©à®µà¯Ī", "à°¾)", "à¯Īà®ķà®³à¯Īà®¯à¯ģà®®à¯į,", "à°¾à°¡à±ģà°ķà±ģà°Ĥà°Ł", "à¯Īà®ķà¯įà®ķà®ªà¯įà®ªà®Łà¯ģà®ķà®¿à®±à®¤à¯ģ.", "à°¾à°¡à±įâĢĮ", "à¯Ĭà®£à¯įà®Łà®¾à®°à¯į.", "à°¾à°¡à±ģà°ķà±ģà°Ĥà°Łà±Ĥ", "à¯Ĭà®±à¯įà®ª", "à°¾à°¡à±ģà°ķà±ģà°Ĥà°Łà±Ĥà°¨à±ĩ", "à¯Ĭà®²à¯įà®²à®¾à®©", "à°¾à°¡à±įâĢĮà°Ĺ", "à¯ĭà®¯à¯į", "à°¾à°¡à±įâĢĮà°Ĺà±ĩà°ľà°¿", "à¯ĭà®°à¯Ī", "à°¾à°¤à°¿", "à¯ĭà®ķà®¿à®¤à®°à¯įà®ķà®³à¯į,", "à°¾à°¤à°¿à°¯", "à¯ĭà®Łà®¿à®¯à®¾à®©", "à°¾à°¤à±ĥ", "à¯Įà®¤à®®", "à°¾à°¤à°¿à°¯à±ģà°Ĺ", "à¯įà®¤à¯įà®¤à®©à®°à¯į.", "à°¾à°¤à°¿à°¯à±ģà°Ĺà°ªà±ģ", "à¯įà®¤à¯įà®¤à¯ģà®ķà¯į", "à°¾à°¤à±įà°°à°¿à°ķ", "à¯įà®¨à¯įà®¤à®©à®°à¯į.", "à°¾à°¤à±įà°°à°¿à°ķà±ģà°²à±ģ", "à¯įà®ªà®Ļà¯įà®ķà®³à¯į", "à°¾à°¦à°Ĥ", "à¯įà®ªà¯ģà®Łà¯Īà®¯", "à°¾à°¦à±ĩà°¶à°¿à°ķ", "à¯įà®ªà®±à¯įà®±à®µà¯Ī", "à°¾à°§à°¿", "à¯įà®ªà¯įà®ªà®¾à®©à®¤à¯ģ", "à°¾à°§à°¿à°¨", "à¯įà®ªà¯įà®ªà¯ģà®ķà¯įà®ķà®¾à®ķ", "à°¾à°§à°¿à°ª", "à¯įà®®à®¤à¯įà®¤à¯Īà®¤à¯į", "à°¾à°§à±Ģà°¨", "à¯įà®®à¯Īà®ªà¯į", "à°¾à°§à°¿à°¨à±ĩà°¤", "à¯įà®®à¯Ī,", "à°¾à°§à°¿à°ªà°¤à±įà°¯à°Ĥ", "à¯įà®®à¯Īà®¯à®¿à®²à¯į", "à°¾à°§à±Ģà°¨à°Ĥ", "à¯įà®µà¯ģ", "à°¾à°¨à°µà±ģà°¨à°¿", "à¯įà®ķà¯į", "à°¾à°¨à°Ĥà°¤à±ĭ", "à¯įà®ķà®³à®¾à®©", "à°¾à°¨à±Ģ", "à¯įà®ķà®³à¯Īà®ļà¯į", "à°¾à°¨à±ģà°²à±ģ,", "à¯įà®ķà¯įà®ķà®ªà¯įà®ªà®Łà¯įà®Łà®©à®°à¯į.", "à°¾à°¨à±įà°¤", "à¯įà®ķà¯įà®ķà¯Ī", "à°¾à°¨à±įà°¤à±ĭ", "à¯įà®ļà®¿à®¤à¯įà®¤", "à°¾à°ªà°¾à°¡à±ģà°ķà±ģà°Ĥà°Łà±Ĥà°¨à±ĩ", "à¯įà®ļà¯ģà®ªà¯ĭà®°à¯įà®Łà¯ģ", "à°¾à°ªà°ķ", "à¯įà®ļà¯Ĭà®²à¯įà®²à®¾à®©", "à°¾à°«à°¿à°ķ", "à¯įà®ļà®¿à®¯à®Łà¯Īà®¨à¯įà®¤à®©.", "à°¾à°«à±įà°Ł", "à¯įà®ļà®¿à®ķà¯įà®ķà¯ģ", "à°¾à°«à°¿à°ķà±į", "Ġ'à®Ĩà®±à®¿à®²à¯į'", "à°¾à°«à±įà°Łà±įâĢĮ", "Ġ-", "à°¾à°«à±įà°Łà±įâĢĮà°µà±ĩà°°à±į,", "à°¾à°¬à°²à±įà°¯à°Ĥ", "à°¾à°¬à±ģà°¨", "à°¾à°¬à±ģà°¨à°¿à°¸à±įà°¤à±ģà°¨à±įà°¨", "Ġ\"à®ĩà®£à¯įà®Łà®¿à®¯à®¾\"", "à°¾à°¬à±ģà°¨à°¿à°¸à±įà°¤à±ģà°¨à±įà°¨à°¾à°°à±ģ.", "Ġ\"à®ĩà®¨à¯įà®¤à®¿à®¯à®¾\"", "à°¾à°®à°¨à°¿", "Ġ\"à®ļà®¿à®¨à¯įà®¤à¯ģ", "à°¾à°®à°¿à°¤à±įà°°", "Ġ(Republic", "à°¾à°®à°¿à°ķ", "à°¾à°®à±ģà°ĸà±įà°¯", "Ġ(à®¤à®±à¯įà®ķà®¾à®²", "à°¾à°®à°¿à°¤à±įà°°,", "Ġ(à®ħà®ķà®¾à®®à®©à®¿à®ļà®¿à®¯à®ªà¯į", "à°¾à°®à±ģà°ĸà±įà°¯à°¤à°¨à±ģ", "Ġ(à®Ĩà®Ļà¯įà®ķà®¿à®²à®®à¯į:", "à°¾à°¯\",", "Ġ(á¼¸Î½Î´Î¯Î±),", "à°¾à°¯à°¤à°¿", "Ġ(á¼¸Î½Î´Î¿Î¯)", "à°¾à°¯à°ªà°¡à±ģà°¤à±ģà°¨à±įà°¨à°¾à°°à±ģ.", "à°¾à°¯à°®à±Īà°¨à°¦à°¿.", "à°¾à°¯à±Ģà°²à±ģ", "Ġ140", "à°¾à°¯à°ķà°¾à°°à°¿à°Ĺà°¾", "Ġ1858", "à°¾à°°à°£à°Ĥà°Ĺà°¾", "Ġ1526", "à°¾à°°à°¸à°¤à±įà°µà°¾à°¨à°¿à°ķà°¿", "à°¾à°°à°¾à°²", "à°¾à°°à°¾à°²à±ģ,", "Ġ2,000", "à°¾à°°à°¿à°¸à±įà°¤à°¾à°°à±ģ.", "Ġ2,500", "à°¾à°°à°¿à°Ĥà°¦à°¿.", "Ġ21.7%", "à°¾à°°à°Ĥ,", "à°¾à°°âĢĮ", "Ġ2023", "à°¾à°°à°¤à°®à±įà°¯à°¾à°²à±ģà°¨à±įà°¨à°¾à°¯à°¿.", "à°¾à°°à±ģà°®à±Ĥà°²", "Ġ36.10", "à°¾à°°à±įà°¥à°¨à°²à°²à±ĭ", "à°¾à°°à±įà°ªà°¸à±į,", "à°¾à°°à±įà°¸à±Ģà°²à±ģ,", "à°¾à°°à±įà°ķà±į", "Ġ600", "à°¾à°°à±įà°ķà±įâĢĮ", "Ġ606", "à°¾à°°à±įà°ķà±įâĢĮà°Łà°¿à°ķ", "Ġ647", "à°¾à°°à±įà°ķà±įâĢĮà°Łà°¿à°ķà°¾à°²à±ĭ", "Ġ74%", "à°¾à°°âĢĮà°¤à°Ĥà°²à±ĭ", "à°¾à°²à°¨à°¿", "Ġà®¯à¯Ĥà®¤à®®à¯į", "à°¾à°²à°¨à±įà°¨à±Ģ", "Ġà®²à®¾à®µà¯ĭà®¸à¯į,", "à°¾à°²à°¾", "Ġà®¤à®¨à¯įà®¤à¯Īà®¯à®¿à®©à¯į", "à°¾à°²à°ľ", "Ġà®¤à®±à¯įà®ķà®¾à®²à®¿à®ķà®®à®¾à®ķà®¤à¯į", "à°¾à°²à±Ĩ", "Ġà®¤à®¾à®£à¯įà®Łà®¿", "à°¾à°²à±ĩ", "Ġà®¤à®¾à®£à¯įà®Łà®¿à®¯", "à°¾à°²à±ĩ.", "Ġà®¤à®¾à®´à¯įà®¤à¯įà®¤à®ªà¯įà®ªà®Łà¯įà®Ł", "à°¾à°²à±įà°¦", "Ġà®¤à®¿à®²à¯įà®²à®¿", "à°¾à°²à°¨à±ģà°Ĥà°¡à°¿", "Ġà®¤à®ķà®µà®²à¯į", "à°¾à°²à°ľà±Ģ,", "Ġà®¤à®Ļà¯įà®ķà®¿à®©à®°à¯į.", "à°¾à°²à±ģà°Ĺà°¾,", "Ġà®¤à®Łà®¯à®Ļà¯įà®ķà®³à®¾à®²à¯ģà®®à¯į", "à°¾à°²à±Ĩà°ķà±įà°ķà°¨à±ģ", "Ġà®¤à¯Ĥà®¯à¯įà®®à¯Īà®¯à®±à¯įà®±à®µà¯Ī", "à°¾à°²à±Ĩà°ķà±įà°ķà°¨à±ģà°Ĥà°¦à°¿.", "Ġà®¤à®©à®¿à®¤à¯į", "à°¾à°²à±ĩà°ķ", "Ġà®¤à®©à®¿à®®à¯Īà®ªà¯įà®ªà®Łà¯ģà®¤à¯įà®¤à®ªà¯įà®ªà®Łà¯įà®Łà®¤à®©à¯į", "à°¾à°²à±ĩà°ķà°¾à°Ĺà°¾", "Ġà®¤à®©à®¿à®¯à®¾à®ķà®ªà¯į", "à°¾à°²à±ĭà°¯", "Ġà®¤à®©à¯įà®®à¯Īà®¯à¯ģà®Łà®©à¯į", "à°¾à°²à±įà°¦à±Ģ", "Ġà®¤à®©à¯įà®®à¯Īà®¯à¯Ī", "à°¾à°²à±įà°¦à±Ģà°µà±ģà°²à±ģ,", "Ġà®¤à®®à¯įà®®à®¤à¯įà®¤à¯Īà®¤à¯į", "à°¾à°³à°¾à°ĸ", "Ġà®¤à®®à®¿à®´à®¿à®©à¯į", "à°¾à°³à±ģà°ķ", "Ġà®¤à®®à®¿à®´à®¿à®²à¯į", "à°¾à°³à°¾à°ĸà°¾à°¤à°Ĥ", "Ġà®¤à®²à¯Īà®µà®©à¯Ī", "à°¾à°³à±ģà°ķà±įà°¯", "Ġà®¤à®²à¯Īà®µà®°à¯įà®ķà®³à¯Īà®ķà¯į", "à°¾à°³à±ģà°ķà±įà°¯à±ģà°²à±ģ,", "Ġà®¤à®¾à®ķà¯įà®ķà®¤à¯įà®¤à¯Ī", "à°¾à°µà°¡à°Ĥ", "Ġà®¤à®¾à®ķà¯įà®ķà®®à¯į", "à°¾à°µà°³à°¿,", "Ġà®¤à®¾à®ķà¯įà®ķà¯ģà®¤à®²à¯į", "à°¾à°µà°¿à°¡", "Ġà®¤à®¿à®°à¯Īà®ªà¯įà®ªà®Łà®Ļà¯įà®ķà®³à¯į,", "à°¾à°¶à±įà°®", "Ġà®¤à®¿à®ķà®´à¯įà®¨à¯įà®¤", "à°¾à°¶à±įà°°", "Ġà®¤à®¿à®ķà®´à¯įà®ķà®¿à®±à®¤à¯ģ.", "à°¾à°¶à±įà°µ", "Ġà®¤à®¿à®Łà¯įà®Łà®®à®¿à®Łà®ªà¯įà®ªà®Łà¯įà®Ł", "à°¾à°¶à±įà°®à±Ģ", "Ġà®¤à®ķà¯įà®ķà®¾à®£à®¤à¯įà®¤à®¿à®©à¯į", "à°¾à°¶à±įà°®à±Ģà°°à±į", "Ġà®¤à®ķà¯įà®ķà®¾à®£à®ªà¯į", "à°¾à°¶à±įà°°à°¯à°¾à°²à±ģ", "Ġà®¤à¯Ģà®£à¯įà®Łà®¾à®®à¯Īà®¯à¯Ī", "à°¾à°¶à±įà°µà°¤", "Ġà®¤à¯Ģà®ªà®ķà®±à¯įà®ªà®ªà¯į", "à°¾à°¸à°®à±ģà°¦à±įà°°à°Ĥ,", "Ġà®¤à¯Ģà®µà¯ģà®ķà®³à®¾à®©à®µà¯Ī", "à°¾à°¸à°¾à°²à±ģ", "Ġà®¤à¯ģà®²à¯įà®²à®¿à®¯à®®à®¾à®ķà®¤à¯į", "à°¾à°¸à±Ĩà°¸à±į", "Ġà®¤à¯ģà®£à¯Īà®ķà¯įà®ķà®£à¯įà®Łà®¤à¯įà®¤à®¿à®©à¯į", "à°¾à°Ĥà°¡à°®à°¸à±į,", "Ġà®¤à¯ģà®£à¯Īà®ķà¯įà®ķà®£à¯įà®Łà®¤à¯įà®¤à®¿à®±à¯įà®ķà¯ģ", "à°¾à°Ĥà°¡à±įà°¯", "Ġà®¤à¯ģà®£à¯Īà®ķà¯įà®ķà®£à¯įà®Łà®¤à¯įà®¤à®¿à®²à¯į", "à°¾à°Ĥà°¡à±įà°¯à±ģà°²à±ģ", "Ġà®¤à¯ģà®£à¯Īà®ķà¯įà®ķà®£à¯įà®Łà®¤à¯įà®¤à¯ģà®ķà¯įà®ķà¯ģà®³à¯į", "à°¾à°Ĥà°¤à°¿,", "Ġà®¤à¯ģà®£à¯Īà®ķà¯įà®ķà®£à¯įà®Łà®¤à¯įà®¤à¯Īà®ķà¯į", "à°¾à°Ĥà°¬à±ĩ", "Ġà®¤à¯ģà®±à®¨à¯įà®¤à®¤à¯ģ", "à°¾à°Ĥà°¬à±ĩ),", "Ġà®¤à¯ģà®±à®µà®±", "à°¾à°ķà±ģ", "Ġà®¤à¯ģà®±à®µà¯ĩ", "à°¾à°ķà±įà°", "Ġà®¤à¯Ĩà®°à®¿à®¨à¯įà®¤à®¿à®°à®¾à®¤", "à°¾à°ķà±ģà°Ĥà°¡", "Ġà®¤à¯Ĩà®©à¯įà®©à®¿à®¨à¯įà®¤à®¿à®¯à®ªà¯į", "à°¾à°ķà±ģà°Ĥà°¡à°¾", "Ġà®¤à¯Ĩà®©à¯įà®ķà®¿à®´à®ķà¯įà®ķà®¾à®ļà®¿à®¯à®°à¯įà®ķà®³à¯ģà®®à¯į", "à°¾à°ķà±įà°·à°¿à°ķ", "Ġà®¤à¯Ĩà®©à¯įà®ķà®¿à®´à®ķà¯įà®ķà®¾à®ļà®¿à®¯à®¾à®µà®¿à®©à¯į", "à°¾à°ĸà°ªà°Łà±įà°¨à°Ĥ", "Ġà®¤à¯Ĩà®©à¯įà®ķà®¿à®´à®ķà¯įà®ķà®¾à®ļà®¿à®¯à®¾à®µà¯ģà®Łà®©à¯į", "à°¾à°Ĺà±ĥ", "Ġà®¤à¯Ĩà®±à¯įà®ķà¯ģà®¤à¯į", "à°¾à°Ĺà±ĥà°¹à°¾à°²à±ģ,", "Ġà®¤à¯Ĩà®±à¯įà®ķà¯ģà®ªà¯į", "à°¾à°ľà°ªà°¾", "Ġà®¤à¯Ĩà®±à¯įà®ķà®¾à®ļà®¿à®¯à®¾à®µà®¿à®©à¯į", "à°¾à°ľà°¯à°Ĥ", "Ġà®¤à¯Ĭà®²à¯įà®²à®¿à®¯à®²à¯į", "à°¾à°ľà°¾à°¸à±įà°µà°¾à°®à±įà°¯", "Ġà®¤à¯Ĭà®´à®¿à®²à¯įà®¨à¯ģà®Łà¯įà®ªà®ļà¯į", "à°¾à°ľà°¿à°ķ,", "Ġà®¤à¯Ĭà®²à¯Īà®µà®¿à®²à¯į", "à°¾à°Łà°¿", "Ġà®¤à¯Ĭà®²à¯Īà®¤à¯Ĥà®°à®ªà¯į", "à°¾à°Łà°Ĥ", "Ġà®¤à¯Ĭà®ķà¯ģà®¤à®¿à®¯à®¾à®©", "à°¾à°Ńà°¦à°¾à°¯à°ķà°®à±ĩà°¨à°¨à±Ģ,", "Ġà®¤à¯Ĭà®ķà¯Īà®¯à®¾à®©à®¤à¯ģ", "à°¿à°¢à°µà°¿à°²à±įà°²à°¾à°¯à°¿.", "Ġà®¤à¯Ĭà®ķà¯Īà®¯à®¿à®©à¯į", "à°¿à°¥à°¿à°ķà±į", "Ġà®¤à¯Ĭà®Łà®°à¯įà®¨à¯įà®¤à¯ģ", "à°¿à°·à±įà°Ł", "Ġà®¤à¯Ĭà®Łà®°à¯įà®ªà®±à¯įà®±à®µà¯Ī", "à°¿à°¤à°®à±Ī", "Ġà®¤à¯Ĭà®Łà®°à¯įà®ªà¯ģà®Łà¯Īà®¯", "à°¿à°¤à°¾à°¬à±ģà°¨à°¿à°¸à±įà°¤à±ģà°¨à±įà°¨à°¾à°°à±ģ.", "Ġà®¤à¯Ĭà®Łà®ķà¯įà®ķà®¤à¯įà®¤à®¿à®©à¯į", "à°¿à°¤à°¿,", "Ġà®¤à¯Ĭà®Łà®Ļà¯įà®ķà®ªà¯įà®ªà®Łà¯įà®Łà®¤à¯ģ.", "à°¿à°¤à°Ĥ,", "Ġà®¤à¯Ĭà®Łà®Ļà¯įà®ķà®¿", "à°¿à°¤à±ĩ,", "Ġà®¤à¯Ĭà®Łà®Ļà¯įà®ķà®¿à®©.", "à°¿à°¤à±ĭ", "Ġà®¤à¯Ĭà®Łà¯įà®Łà®¿à®²à¯įà®ķà®³à®¿à®²à¯į", "à°¿à°¦à°¿", "Ġà®¤à¯Ĭà®Łà¯įà®Łà®¿à®ķà®³à¯į", "à°¿à°§à°¿à°ļà±ĩ", "Ġà®¤à¯ĭà®±à¯įà®±à®¤à¯įà®¤à¯Ī", "à°¿à°¨à°ªà±įà°ªà°Łà°¿à°ķà°¿à°¨à±Ģ", "Ġà®¤à¯ĭà®²à®¾à®µà®¿à®°à®¾,", "à°¿à°¨à°¹à°¾à°¯à°¿à°Ĥà°ļà°¿,", "Ġà®¤à¯ĭà®©à¯įà®±à®¤à¯į", "à°¿à°¨à°¾à°¯à°ķ", "Ġà®¤à¯ĭà®©à¯įà®±à®¿à®©.", "à°¿à°¨à°¿à°§à°¿à°ļà±ĩ", "Ġà®¤à¯ĭà®©à¯įà®±à®ļà¯į", "à°¿à°¨à°¿à°®", "Ġà®¤à¯ĭà®©à¯įà®±à¯ģà®ķà®¿à®©à¯įà®±à®©.", "à°¿à°¨à±Ĩà°¸à±į", "Ġà®¤à¯ĭà®±à¯įà®ķà®Łà®¿à®ķà¯įà®ķà®ªà¯įà®ªà®Łà¯įà®Łà®©à®°à¯į.", "à°¿à°¨à°¿à°®à°¾à°²à±ģ,", "Ġà®¨à®©à¯įà®±à®¾à®ķà®ķà¯į", "à°¿à°¨à±Ģà°¤à°¿,", "Ġà®¨à®ªà®°à¯į", "à°¿à°¨à±įà°¨à°¤à±įà°µà°¾à°²à±ģ", "Ġà®¨à®®à¯įà®ªà®¿à®ķà¯įà®ķà¯Ī", "à°¿à°¨à±įà°¨à°¤à±įà°µà°Ĥà°²à±ĭ", "Ġà®¨à®¾à®©à¯įà®ķà¯ģ", "à°¿à°¨à±įà°¨à±Ĩ", "Ġà®¨à®¾à®Łà¯įà®Łà®¿à®©à¯į", "à°¿à°ªà°¿à°¤", "Ġà®¨à®¿à®©à¯Īà®µà¯ģà®ļà¯į", "à°¿à°ªà±įà°°", "Ġà®¨à®¿à®ķà¯įà®ķà¯ĭà®ªà®¾à®°à¯į", "à°¿à°ªà±įà°°à°¾à°¯à°ªà°¡à±ģà°¤à±ģà°¨à±įà°¨à°¾à°°à±ģ.", "Ġà®¨à¯Ĩà®°à¯ģà®ķà¯įà®ķà®®à®¾à®©", "à°¿à°®à±ģà°ĸà±įà°¯", "Ġà®¨à¯ĩà®ªà®¾à®³à®®à¯į,", "à°¿à°®à±ģà°ĸà±įà°¯à°®à±Īà°¨", "Ġà®¨à¯ĩà®°à®Ļà¯įà®ķà®³à®¿à®²à¯į", "à°¿à°¯à°¾,", "Ġà®¨à®¾à®ķà®°à®¿à®ķà®¤à¯įà®¤à®¿à®©à¯į", "à°¿à°¯à°Ĥ,", "Ġà®¨à®¾à®ķà®°à®¿à®ķà®®à®¾à®ķà®ªà¯į", "à°¿à°°à°®à±Īà°¨", "Ġà®¨à®¾à®Łà®¾à®³à¯ģà®®à®©à¯įà®±", "à°¿à°°à°¾", "Ġà®¨à®¾à®Łà®¾à®ķà®¤à¯į", "à°¿à°°à°Ĥà°Ĺ", "Ġà®¨à®¾à®Łà®¾à®ķà¯ģà®®à¯į.", "à°¿à°°à°Ĥà°Ĺà°Ĥà°Ĺà°¾", "Ġà®¨à®¾à®Łà¯ģ", "à°¿à°²à°¬à±Ĩà°Łà±įà°Łà±ģà°ķà±ģà°¨à±įà°¨à°¾à°¯à°¿.", "Ġà®¨à®¾à®Łà¯ģà®®à¯į", "à°¿à°²à°¾à°Ĺà±ĥà°¹à°¾à°²à±ģ,", "Ġà®¨à®¾à®Łà¯ģà®®à¯į,", "à°¿à°²à°¿à°¨", "Ġà®¨à®¾à®Łà¯ģà®ķà®³à®¿à®©à¯į", "à°¿à°²à±ĩà°", "Ġà®¨à®¿à®°à®¾à®ķà®°à®¿à®¤à¯įà®¤à®¤à¯ģ.", "à°¿à°²à°¿à°ļà°¾à°°à±ģ.", "Ġà®¨à®¿à®°à¯įà®µà®¾à®ķà®®à¯į", "à°¿à°²à°¿à°ļà°¿à°Ĥà°¦à°¿.", "Ġà®¨à®¿à®°à¯įà®µà®ķà®¿à®¤à¯įà®¤à®¤à¯ģ", "à°¿à°²à±ĩà°Łà±į", "Ġà®¨à®¿à®°à¯įà®µà®ķà®¿à®ķà¯įà®ķà®ªà¯įà®ªà®Łà¯ģà®ķà®¿à®±à®¤à¯ģ.", "à°¿à°²à±įà°²à°¾", "Ġà®¨à®¿à®±à¯ģà®µà®©à®¤à¯įà®¤à®¿à®©à¯į", "à°¿à°²à±įà°²à°¿à°Ĥà°¦à°¿.", "Ġà®¨à®¿à®±à¯ģà®µà®ªà¯įà®ªà®Łà¯įà®Łà®©.", "à°¿à°²à±įà°²à±ģ.", "Ġà®¨à®¿à®²à®®à®¾à®ķà¯ģà®®à¯į.", "à°¿à°³à°²", "Ġà®¨à®¿à®²à®®à¯į", "à°¿à°µà°°à±įà°Ĺà°Ĥ", "Ġà®¨à®¿à®²à®Ļà¯įà®ķà®³à®¾à®©à®µà¯Ī", "à°¿à°µà°²à±įà°²", "Ġà®¨à®¿à®²à®Ļà¯įà®ķà®³à¯Īà®¤à¯į", "à°¿à°µà°¸à±įà°¤à±ģà°Ĥà°¦à°¨à°¿", "Ġà®¨à®¿à®²à¯Īà®¯à®±à¯įà®±", "à°¿à°µà±ĩà°Ĺà°Ĥà°Ĺà°¾", "Ġà®¨à®¿à®²à¯Īà®¯à®¿à®©à¯į", "à°¿à°¶à°¾à°¤à°Ĥ", "Ġà®¨à®¿à®²à¯Īà®¯à¯Ī", "à°¿à°¶à±Ģ", "Ġà®¨à®¿à®²à¯Īà®ķà®³à®¾à®©à®µà¯Ī", "à°¿à°¶à±Ģà°¤à°²", "Ġà®¨à®¿à®²à¯Īà®ķà®³à¯į", "à°¿à°¶à±įà°°à°¦à±įà°§à°²à°¤à±ĭ,", "Ġà®¨à®¿à®²à¯Īà®ķà¯įà®ķà¯ģ", "à°¿à°¶à±įà°°à°¾à°®à°¿à°ķ", "Ġà®¨à®¿à®²à¯Īà®ķà¯įà®ķà¯ģà®¤à¯į", "à°¿à°·à±ĩà°", "Ġà®¨à®ķà®°à®ªà¯į", "à°¿à°·à±ĩà°§à°Ĥ,", "Ġà®¨à®ķà®°à®Ļà¯įà®ķà®³à¯ģà®ķà¯įà®ķà¯ģà®ªà¯į", "à°¿à°¸à°¾à°°à°¿à°Ĺà°¾", "Ġà®¨à®ķà®°à®Ļà¯įà®ķà®³à¯Īà®ļà¯į", "à°¿à°¸à°¿à°Ĥà°¦à°¿.", "Ġà®¨à®ķà®°à®®à®¯à®®à®¾à®ķà¯įà®ķà®²à®¾à®©à®¤à¯ģ", "à°¿à°¸à°Ń", "Ġà®¨à®ķà®°à®®à®¯à®®à®¾à®ķà¯įà®ķà®²à®¿à®©à¯į", "à°¿à°¸à°Ńà°¾", "Ġà®¨à®ķà®°à¯įà®ªà¯įà®ªà¯ģà®±à®ªà¯į", "à°¿à°¸à±įà°¥à°¿à°¤à°¿", "Ġà®¨à®Łà®¨à¯įà®¤à®¿à®°à®¾à®¤", "à°¿à°¸à±įà°²à±ĩà°ļà°°à±į,", "Ġà®¨à®Łà¯ģ", "à°¿à°¸à±įà°¤à°¾à°®à°¨à°¿", "Ġà®¨à®Łà¯ģà®ªà¯į", "à°¿à°¸à±įà°¤à°¾à°¯à°¿.", "Ġà®¨à®Łà¯ģà®µà®¿à®²à¯į", "à°¿à°¸à±įà°¤à±ģà°¨à±įà°¨à°¾à°¯à°¿.", "Ġà®¨à®Łà¯ģà®ķà¯įà®ķà®¾à®²", "à°¿à°Ĥà°ªà±ģ", "Ġà®¨à®Łà®¤à¯įà®¤à®¿à®©.", "à°¿à°Ĥà°¬à±Ĩà°Łà±įà°ķà°¾", "Ġà®¨à®Łà®¤à¯įà®¤à¯Īà®¯à®¾à®©à®¤à¯ģ", "à°¿à°Ĥà°¸à°¾à°¯à±ģà°¤", "Ġà®¨à¯Ģà®°à¯įà®ªà¯įà®ªà®¾à®ļà®©à®¤à¯į", "à°¿à°Ĥà°Ĺà±įà°¡", "Ġà®¨à¯Ģà®Łà®¿à®¤à¯įà®¤à¯ģ", "à°¿à°Ĥà°Ĺà±įà°¡à°®à±į", "Ġà®¨à¯Ģà®Łà®¿à®¤à¯įà®¤à®¿à®°à¯ģà®¨à¯įà®¤à®¤à¯ģ.", "à°¿à°Ĥà°ļà°µà°ļà±įà°ļà±ģ.", "Ġà®¨à¯Ģà®Łà®¿à®¤à¯įà®¤à®¿à®°à¯ģà®ķà¯įà®ķà¯ģà®®à¯į", "à°¿à°Ĥà°ļà°¿", "Ġà®¨à¯Ĥà®±à¯įà®±à®¾à®£à¯įà®Łà¯ģ", "à°¿à°Ĥà°ļà±ģà°ķà±ģ", "Ġà®¨à¯Ĥà®±à¯įà®±à®¾à®£à¯įà®Łà¯ģà®ķà®³à®¿à®²à¯į", "à°¿à°Ĥà°ļà°¿à°¨à°Ĥà°¦", "Ġà®¨à¯Ĥà®±à¯įà®±à®¾à®£à¯įà®Łà¯ģà®ķà®³à¯Īà®¤à¯į", "à°¿à°Ĥà°ļà°¿à°¨à°Ĥà°¦à±ģà°µ", "Ġà®¨à¯Ĥà®²à¯įà®ķà®³à®¾à®©", "à°¿à°Ĥà°ļà°¿à°¨à°Ĥà°¦à±ģà°µà°²à±įà°²", "Ġà®¨à¯Ĥà®²à¯įà®ķà®³à¯Ī", "à°¿à°Ĥà°ļà±ģà°ķà±ģà°¨à±įà°¨à°¾à°°à±ģ.", "Ġà®¨à¯ĩà®°à®¤à¯įà®¤à®¿à®²à¯į,", "à°¿à°ķà°Ĥà°Ĺà°¾", "Ġà®ªà®£à®¿à®ķà®³à¯į", "à°¿à°ķà±ĩ", "Ġà®ªà®¾à®ķà¯ģà®ªà®¾à®Łà¯ģ,", "à°¿à°ķà±ĩà°¨à°¨à±Ģ", "Ġà®ªà®¿à®©à¯į", "à°¿à°Ĺà°¾,", "Ġà®ªà®¿à®²à®¿à®ªà¯įà®ªà¯Ģà®©à¯įà®ļà¯ģ,", "à°¿à°Ĺà°¿à°²à°¿à°¨", "Ġà®ªà®Ļà¯įà®ķà¯ģ", "à°¿à°Ĺà±ģà°µ", "Ġà®ªà®Ļà¯įà®ķà¯Ĩà®Łà¯ģà®¤à¯įà®¤à®©.", "à°¿à°Ĺà±ĩ", "Ġà®ªà®Ļà¯įà®ķà¯Ī", "à°¿à°ļà°¿à°¨", "Ġà®ªà®Łà¯įà®Łà®£à®Ļà¯įà®ķà®³à¯į", "à°¿à°ļà±Ĥ", "Ġà®ªà¯Ģà®Łà®ªà¯Ĥà®®à®¿à®¯à®¿à®²à¯į", "à°¿à°ļà±Ĥà°¸à°¿à°Ĥà°¦à°¿.", "Ġà®ªà¯ģà®µà®¿", "à°¿à°ľà°¿à°¨à±Ĩà°¸à±į", "Ġà®ªà¯Ĥà®Łà¯įà®Łà®¾à®©à¯į,", "à°Ĥà°¶à°Ĥà°²à±ĭà°¨à°¿", "Ġà®ªà®£à¯įà®ªà®¾à®Łà¯ģà®ķà®³à¯Īà®¯à¯ģà®®à¯į", "à°Ĥà°ľ", "Ġà®ªà®£à¯įà®ªà®¾à®Łà¯įà®Łà®¿à®±à¯įà®ķà¯ģ", "à°Ĥà°¡à°¯à°¾à°¤à±įà°°à°²à°¤à±ĭ,", "Ġà®ªà®£à¯įà®ªà®¾à®Łà¯įà®Łà¯ģ", "à°Ĥà°¡à°¿,", "Ġà®ªà®£à¯įà®ªà®¾à®Łà¯įà®Łà¯ģà®¤à¯į", "à°Ĥà°¡à±įà°°", "Ġà®ªà®£à¯įà®ªà®¾à®Łà¯įà®Łà¯Ī", "à°Ĥà°¡à±įà°²à°¨à±ģ", "Ġà®ªà®£à¯įà®Łà¯Īà®¯", "à°Ĥà°¡à±įà°²à±ģ", "Ġà®ªà®¤à®¿à®ªà¯įà®ªà¯ģ)", "à°Ĥà°¡à°¿:", "Ġà®ªà®¤à®¿à®µà®¿à®Łà¯ģà®ķà®¿à®±à®¤à¯ģ.", "à°Ĥà°¡à±ģà°Ł", "Ġà®ªà®¯à®¿à®°à¯įà®ķà®³à¯į", "à°Ĥà°¡à±ģà°Łà°ļà±ĩ", "Ġà®ªà®¯à®©à¯įà®ªà®Łà¯ģà®¤à¯įà®¤à®ªà¯įà®ªà®Łà¯įà®Ł", "à°Ĥà°¡à±įà°°à°¾)", "Ġà®ªà®¯à®©à¯įà®ªà®Łà¯ģà®¤à¯įà®¤à®ªà¯įà®ªà®Łà¯įà®Łà¯ģà®³à¯įà®³à®¤à¯ģ.", "à°Ĥà°¤à°°à±įà°ľà°¾à°¤à±Ģà°¯", "Ġà®ªà®°à®µà®¿à®¯à®¤à¯ģ.", "à°Ĥà°¤à°²", "Ġà®ªà®°à®¿à®¨à¯įà®¤à¯ģà®°à¯Īà®ķà®¿à®©à¯įà®±à®©.", "à°Ĥà°¦à°°à±Ĥ", "Ġà®ªà®°à®¤à®µà®°à¯įà®·à®¤à¯įà®¤à®¿à®©à¯į", "à°Ĥà°¦à°°à±įà°¶à°¿à°Ĥà°ļà±ĩ", "Ġà®ªà®°à®¤à®µà®°à¯įà®·à®¾", "à°Ĥà°¦à°¿à°°à°¾", "Ġà®ªà®°à®ªà¯įà®ªà®³à®µà®¿à®²à¯į", "à°Ĥà°¦à±ģà°²à±ĭ", "Ġà®ªà®°à®ªà¯įà®ªà®³à®µà¯ģ", "à°Ĥà°¦à±ģà°Ĺà°¾", "Ġà®ªà®°à®ªà¯įà®ªà®¿à®©.", "à°Ĥà°ªà°¿à°¨", "Ġà®ªà®°à®ªà¯įà®ªà®¿à®¯à®¤à¯ģ", "à°Ĥà°¬à°¾à°²à°ķà±ģ", "Ġà®ªà®°à®µà®²à®¾à®ķà®ªà¯į", "à°Ĥà°ķà°¾", "Ġà®ªà®°à®¿à®£à®¾à®®à®®à¯į", "à°Ĥà°Ĺà°¾à°³à°¾à°ĸà°¾à°¤à°Ĥ", "Ġà®ªà®²à®°à¯į", "à°Ĥà°Ĺà°Ĥ", "Ġà®ªà®²à¯Ĥà®ļà®¿à®¸à¯įà®¤à®¾à®©à¯į", "à°Ĥà°Ĺà±ģà°³", "Ġà®ªà®²à¯įà®²à®µà®°à¯įà®ķà®³à®¾à®²à¯į", "à°Ĥà°Ĺà±ģà°³à±Ĥà°°à±ģ", "Ġà®ªà®²à¯įà®²à®µà®°à¯įà®ķà®³à¯ģà®®à¯į", "à°Ĥà°Ĺà±įà°²à±ĩà°¯", "Ġà®ªà®²à¯įà®µà®ķà¯Īà®®à¯Īà®¯à®¿à®²à¯į", "à°Ĥà°Ĺà±įà°²à±ĩà°¯à±ģà°²à±ģ", "Ġà®ªà®²à¯įà®µà®ķà¯Īà®®à¯Īà®¯à¯ģà®Łà¯Īà®¯", "à°Ĥà°Ĺà±įà°²à±ĩà°¯à±ģà°²à±ģ)", "Ġà®ªà®´à®®à¯Īà®¯à®¾à®©", "à°Ĥà°ļà±ĩ", "Ġà®ªà®´à¯Īà®¯", "à°Ĥà°ľà±Ĥà°°à±ģ", "Ġà®ªà®¾à®£à¯įà®Łà®¿à®¯à®°à®¾à®²à¯į", "à°Ĥà°Łà°¾à°°à±įà°ķà±įâĢĮà°Łà°¿à°ķà°¾à°²à±ĭ", "Ġà®ªà®¾à®£à¯įà®Łà®¿à®¯à®°à¯į", "à°Ĥà°Łà±ģà°Ĥà°¦à°¿.", "Ġà®ªà®¾à®¤à¯ģà®ķà®¾à®ķà¯įà®ķà®ªà¯įà®ªà®Łà¯įà®Ł", "à°Ĥà°Łà±Īà°¨", "Ġà®ªà®¾à®¤à¯ģà®ķà®¾à®ķà¯įà®ķà®ªà¯įà®ªà®Łà¯įà®Łà¯ģ", "à°Ĥà°Łà±ģà°¨à±įà°¨à°¾à°°à±ģ.", "Ġà®ªà®¾à®°à®®à¯įà®ªà®°à®¿à®¯à®¤à¯įà®¤à®¾à®²à¯į", "à°Ĥà°Łà±Īà°¨à±Ĩ", "Ġà®ªà®¾à®°à®®à¯įà®ªà®°à®¿à®¯à®®à®¾à®ķ", "à°Ĥà°Łà±Īà°¨à±Ĩà°°à±į", "Ġà®ªà®¾à®°à®®à¯įà®ªà®°à®¿à®¯à®®à¯į", "à°Ĩà°°à±įà°¯à°¨à±į,", "Ġà®ªà®¾à®°à®®à¯įà®ªà®°à®¿à®¯à®Ļà¯įà®ķà®³à®¿à®©à¯į", "à°Ĩà°Ĥà°Ĺà±įà°²à±ĩà°¯à±ģà°²à±ģ)", "Ġà®ªà®¾à®²à®¿à®©à®ªà¯į", "à°ĩ,", "Ġà®ªà®¾à®ķà¯įà®ķà®¿à®¤à¯įà®¤à®¾à®©à¯į)", "à°ĩà°¦à±ĩ,", "Ġà®ªà®¾à®ķà¯įà®ķà®¿à®¤à¯įà®¤à®¾à®©à¯į,", "à°ĩà°¸à±įà°¤à°¾à°Ĥà°¬à±ģà°²à±į", "Ġà®ªà®¾à®Łà®²à¯įà®ķà®³à®¿à®²à¯į", "à°īà°¦à°¾:", "Ġà®ªà®¾à®Łà®²à¯įà®ķà®³à¯į", "à°ı.", "Ġà®ªà®¿à®©à¯įà®ªà®±à¯įà®±à®ªà¯įà®ªà®Łà¯įà®Łà®¤à¯ģ.", "à°ķà°¤à±įà°¤à°¾),", "Ġà®ªà®¿à®©à¯įà®ªà®±à¯įà®±à¯ģà®ªà®µà®°à¯įà®ķà®³à¯Ī", "à°ķà°¤à±įà°µà°Ĥà°Ĺà°²", "Ġà®ªà®¿à®°à®¤à®¿à®ªà®²à®¿à®ķà¯įà®ķà®ªà¯įà®ªà®Łà¯ģà®ķà®¿à®±à®¤à¯ģ.", "à°ķà°²à±įà°ªà°Ĥ", "Ġà®ªà®¿à®°à®ªà®²à®®à®¾à®©à®¤à¯ģ.", "à°ķà°¾à°°à°Ĥ,", "Ġà®ªà®¿à®°à®¿à®¤à¯įà®¤à®¾à®©à®¿à®¯à®¾à®µà®¿à®©à¯į", "à°ķà°¿.", "Ġà®ªà®¿à®°à®¿à®¤à¯įà®¤à®¾à®©à®¿à®¯à®ķà¯į", "à°ķà±ĭ", "Ġà®ªà®¿à®°à®¿à®ķà¯įà®ķà®ªà¯įà®ªà®Łà¯įà®Łà®¿à®°à¯ģà®¨à¯įà®¤à®¤à¯ģ", "à°ķà±įà°¨", "Ġà®ªà®ķà¯ģà®¤à®¿à®¯à®¾à®©", "à°ķà±įà°¯", "Ġà®ªà®ķà¯ģà®¤à®¿à®¯à®¾à®©à®¤à¯ģ", "à°ķà±įà°¯à°Ĥ", "Ġà®ªà®ķà¯ģà®¤à®¿à®¯à¯Īà®¯à¯ģà®®à¯į", "à°ķà±įà°°", "Ġà®ªà®ķà¯ģà®¤à®¿à®¯à¯Īà®¤à¯į", "à°ķà°¾à°²à°Ĥà°²à±ĭ", "Ġà®ªà®ķà¯ģà®¤à®¿à®ķà®³à®¾à®²à¯į", "à°ķà±ģà°Ĥà°¤à°²", "Ġà®ªà®ķà¯ģà®¤à®¿à®ķà®³à®¾à®ķ", "à°ķà±ĭà°°à±įà°Łà±ģà°²à±ģ", "Ġà®ªà®ķà¯ģà®¤à®¿à®ķà®³à®¾à®ķà®ªà¯į", "à°ķà±įà°¤à°¿à°¶à±įà°°à°¦à±įà°§à°²à°¤à±ĭ,", "Ġà®ªà®ķà¯ģà®¤à®¿à®ķà®³à¯ģà®ķà¯įà®ķà¯ģà®ªà¯į", "à°ķà±įà°¨à°¾à°²à°ľà±Ģ,", "Ġà®ªà®ķà¯ģà®¤à®¿à®ķà®³à¯į", "à°ķà±įà°°à°µà°°à±įà°¤à°¿", "Ġà®ªà®ķà¯įà®¤à®¿", "à°ķà±įà°·à°®à±Īà°Ĥà°¦à°¿.", "Ġà®ªà®ķà¯įà®¤à®¿à®¯à¯Ī", "à°ķà±įà°·à°Ĥà°Ĺà°¾", "Ġà®ªà®Łà¯Īà®ªà¯įà®ªà®¾à®±à¯įà®±à®²à¯Īà®ķà¯į", "à°ķà±įà°·à°°à°¾à°¸à±įà°¯à°¤,", "Ġà®ªà®Łà®¿,", "à°ķà±įà°ķà°²à±ģ", "Ġà®ªà¯ģà®©à®¿à®¤", "à°ķà±įà°ķà±ģà°²à°ķà±ģ", "Ġà®ªà¯ģà®²à®ªà¯įà®ªà¯Ĩà®¯à®°à¯įà®µà¯ģà®ķà®³à¯Īà®¯à¯ģà®®à¯į", "à°ĸà±įà°¯à°¾à°¤à°¿", "Ġà®ªà¯ģà®¤à®¿à®¯", "à°Ĺà°£à°¨", "Ġà®ªà¯ģà®¤à¯ģà®ªà¯įà®ªà®¿à®ªà¯įà®ªà®¾à®©à®¤à¯ģ", "à°Ĺà°¤à°¿à°¨à°¿", "Ġà®ªà¯ģà®¤à¯ģà®ªà¯įà®ªà®¿à®ķà¯įà®ķà®ªà¯įà®ªà®Łà¯įà®Ł", "à°Ĺà°¿à°¨à±įà°¨à±Ĩ", "Ġà®ªà¯ģà®¤à¯įà®¤à¯Ĩà®´à¯ģà®ļà¯įà®ļà®¿", "à°Ĺà±ģà°¤", "Ġà®ªà¯ģà®°à®¿à®¨à¯įà®¤à®©à®°à¯į.", "à°Ĺà°²à±ģà°ªà±ģ", "Ġà®ªà¯ģà®°à¯Ĥà®£à¯Ī,", "à°Ĺà°²à±ģà°²à±ģ", "Ġà®ªà¯ģà®°à¯ĭà®ķà®¿à®¤à®°à¯įà®ķà®³à¯į,", "à°Ĺà°¾,", "Ġà®ªà¯ģà®°à®µà®²à®¤à¯į", "à°Ĺà±ģ,", "Ġà®ªà¯ģà®°à®µà®²à®°à¯įà®ķà®³à¯Īà®ªà¯į", "à°Ĺà±ģà°¨à°µà°¿).", "Ġà®ªà¯Ĥà®°à¯įà®µà¯Ģà®ķ", "à°Ĺà±ģà°¬à°¾à°Łà±ģ", "Ġà®ªà¯Ĥà®°à¯įà®µà¯Ģà®ķà®ªà¯į", "à°Ĺà±ģà°®à°¤à°¿", "Ġà®ªà¯Ĩà®£à¯įà®ķà®³à®¿à®©à¯į", "à°Ĺà±ģà°¤à°¾à°¯à°¿.", "Ġà®ªà¯Ĩà®£à¯įà®ķà®³à¯į", "à°Ĺà±ģà°µà°¾à°°à±ģ", "Ġà®ªà¯Ĩà®¯à®°à¯į", "à°Ĺà±įà°Ĺà°°à°²à±ĭ", "Ġà®ªà¯Ĩà®¯à®°à¯įà®µà¯ģà®ķà¯įà®ķà¯ģ", "à°Ĺà±įà°Ĺà°¿à°ªà±ĭà°¯à°¿à°Ĥà°¦à°¿.", "Ġà®ªà¯Ĩà®¯à®°à®³à®µà¯ģ", "à°ĺà°¿à°ķ,", "Ġà®ªà¯Ĩà®¯à®°à®¾à®©", "à°ĺà±ģ", "Ġà®ªà¯Ĩà®¯à®°à®¾à®©à®¤à¯ģ", "à°ļà°¨à°²à±ĭ", "Ġà®ªà¯Ĩà®¯à®°à®¾à®ķ", "à°ļà°¾à°°à°¾à°²à±ģ,", "Ġà®ªà¯Ĩà®¯à®°à¯ģà®®à¯į,", "à°ļà°¿à°¨", "Ġà®ªà¯Ĩà®¯à®°à¯įà®¤à¯įà®¤à®©à®°à¯į.", "à°ļà±įà°ļà°ľ", "Ġà®ªà¯Ĩà®¯à®°à¯įà®ªà¯įà®ªà®¾à®©à®¤à¯ģ", "à°ļà±įà°ļà±ĩ", "Ġà®ªà¯Ĩà®¯à®°à¯įà®ķà¯į", "à°ļà±įà°ļà°ľà±Ĩà°Ĥà°¡", "Ġà®ªà¯Ĩà®°à¯ģà®®à®³à®µà®¿à®²à®¾à®©", "à°ļà±įà°ļà°ľà±Ĩà°Ĥà°¡à°¾", "Ġà®ªà¯Ĩà®°à¯ģà®®à¯įà®ªà®²à¯įà®µà®ķà¯Īà®®à¯Īà®¯à¯Ī", "à°ľà°¿à°¤à°®à±Ī", "Ġà®ªà¯Ĩà®°à¯ģà®Ļà¯įà®ķà®±à¯įà®ķà®¾à®²", "à°ľà°¿à°¸à±įà°²à±ĩà°ļà°°à±į,", "Ġà®ªà¯Ĩà®°à¯ģà®Ļà¯įà®ķà®Łà®²à®¿à®²à¯į", "à°ľà±įà°°", "Ġà®ªà¯Ĩà®°à¯ģà®Ļà¯įà®ķà®Łà®²à¯ģà®®à¯į,", "à°ľà±įà°°à°¾à°²à±ģ,", "Ġà®ªà¯Ĩà®±à®ªà¯įà®ªà®Łà¯ģà®ķà®¿à®±à®¤à¯ģ.", "à°Łà°®à±Ĥ", "Ġà®ªà¯Ĩà®±à®ªà¯įà®ªà®Łà¯įà®Łà®¤à¯ģ.", "à°Łà°°à±įà°²à°ªà±Ī", "Ġà®ªà¯Ĩà®±à¯įà®±à®©.", "à°Łà°¾", "Ġà®ªà¯Ĩà®±à¯įà®±à¯ģà®³à¯įà®³à®¤à¯ģ.", "à°Łà°Ĥ,", "Ġà®ªà¯Ĩà®±à¯įà®±à¯ģà®³à¯įà®³à®©.", "à°Łà°Ĥà°¡à±įà°°à°¾)", "Ġà®ªà¯ĩà®°à®°à®ļà®¾à®ķ", "à°Łà°Ĥà°¤à±ĭ", "Ġà®ªà¯ĩà®°à®°à®ļà¯ģà®ķà®³à¯Ī", "à°Łà°Ĥà°²à±ĭ", "Ġà®ªà¯ĩà®°à®°à®ļà¯Ī", "à°Łà±ģ", "Ġà®ªà¯ĩà®°à®°à®ļà¯ģ,", "à°Łà±įâĢĮà°¸", "Ġà®ªà¯Ĭà®¤à¯ģ", "à°Łà±ģà°Ĥà°¬à°¾à°²à°ķà±ģ", "Ġà®ªà¯Ĭà®°à¯ģà®¨à¯įà®¤à®¿à®¯à®¿à®°à®¾à®¤", "à°Łà±Ĩà°¡à±į", "Ġà®ªà¯Ĭà®°à¯ģà®³à®¾à®©à®¤à¯ģ", "à°Łà±Ĩà°¹à±įà°°à°¾à°¨à±į", "Ġà®ªà¯Ĭà®°à¯ģà®³à®¾à®¤à®¾à®°à®¤à¯įà®¤à¯ģà®ķà¯įà®ķà¯ģ", "à°Łà±įà°Łà±Ĥ", "Ġà®ªà¯Ĭà®°à¯ģà®³à®¾à®¤à®¾à®°à®ļà¯į", "à°Łà±įâĢĮà°¸à±Ĭ", "Ġà®ªà¯Ĭà®°à¯ģà®Łà¯įà®ķà®³à®¿à®©à¯į", "à°Łà±įâĢĮà°¸à±Ĭà°°à±įà°¸à°¿à°Ĥà°Ĺà±į", "Ġà®ªà¯Ĭà®°à¯ģà®Łà¯įà®ķà®³à¯Īà®ļà¯į", "à°Ńà±įà°¯", "Ġà®ªà¯ĭà®¤à®¿à®²à¯ģà®®à¯į", "à°Ńà°¾à°°à°¤à°¦à±ĩà°¶à°Ĥ\"", "Ġà®ªà¯ĭà®°à¯į", "à°Ńà°¾à°·à°²à±ģ,", "Ġà®ªà¯ĭà®¤à®©à¯Īà®ķà®³à¯Ī", "à°Ńà°¾à°·à°¾,", "Ġà®ªà¯ĭà®¤à®©à¯Īà®ķà®³à¯į", "à°Ńà±įà°¯à°®à±Īà°¨", "Ġà®®à®¤à¯įà®¤à®¿à®¯à®¿à®²à¯į", "à±Ģà°¨à±įà°¨à°¿", "Ġà®®à®°à¯ģà®¤à¯įà®¤à¯ģà®µà®®à¯į", "à±Ģà°ķà°¾à°°à°Ĥ", "Ġà®®à®¾à®¤à®¿à®°à®¿à®¯à®¾à®ķ", "à±Ģà°ªà°¾à°µà°³à°¿,", "Ġà®®à®¾à®²à®¤à¯įà®¤à¯Ģà®µà¯ģà®ķà¯įà®ķà¯ģ", "à±Ģà°ªà±Ī", "Ġà®®à®¾à®ķà®¾à®£à®®à¯į)", "à±Ģà°°à±įà°£à°Ĥà°¤à±ĭ", "Ġà®®à®¾à®ļà¯ģà®ªà®¾à®Łà¯įà®Łà®¿à®©à¯į", "à±Ģà°·à±į", "Ġà®®à¯Ģà®¤à¯ģ", "à±Ģà°ķà°°à°£à°²à±ĭ", "Ġà®®à¯ģà®¤à®²à®¾à®®à®¿à®Łà®¤à¯įà®¤à¯Īà®ķà¯į", "à±Ģà°ķà±ĥà°¤", "Ġà®®à¯ģà®¤à¯įà®¤à®¿à®°à¯Īà®¯à®¿à®Łà¯įà®Łà¯ģ", "à±Ģà°ķà±ĥà°¤à°®à±Ī", "Ġà®®à¯Ĩà®ķà®°à¯įà®ķà®°à¯į", "à±ģ,", "Ġà®®à®©à®ªà¯įà®ªà®¾à®Łà®®à¯į", "à±ģà°¡à±ģ\".", "Ġà®®à®©à®¿à®¤à®°à¯įà®ķà®³à®¿à®©à¯į", "à±ģà°ªà±Ĥà°°à±įà°µà±ĭà°¤à±įà°¤à°°à°¾à°²à±ģ", "Ġà®®à®©à¯įà®©à®©à®¾à®²à¯į", "à±ģà°°à°¾à°²à±ģ.", "Ġà®®à®©à¯įà®©à®°à¯įà®ķà®³à¯į", "à±ģà°°à±ģà°·à±įà°ķà±ģà°²", "Ġà®®à®°à®ªà®£à¯ģ", "à±ģà°Ĥà°Łà±ģà°Ĥà°¦à°¿.", "Ġà®®à®°à®ªà®¿à®¯à®±à¯į", "à±ģà°Ĺà±ģà°¬à°¾à°Łà±ģ", "Ġà®®à®°à®ªà¯ģ", "à±ģà°Łà±įà°Łà±Ĥ", "Ġà®®à®°à®ªà¯ģà®ķà®³à¯Ī", "à±ģà°Ńà°¾à°·à°¾,", "Ġà®®à®°à®ªà¯Ī", "à±ģà°¤à±Ĥ", "Ġà®®à®±à¯įà®±à¯ģà®®à¯Ĭà®°à¯ģ", "à±ģà°¤à±įà°¤", "Ġà®®à®²à®°à¯įà®¨à¯įà®¤à®¤à®©à¯į", "à±ģà°¤à±įà°¤à°¾à°§à°¿à°ªà°¤à±įà°¯à°Ĥ", "Ġà®®à®²à¯ĩà®ļà®¿à®¯à®¾,", "à±ģà°¨à±Ī", "Ġà®®à®¾à®±à¯įà®±à®¤à¯įà®¤à®¿à®²à¯į", "à±ģà°¨à±Īà°Łà±Ĩà°¡à±į", "Ġà®®à®¾à®±à¯įà®±à®¤à¯įà®¤à¯Ī", "à±ģà°¨à±įà°¨à°¾,", "Ġà®®à®¾à®±à¯įà®±à®®à®Łà¯Īà®¨à¯įà®¤à®©.", "à±ģà°²à°²à±ĭ", "Ġà®®à®¾à®±à¯įà®±à®¿à®¯à®¤à¯ģ.", "à±ģà°²à°¾", "Ġà®®à®¿à®¯à®¾à®©à¯įà®®à®°à¯į,", "à±ģà°²à°ļà±ĩ", "Ġà®®à®¿à®ķà¯ģ", "à±ģà°²à±Īà°¨", "Ġà®®à®ķà®¤", "à±ģà°²à±įà°¤", "Ġà®®à®ķà®¾à®µà¯Ģà®°à®°à®¿à®©à¯į", "à±ģà°²à±ģ;", "Ġà®®à®ķà®¾à®ľà®©à®ªà®¾à®¤à®Ļà¯įà®ķà®³à¯į", "à±ģà°²à±Īà°¨à°ªà±įà°ªà°Łà°¿à°ķà±Ģ,", "Ġà®®à®ķà¯įà®ķà®³à¯į\"", "à±ģà°²à±įà°¤à°¾à°¨à±ģà°²à±ģ,", "Ġà®®à¯ģà®©à¯Īà®ªà¯įà®ªà¯ģà®Łà®©à¯į", "à±ģà°µà±ģà°²à±Īà°¨à°ªà±įà°ªà°Łà°¿à°ķà±Ģ,", "Ġà®®à¯ģà®©à¯į", "à±ģà°µà±Īà°ª", "Ġà®®à¯ģà®©à¯įà®©à¯Ĩà®Łà¯ģà®¤à¯įà®¤à®©à®°à¯į.", "à±ģà°µà±Īà°ªà±ģà°²à°¾", "Ġà®®à¯ģà®©à¯įà®©à¯ĭà®Łà®¿à®¯à®¾à®©", "à±ģà°ķà±ģà°Ĥà°Łà°¾à°°à±ģ.", "Ġà®®à¯ģà®©à¯įà®©à¯ĩà®±à¯įà®±à®®à¯į", "à±ģà°ķà±ģà°Ĥà°Łà±ģà°Ĥà°¦à°¿.", "Ġà®®à¯ģà®©à¯įà®©à¯ĩà®±à¯įà®±à®Ļà¯įà®ķà®³à¯Īà®ªà¯į", "à±ģà°ķà±ģà°Ĥà°Łà±ĭ", "Ġà®®à¯ģà®¯à®±à¯įà®ļà®¿à®¤à¯įà®¤", "à±ģà°ķà±ģà°Ĥà°Łà±ĭà°Ĥà°¦à°¿.", "Ġà®®à¯ģà®±à¯Īà®ķà®³à¯Īà®¯à¯ģà®®à¯į,", "à±ģà°ķà±Ĭà°¨à°¿", "Ġà®®à¯ģà®´à¯ģ", "à±ģà°ķà±Ĭà°¨à°¬à°¡à°¿à°¨", "Ġà®®à¯ģà®´à¯ģà®µà®¤à¯ģà®®à¯į", "à±ģà°ķà±Ĭà°¨à°¿à°¨à°ªà±įà°ªà°Łà°¿à°ķà°¿à°¨à±Ģ", "Ġà®®à¯ģà®ķà¯įà®ķà®¿à®¯à®®à®¾à®©", "à±ģà°ķà±ĭà°µà°¡à°Ĥà°¤à±ĭ", "Ġà®®à¯ģà®ļà¯ģà®²à®¿à®®à¯į", "à±ģà°Ĺà°Ĥ", "Ġà®®à¯ģà®ļà¯ģà®²à®¿à®®à¯įà®ķà®³à¯Ī", "à±Ĥà°²à°¾à°¦à°¾à°¯à°Ĥà°²à±ĭ", "Ġà®®à¯ģà®Łà®¿à®¤à¯įà®¤à¯ģ", "à±Ĥà°¡à°Ĥà°¡à°¿:", "Ġà®®à¯ģà®Łà®¿à®¯à®°à®ļà¯ģà®ķà®³à®¾à®ķ", "à±Ĥà°ªà°¬à°¡à°¿à°Ĥà°¦à°¿", "Ġà®®à¯ģà®Łà®¿à®ķà¯įà®ķà®ªà¯įà®ªà®Łà¯įà®Ł", "à±Ĥà°ªà°¿à°Ĥà°¦à°¿.", "Ġà®®à¯Ĥà®©à¯įà®±à®¾à®®à¯į", "à±Ĥà°Łà°¨à°²à°¬à±Īà°°à±Ĩà°Ĥà°¡à±ģà°ķà±ĭà°Łà±įà°²à°ķà±ģ", "Ġà®®à¯Ĥà®²à®®à®¾à®ķ", "à±ĥà°¤à°¿", "Ġà®®à¯Ĥà®²à®®à¯į", "à±ĥà°¤à°Ĥ,", "Ġà®®à¯ĩà®¯à¯įà®ļà¯įà®ļà®²à¯į", "à±ĥà°¤à°Ĥà°Ĺà°¾", "Ġà®®à¯ĩà®²à¯į", "à±Ĩà°ªà±įà°ªà°¿à°Ĥà°ļà±ģà°ķà±ĭà°µà°¡à°¾à°¨à°¿à°ķà°¿,", "Ġà®®à¯ĩà®±à¯įà®ķà¯ģà®ªà¯į", "à±Ĩà°¬à°¿à°¯à°¸à±į", "Ġà®®à¯ĩà®±à¯įà®ķà¯ģà®ķà¯į", "à±Ĩà°°à±įà°Łà°¿à°¯à±ĭà°°à°¾à°°à°¿", "Ġà®®à¯ĩà®±à¯įà®ķà¯Ĭà®£à¯įà®Łà®¾à®°à¯į.", "à±Ĩà°²à±įà°²à°¡à°¿à°Ĥà°ļà°¿à°Ĥà°¦à°¿.", "Ġà®®à¯ĩà®²à¯ģà®®à¯į", "à±Ĩà°²à±įà°²à±ĭà°¨à°¿", "Ġà®®à¯ĩà®²à¯ģà®®à¯į,", "à±Ĩà°¹à°°à±įà°Ĺà°°à±į,", "Ġà®®à¯Īà®¯à®®à®¾à®©à®¤à¯ģ", "à±Ĩà°Ĥà°Ĺà±ģà°³à±Ĥà°°à±ģ", "Ġà®®à¯Īà®¯à®Ļà¯įà®ķà®³à®¾à®ķà®µà¯ģà®®à¯į", "à±Ĩà°ķà±įà°¨à°¾à°²à°ľà±Ģ,", "Ġà®®à¯Īà®¯à®®à®¾à®ķà®µà¯ģà®®à¯į,", "à±Ĩà°²à°¿à°¸à°¿à°Ĥà°¦à°¿.", "Ġà®®à¯Ĭà®¤à¯įà®¤", "à±Ĩà°²à°¿à°ļà°¿à°¨", "Ġà®®à¯Ĭà®ķà¯Ĩà®ŀà¯įà®ļà®¤à®¾à®°à¯ĭ,", "à±Ĩà°²à±ģà°Ĺà±ģ,", "Ġà®®à¯Ĭà®´à®¿à®ªà¯į", "à±Ĩà°Łà±į", "Ġà®®à¯Ĭà®´à®¿à®¯à®¾à®©", "à±Ĩà°Łà±įà°°", "Ġà®®à¯Ĭà®´à®¿à®¯à®¿à®©à¯į", "à±Ĩà°Łà±įà°°à±ĭà°²", "Ġà®®à¯Ĭà®´à®¿à®ķà®³à®¾à®©à®µà¯Ī", "à±Ĩà°Łà±įà°°à±ĭà°²à°¿à°¯à°Ĥ,", "Ġà®®à¯Ĭà®´à®¿à®ķà®³à®¿à®©à¯į", "à±ĩà°¤à°°", "Ġà®®à¯Ĭà®´à®¿à®ķà®³à®¿à®²à¯į", "à±ĩà°¦à°¾à°²à°²à±ĭ", "Ġà®®à¯Ĭà®´à®¿à®ķà®³à¯ģà®ķà¯įà®ķà¯ģà®ªà¯į", "à±ĩà°¨à°ķà°²", "Ġà®®à¯Ĭà®´à®¿à®ķà®³à¯Īà®¯à¯ģà®Łà¯Īà®¯", "à±ĩà°°à±ģà°Ĺà°¾", "Ġà®®à¯Įà®°à®¿à®¯à®ªà¯į", "à±ĩ...).", "Ġà®°à¯Ģà®¤à®¿à®¯à®¾à®ķ", "à±ĩà°¡à±ģ", "Ġà®°à¯Ģà®¤à®¿à®¯à®¿à®²à¯į", "à±ĩà°®à°¾à°¦à°¿à°°à°¿à°Ĺà°¾", "Ġà®µà®¾à®©à®¿à®¯à®²à¯į,", "à±ĩà°¤,", "Ġà®µà®¾à®¯à¯į", "à±ĩà°°,", "Ġà®µà®¾à®°à¯įà®¤à¯įà®¤à¯Īà®¯à®¾à®©", "à±ĩà°°à±ĩà°¡à±ģ", "Ġà®µà®¿à®£à¯įà®µà¯Ĩà®³à®¿à®¤à¯į", "à±ĩà°²à°¿à°ķà±ĩà°¨à°¨à±Ģ", "Ġà®µà®¿à®¤à®¿à®ªà¯įà®ªà®¿à®©à¯į", "à±ĩà°·à°Ĥ.", "Ġà®µà®¿à®¯à®Łà¯įà®¨à®¾à®®à¯į,", "à±ĩà°¸à°¿à°¯à°¾", "Ġà®µà®¿à®³à¯Īà®µà¯ģà®ķà®³à¯į", "à±ĩà°¸à°¿à°Ĥà°¦à°¿.", "Ġà®µà®¿à®ļà®¯", "à±ĩà°ļà±įà°", "Ġà®µà¯Ģà®°à®°à¯įà®ķà®³à¯į", "à±ĩà°ļà±įà°Ľ", "Ġà®µà¯Ģà®´à¯įà®ļà¯įà®ļà®¿à®¯à®Łà¯Īà®¨à¯įà®¤à®¤à¯Īà®¯à¯ģà®®à¯į", "à±ĩà°ļà±įà°Ľà°¾à°¯à±ģà°¤", "Ġà®µà¯Ĩà®³à®¿à®ķà¯į", "à±ĩà°ľà±Ģ", "Ġà®µà¯ĩà®°à¯įà®ļà¯į", "à±Īà°¤à°Ĥ", "Ġà®µà®£à®¿à®ķà®¤à¯įà®¤à®¿à®²à¯į", "à±Īà°¤à±įà°°à°¿", "Ġà®µà®£à®¿à®ķà®®à¯į", "à±Īà°¨à±ģà°²à±ģ", "Ġà®µà®£à®¿à®ķà®°à¯įà®ķà®³à¯į,", "à±Īà°²à±Ģ", "Ġà®µà®¨à¯įà®¤à®µà®°à¯į", "à±Īà°¸à±įà°¤à°µà±ģà°²à±ģ", "Ġà®µà®¨à¯įà®¤à¯ģà®³à¯įà®³à®¤à¯ģ.", "à±Īà°ķà±ĭà°°à±įà°Łà±ģà°²à±ģ", "Ġà®µà®¨à¯įà®¤à¯ģà®³à¯įà®³à®©.", "à±Īà°¦à°¾à°¨à°Ĥà°¤à±ĭ", "Ġà®µà®°à®µà®´à¯Īà®¤à¯įà®¤à®©.", "à±Īà°¨,", "Ġà®µà®°à®¿", "à±Īà°¨à°µà°¿", "Ġà®µà®°à¯ģà®®à®¾à®©à®®à®¾à®©à®¤à¯ģ", "à±Īà°¨à°¿à°ķ", "Ġà®µà®°à¯ģà®ķà®¿à®©à¯įà®±à®©.", "à±Īà°ªà°¾à°ķà±įà°·à°¿à°ķ", "Ġà®µà®°à¯ģà®ķà¯Ī", "à±Ĭà°¡à°¿à°Ĺà°¿à°Ĥà°ļà±ģà°ķà±ĭà°µà°ļà±įà°ļà°¨à°¿", "Ġà®µà®°à¯Īà®¯à®¿à®²à®¾à®©", "à±Ĭà°²à±Ģ,", "Ġà®µà®°à®²à®¾à®±à¯įà®±à¯ģ", "à±Ĭà°Ĥà°¦à°¿à°Ĥà°¦à°¿.", "Ġà®µà®°à¯įà®ķà¯įà®ķà®¤à¯įà®¤à®¿à®©à®°à¯Īà®¤à¯į", "à±ĭà°¤à±Ĥ", "Ġà®µà®°à¯įà®ķà¯įà®ķà®¤à¯įà®¤à®¿à®©à®°à¯Īà®¯à¯ģà®®à¯į", "à±ĭà°¤à±įà°°à°¿,", "Ġà®µà®±à®¿à®¯", "à±ĭà°ĥ", "Ġà®µà®±à¯ģà®®à¯Ī", "à±ĭà°ķà±įà°¯à°Ĥ", "Ġà®µà®³à®°à¯įà®¨à¯įà®¤à®¤à¯ģ.", "à±ĭà°ķà±įà°·", "Ġà®µà®³à®°à¯ģà®®à¯į", "à±ĭà°ļà°¨à°²à±ĭ", "Ġà®µà®³à®°à¯įà®ļà¯įà®ļà®¿", "à±ĭà°¨à±ĩà°¸à°¿à°¯à°¾", "Ġà®µà®³à®°à¯įà®ļà¯įà®ļà®¿à®¯à®Łà¯Īà®¨à¯įà®¤à®©.", "à±ĭà°¨à±įà°²à±ģ", "Ġà®µà®³à®°à¯įà®ļà¯įà®ļà®¿à®ķà¯įà®ķà¯ģà®®à¯į", "à±ĭà°¨à±įà°²à±ģà°Ĺà°¾", "Ġà®µà®³à®°à¯įà®ļà¯įà®ļà®¿à®ķà¯įà®ķà¯ģà®ķà¯į", "à±ĭà°°à°¾à°Łà°Ĥ", "Ġà®µà®´à®¿à®ªà¯į", "à±ĭà°²à°¿à°¥à°¿à°ķà±į", "Ġà®µà®´à®¿à®¯à®¿à®²à®¾à®©", "à±ĭà°³à±ģà°²à±ģ,", "Ġà®µà®´à®¿à®¯à¯ģà®Łà®©à¯į", "à±Įà°°", "Ġà®µà®´à®ķà¯įà®ķà®¿à®²à¯į", "à±Įà°³à°¿,", "Ġà®µà®¾à®´à®¿à®Łà®Ļà¯įà®ķà®³à®¿à®²à¯į", "à±Įà°ķà°¿à°ķ,", "Ġà®µà®¾à®´à¯įà®¨à¯įà®¤à®©à®°à¯į.", "à±įà°ŀ", "Ġà®µà®¾à®´à¯įà®¨à¯įà®¤à¯ģ", "à±įà°¨à±ĩà°¯", "Ġà®µà®¾à®´à¯įà®ķà¯įà®ķà¯Ī", "à±įà°ªà±ĭà°¤à±Ĥ", "Ġà®µà®¾à®´à¯įà®µà®¾à®©à®¤à¯ģ", "à±įà°®à°¦à±Ģà°¯à±ģà°²à±ģ,", "Ġà®µà®¾à®´à¯įà®µà®¿à®©à¯į", "à±įà°®à°¿à°Ĥà°ļà°¿à°¨à°Ĥà°¦à±ģà°µà°²à±įà°²", "Ġà®µà®¾à®´à¯įà®µà¯Ī", "à±įà°¯à°ķà±įà°·à°Ĥà°Ĺà°¾", "Ġà®µà®¾à®´à¯įà®µà¯Īà®ªà¯į", "à±įà°¯à°µà°°à±įà°¤à°¿à°¤à±įà°µà°Ĥ", "Ġà®µà®¿à®°à®¿à®ķà¯ģà®Łà®¾à®µà¯ģà®®à¯į", "à±įà°¯à°µà°¸à°¾à°¯à°Ĥ", "Ġà®µà®¿à®°à®¿à®µà®¾à®ķ", "à±įà°°à°¾à°«à°¿à°ķà±į", "Ġà®µà®¿à®°à®¿à®µà®Łà¯Īà®¨à¯įà®¤à®¤à¯ģ.", "à±įà°°à°¾à°®", "Ġà®µà®¿à®°à®¿à®µà®Łà¯Īà®¨à¯įà®¤à¯ģ", "à±įà°°à°¾à°µà°¿à°¡", "Ġà®µà®¿à®²à®ķà¯įà®ķà®²à®¾à®©à®¤à¯ģ", "à±įà°°à°¾à°Ĥà°¤à°¿,", "Ġà®µà®¿à®²à®Ļà¯įà®ķà¯ģà®ķà®³à¯į", "à±įà°°à°®à°Ĥà°Ĺà°¾", "Ġà®µà®¿à®µà®ļà®¾à®¯à®¿à®ķà®³à¯į", "à±įà°°à±Ģà°ķà±ģà°²à±ģ", "Ġà®µà®¿à®Łà¯ģà®µà®¤à®±à¯įà®ķà®¾à®ķ", "à±įà°²à°®à±Ĩà°Ĥà°Łà°°à±Ģ", "Ġà®µà®¿à®Łà¯įà®Łà¯ģ", "à±įà°²à°²à±ĭ", "Ġà®µà®¿à®Łà¯įà®Łà¯ģà®¤à¯į", "à±įà°²à±ĭà°¨à±Ĥ", "Ġà®µà®¿à®Łà¯įà®Łà¯ģà®ļà¯į", "à±įà°µà°°à°²à±ĭà°¨à±ĩ", "Ġà®µà®ķà®¿à®¤à¯įà®¤à®¤à¯ģ.", "à±įà°µà°¸à±įà°¤à±įà°°", "Ġà®µà®ķà¯Īà®ªà¯įà®ªà®Łà¯įà®Ł", "à±įà°µà°¾à°®à°¿à°¤à±įà°°,", "Ġà®µà®ķà¯ģà®ªà¯įà®ªà®¿à®©à®°à®¿à®Łà®®à®¿à®°à¯ģà®¨à¯įà®¤à¯ģà®®à¯į", "à±įà°ķà±ģ", "Ġà®µà®ķà¯ģà®ªà¯įà®ªà®¿à®©à®°à¯ģà®®à¯į", "à±įà°Ĺà°¿", "Ġà®µà®Ļà¯įà®ķà®¾à®³à®¤à¯ĩà®ļà®®à¯į", "à±įà°ŀà°¾à°¨", "Ġà®µà®Ļà¯įà®ķà®¾à®³à®¤à¯įà®¤à®¿à®©à¯į", "à±įâĢĮà°²à°²à±ĭ", "Ġà®µà®Łà®¿à®¨à®¿à®²à®¤à¯įà®¤à®¿à®©à¯į", "âĢĮà°µà°¾à°£à°¾", "Ġà®µà®Łà®®à¯ĩà®±à¯įà®ķà¯ģà®ªà¯į", "âĢĮà°µâĢĮà°¸à±įà°¥âĢĮ", "Ġà®µà®Łà®¿à®µà®®à®¾à®©à®¤à¯ģ", "Ġà®µà®Łà®¿à®µà®®à®¾à®ķ", "Ġ.", "Ġà®µà®Łà®ķà¯įà®ķà¯ģà®ļà¯į", "Ġà®µà®Łà®ķà¯įà®ķà¯ĩ", "Ġ62", "Ġà®µà¯Ģà®¤à®¤à¯įà®¤à¯Ī", "Ġà®µà¯Ģà®¤à®®à®¾à®©à®¤à¯ģ", "Ġ\"à°¨à±ĩà°°à±ĩà°¡à±ģ\"", "Ġà®µà¯ĩà®ķà®®à®¾à®ķ", "Ġ\"à°Ĺà°¿à°¨à±įà°¨à±Ĩ", "Ġà®µà¯ĩà®Łà¯įà®Łà¯Īà®¯à®¾à®Łà®¿", "Ġ\"à°Ńà°¾à°°à°¤à°¦à±ĩà°¶à°Ĥ\"", "Ġà®µà¯ĩà®¤à®¤à¯įà®¤à®¿à®©à¯į", "Ġ\"à°Ńà°°à°¤à°µà°°à±įà°·à°Ĥ\",", "Ġà®µà¯ĩà®¤à®®à®¾à®©à®¤à¯ģ", "Ġ\"à°Ńà°°à°¤à±ģà°¡à±ģ\".", "Ġà®µà¯ĩà®¤à®®à¯į", "Ġ(à°¯à±Ĥà°¦à±ģà°²à±ģ,", "Ġà®µà¯ĩà®¤à®Ļà¯įà®ķà®³à®¾à®©à®µà¯Ī", "Ġ(à°Ĩà°Ĥà°Ĺà±įà°²à±ĩà°¯à±ģà°²à±ģ)", "Ġà®µà¯ĩà®¤à®Ļà¯įà®ķà®³à¯Ī", "Ġ(à°ĩà°¦à±ĩ,", "Ġà®µà¯ĩà®±à¯ģà®ªà®¾à®Łà¯ģà®ķà®³à¯Īà®ķà¯į", "Ġ(à°īà°¦à°¾:", "Ġà®µà¯ĩà®±à¯ģà®ªà®Łà¯įà®Łà¯ģ", "Ġ(à°Łà°Ĥà°¡à±įà°°à°¾)", "Ġà®µà¯ĩà®±à¯įà®±à¯ģà®®à¯Ī", "Ġ(à°Ńà°¾à°°à°¤", "Ġà®µà¯ĩà®±à¯įà®±à¯ģà®®à¯Īà®ķà®³à¯Ī", "Ġ10", "Ġà®µà¯ĩà®³à®¾à®£à¯įà®®à¯Ī,", "Ġ1000", "Ġà®µà¯ĩà®³à®¾à®£à¯įà®®à¯Īà®ªà¯į", "Ġ1010", "Ġà®µà¯Īà®¤à¯įà®¤à®¤à®¿à®²à¯į", "Ġ142", "Ġà®µà¯Īà®¤à¯įà®¤à®¤à¯ģ.", "Ġà®µà¯Īà®¤à¯įà®¤à®¿à®°à¯ģà®¨à¯įà®¤à®¤à¯ģ", "Ġ1652", "Ġà®µà¯Īà®ķà¯įà®ķà®µà¯ĭ", "Ġ17", "Ġà®µà¯Īà®ķà¯įà®ķà¯ģà®®à¯į", "Ġ121,01,93,422.", "Ġà®¹à®°à¯įà®·à®µà®°à¯įà®¤à®©à®°à¯į", "Ġ1250", "Ġà®¹à®¿à®¨à¯įà®¤à¯ģà®·à¯į", "Ġ1853", "Ġà®¹à®¿à®¨à¯įà®¤à¯ģà®¸à¯įà®¤à®¾à®©à®¿à®©à¯į", "Ġ1857", "Ġà®¹à®¿à®¨à¯įà®¤à¯ģà®¸à¯įà®¤à®¾à®©à¯į", "Ġ1962", "Ġà®ħà®£à¯ģ", "Ġ1965,", "Ġà®ħà®£à¯ģà®ķà®ªà¯įà®ªà®Łà¯įà®Łà¯ģ", "Ġà®ħà®¨à¯įà®¤à®®à®¾à®©à¯į", "Ġ1971", "Ġà®ħà®¨à¯įà®¨à¯ĩà®°à®¤à¯įà®¤à®¿à®²à¯į", "Ġ1974", "Ġà®ħà®°à®ªà®¿à®ķà¯įà®ķà®Łà®²à¯ģà®®à¯į,", "Ġ1975,", "Ġà®ħà®²à¯Īà®ķà®³à®¾à®ķ", "Ġ1996", "Ġà®ħà®µà®°à¯ģà®®à¯į", "Ġ1998", "Ġà®ħà®ķà®°à®¾à®¤à®¿à®¯à®¿à®©à¯į", "Ġ2%", "Ġà®ħà®ķà®¿à®®à¯įà®ļà¯Ī", "Ġ2003", "Ġà®ħà®ļà¯ĭà®ķà®°à¯į", "Ġ2004", "Ġà®ħà®ļà¯įà®ļà®®à®¯à®®à¯į", "Ġ22", "Ġà®ħà®Łà¯ģà®¤à¯įà®¤à¯ģ", "Ġ25%", "Ġà®ħà®Łà¯Īà®¯", "Ġà®ħà®¤à®±à¯įà®ķà¯ģ", "Ġ2014", "Ġà®ħà®¤à®±à¯įà®ķà¯ģà®ķà¯į", "Ġà®ħà®¤à®¿à®ķà®®à®¾à®©", "Ġà®ħà®¤à®¿à®ķà®¾à®°à®ªà¯įà®ªà¯Ĥà®°à¯įà®µà®®à®¾à®ķ", "Ġ30", "Ġà®ħà®®à¯Īà®¤à®¿à®¯à®¾à®©", "Ġ32,87,263", "Ġà®ħà®®à¯Īà®¨à¯įà®¤à®¤à¯ģ.", "Ġ40", "Ġà®ħà®®à¯Īà®¨à¯įà®¤à¯ģà®³à¯įà®³à®¤à¯ģ.", "Ġ40%", "Ġà®ħà®®à¯Īà®ªà¯įà®ªà®¾à®ķ", "Ġà®ħà®®à¯Īà®ªà¯įà®ªà¯ģà®ķà®³à¯Īà®¯à¯ģà®Łà¯Īà®¯,", "Ġ75,7%.", "Ġà®ħà®°à®ªà¯įà®ªà®¾,", "Ġ82,14%,", "Ġà®ħà®°à¯ģà®ķà®¿à®²à¯į", "Ġ83,04%,", "Ġà®ħà®°à®ļà®®à®°à®ªà¯ģà®ķà®³à¯į", "Ġ83.80%", "Ġà®ħà®°à®ļà®¿à®¯à®²à®®à¯Īà®ªà¯įà®ªà¯ģ", "Ġà°¡à°¾à°²à°°à±įà°²à±ģ.", "Ġà®ħà®°à®ļà¯ģà®ķà®³à¯Ī", "Ġà°¢à°¾à°ķà°¾", "Ġà®ħà®°à®ļà¯ģà®ķà®³à¯į", "Ġà°¥à°¾à°¨à±ĩ", "Ġà®ħà®±à®¿à®ŀà®°à¯įà®ķà®³à¯į", "Ġà°¥à°¾à°°à±į", "Ġà®ħà®±à®¿à®¯à®ªà¯įà®ªà®Łà¯ģà®®à¯į", "Ġà°«à°²à°¿à°¤à°Ĥà°Ĺà°¾", "Ġà®ħà®±à®¿à®¯à®ªà¯įà®ªà®Łà¯ģà®ķà®¿à®©à¯įà®±à®©à®°à¯į.", "Ġà°«à±įà°°à°¾à°¨à±įà°¸à±į,", "Ġà®ħà®±à®¿à®¯à®ªà¯įà®ªà®Łà¯ģà®ķà®¿à®±à®¤à¯ģ.", "Ġà°ĭ", "Ġà®ħà®±à®¿à®¯à®ªà¯įà®ªà®Łà¯įà®Ł", "Ġà°Ķ", "Ġà®ħà®±à®¿à®¯à®ªà¯įà®ªà®Łà¯įà®Łà®©.", "Ġà°¤à°¤à±įà°µ", "Ġà®ħà®±à®¿à®µà®¿à®¤à¯įà®¤à®©.", "Ġà°¤à°¦à±ģà°ªà°°à°¿", "Ġà®ħà®±à®¿à®µà®¿à®¯à®²à¯į,", "Ġà°¤à°®à°¿à°³à°Ĥ.", "Ġà®ħà®³à®µà®¿à®²à¯į", "Ġà°¤à°²à°Ĥà°ªà±ģà°¤à±ĭ", "Ġà®ħà®³à®µà¯ģ", "Ġà°¤à°¾à°°à°¤à°®à±įà°¯à°¾à°²à±ģà°¨à±įà°¨à°¾à°¯à°¿.", "Ġà®ħà®³à®µà¯ģà®ķà®³à®¿à®²à¯į", "Ġà°¤à°Ĺà±įà°Ĺà°¿à°ªà±ĭà°¯à°¿à°Ĥà°¦à°¿.", "Ġà®ħà®´à®¿à®ķà¯įà®ķà®ªà¯įà®ªà®Łà¯įà®Łà®©.", "Ġà°¤à±ģà°°à±ģà°·à±įà°ķà±ģà°²", "Ġà®ħà®´à¯Īà®ķà¯įà®ķà®ªà¯įà®ªà®Łà¯ģà®ķà®¿à®±à®¤à¯ģ.", "Ġà°¤à±Ĩà°ªà±įà°ªà°¿à°Ĥà°ļà±ģà°ķà±ĭà°µà°¡à°¾à°¨à°¿à°ķà°¿,", "Ġà®ħà®µà®°à¯įà®ķà®³à®¤à¯ģ", "Ġà°¤à±Ĩà°²à°¿à°¸à°¿à°Ĥà°¦à°¿.", "Ġà®ħà®µà®°à¯įà®ķà®³à®¾à®²à¯į", "Ġà°¤à±Ĩà°²à±ģà°Ĺà±ģ,", "Ġà®ħà®Łà¯Īà®¨à¯įà®¤à®¤à¯Īà®ķà¯į", "Ġà°¤à±ĩà°²à°¿à°ķà±ĩà°¨à°¨à±Ģ", "Ġà®ħà®Łà¯Īà®¨à¯įà®¤à®¿à®°à¯ģà®¨à¯įà®¤à®©à®°à¯į.", "Ġà°¤à±įà°µà°°à°²à±ĭà°¨à±ĩ", "Ġà®Ĩà®¤à®°à®µà¯ģ", "Ġà°¤à°°à±ģà°µà°¾à°¤,", "Ġà®Ĩà®©à¯įà®®à¯Ģà®ķà®ªà¯į", "Ġà°¤à°°à±įà°µà°¾à°¤à°¿", "Ġà®Ĩà®ķà¯įà®ķà®¿à®¯à¯ģà®³à¯įà®³à®¤à¯ģ.", "Ġà°¤à°¿à°°à°¿à°Ĺà±ĩ", "Ġà®Ĩà®ķà¯įà®ķà®ķà¯į", "Ġà°¤à°¿à°°à±ģà°Ĺà±ģà°¬à°¾à°Łà±ģ", "Ġà®Ĩà®Ļà¯įà®ķà®¿à®²", "Ġà°¤à°ķà±įà°ķà±ģà°µà±ĩ.", "Ġà®Ĩà®£à¯įà®Łà®¾à®°à¯į.", "Ġà°¤à±Ĥà°°à±įà°ªà±ģ", "Ġà®Ĩà®£à¯įà®Łà¯ģà®ķà¯įà®ķà¯ģà®ªà¯į", "Ġà°¤à±Ĥà°°à±įà°ªà±ģà°¨", "Ġà®Ĩà®¤à®¾à®°à®®à®¾à®©à®¤à¯ģ", "Ġà°¦à°¶à°²à±ĭ", "Ġà®Ĩà®¤à®¾à®°à®Ļà¯įà®ķà®³à®¾à®©à®µà¯Ī", "Ġà°¦à°¸à°°à°¾.", "Ġà®Ĩà®¤à®¾à®°à®Ļà¯įà®ķà®³à¯į,", "Ġà°¦à°¿à°Ĺà±ģà°µ", "Ġà®Ĩà®ªà¯įà®ªà®¿à®°à®¿à®ķà¯įà®ķà®¾à®µà¯ģà®ķà¯įà®ķà¯ģ", "Ġà°¦à°Ĥà°¡à°¯à°¾à°¤à±įà°°à°²à°¤à±ĭ,", "Ġà®Ĩà®¯à®¿à®°à®®à¯į", "Ġà°¦à°ķà±įà°ķà°¨à±ģ", "Ġà®Ĩà®¯à¯ģà®¤à®Ļà¯įà®ķà®³à¯Īà®¯à¯ģà®Łà¯Īà®¯", "Ġà°¦à°Ĺà±įà°Ĺà°°à°²à±ĭ", "Ġà®Ĩà®¯à¯įà®µà¯ģ", "Ġà°¦à±Ģà°¨à±įà°¨à°¿", "Ġà®Ĩà®±à¯įà®±à®¿", "Ġà°¦à±Ģà°ªà°¾à°µà°³à°¿,", "Ġà®Ĩà®±à¯įà®±à®¿à®©à¯į", "Ġà°¦à±įà°°à°¾à°µà°¿à°¡", "Ġà®Ĩà®±à¯įà®±à¯Īà®ķà¯į", "Ġà°¦à°¾à°Łà°¿à°¨", "Ġà®Ĩà®³à®ªà¯įà®ªà®Łà¯įà®Łà®¤à¯ģ", "Ġà°¦à°¾à°Łà±ĩà°¸à°¿à°Ĥà°¦à°¿.", "Ġà®Ĩà®³à¯ģà®®à¯į", "Ġà°¦à°ķà±įà°·à°£à°¾à°¸à°¿à°¯à°¾à°²à±ĭ", "Ġà®Ĩà®ķà¯įà®ļà¯ģà®ªà¯ĭà®°à¯įà®Łà¯ģ", "Ġà°¦à°ķà±įà°·à°¿à°£à°¦à°¿à°Ĺà±įà°Ńà°¾à°Ĺà±ĩ,", "Ġà®Ĩà®ķà®¿à®¯à¯ĭà®°à¯Ī", "Ġà°¦à°ķà±įà°·à°¿à°£à°¾à°¨,", "Ġà®Ĩà®ķà®¿à®¯à®µà®±à¯įà®±à®¿à®²à¯į", "Ġà°¦à±Ģà°¨à°¿à°µà°²à±įà°²", "Ġà®Ĩà®ķà®¿à®¯à®µà®±à¯įà®±à¯ģà®ķà¯įà®ķà®¾à®ķà®µà¯ģà®®à¯į", "Ġà°¦à±Ģà°¨à°¿à°ķà°¿", "Ġà®Ĩà®ķà®¿à®¯à®µà®±à¯įà®±à¯ģà®ķà¯įà®ķà¯ģ", "Ġà°¦à±ĩà°¶à°°à°¾à°ľà°ķà±Ģà°¯à°¾à°²à±įà°²à±ĭ", "Ġà®Ĩà®ķà®¿à®¯à®µà®±à¯įà®±à¯ģà®Łà®©à¯į", "Ġà°¦à±ĩà°¶à°¾à°§à°¿à°¨à±ĩà°¤", "Ġà®Ĩà®ķà®¿à®¯à®µà®±à¯įà®±à¯Ī", "Ġà°¦à±ĩà°¶à°¾à°¨à°¿à°ķà°¿", "Ġà®Ĩà®ļà®¿à®¯à®¾à®µà¯Īà®ļà¯į", "Ġà°¦à±ĩà°¶à°¾à°¨à±įà°¨à°¿", "Ġà®Ĩà®Łà¯įà®ļà®¿", "Ġà°¦à±ĩà°¶à°¾à°²à°¤à±ĭ", "Ġà®Ĩà®Łà¯įà®ļà®¿à®ķà¯įà®ķà¯ģ", "Ġà°¦à±ĩà°¶à°¾à°²à°¨à±ģ", "Ġà®Ĩà®Łà¯įà®ļà®¿à®¯à¯Ī", "Ġà°¦à±ĩà°¶à°¾à°²à°ķà±Ĥ", "Ġà®Ĩà®Łà¯įà®ļà®¿à®¯à®¾à®³à®°à®¾à®²à¯ģà®®à¯į", "Ġà°¦à±ĩà°¶à°¾à°²à±įà°²à±ĭà°¨à±Ĥ", "Ġà®Ĩà®Łà¯įà®ļà®¿à®¯à®¾à®³à®°à®¾à®²à¯į", "Ġà°¦à±įà°µà°¿à°¸à°Ńà°¾", "Ġà®ĩà®©à®Ļà¯įà®ķà®³à¯Īà®¯à¯ģà®Łà¯Īà®¯", "Ġà°¦à±įà°µà±Īà°ªà°¾à°ķà±įà°·à°¿à°ķ", "Ġà®ĩà®©à¯įà®©à¯ģà®®à¯į", "Ġà°¦à±įà°µà±Ģà°ªà°Ĥ.", "Ġà®ĩà®±à¯ģà®¤à®¿à®¯à®¾à®ķ", "Ġà°¦à±įà°µà±Ģà°ªà°ķà°²à±įà°ªà°Ĥ", "Ġà®ĩà®²à¯įà®²à®¾à®¤", "Ġà°¦à±įà°µà±Ģà°ªà±ĩ,", "Ġà®ĩà®´à¯ģà®¤à¯įà®¤à®©.", "Ġà°¨à°¦à±ģà°²à±ģ", "Ġà®ĩà®µà®°à¯ģà®ķà¯įà®ķà¯ģà®ªà¯į", "Ġà°¨à°¾à°Łà°¿", "Ġà®ĩà®µà¯įà®µà®¾à®±à¯ģ", "Ġà°¨à°¿à°²à°¬à±Ĩà°Łà±įà°Łà±ģà°ķà±ģà°¨à±įà°¨à°¾à°¯à°¿.", "Ġà®ĩà®Ļà¯įà®ķà¯ģ", "Ġà°¨à°¿à°²à°¿à°ļà°¿à°Ĥà°¦à°¿.", "Ġà®ĩà®£à¯Īà®¤à¯įà®¤à¯ģ", "Ġà°¨à°¿à°·à±ĩà°§à°Ĥ,", "Ġà®ĩà®£à¯Īà®¯à®¤à¯įà®¤à®¿à®±à¯įà®ķà¯ģà®³à¯į", "Ġà°¨à±Ĥà°Łà°¨à°²à°¬à±Īà°°à±Ĩà°Ĥà°¡à±ģà°ķà±ĭà°Łà±įà°²à°ķà±ģ", "Ġà®ĩà®£à¯įà®Łà®¿à®¯à®¾", "Ġà°¨à±ĩà°°à±ģà°Ĺà°¾", "Ġà®ĩà®£à¯įà®Łà®¿à®¯à®¾à®µà®¿à®²à¯į", "Ġà°¨à±ĩà°°à±ĩà°¡à±ģ", "Ġà®ĩà®£à¯įà®Łà¯ĭà®¯à¯į", "Ġà°¨à°¡à°¿à°ªà°¿à°¸à±įà°¤à°¾à°®à°¨à°¿", "Ġà®ĩà®£à¯įà®Łà¯ĭà®¸à¯į", "Ġà°¨à°¡à°¿à°ªà°¿à°Ĥà°ļà°µà°ļà±įà°ļà°¨à°¿", "Ġà®ĩà®¤à®©à®¾à®²à¯į", "Ġà°¨à°¡à°¿à°ªà°¿à°Ĥà°ļà°¾à°²à°¨à±ĩ", "Ġà®ĩà®¤à®¿à®²à¯į", "Ġà°¨à°¡à°¿à°ªà°¿à°Ĥà°ļà°¿,", "Ġà®ĩà®¤à®¿à®ķà®¾à®ļà®®à¯į", "Ġà°¨à°¡à°¿à°ªà°¿à°Ĥà°ļà°Łà°®à±Ĥ", "Ġà®ĩà®¤à¯ģà®µà®¾à®ķà¯ģà®®à¯į.", "Ġà°¨à°¡à°¿à°ªà°¿à°Ĥà°ļà°Łà°Ĥ", "Ġà®ĩà®¤à¯ĩ", "Ġà°¨à°¾à°¯à°ķà°¤à±įà°µà°¾à°¨", "Ġà®ĩà®¤à®±à¯įà®ķà®¾à®©", "Ġà°¨à°¾à°¯à°ķà°¤à±įà°µà°Ĥà°²à±ĭ", "Ġà®ĩà®¤à®±à¯įà®ķà¯ģà®¤à¯į", "Ġà°¨à°¾à°Ĺà°°à°¿à°ķà°¤.", "Ġà®ĩà®¨à¯įà®¤à®ķà¯į", "Ġà°¨à°¾à°Ĺà°°à°¿à°ķà°¤à°ķà±ģ", "Ġà®ĩà®¨à¯įà®¤à¯ģà®ªà¯į", "Ġà°¨à°¿à°¡à°¿à°µà°¿à°¨à°¿", "Ġà®ĩà®¨à¯įà®¤à¯ģà®ķà¯įà®ķà®³à¯Īà®ªà¯į", "Ġà°¨à°¿à°¡à°¿à°µà°¿à°²à±ĭ", "Ġà®ĩà®¨à¯įà®¤à®¿à®¯à®°à¯įà®ķà®³à¯Ī", "Ġà°¨à°¿à°¯à±ĭà°²à°¿à°¥à°¿à°ķà±į", "Ġà®ĩà®¨à¯įà®¤à®¿à®¯à®ķà¯į", "Ġà°¨à°¿à°¯à°®à°¿à°Ĥà°ļà°¬à°¡à°¿à°¨", "Ġà®ĩà®¨à¯įà®¤à®¿à®¯à®¾à®µà®¾à®©à®¤à¯ģ", "Ġà°¨à°¿à°¯à°®à°¿à°Ĥà°ļà°¬à°¡à±įà°¡", "Ġà®ĩà®¨à¯įà®¤à®¿à®¯à®¾à®µà¯ģà®ķà¯įà®ķà¯ģà®³à¯į", "Ġà°¨à°¿à°°à°ķà±įà°·à°°à°¾à°¸à±įà°¯à°¤,", "Ġà®ĩà®¨à¯įà®¤à®¿à®¯à®¾à®µà¯Īà®¯à¯ģà®®à¯į", "Ġà°¨à°¿à°°à±įà°®à°¿à°Ĥà°ļà°¿à°¨à°Ĥà°¦à±ģà°µà°²à±įà°²", "Ġà®ĩà®¨à¯įà®¤à¯ĭà®©à¯ĩà®ļà®¿à®¯à®¾à®µà®¿à®©à¯į", "Ġà°¨à°¿à°°à±įà°µà°¹à°£à°²à±ĭ", "Ġà®ĩà®¨à¯įà®¤à¯ĭà®©à¯ĩà®ļà®¿à®¯à®¾à®µà¯ģà®Łà®©à¯į", "Ġà°¨à°¿à°µà°¾à°°à°¿à°¸à±įà°¤à°¾à°°à±ģ.", "Ġà®ĩà®¨à¯įà®¨à®¾à®ķà®°à®¿à®ķà®®à®¾à®©à®¤à¯ģ", "Ġà°¨à°¿à°µà°¾à°¸à°¾à°²à±ģ", "Ġà®ĩà®¨à¯įà®¨à®¾à®Łà¯įà®ķà®³à®¿à®²à¯į", "Ġà°¨à°Ĺà°°à°¾à°²à°¨à±ģà°Ĥà°¡à°¿", "Ġà®ĩà®¨à¯įà®¨à®¿à®²à®Ļà¯įà®ķà®³à¯ģà®ķà¯įà®ķà¯ģ", "Ġà°¨à°Ĺà°°à°¾à°²à°¨à±ĩ", "Ġà®ĩà®¨à¯įà®¨à®¿à®²à®Ļà¯įà®ķà®³à¯į", "Ġà°¨à±ģà°Ĥà°¡à°¿,", "Ġà®ĩà®ªà¯įà®ªà®ķà¯ģà®¤à®¿à®¯à¯Ī", "Ġà°¨à±Ĩà°°à°µà±ĩà°°à°¤à°¾à°¯à°¨à°¿", "Ġà®ĩà®ªà¯įà®ªà¯ĩà®°à®°à®ļà®¾à®©à®¤à¯ģ", "Ġà°¨à±Ĩà°²à°ķà±Ĭà°¨à°¿", "Ġà®ĩà®ªà¯įà®ªà¯ĩà®°à®°à®ļà¯ģà®ķà®³à®¿à®©à¯į", "Ġà°¨à±įà°¯à°¾à°¯à°¸à±įà°¥à°¾à°¨à°®à±Īà°¨", "Ġà®ĩà®¯à®±à¯įà®±à®ªà¯įà®ªà®Łà¯įà®Łà®©.", "Ġà°¨à±įà°¯à°¾à°¯à°µà±įà°¯à°µà°¸à±įà°¥,", "Ġà®ĩà®¯à®²à®µà®¿à®²à¯įà®²à¯Ī.", "Ġà°¨à±įà°¯à°¾à°¯à°µà±įà°¯à°µà°¸à±įà°¥à°²à±ĭ", "Ġà®ĩà®¯à®²à¯įà®ªà¯ģà®ķà®³à®¾à®ķà®ķà¯į", "Ġà°ªà°°à±įà°µà°¤à°¾à°²à°¤à±ĭ", "Ġà®ĩà®¯à®ķà¯įà®ķà®®à®¾à®©à®¤à¯ģ", "Ġà°ªà°°à±įà°·à°¿à°¯à°¨à±ģà°²à±ģ,", "Ġà®ĩà®¯à®ķà¯įà®ķà®Ļà¯įà®ķà®³à®¿à®©à¯į", "Ġà°ªà°¸à±įà°°à°¿à°¦à±įà°§à°¿", "Ġà®ĩà®¯à®ķà¯įà®ķà®Ļà¯įà®ķà®³à¯į", "Ġà°ªà°¾à°°à±įà°¸à±Ģà°²à±ģ,", "Ġà®ĩà®°à¯ģà®®à¯įà®ªà¯ģà®ķà¯į", "Ġà°ªà°¾à°Ĥà°¡à±įà°¯à±ģà°²à±ģ", "Ġà®ĩà®°à®£à¯įà®Łà®¾à®®à¯į", "Ġà°ªà°¾à°Łà±ģ", "Ġà®ĩà®°à®£à¯įà®Łà®¾à®µà®¤à¯ģ", "Ġà°ªà°¿à°²à°¿à°ļà°¾à°°à±ģ.", "Ġà®ĩà®°à®£à¯įà®Łà®¿à®²à¯ģà®®à¯ĩ", "Ġà°ªà°Ĥà°¡à±įà°²à±ģ", "Ġà®ĩà®°à®£à¯įà®Łà¯ģ", "Ġà°ªà°Ĥà°ªà°¿à°¨", "Ġà®ĩà®°à®£à¯įà®Łà¯ģà®®à¯į", "Ġà°ªà°ķà±įà°·à°Ĥ", "Ġà®ĩà®°à®¾à®£à¯ģà®µà®¤à¯į", "Ġà°ªà°ļà±įà°ļà°ľà±Ĩà°Ĥà°¡à°¾", "Ġà®ĩà®°à®¾à®£à¯ģà®µà®ļà¯į", "Ġà°ªà°Łà°Ĥà°²à±ĭ", "Ġà®ĩà®°à®¾à®ļà¯įà®ļà®¿à®¯à®®à®¾à®©à®¤à¯ģ", "Ġà°ªà±Ĩà°Łà±įà°°à±ĭà°²à°¿à°¯à°Ĥ,", "Ġà®ĩà®°à®¾à®ļà¯įà®ļà®¿à®¯à®Ļà¯įà®ķà®³à¯ģà®ķà¯įà®ķà¯ģ", "Ġà°ªà±Ĭà°¡à°¿à°Ĺà°¿à°Ĥà°ļà±ģà°ķà±ĭà°µà°ļà±įà°ļà°¨à°¿", "Ġà®ĩà®°à®¾à®ļà¯įà®ļà®¿à®¯à®Ļà¯įà®ķà®³à¯ģà®ķà¯įà®ķà¯ģà®ªà¯į", "Ġà°ªà±ĭà°°à°¾à°Łà°Ĥ", "Ġà®ĩà®°à¯ģà®ªà¯įà®ªà¯Īà®ªà¯į", "Ġà°ªà±Įà°°", "Ġà®ĩà®°à¯ģà®¨à¯įà®¤,", "Ġà°ªà°¦à°µà°¿", "Ġà®ĩà®°à¯ģà®¨à¯įà®¤à®¤à®¿à®²à®¿à®°à¯ģà®¨à¯įà®¤à¯ģ", "Ġà°ªà°¦à°µà°¿.", "Ġà®ĩà®°à¯ģà®¨à¯įà®¤à®¤à¯ģ", "Ġà°ªà°¦à°¿à°¶à°¾à°¤à°Ĥ", "Ġà®ĩà®±à¯Īà®¯à®¾à®£à¯įà®®à¯Īà®¯à¯Īà®¯à¯ģà®®à¯į", "Ġà°ªà°¦à±įà°§à°¤à°¿", "Ġà®ĩà®±à¯Īà®¯à®¿à®Łà®Ļà¯įà®ķà®³à®¿à®²à¯į", "Ġà°ªà°¦à±įà°§à°¤à°¿à°²à±ĭ", "Ġà®ĩà®²à®¤à¯įà®¤à¯Ģà®©à¯į", "Ġà°ªà°°à°®à±Īà°¨", "Ġà®ĩà®²à®ķà¯įà®ķà¯ģà®ķà®³à¯Ī", "Ġà°ªà°°à°®à±ĭà°¨à±įà°¨à°¤", "Ġà®ĩà®²à®Ļà¯įà®ķà¯Ī", "Ġà°ªà°°à°¾à°ľà°¯à°Ĥ", "Ġà®ĩà®²à®ķà¯įà®ķà®¿à®¯à®®à¯ģà®®à¯į", "Ġà°ªà°°à°¿à°¢à°µà°¿à°²à±įà°²à°¾à°¯à°¿.", "Ġà®ĩà®²à®ķà¯įà®ķà®¿à®¯à®Ļà¯įà®ķà®³à¯į", "Ġà°ªà°°à°¿à°¸à±įà°¥à°¿à°¤à°¿", "Ġà®ĩà®ķà¯įà®ķà®¾à®²à®ķà®Łà¯įà®Łà®®à®¾à®©à®¤à¯ģ", "Ġà°ªà°°à±ĭà°ķà±įà°·", "Ġà®ĩà®ļà¯Ī", "Ġà°ªà°°à°¿à°ªà°¾à°²à°¨", "Ġà®ĩà®ļà¯įà®ļà¯Ĭà®²à¯įà®²à®¾à®©", "Ġà°ªà°°à°¿à°ªà°¾à°²à°¿à°Ĥà°ļ", "Ġà®ĩà®ļà¯ģà®²à®¾à®®à®¿à®©à¯į", "Ġà°ªà°°à±Ģà°ķà±įà°·à°¨à±ģ", "Ġà®ĩà®ļà¯ģà®²à®¾à®®à¯į,", "Ġà°ªà°°à±Ģà°ķà±įà°·à°²à±ģ", "Ġà®ĩà®Łà®¤à¯įà®¤à®¿à®²à¯į", "Ġà°ªà°²à±įà°²à°µà±ģà°²à±ģ,", "Ġà®ĩà®Łà®®à®¾à®±à¯įà®±à®®à¯į", "Ġà°ªà°²à±įà°²à±Ĩà°²à±įà°²à±ĭà°¨à°¿", "Ġà®ĩà®Łà®®à¯į", "Ġà°ªà°¶à±įà°ļà°¿à°®à°¾à°¨,", "Ġà®ĩà®Łà®Ļà¯įà®ķà®³à®¿à®²à¯į", "Ġà°ªà°¾à°°à°¿à°¶à±įà°°à°¾à°®à°¿à°ķ", "Ġà®ĩà®Łà®Ļà¯įà®ķà®³à¯į", "Ġà°ªà°¾à°°à±įà°²à°®à±Ĩà°Ĥà°Łà°°à±Ģ", "Ġà®Īà®°à¯įà®¤à¯įà®¤à®¤à¯ģ.", "Ġà°ªà°¾à°°à±įà°Łà±Ģà°²", "Ġà®Īà®Łà¯ģà®ªà®Łà¯įà®Łà®©.", "Ġà°ªà°¾à°°à±įà°Łà±Ģà°²à°¤à±ĭ", "Ġà®Īà®Łà¯ģà®ªà®Łà¯įà®Łà®¿à®°à¯ģà®¨à¯įà®¤à®¤à¯ģ.", "Ġà°ªà°¾à°°à±įà°Łà±Ģà°ķà°¿", "Ġà®īà®£à¯įà®ªà®µà®°à¯įà®ķà®³à®¾à®ķ", "Ġà°ªà°¾à°°à±įà°Łà±Ģà°Ĺà°¾", "Ġà®īà®°à¯ĭà®®à¯Īà®ªà¯į", "Ġà°ªà°¾à°²à°¨", "Ġà®īà®Łà¯įà®ķà®°à¯ģà®¤à¯įà®¤à®¾à®ķ", "Ġà°ªà°¾à°²à°¯à°¿à°Ĥà°¦à°¿", "Ġà®īà®£à®°à®ªà¯įà®ªà®Łà¯įà®Łà®©.", "Ġà°ªà°¾à°²à°ķà±ģà°²à±ģ", "Ġà®īà®£à®µà¯ģà®ªà¯į", "Ġà°ªà°¾à°²à°¨à°²à±ĭà°ķà°¿", "Ġà®īà®£à®µà¯Īà®ķà¯į", "Ġà°ªà°¾à°ķà±į,", "Ġà®īà®£à¯įà®®à¯Īà®¯à®¿à®²à¯į", "Ġà°ªà°¾à°ķà°¿à°¸à±įà°¤à°¾à°¨à±į", "Ġà®īà®¯à®°à¯į", "Ġà°ªà°¾à°ķà°¿à°¸à±įà°¤à°¾à°¨à±į,", "Ġà®īà®¯à®°à¯įà®¨à¯įà®¤à®¤à¯ģ.", "Ġà°ªà°¾à°ķà°¿à°¸à±įà°¤à°¾à°¨à±įà°¤à±ĭ", "Ġà®īà®¯à®¿à®°à®¿à®©à®ªà¯į", "Ġà°ªà°¾à°ķà°¿à°¸à±įà°¥à°¾à°¨à±į", "Ġà®īà®¯à®¿à®°à®¿à®´à®ªà¯įà®ªà¯ģ", "Ġà°ªà°¾à°ķà°¿à°¸à±įà°¥à°¾à°¨à±įà°ķà±ģ", "Ġà®īà®¯à®¿à®°à¯į", "Ġà°ªà°Ĥà°ļà°¾à°¯à°¤à°¿", "Ġà®īà®°à¯ģà®µà®¾à®ķà®¤à¯į", "Ġà°ªà°Ĥà°ļà±ģà°ķà±ģà°Ĥà°Łà±ĭà°Ĥà°¦à°¿.", "Ġà®īà®°à¯ģà®µà®¾à®ķà®¿à®¯à¯ģà®³à¯įà®³à®¤à¯ģ.", "Ġà°ªà°Łà±įà°Łà°¾à°²à±ģ", "Ġà®īà®°à¯ģà®µà®¾à®ķà¯įà®ķà®ªà¯įà®ªà®Łà¯įà®Łà®©.", "Ġà°ªà°Łà±įà°Łà°¾à°²à±Ĩà°ķà±įà°ķà°¨à±ģà°Ĥà°¦à°¿.", "Ġà®īà®°à¯ģà®µà®¾à®ķà¯įà®ķà®®à¯į", "Ġà°ªà°Łà±įà°Łà±ģà°¨à±ģ", "Ġà®īà®°à¯ģà®µà®¾à®ķà¯įà®ķà®®à¯į,", "Ġà°ªà°Łà±įà°Łà°£à°¾à°²", "Ġà®īà®°à¯ģà®µà®¾à®ķà¯įà®ķà®µà¯ĭ", "Ġà°ªà°Łà±įà°Łà°£à°¾à°²à°¨à±ģ", "Ġà®īà®°à¯ģà®µà®¾à®ķà¯įà®ķà®¿à®¯à®¤à®¿à®²à¯ģà®®à¯į", "Ġà°ªà±Ģà°łà°Ńà±Ĥà°®à°¿à°¤à±ĭ", "Ġà®īà®±à¯ģà®¤à®¿", "Ġà°ªà±Ģà°łà°Ńà±Ĥà°®à°¿à°ķà°¿", "Ġà®īà®±à¯ģà®¤à®¿à®¯à®¾à®ķ", "Ġà°ªà±ģà°°à±ģà°·à±ģà°²", "Ġà®īà®±à¯ģà®¤à®¿à®¯à¯ģà®Łà®©à¯į", "Ġà°ªà±ģà°°à±ģà°·à±ģà°²à°ķà±ģ", "Ġà®īà®±à¯ģà®¤à®¿à®ªà¯įà®ªà®Łà¯ģà®¤à¯įà®¤à®¤à¯į", "Ġà°ªà±ģà°Łà±įà°Łà°¿à°²à±įà°²à±ģ.", "Ġà®īà®±à¯ģà®¤à®¿à®ªà¯įà®ªà®Łà¯ģà®¤à¯įà®¤à®¿à®¯à®¤à¯ģ.", "Ġà°ªà±ģà°Łà±įà°Łà±ģà°ªà±Ĥà°°à±įà°µà±ĭà°¤à±įà°¤à°°à°¾à°²à±ģ", "Ġà®īà®±à¯įà®ªà®¤à¯įà®¤à®¿", "Ġà°ªà±Ĥ.", "Ġà®īà®±à¯įà®ªà®¤à¯įà®¤à®¿à®ªà¯į", "Ġà°ªà±Ĥà°£à±ĩ", "Ġà®īà®²à®ķà®³à®¾à®µà®¿à®¯", "Ġà°ªà±Ĥà°°à±įà°¤à°¿à°Ĺà°¾", "Ġà®īà®²à®ķà®¿à®²à¯į", "Ġà°ªà±Ĥà°°à±įà°µà°ªà±ģ", "Ġà®īà®³à¯įà®³à®©.", "Ġà°ªà±Ĥà°°à±įà°µà°Ĥ", "Ġà®īà®³à¯įà®³à®Łà®ķà¯įà®ķà®¿", "Ġà°ªà±ĩà°¦à°°à°¿à°ķà°Ĥ,", "Ġà®īà®³à¯įà®³à®Łà®ķà¯įà®ķà®¿à®¯à®¿à®°à¯ģà®¨à¯įà®¤à®¤à¯ģ", "Ġà°ªà±ĩà°°à±ģà°¤à±ĭ", "Ġà®īà®Łà¯Īà®¯à®¤à®¾à®ķ", "Ġà°ªà±ĩà°°à±įà°ķà±Ĭà°¨à°µà°ļà±įà°ļà±ģ.", "Ġà®Ĭà®Łà¯įà®Łà®ļà¯įà®ļà®¤à¯įà®¤à¯ģà®ķà¯į", "Ġà°ªà±ĩà°°à±įà°ķà±Ĭà°¨à±įà°¨à°¾à°¯à°¿.", "Ġà®İà®¨à¯įà®¤", "Ġà°ªà±ĩà°°à±įà°ķà±Ĭà°Ĥà°Łà±ģà°¨à±įà°¨à°¾à°°à±ģ.", "Ġà®İà®²à®©à®¿à®¯", "Ġà°ªà±Ĭà°Ĥà°¦à°¿à°¨à°¦à°¿.", "Ġà®İà®´à¯ģà®¤à¯įà®¤à¯ģ", "Ġà°ªà±ĭà°°à±įà°ļà±ģà°Ĺà°²à±į,", "Ġà®İà®ŀà¯įà®ļà®¿à®¯", "Ġà°ªà±ĭà°·à°ķà°¾à°¹à°¾à°°", "Ġà®İà®Łà¯ģà®¤à¯įà®¤à¯ģà®ķà¯įà®ķà®¾à®Łà¯įà®Łà®¾à®ķà®¤à¯į", "Ġà°ªà±įà°°à°£à°¾à°³à°¿à°ķà°²à±ģ", "Ġà®İà®£à¯įà®£à®ªà¯įà®ªà®Łà¯ģà®ķà®¿à®±à®¤à¯ģ.", "Ġà°ªà±įà°°à°¤à°¿", "Ġà®İà®£à¯įà®£à®ªà¯įà®ªà®Łà¯įà®Łà®¤à¯ģ.", "Ġà°ªà±įà°°à°¥à°®", "Ġà®İà®£à¯įà®£à®¿à®ķà¯įà®ķà¯Īà®¯à®¿à®²à®¾à®©", "Ġà°ªà±įà°°à°®à°¾à°£", "Ġà®İà®£à¯įà®£à®¿à®ķà¯įà®ķà¯Īà®¯à®¿à®²à®¾à®©à®µà¯Ī", "Ġà°ªà±įà°°à°¯à°¾à°£à°¿à°ķà±ģà°²", "Ġà®İà®¤à®¿à®°à¯į", "Ġà°ªà±įà°°à°¾à°¦à±ĩà°¶à°¿à°ķ", "Ġà®İà®¤à®¿à®°à¯įà®ªà¯įà®ªà¯ģà®ķà¯įà®ķà®¾à®ķ", "Ġà°ªà±įà°°à°¾à°¬à°²à±įà°¯à°Ĥ", "Ġà®İà®¤à®¿à®°à¯įà®ķà¯įà®ķà®ªà¯įà®ªà®Łà¯įà®Łà®©à®°à¯į.", "Ġà°ªà±įà°°à°¾à°®à±ģà°ĸà±įà°¯à°¤à°¨à±ģ", "Ġà®İà®©à®ªà¯įà®ªà®Łà¯ģà®ªà®µà®°à¯įà®ķà®³à¯į", "Ġà°ªà±įà°°à°¾à°¯à°®à±Īà°¨à°¦à°¿.", "Ġà®İà®©à¯įà®ªà®¤à®¾à®ķà¯ģà®®à¯į.", "Ġà°ªà±įà°°à°¾à°°à±įà°¥à°¨à°²à°²à±ĭ", "Ġà®İà®²à¯įà®²à¯Īà®¯à¯Īà®ªà¯į", "Ġà°ªà±įà°°à°¾à°¸à±Ĩà°¸à±į", "Ġà®İà®²à¯įà®²à¯Īà®ķà®³à®¿à®²à¯į", "Ġà°ªà±įà°°à°¾à°ľà°¾à°¸à±įà°µà°¾à°®à±įà°¯", "Ġà®İà®²à¯įà®²à¯Īà®ķà®³à¯Ī", "Ġà°ªà±įà°°à°ķà°¾à°°à°Ĥ,", "Ġà®ıà®±à¯įà®ªà®Łà¯ģà®¤à¯įà®¤à®¿à®¯", "Ġà°ªà±įà°°à°ĸà±įà°¯à°¾à°¤à°¿", "Ġà®ıà®±à¯įà®±à¯ģà®®à®¤à®¿", "Ġà°ªà±įà°°à°Ĺà°¤à°¿à°¨à°¿", "Ġà®ıà®´à®¾à®µà®¤à¯ģ", "Ġà°ªà±įà°°à°¤à°¿à°¨à°¿à°§à°¿à°ļà±ĩ", "Ġà®Ĵà®¤à¯ģà®ķà¯įà®ķà®¿", "Ġà°ªà±įà°°à°¤à±įà°¯à°ķà±įà°·à°Ĥà°Ĺà°¾", "Ġà®Ĵà®¤à¯įà®¤", "Ġà°ªà±įà°°à°¤à°¿à°ªà°ķà±įà°·à°®à±Īà°Ĥà°¦à°¿.", "Ġà®Ĵà®°à¯ģà®Ļà¯įà®ķà®¿à®£à¯Īà®ķà¯įà®ķà®ªà¯įà®ªà®Łà¯įà®Ł", "Ġà°ªà±įà°°à°¤à°¿à°ªà°ķà±įà°·à°Ĥ", "Ġà®Ĵà®³à®¿à®°à¯ģà®®à¯į", "Ġà°ªà±įà°°à°¤à°¿à°ªà°¾à°¦à°¨à°²à±įà°²à±ĭ", "Ġà®Ĵà®Łà¯įà®Łà¯ģ", "Ġà°ªà±įà°°à°¦à±ĩà°¶à±ĩ,", "Ġà®Ĵà®©à¯įà®±à®¾à®ķà®ķà¯į", "Ġà°ªà±įà°°à°¦à±ĩà°¶à±įâĢĮ", "Ġà®Ĵà®©à¯įà®±à®¿à®£à¯Īà®¨à¯įà®¤à®©.", "Ġà°ªà±įà°°à°§à°¾à°¨à°®à°Ĥà°¤à±įà°°à°¿à°¨à°¿", "Ġà®Ĵà®©à¯įà®±à®¿à®£à¯Īà®ªà¯įà®ªà¯ģà®ķà®³à®¾à®©à®µà¯Ī", "Ġà°ªà±įà°°à°§à°¾à°¨à°®à°Ĥà°¤à±įà°°à°¿à°ķà°¿", "Ġà®Ĵà®©à¯įà®±à®¿à®£à¯Īà®ķà¯įà®ķà®ªà¯įà®ªà®Łà¯įà®Ł", "Ġà°ªà±įà°°à°ªà°Ĥà°ļà°¦à±ĩà°¶à°¾à°²à°²à±ĭ", "Ġà®ĵà®®à¯ĭ", "Ġà°ªà±įà°°à°®à±ģà°ĸà°®à±Īà°¨à°¦à±ĩ.", "Ġà®ĵà®Łà¯įà®Łà®®à¯į", "Ġà°ªà±įà°°à°¯à±ĭà°ľà°¨à°¾à°²à±ģ", "Ġà®ķà®£à®¿à®¤à®®à¯į", "Ġà°ªà±įà°°à°¯à±ĭà°ľà°¨à°ķà°°à°®à±ĩà°¨à°¨à°¿", "Ġà®ķà®©à¯įà®©à¯ĭà®ļà®¿à®¯à®¿à®©à¯į", "Ġà°ªà±įà°°à°¸à±įà°¤à±ģà°¤à°®à±ģ", "Ġà®ķà®®à¯įà®ªà¯ĭà®Łà®¿à®¯à®¾,", "Ġà°ªà±įà°°à°¾à°°à°Ĥà°Ńà°®à±Īà°¨", "Ġà®ķà®²à¯įà®µà®¿à®¯à®±à®¿à®µà¯ģ", "Ġà°ªà±įà°°à°¾à°°à°Ĥà°Ńà°¿à°Ĥà°ļà°¾à°²à°¨à°¿", "Ġà®ķà®³à®Ļà¯įà®ķà®³à®¿à®²à¯į", "Ġà°ªà±įà°°à°¾à°°à°Ĥà°Ńà°¿à°Ĥà°ļà°¾à°²à°¨à±ĩ", "Ġà®ķà®µà®©à®®à®¾à®ķ", "Ġà°ªà±įà°°à°¾à°Ĥà°¤à°¾à°²à°¤à±ĭ", "Ġà®ķà®¾à®£à®ªà¯įà®ªà®Łà¯ģà®ķà®¿à®±à®¤à¯ģ.", "Ġà°ªà±įà°°à°¾à°Ĥà°¤à°¾à°²à°ķà±ģ", "Ġà®ķà®¾à®±à¯įà®±à¯ģ", "Ġà°ªà±įà°°à°¾à°Ĥà°¤à°¾à°²à±ģ.", "Ġà®ķà®¾à®³à®¿à®ªà®Ļà¯įà®ķà®¾à®©à¯į", "Ġà°ªà±įà°°à°ľà°²à°ķà±ģ", "Ġà®ķà®¿à®±à®¿à®¤à¯įà®¤à®µà®®à¯į,", "Ġà°ªà±įà°°à°ľà°²à°ļà±ĩ", "Ġà®ķà®¿à®Łà¯įà®Łà®¤à¯įà®¤à®Łà¯įà®Ł", "Ġà°ªà±įà°°à°ľà°¾à°¸à±įà°µà°¾à°®à±įà°¯,", "Ġà®ķà®Ļà¯įà®ķà¯Ī", "Ġà°ªà±įà°°à°Ńà±ģà°¤à±įà°µà°¾à°²à°¨à±įà°¨à±Ģ", "Ġà®ķà¯ģà®´à®¨à¯įà®¤à¯Īà®ķà®³à®¿à®©à¯į", "Ġà°ªà±įà°°à°Ńà±ģà°¤à±įà°µà°Ĥ,", "Ġà®ķà¯Įà®¤à®®", "Ġà°ªà±įà°°à°Ńà±ģà°¤à±įà°µà°Ĥà°²à±ĭ", "Ġà®ķà®£à¯įà®Łà®¤à¯ģ.", "Ġà°ªà±įà°°à°Ńà±ģà°¤à±įà°µà°Ĥà°ļà±ĩ", "Ġà®ķà®£à¯įà®Łà®¤à¯įà®¤à®¿à®©à¯į", "Ġà°¬à°¡à°¤à°¾à°¯à°¿.", "Ġà®ķà®£à¯įà®Łà®¤à¯įà®¤à®¿à®±à¯įà®ķà¯ģ", "Ġà°¬à°¾à°Ĥà°¬à±ĩ),", "Ġà®ķà®£à¯įà®Łà®¤à¯įà®¤à¯Ī", "Ġà°¬à°¾à°Ĺà°¾", "Ġà®ķà®°à¯ģà®¤à®ªà¯įà®ªà®Łà¯ģà®ķà®¿à®±à®¤à¯ģ.", "Ġà°¬à°¿à°¨à±įà°¨à°¤à±įà°µà°Ĥà°²à±ĭ", "Ġà®ķà®°à¯ģà®¤à¯ģà®ķà®¿à®©à¯įà®±à®©à®°à¯į.", "Ġà°¬à°¿à°ľà°¿à°¨à±Ĩà°¸à±į", "Ġà®ķà®¾à®°à®£à®®à®¾à®©à®¤à¯ģ.", "Ġà°¬à°Ĥà°¡à±įà°²à°¨à±ģ", "Ġà®ķà®¾à®°à®£à®®à®¾à®ķ", "Ġà°¬à°Ĥà°Ĺà°¾à°³à°¾à°ĸà°¾à°¤à°Ĥ", "Ġà®ķà®¾à®°à®£à®®à¯į", "Ġà°¬à±Ĩà°Ĥà°Ĺà±ģà°³à±Ĥà°°à±ģ", "Ġà®ķà®¾à®²à®¤à¯įà®¤à®¿à®±à¯įà®ķà¯ģ", "Ġà°¬à°¹à°¾à°¯à±Ģà°²à±ģ", "Ġà®ķà®¾à®²à®®à®¾à®©à®¤à¯ģ", "Ġà°¬à°¹à°¿à°°à°Ĥà°Ĺà°Ĥà°Ĺà°¾", "Ġà®ķà®¾à®²à®®à®¾à®ķ", "Ġà°¬à°¹à±ģà°³", "Ġà®ķà®¾à®²à®®à¯į", "Ġà°¬à°¹à±ģà°Ńà°¾à°·à°¾,", "Ġà®ķà®¾à®²à®Ļà¯įà®ķà®³à¯ģà®ķà¯įà®ķà¯ģ", "Ġà°¬à°Ĥà°Ĺà±įà°²à°¾à°¦à±ĩà°¶à±į,", "Ġà®ķà®¾à®²à®®à®¿à®Łà®ªà¯įà®ªà®Łà¯ģà®ķà®¿à®©à¯įà®±à®©.", "Ġà°¬à°Ĥà°Ĺà±įà°²à°¾à°¦à±ĩà°¶à±įâĢĮà°²", "Ġà®ķà®¾à®²à®®à®¿à®Łà®ªà¯įà®ªà®Łà¯ģà®ķà®¿à®±", "Ġà°¬à°Ĥà°Ĺà±įà°²à°¾à°¦à±ĩà°¶à±įâĢĮà°²à°²à±ĭ", "Ġà®ķà®¾à®Łà¯įà®Łà®¤à¯į", "Ġà°¬à±Įà°¦à±įà°§,", "Ġà®ķà®¾à®Łà¯įà®Łà®ªà¯įà®ªà®Łà¯ģà®ķà®¿à®©à¯įà®±à®©.", "Ġà°¬à±Įà°¦à±įà°§à±ģà°²à±ģ", "Ġà®ķà®¾à®Łà¯įà®Łà¯ģà®¯à®¿à®°à¯įà®ķà®³à¯į", "Ġà°¬à±įà°°à°¹à±įà°®à°ªà±ģà°¤à±įà°°,", "Ġà®ķà®¿à®°à¯ĩà®ķà¯įà®ķà®°à¯įà®ķà®³à¯į", "Ġà°¬à±įà°°à°¾à°¡à±įâĢĮà°Ĺà±ĩà°ľà°¿", "Ġà®ķà®¿à®´à®ķà¯įà®ķà®¾à®ļà®¿à®¯à®¾à®µà®¿à®²à¯ģà®®à¯į", "Ġà°¬à±įà°°à°¿à°Łà±Ģà°·à±ģ", "Ġà®ķà®¿à®´à®ķà¯įà®ķà®¿à®¨à¯įà®¤à®¿à®¯", "Ġà°¬à±įà°°à°¿à°Łà±Ģà°·à±į", "Ġà®ķà®Łà®±à¯įà®ķà®°à¯Īà®ķà®³à®¿à®²à¯į", "Ġà°®à°¦à±įà°°à°¾à°¸à±ģ),", "Ġà®ķà®Łà®²à¯į", "Ġà°®à°¯à°¨à±įà°®à°¾à°°à±į,", "Ġà®ķà®Łà¯ģà®®à¯Īà®¯à®¾à®ķ", "Ġà°®à°°à±ĭ", "Ġà®ķà®Łà¯įà®Łà®¤à¯įà®¤à®¿à®©à¯į", "Ġà°®à°¾à°¤à±ĥ", "Ġà®ķà®Łà¯įà®Łà®¤à¯įà®¤à¯ģà®ķà¯įà®ķà¯ģà®ķà¯į", "Ġà°®à°¾à°¨à°µà±ģà°¨à°¿", "Ġà®ķà®Łà¯įà®Łà®¤à¯įà®¤à¯Īà®ļà¯į", "Ġà°®à°¾à°°à°¿à°Ĥà°¦à°¿.", "Ġà®ķà®Łà¯įà®Łà®Łà®Ļà¯įà®ķà®³à®¿à®©à¯į", "Ġà°®à°¾à°°à±ģà°®à±Ĥà°²", "Ġà®ķà®Łà¯įà®Łà¯ģà®ªà¯įà®ªà®¾à®Łà¯įà®Łà¯Ī", "Ġà°®à°¾à°²à±įà°¦à±Ģà°µà±ģà°²à±ģ,", "Ġà®ķà¯ģà®ªà¯įà®¤à®°à¯įà®ķà®³à¯ģà®ķà¯įà®ķà¯ģà®ķà¯į", "Ġà°®à°¾à°Ĥà°¡à°®à°¸à±į,", "Ġà®ķà¯ģà®±à¯Īà®¤à¯įà®¤à¯ģà®³à¯įà®³à®¤à¯ģ.", "Ġà°®à°¿à°¨à°¹à°¾à°¯à°¿à°Ĥà°ļà°¿,", "Ġà®ķà¯ģà®±à¯Īà®¨à¯įà®¤à®¤à¯ģ", "Ġà°®à°¿à°Ĺà°¿à°²à°¿à°¨", "Ġà®ķà¯ģà®±à¯Īà®ªà®¾à®Łà¯ģ", "Ġà°®à°Ĥà°ļà°¿", "Ġà®ķà¯ģà®±à®¿à®ªà¯įà®ªà®¾à®ķ,", "Ġà°®à°Ĥà°ľà±Ĥà°°à±ģ", "Ġà®ķà¯ģà®±à®¿à®ªà¯įà®ªà®¿à®Łà®ªà¯įà®ªà®Łà¯įà®Łà¯ģà®³à¯įà®³à®¤à¯ģ.", "Ġà°®à±Ĩà°¹à°°à±įà°Ĺà°°à±į,", "Ġà®ķà¯ģà®±à®¿à®ªà¯įà®ªà®¿à®Łà¯ģà®ķà®¿à®©à¯įà®±à®©à®°à¯į.", "Ġà°®à±ĩà°¨à°ķà°²", "Ġà®ķà¯ģà®±à®¿à®ªà¯įà®ªà®¿à®Łà¯įà®Łà®©.", "Ġà°®à±Īà°¤à±įà°°à°¿", "Ġà®ķà¯ģà®±à®¿à®ªà¯įà®ªà®¿à®Łà¯įà®Łà®©à®°à¯į.", "Ġà°®à±Īà°¦à°¾à°¨à°Ĥà°¤à±ĭ", "Ġà®ķà¯ģà®Łà®¿", "Ġà°®à°¤à°¸à±įà°¤à±ģà°²à±ģ", "Ġà®ķà¯ģà®Łà®¿à®¯à®¿à®©à®°à¯į", "Ġà°®à°¤à°¾à°²", "Ġà®ķà¯ģà®Łà®¿à®¯à¯ĩà®±à¯įà®±à®ªà¯į", "Ġà°®à°¤à°¾à°²à°¤à±ĭ", "Ġà®ķà¯ģà®Łà®¿à®¯à®®à®°à®ªà¯įà®ªà®Łà¯įà®Ł", "Ġà°®à°¤à°¾à°²à±ģ,", "Ġà®ķà¯ģà®Łà®¿à®¯à®®à®°à¯įà®¨à¯įà®¤", "Ġà°®à°¤à°¾à°²à±ģ:", "Ġà®ķà¯ģà®Łà®¿à®¯à®°à®ļà®¾à®ķ", "Ġà°®à°¤à°Ĥ,", "Ġà®ķà¯ģà®Łà®¿à®¯à®°à®ļà¯ģ", "Ġà°®à°¤à°®à±ģà°²à°ķà±ģ", "Ġà®ķà¯ģà®Łà¯ģà®®à¯įà®ªà®¤à¯įà®¤à®¿à®©à¯į", "Ġà°®à°¤à°®à±ģà°²à±ģ,", "Ġà®ķà¯ģà®Łà¯ģà®®à¯įà®ªà®¤à¯įà®¤à¯ģà®ķà¯įà®ķà¯ģà®³à¯į", "Ġà°®à°§à±įà°¯à°µà°°à±įà°¤à°¿à°¤à±įà°µà°Ĥ", "Ġà®ķà¯ģà®Łà¯ģà®®à¯įà®ªà®Ļà¯įà®ķà®³à¯į", "Ġà°®à°§à±įà°¯,", "Ġà®ķà¯Ĥà®Łà¯įà®Łà®®à¯Īà®ªà¯įà®ªà®¾à®ķ", "Ġà°®à°§à±įà°¯à°²,", "Ġà®ķà¯Ĥà®±à®¾à®ķ", "Ġà°®à°§à±įà°¯à°ķà°¾à°²à°Ĥà°²à±ĭ", "Ġà®ķà¯Ĥà®±à¯ģà®ķà®³à®¿à®©à¯į", "Ġà°®à°¨à°¦à±ĩà°¶à°Ĥà°²à±ĭ", "Ġà®ķà¯Ĭà®²à¯įà®²à¯Īà®ªà¯įà®ªà®Łà¯ģà®¤à¯įà®¤à®ªà¯įà®ªà®Łà¯įà®Łà®¤à®±à¯įà®ķà®¾à®©", "Ġà°®à°¹à°¾à°¸à°®à±ģà°¦à±įà°°à°Ĥ,", "Ġà®ķà¯Ĭà®³à¯įà®³à¯ģà®®à¯į", "Ġà°®à°¹à°¿à°³à°²", "Ġà®ķà¯Ĭà®³à¯įà®ķà®¿à®©à¯įà®±à®©.", "Ġà°®à°¾à°°à±įà°ķ", "Ġà®ķà¯Ĭà®£à¯įà®Łà®µà¯Īà®¯à®¾à®ķà®¤à¯į", "Ġà°®à°¾à°°à±įà°ķà±Ĩà°Łà±į", "Ġà®ķà¯Ĭà®£à¯įà®Łà®¿à®°à¯ģà®ķà¯įà®ķà®¾à®®à®²à¯į", "Ġà°®à°¾à°°à±įà°Ĺà°®à±ģ", "Ġà®ķà¯Ĭà®£à¯įà®Łà¯ģà®³à¯įà®³à®©.", "Ġà°®à°¾à°°à±įà°Ĺà°¾à°²à°¨à±ģ", "Ġà°®à°¾à°°à±įà°Ĺà°¾à°²à°²à±ĭ", "Ġà°®à°¾à°°à±įà°Ĺà°¾à°²à±ĩ.", "Ġà°®à°¾à°°à±įà°Ĺà°Ĥ", "Ġà°®à°¾à°°à±įà°Ĺà°Ĥà°²à±ĭ", "Ġà°®à°Ĥà°¤à±įà°°à°¿à°¤à±įà°µ", "Ġà°®à°Ĥà°¤à±įà°°à°¿à°µà°°à±įà°Ĺà°Ĥ", "Ġà°®à°Ĥà°¤à±įà°°à±ģà°²à°ļà±ĩ", "Ġà°®à±ģà°Ĥà°¦à±ģà°Ĺà°¾", "Ġà°®à±ģà°Ĥà°¬à°¾à°¯à°¿", "Ġà°®à±Ĥà°¡à°µ", "Ġà°®à±ĩà°°à°ķà±ģ,", "Ġà°®à±ĩà°°à±ĭà°ĥ", "Ġà°®à±Ĭà°Ĺà°²à±ģà°²à±ģ", "Ġà°®à±Ĭà°¦à°²à°Ĺà±ģà°¨à°µà°¿).", "Ġà°®à±Ĭà°¦à°²à°Ĺà±ģà°µà°¾à°°à±ģ", "Ġà°®à±Ĭà°¦à°²à±Īà°¨à°µà°¿", "Ġà°®à±Ĭà°¦à°Łà°¿à°¦à°¿", "Ġà°®à±Ĭà°¦à°Łà°¿à°¸à°¾à°°à°¿à°Ĺà°¾", "Ġà°¯à°®à±ģà°¨,", "Ġà°¯à°¾à°¤à±įà°°à°¿à°ķà±ģà°²à±ģ", "Ġà°¯à±ģ.", "Ġà°¯à±ģà°¨à±Īà°Łà±Ĩà°¡à±į", "Ġà°¯à±ģà°Ĺà°Ĥ", "Ġà°¯à±ĭà°ļà°¨à°²à±ĭ", "Ġà°¯à±ģà°¦à±įà°§à°¾à°²à±ģ", "Ġà°¯à±ģà°¦à±įà°§à°Ĥ", "Ġà°°à°¾à°¤à°¿à°¯à±ģà°Ĺà°ªà±ģ", "Ġà°°à°ķà°¾à°²", "Ġà°°âĢĮà°µà°¾à°£à°¾", "Ġà°°à°¹à°¦à°¾à°°à±ģà°²à°¨à±ģ", "Ġà°°à°¹à°¦à°¾à°°à±ģà°²à±ģ", "Ġà°°à°¾à°·à±įà°Łà±įà°°à°¾à°²à±ģ", "Ġà°°à°¾à°·à±įà°Łà±įà°°à°¾à°²à±ģ:", "Ġà°°à°¾à°·à±įà°Łà±įà°°à°¾à°²à±ģà°Ĺà°¾,", "Ġà°°à°¾à°·à±įà°Łà±įà°°à°ªà°¤à°¿,", "Ġà°°à°¾à°·à±įà°Łà±įà°°à°ªà°¤à°¿à°ļà±ĩ", "Ġà°°à°¾à°ľà°§à°¾à°¨à±ģà°²à±ģ,", "Ġà°°à°¾à°ľà±ģ.", "Ġà°°à°¾à°ľà°ķà±Ģà°¯à°¾à°²à±ģ", "Ġà°°à°¾à°ľà±įà°¯à°¾à°²à°¨à±ģ", "Ġà°°à°¿à°Łà±įà°²à°²à±ĭ", "Ġà°°à°¿à°Łà±įà°²à±ģ", "Ġà°°à°Ĥà°Ĺà°¾à°²", "Ġà°°à°Ĥà°Ĺà°¾à°²à±įà°²à±ĭ", "Ġà°°à°Ĥà°Ĺà°Ĥ", "Ġà°°à°ķà°¾à°²à±ģ.", "Ġà°°à°ķà°¾à°²à±ģà°Ĺà°¾", "Ġà°°à±Ĥà°ªà±Ĭà°Ĥà°¦à°¿à°Ĥà°¦à°¿.", "Ġà°°à±Ĥà°ªà°¾à°Ĥà°¤à°°à°®à±ĩ.", "Ġà°°à±Ĥà°ªà°¾à°Ĥà°¤à°°à°Ĥ", "Ġà°°à±Ĩà°Ĥà°¡à±ģà°µà±Īà°ªà±ģà°²à°¾", "Ġà°°à±Ĩà°Ĥà°¡à±ĭ", "Ġà°°à±Īà°²à±ģ.", "Ġà°°à±Īà°²à±įà°µà±ĩà°¶à°¾à°ĸà°ķà±ģ", "Ġà°°à±Īà°³à±įà°²", "Ġà°°à±ĭà°¡à±įà°²", "Ġà°²à°¾à°Ńà°¦à°¾à°¯à°ķà°®à±ĩà°¨à°¨à±Ģ,", "Ġà°²à°ķà±ģ", "Ġà°²à°ĺà±ģ", "Ġà°²à°Ńà±įà°¯à°®à±Īà°¨", "Ġà°²à±Įà°ķà°¿à°ķ,", "Ġà°²à°ķà±įà°·à°²", "Ġà°²à°ķà±įà°·à°£à°¾à°¨à±įà°¨à°¿", "Ġà°²à°ķà±įà°·à°£à°¾à°²à±ģ", "Ġà°²à±Ĩà°ķà±įà°ķà°²à±ģ", "Ġà°²à±Ĩà°ľà°¿à°¸à±įà°²à±ĩà°ļà°°à±į,", "Ġà°²à±ĩà°¨à°¿à°µà°¿.", "Ġà°²à±ĭà°¨à°¿", "Ġà°²à±ĭà°ªà°Ĥ", "Ġà°²à±ĭà°¯", "Ġà°²à±ĭà°ķà±įâĢĮà°¸à°Ńà°²à±ĭ", "Ġà°µà°¦à±įà°¦", "Ġà°µà°¨à±įà°¯à°ªà±įà°°à°¾à°£à±ģà°²", "Ġà°µà°°à°ķà±Ĥ", "Ġà°µà°°à±įà°£à°¿à°Ĥà°ļà°¬à°¡à°¿à°Ĥà°¦à°¿.", "Ġà°µà°°à±įà°§à°¿à°²à±įà°²à°¿à°¨", "Ġà°µà°°à±įà°·à°¾à°²à±ģ", "Ġà°µà°²à±įà°²", "Ġà°µà°¾à°¦", "Ġà°µà°¾à°¦à°¨", "Ġà°µà°¾à°°à°¸à°¤à±įà°µà°¾à°¨à°¿à°ķà°¿", "Ġà°µà°¾à°°à°¿", "Ġà°µà°¾à°°à°¿à°Ĺà°¾", "Ġà°µà°¿à°¨à°¾à°¯à°ķ", "Ġà°µà°Ĥà°¶à°Ĥà°²à±ĭà°¨à°¿", "Ġà°µà°ľà±įà°°à°¾à°²à±ģ,", "Ġà°µà±ģà°¨à±įà°¨à°¾,", "Ġà°µà±ģà°Ĥà°Łà±ģà°Ĥà°¦à°¿.", "Ġà°µà±Ĥà°ªà°¿à°Ĥà°¦à°¿.", "Ġà°µà±Ĩà°²à±įà°²à°¡à°¿à°Ĥà°ļà°¿à°Ĥà°¦à°¿.", "Ġà°µà±ĩà°¦à°¾à°²à°²à±ĭ", "Ġà°µà±įà°¯à°µà°¸à°¾à°¯à°Ĥ", "Ġà°µà°°à±įà°Ĺà°¾à°²à±ģ", "Ġà°µà°°à±įà°Ĺà±Ģà°ķà°°à°£à°²à±ĭ", "Ġà°µà°¹à°¿à°¸à±įà°¤à°¾à°¯à°¿.", "Ġà°µà°¹à°¿à°Ĥà°ļà°¿", "Ġà°µà°¹à°¿à°Ĥà°ļà°¿à°Ĥà°¦à°¿.", "Ġà°µà°¹à°¿à°Ĥà°ļà±ĩ", "Ġà°µà°¾à°£à°¿à°ľà±įà°¯à°ªà°°à°Ĥà°Ĺà°¾", "Ġà°µà°¾à°Łà°¿à°²à±ĭ", "Ġà°µà°¾à°Łà°¿à°²à±įà°²à°¿à°Ĥà°¦à°¿.", "Ġà°µà°¿à°¡à°¿à°ªà±ĭà°¯à°¿à°Ĥà°¦à°¿.", "Ġà°µà°¿à°¦à±ĩà°¶à±Ģ", "Ġà°µà°¿à°«à°²", "Ġà°µà°¿à°²à±ģà°µà±Īà°¨", "Ġà°µà°¿à°·à°¯à°¾à°²à±ģ", "Ġà°µà°¿à°ľ", "Ġà°µà°¿à°§à°¿", "Ġà°µà°¿à°§à°¿à°Ĥà°ļà°¿à°¨", "Ġà°µà°¿à°§à°Ĥà°Ĺà°¾", "Ġà°µà°¿à°®à°¾à°¨à°¾à°¶à±įà°°à°¯à°¾à°²à±ģ", "Ġà°µà°¿à°µà°°à°¾à°²à±ģ", "Ġà°µà°¿à°µà°¾à°¦à°Ĥ", "Ġà°µà°¿à°¶à°¾à°ĸà°ªà°Łà±įà°¨à°Ĥ", "Ġà°µà°¿à°¶à°¿à°·à±įà°Ł", "Ġà°µà°¿à°¶à±ĩà°·à°Ĥ.", "Ġà°µà°¿à°¶à±įà°µà°¾à°®à°¿à°¤à±įà°°,", "Ġà°µà°¿à°¸à±įà°¤à°°à°¿à°Ĥà°ļà°¿à°¨", "Ġà°µà°¿à°¸à±įà°¤à±Ģà°°à±įà°£à°Ĥà°¤à±ĭ", "Ġà°µà°¿à°¸à±įà°¤à±ĥà°¤à°Ĥà°Ĺà°¾", "Ġà°µà°¿à°ľà±įà°ŀà°¾à°¨", "Ġà°µà°¿à°Ńà°ľà°¿à°¤à°®à±Ī", "Ġà°µà°ļà±įà°ļà°¿,", "Ġà°µà°ļà±įà°ļà°¿à°¨à°¦à°¿,", "Ġà°µà±Īà°µà°¿à°§à±įà°¯à°Ĥ", "Ġà°µà±Īà°¶à°¾à°²à±įà°¯à°Ĥà°²à±ĭ", "Ġà°µà±įà°¯à°¯à°Ĥà°¤à±ĭ", "Ġà°µà±įà°¯âĢĮà°µâĢĮà°¸à±įà°¥âĢĮ", "Ġà°µà±įà°¯à°µà°¸à±įà°¥)", "Ġà°µà±įà°¯à°µà°¸à±įà°¥à°²", "Ġà°µà±įà°¯à°µà°¸à±įà°¥à°ķà±ģ", "Ġà°µà±įà°¯à°µà°¸à±įà°¥à°ķà±ģ,", "Ġà°µà±įà°¯à°µà°¸à±įà°¥à°Ĺà°¾", "Ġà°µà±įà°¯à°¾à°ªà°¾à°°", "Ġà°µà±įà°¯à°¾à°ªà°¾à°°à°Ĥ", "Ġà°¶à°¾à°¶à±įà°µà°¤", "Ġà°¶à°¾à°ĸ", "Ġà°¶à°¿à°²à°¾à°Ĺà±ĥà°¹à°¾à°²à±ģ,", "Ġà°¶à°ķà±ģà°Ĥà°¤à°²", "Ġà°¶à±Īà°²à±Ģ", "Ġà°¶à°¤à°¾à°¬à±įà°¦à°Ĥ,", "Ġà°¶à°¾à°¸à±įà°¤à±įà°°à°Ĥ", "Ġà°¶à°¾à°¸à±įà°¤à±įà°°à±Ģà°¯", "Ġà°¶à°ķà±įà°¤à°¿à°Ĺà°¾", "Ġà°¶à°ķà±įà°¤à±ģà°²à±ģ;", "Ġà°¶à±įà°°à±Ģà°°à°¾à°®à°¨à°µà°®à°¿,", "Ġà°¶à±įà°°à±Ģà°²à°Ĥà°ķ,", "Ġà°¶à±įà°°à±Ģà°¶à±Īà°²à°¸à±įà°¯", "Ġà°¸à°®à±ģà°¦à±įà°°à°¤à±Ģà°°à°®à±ģ", "Ġà°¸à°®à±ģà°¦à±įà°°à°Ĥ,", "Ġà°¸à°²à°¹à°¾", "Ġà°¸à°µà°¾à°³à±įà°²à°¨à±ģ", "Ġà°¸à°¾à°«à±įà°Łà±įâĢĮà°µà±ĩà°°à±į,", "Ġà°¸à°¾à°°à±įà°ķà±į", "Ġà°¸à°¿à°¨à°¿à°®à°¾à°²à±ģ,", "Ġà°¸à°Ĥà°¦à°°à±įà°¶à°¿à°Ĥà°ļà±ĩ", "Ġà°¸à±ģà°²à±įà°¤à°¾à°¨à±ģà°²à±ģ,", "Ġà°¸à±Ĩà°°à±įà°Łà°¿à°¯à±ĭà°°à°¾à°°à°¿", "Ġà°¸à±ĩà°µ", "Ġà°¸à±Īà°¤à°Ĥ", "Ġà°¸à±Īà°¨à°¿à°ķ", "Ġà°¸à°®à°¯à°Ĥà°²à±ĭ,", "Ġà°¸à°®à°¶à±Ģà°¤à±ĭà°·à±įà°£", "Ġà°¸à°®à°°à°Ĥ)", "Ġà°¸à°®à°¾à°ĸà±įà°¯à°²à±ģ", "Ġà°¸à°°à°¿à°¹à°¦à±įà°¦à±ģ", "Ġà°¸à°°à°¿à°¹à°¦à±įà°¦à±ģà°¨", "Ġà°¸à°°à°¿à°¹à°¦à±įà°¦à±ģà°²à°¨à±ģ", "Ġà°¸à°°à°¿à°¹à°¦à±įà°¦à±ģà°²à°²à±ĭ", "Ġà°¸à°°à°¿à°¹à°¦à±įà°¦à±ģà°²à±ģ", "Ġà°¸à°°à±įà°µà°¸à°¤à±įà°¤à°¾à°ķ,", "Ġà°¸à°°à±įà°µà±Ģà°¸à±ģà°¨à±ģ", "Ġà°¸à°¹à°¾à°¯à°ķà°¾à°°à°¿à°Ĺà°¾", "Ġà°¸à°¹à°¸à±įà°°à°¾à°¬à±įà°¦à°¿", "Ġà°¸à°¹à°¸à±įà°°à°¾à°¬à±įà°¦à°¿à°²à±ĭ", "Ġà°¸à°¾à°§à°¾à°°à°£à°Ĥà°Ĺà°¾", "Ġà°¸à°¾à°§à°¿à°Ĥà°ļà°¿à°Ĥà°¦à°¿.", "Ġà°¸à°¾à°®à°¾à°ľà°¿à°ķ,", "Ġà°¸à°¾à°®à±įà°°à°¾à°ľà±įà°¯à°Ĥ", "Ġà°¸à°¾à°®à±įà°°à°¾à°ľà±įà°¯à°¾à°²à±ģ", "Ġà°¸à°¾à°®à±įà°°à°¾à°ľà±įà°¯à°Ĥ,", "Ġà°¸à°¾à°°à°µà°Ĥà°¤à°®à±Īà°¨", "Ġà°¸à°¾à°°à°¸à±įà°µà°¤à°Ĥ,", "Ġà°¸à°¾à°Ĥà°ĺà°¿à°ķ,", "Ġà°¸à°¿à°¦à±įà°§à°¿à°Ĥà°ļà°¿à°Ĥà°¦à°¿.", "Ġà°¸à°¿à°¦à±įà°§à°Ĥ", "Ġà°¸à°¿à°Ĥà°§à±ģà°²à±ĭà°¯", "Ġà°¸à°¿à°Ĥà°§à±ģà°¾à°²à±ĭà°¯", "Ġà°¸à°¿à°Ĥà°§à±Ĥà°¨à°¦à°¿", "Ġà°¸à°¿à°Ĥà°§à±Ĥà°¨à°¦à°¿à°ķà°¿", "Ġà°¸à°¿à°ķà±įà°ķà±ģ", "Ġà°¸à°¿à°ķà±įà°ķà±ģà°²à±ģ", "Ġà°¸à°Ĥà°ªà±įà°°à°¦à°¾à°¯à°¾à°²à±ģ", "Ġà°¸à°Ĥà°¬à°Ĥà°§", "Ġà°¸à°Ĥà°µà°¤à±įà°¸à°¾à°°à°¾à°²", "Ġà°¸à°Ĥà°µà°¤à±įà°¸à°°à°¾à°²", "Ġà°¸à°Ĥà°µà°¤à±įà°¸à°°à°¾à°²à°²à±ĭ", "Ġà°¸à°Ĥà°¸à±įà°ķà±ĥà°¤à°¿", "Ġà°¸à°Ĥà°¸à±įà°ķà±ĥà°¤à°Ĥ,", "Ġà°¸à°Ĥà°¸à±įà°ķà°°à°£à°²à°¤à±ĭ", "Ġà°¸à°Ĥà°¸à±įà°ķà°°à°£à°²à±ģ", "Ġà°¸à°Ĥà°ķà±įà°°à°¾à°Ĥà°¤à°¿,", "Ġà°¸à°Ĥà°ķà±Ģà°°à±įà°£à°¾à°²à±ĩà°ķà°¾à°Ĺà°¾", "Ġà°¸à°Ĥà°ķà±Ģà°°à±įà°£à°Ĥ", "Ġà°¸à°Ĥà°ĸà±įà°¯à°¾à°ķ", "Ġà°¸à°Ĥà°ĺà°®à±ģ.", "Ġà°¸à°Ĥà°ĺà°°à±įà°·à°£à°²à°¨à±ģ", "Ġà°¸à°Ńà±įà°¯à±ģà°°à°¾à°²à±ģ.", "Ġà°¸à°Ńà±įà°¯à±ģà°²à°¨à±ģ", "Ġà°¸à±ģà°¦à±Ģà°°à±įà°ĺ", "Ġà°¸à±ģà°ªà±įà°°à±Ģà°Ĥ", "Ġà°¸à±ģà°®à°¾à°°à±ģ", "Ġà°¸à±Ĥà°°à°¤à±į", "Ġà°¸à±Ĥà°ļà°¨à°²à±ģ,", "Ġà°¸à±Įà°ķà°°à±įà°¯à°µà°Ĥà°¤à°Ĥà°Ĺà°¾,", "Ġà°¸à±Įà°ķà°°à±įà°¯à°®à±ģ.", "Ġà°¸à±įà°¤à±įà°°à±Ģà°²à±ģ", "Ġà°¸à±įà°¥à°¾à°ªà°ķ", "Ġà°¸à±įà°¥à°¿à°°à°®à±Īà°¨", "Ġà°¸à±įà°¥à±Ĥà°²à°¾à°¦à°¾à°¯à°Ĥà°²à±ĭ", "Ġà°¸à±įà°¥à°¾à°¨à°¾à°²à±ģ", "Ġà°¸à±įà°¥à°¾à°¨à°¿à°ķ", "Ġà°¸à±įà°¥à°¾à°¨à°Ĥà°²à±ĭ,", "Ġà°¸à±įà°¥à°¾à°¨à±ĩ...).", "Ġà°¸à±įà°µà°°à±Ĥà°ªà°Ĥ,", "Ġà°¸à±įà°µà°°à±įà°£", "Ġà°¸à±įà°µà°¾à°§à±Ģà°¨à°Ĥ", "Ġà°¸à±įà°µà±Ģà°ķà°¾à°°à°Ĥ", "Ġà°¸à±įà°µà±ĩà°ļà±įà°Ľà°¾à°¯à±ģà°¤", "Ġà°¸à±įà°µà°¤à°Ĥà°¤à±įà°°à°Ĥ", "Ġà°¸à±įà°µà°¾à°¤à°Ĥà°¤à±įà°°à±įà°¯à°¾à°¨à°¿à°ķà°¿", "Ġà°¹à°¸à±įà°¤", "Ġà°¹à°ķà±įà°ķà±ģà°²à°ķà±ģ", "Ġà°¹à±Ĩà°¬à°¿à°¯à°¸à±į", "Ġà°¹à±Īà°ķà±ĭà°°à±įà°Łà±ģà°²à±ģ", "Ġà°¹à±Ĭà°²à±Ģ,", "Ġà°¹à°¿à°®à°¾à°²à°¯à°¾à°²à±ģ,", "Ġà°¹à°¿à°Ĥà°¦à±Ģ,", "Ġà°¹à°¿à°Ĥà°¦à±ģà°µà±ģà°²à±Īà°¨à°ªà±įà°ªà°Łà°¿à°ķà±Ģ,", "Ġà°¹à°¿à°Ĥà°¦à±Ĥ,", "Ġà°¹à°¿à°Ĥà°¦à±Ĥà°¦à±ĩà°¶à°Ĥ,", "Ġà°¹à°¿à°Ĥà°¦à±Ĥà°¸à±įà°¤à°¾à°¨à±į", "Ġà°¹à±Īà°¦à°°à°¾à°¬à°¾à°¦à±ģ", "Ġà°¹à±Īà°¦à°°à°¾à°¬à°¾à°¦à±į,", "Ġà°ħà°§à°¿à°Ĺà°®à°¿à°Ĥà°ļà°¿", "Ġà°ħà°®à°²à°µà±ģà°¤à±ģà°Ĥà°¦à°¿.", "Ġà°ħà°®à±Ĩà°°à°¿à°ķà°¾,", "Ġà°ħà°°à±ģà°¦à±ģà°Ĺà°¾", "Ġà°ħà°°à±ĩà°¬à°¿à°¯à°¾", "Ġà°ħà°²à°Ĥà°ķà°¾à°°", "Ġà°ħà°²à±Ģà°¨à±ĭà°¦à±įà°¯à°®à°Ĥà°²à±ĭ", "Ġà°ħà°µà°¿", "Ġà°ħà°¶à±ĭà°ķà±ģà°¡à±ģ", "Ġà°ħà°Ĥà°¤à°°à±įà°ľà°¾à°¤à±Ģà°¯", "Ġà°ħà°Ĥà°¦à°°à±Ĥ", "Ġà°ħà°Ĥà°Łà°¾à°°à±ģ.", "Ġà°ħà°Ĥà°Łà°¾à°°à±įà°ķà±įâĢĮà°Łà°¿à°ķà°¾à°²à±ĭ", "Ġà°ħà°Ĥà°Łà±ĩ", "Ġà°ħà°ĸà°Ĥà°¡", "Ġà°ħà°£à±ģ", "Ġà°ħà°£à±įà°µà°¸à±įà°¤à±įà°°", "Ġà°ħà°¤à°¿à°®à±ģà°ĸà±įà°¯à°®à±Īà°¨", "Ġà°ħà°¤à°¿à°µà±ĩà°Ĺà°Ĥà°Ĺà°¾", "Ġà°ħà°¤à°¿à°¶à±Ģà°¤à°²", "Ġà°ħà°§à°¿à°ķà°¾à°°à°¾à°¨à±įà°¨à°¿", "Ġà°ħà°§à°¿à°ķà°¾à°°à°¾à°²à±ģ", "Ġà°ħà°§à°¿à°ķà°¾à°°à°¿à°ķà°Ĥà°Ĺà°¾", "Ġà°ħà°§à°¿à°ķà°¾à°°à°Ĥà°²à±ĭ", "Ġà°ħà°¨à°¿,", "Ġà°ħà°¨à±ģà°¨à°¦à°¿", "Ġà°ħà°¨à±ģà°®à°¤à°¿à°¨à°¿", "Ġà°ħà°¨à±ģà°µà±Īà°¨à°¦à°¿.", "Ġà°ħà°¨à±ģà°¸à°°à°¿à°¸à±įà°¤à±Ĥ,", "Ġà°ħà°ªà±įà°ªà°¿à°²à±ĩà°Łà±į", "Ġà°ħà°ªà±įà°ªà°Łà°¿", "Ġà°ħà°¯à°¿à°¤à±ĩ,", "Ġà°ħà°¯à°¿à°Ĥà°¦à°¿.", "Ġà°ħà°¯à°¿à°¨à°ªà±įà°ªà°Łà°¿à°ķà°¿à°¨à±Ģ", "Ġà°ħà°¯à°¿à°¨à°ªà±įà°ªà°Łà°¿à°ķà±Ģ,", "Ġà°ħà°µà°¤à°°à°¿à°Ĥà°ļà°¿à°Ĥà°¦à°¿.", "Ġà°ħà°µà°¸à°°à°®à±Īà°¤à±ĩ", "Ġà°ħà°µà°¿,", "Ġà°ħà°µà°¿à°¨à±Ģà°¤à°¿,", "Ġà°ħà°¹à°®à±įà°®à°¦à°¾à°¬à°¾à°¦à±ģ", "Ġà°ħà°¹à°¿à°Ĥà°¸à°¾à°¯à±ģà°¤", "Ġà°ħà°¹à±įà°®à°¦à±Ģà°¯à±ģà°²à±ģ,", "Ġà°ħà°Ńà°¿à°ªà±įà°°à°¾à°¯à°ªà°¡à±ģà°¤à±ģà°¨à±įà°¨à°¾à°°à±ģ.", "Ġà°ħà°Ńà°¿à°µà±ĥà°¦à±įà°§à°¿,", "Ġà°Ĩà°¤à°¿", "Ġà°Ĩà°¦à°¾à°¯à°Ĥ", "Ġà°Ĩà°¦à±ĩà°¶à°¾à°²à±ģ,", "Ġà°Ĩà°¨à°¾à°¦à°¿", "Ġà°Ĩà°«à±įà°ĺà°¾à°¨à°¿à°¸à±įà°¤à°¾à°¨à±į", "Ġà°Ĩà°²à°¸à±įà°¯à°Ĥ", "Ġà°Ĩà°²à±ĭà°ļà°¨", "Ġà°Ĩà°µà°²", "Ġà°Ĩà°µà°¿à°°à±įà°Ńà°µà°¿à°Ĥà°ļà°¿à°Ĥà°¦à°¿.", "Ġà°Ĩà°¸à°¿à°¯à°¾à°²à±ĭ", "Ġà°Ĩà°ķà±įà°·à°°à°¾à°¸à±įà°¯à°¤", "Ġà°Ĩà°ļà°¾à°°à°¾à°²à±ģ,", "Ġà°Ĩà°§à°¾à°°à°ªà°¡à°¿à°¨", "Ġà°Ĩà°§à°¾à°°à°¾à°²à±ģ.", "Ġà°Ĩà°§à°¾à°°à°¿à°¤", "Ġà°Ĩà°°à±įà°¥à°¿à°ķ,", "Ġà°Ĩà°ķà±įà°°à°®à°¿à°¸à±įà°¤à±ģà°¨à±įà°¨à°¾à°¯à°¿.", "Ġà°Ĩà°ķà±įà°°à°®à°¿à°Ĥà°ļà°¿à°¨", "Ġà°Ĩà°ķà±įà°°à°®à°¿à°Ĥà°ļà±ģà°ķà±ģà°¨à±įà°¨à°¾à°°à±ģ.", "Ġà°Ĩà°Ĺà°·à±įà°Łà±ģ", "Ġà°Ĩà°Ĺà±įà°¨à±ĩà°¯", "Ġà°ĩà°¤à°¨à±ģ", "Ġà°ĩà°¦à±ĩ", "Ġà°ĩà°¨à±ģà°®à±ģ,", "Ġà°ĩà°¨à±įâĢĮà°«à°°à±įà°®à±ĩà°·à°¨à±į", "Ġà°ĩà°ªà±įà°ªà°Łà°¿à°ķà±Ģ", "Ġà°ĩà°µà°¿", "Ġà°ĩà°µà±įà°µà°¬à°¡à°¿à°¨", "Ġà°ĩà°Ĥà°¦à°¿à°°à°¾", "Ġà°ĩà°Ĥà°¦à±ģà°²à±ĭ", "Ġà°ĩà°Ĥà°ķà°¾", "Ġà°ĩà°ļà±įà°ļà±ĩ", "Ġà°ĩà°¤à°°à±ģà°²à±ģ", "Ġà°ĩà°¤à°°à°¦à±ĩà°¶à°¾à°²à°¨à±ģ", "Ġà°ĩà°¤à°°à°¦à±ĩà°¶à°¾à°²à°ķà±ģ", "Ġà°ĩà°¸à±įà°²à°¾à°®à°¾à°¬à°¾à°¦à±į:", "Ġà°ĩà°Ĥà°¡à°¿à°¯à°¾,", "Ġà°ĩà°Ĥà°¡à±ĭ", "Ġà°ĩà°Ĥà°¡à±ĭà°¨à±ĩà°¸à°¿à°¯à°¾", "Ġà°ĩà°Ĥà°Ĺà±įà°²à°Ĥà°¡à±ģ", "Ġà°ĩà°Ĥà°Ĺà±įà°²à±Ģà°·à±ģ", "Ġà°ĩà°ķà±įà°ķà°¡", "Ġà°ĩà°ķà±įà°ķà°¡à°¿", "Ġà°ĩà°Łà±Ģà°µà°²à°¿", "Ġà°īà°¤à±įà°¸à°¾à°¹à°Ĥà°Ĺà°¾,", "Ġà°īà°¨à°¿à°ķà°¿à°ķà°¿", "Ġà°īà°·à±įà°£", "Ġà°īà°Ĥà°¡à±ģà°Łà°ļà±ĩ", "Ġà°īà°¤à±įà°¤à°°,", "Ġà°īà°¨à±įà°¨à°¾à°°à±ģ", "Ġà°īà°¨à±įà°¨à°Łà±įà°²à±ģ", "Ġà°īà°ªà°°à°¾à°·à±įà°Łà±įà°°à°ªà°¤à±ģà°²à±ģ", "Ġà°īà°ªà°¾à°§à°¿", "Ġà°īà°ªà°¯à±ĭà°Ĺà°¿à°¸à±įà°¤à°¾à°°à±ģ", "Ġà°īà°ªà°¯à±ĭà°Ĺà°¿à°¸à±įà°¤à±ģà°Ĥà°¦à°¿.", "Ġà°īà°ªà°ĸà°Ĥà°¡à°ªà±ģ", "Ġà°īà°ªà°ĸà°Ĥà°¡à°®à±ģà°²à±ĭ", "Ġà°īà°ªà°ĸà°Ĥà°¡à°Ĥ", "Ġà°īà°Ĥà°¡à°¿,", "Ġà°īà°Ĥà°¡à°Ĺà°¾,", "Ġà°īà°Ĥà°¡à°Łà°Ĥ", "Ġà°īà°Ĥà°¡à°Łà°Ĥ,", "Ġà°īà°Ĥà°Łà°¾à°¯à°¿", "Ġà°īà°Ĥà°Łà°¾à°¯à°¿.", "Ġà°īà°Ĥà°Łà±Ĥ", "Ġà°ĭà°¤à±ģà°ªà°µà°¨à°¾à°²à±ģ", "Ġà°İà°¡à°¾à°°à°¿", "Ġà°İà°¦à±ģà°°à±įà°ķà±Ĭà°Ĥà°Łà±ģà°¨à±įà°¨à°¦à°¿.", "Ġà°İà°®à°°à±įà°ľà±Ĩà°¨à±įà°¸à±Ģ", "Ġà°İà°²à±įà°²à°²à±ģà°Ĺà°¾", "Ġà°İà°Ĺà±ģà°®à°¤à°¿", "Ġà°İà°Ĺà±ģà°µ", "Ġà°İà°¨à±įà°¨à±ģà°ķà±ģà°Ĥà°Łà°¾à°°à±ģ.", "Ġà°İà°¨à±įà°¨à±ģà°ķà±ģà°Ĥà°Łà±ģà°Ĥà°¦à°¿.", "Ġà°İà°¨à±įà°¨à±ģà°ķà±Ĭà°¨à°¬à°¡à°¿à°¨", "Ġà°İà°¨à±įà°¨à°¿à°ķà°²à°²à±ĭ", "Ġà°ıà°¡à°µà°¸à±įà°¥à°¾à°¨à°Ĥà°²à±ĭ", "Ġà°ıà°¡à±ģ", "Ġà°ıà°ªà±įà°°à°¿à°²à±į", "Ġà°ıà°³à±įà°³à°ªà°¾à°Łà±ģ", "Ġà°ıà°ķà°¤à±įà°µà°Ĥà°Ĺà°²", "Ġà°ıà°Łà°¾", "Ġà°ıà°°à±įà°ªà°°à°ļà°¿à°Ĥà°¦à°¿.", "Ġà°ıà°°à±įà°ªà°¾à°Łà±ģ", "Ġà°ıà°°à±įà°ªà°¡à°¿à°¨", "Ġà°ıà°°à±įà°ªà°¡à°¿à°Ĥà°¦à°¿.", "Ġà°ıà°°à±įà°ªà°¡à±ĩ", "Ġà°Ĳà°¦à±ģ", "Ġà°Ĳà°ķà±įà°¯", "Ġà°Ĵà°ķà°Łà°¿", "Ġà°Ĵà°ķà±ĩ", "Ġà°Ĵà°ķà±ĩà°®à°¾à°¦à°¿à°°à°¿à°Ĺà°¾", "Ġà°Ĵà°ķà°Łà°¿à°Ĺà°¾,", "Ġà°Ĵà°ķà°Łà±ĭ", "Ġà°ĵà°¡à°¿à°Ĥà°ļà°¿,", "Ġà°ĵà°Łà°°à±įà°²à°ªà±Ī", "Ġà°Ķà°Łà±įâĢĮà°¸à±Ĭà°°à±įà°¸à°¿à°Ĥà°Ĺà±į", "Ġà°ķà°¨à°¿à°ªà°¿à°Ĥà°ļà°¿à°Ĥà°¦à°¿.", "Ġà°ķà°¨à±įà°¨à°¡à°Ĥ,", "Ġà°ķà°°à°¾à°ļà±Ģ,", "Ġà°ķà°·à±įà°Łà°Ĥà°ķà°¾à°Ĺà°¾", "Ġà°ķà°¾à°¨à±Ģ", "Ġà°ķà°¾à°ªà°¾à°¡à±ģà°ķà±ģà°Ĥà°Łà±Ĥà°¨à±ĩ", "Ġà°ķà°¾à°¯\",", "Ġà°ķà°¾à°°à±įà°ªà°¸à±į,", "Ġà°ķà°¾à°µà°¡à°Ĥ", "Ġà°ķà°¾à°¶à±įà°®à±Ģà°°à±į", "Ġà°ķà°¾à°ķà±ģà°Ĥà°¡à°¾", "Ġà°ķà°¿à°¤à°¾à°¬à±ģà°¨à°¿à°¸à±įà°¤à±ģà°¨à±įà°¨à°¾à°°à±ģ.", "Ġà°ķà°¿à°Ĥà°Ĺà±įà°¡à°®à±į", "Ġà°ķà°Ĥà°Łà±ĩ", "Ġà°ķà°Ĥà°Łà±Īà°¨à±Ĩà°°à±į", "Ġà°ķà±įà°°à°®à°Ĥà°Ĺà°¾", "Ġà°ķà°¨à±ģà°®à°²à±ģ", "Ġà°ķà°¨à±ģà°®à°²à±ģ,", "Ġà°ķà°²à°ķà°¤à±įà°¤à°¾),", "Ġà°ķà°²à°Ĺà°²à±ģà°ªà±ģ", "Ġà°ķà°²à±įà°Ĺà°¿", "Ġà°ķà°²à°¿à°¸à°¿à°µà°¸à±įà°¤à±ģà°Ĥà°¦à°¨à°¿", "Ġà°ķà°²à°¿à°Ĺà°¿,", "Ġà°ķà°²à°¿à°Ĺà°¿à°¨", "Ġà°ķà°²à±ģà°ªà±ģà°¤à±Ĥ", "Ġà°ķà°²à±ģà°Ĺà±ģà°¤à°¾à°¯à°¿.", "Ġà°ķà°²à±įà°ªà°¿à°Ĥà°ļà±ĩ", "Ġà°ķà°²à±įà°ªà±ģà°¤à±Ĥ", "Ġà°ķà°²à±įà°ªà±ĩ", "Ġà°ķà°³à°²à±ģ,", "Ġà°ķà°³à°²à±ģ.", "Ġà°ķà°¾à°°à±įà°¯à°¨à°¿à°°à±įà°µà°¾à°¹à°ķ", "Ġà°ķà°¾à°°à±įà°¯à°ķà±įà°°à°®à°¾à°²à°²à±ĭ", "Ġà°ķà°¾à°°à±įà°¯à°ķà±įà°°à°®à°¾à°²à±ģ", "Ġà°ķà°¾à°²à°ªà°°à°¿à°®à°¿à°¤à°¿à°ķà°¿", "Ġà°ķà°¾à°²à°¾à°²à±įà°²à±ĭ", "Ġà°ķà°¾à°²à±ĩà°ľà°¿", "Ġà°ķà°¾à°²à±ĩà°ľà±Ģ", "Ġà°ķà°¾à°²à°Ĥà°²à±ĭ,", "Ġà°ķà°¾à°Ĥà°Ĺà±įà°°à±Ĩà°¸à±ĩà°¤à°°", "Ġà°ķà°¾à°Ĥà°Ĺà±įà°°à±Ĩà°¸à±ģà°¨à±ģ", "Ġà°ķà°¿à°Ĥà°¦à°Ł", "Ġà°ķà°Ĥà°ªà±Ĩà°¨à±Ģà°ªà±Ī", "Ġà°ķà±ģà°¡à±įà°¯à°ļà°¿à°¤à±įà°°à°¾à°²à±ģ", "Ġà°ķà±ģà°®à°¾à°°à±ģà°¡à±ģ.", "Ġà°ķà±ģà°®à°¾à°°à±įà°¤à±Ĩ", "Ġà°ķà±ģà°Łà±ģà°Ĥà°¬à°¾à°²à°ķà±ģ", "Ġà°ķà±ģà°²à°Ĥ", "Ġà°ķà±Ĥà°¡à°¿", "Ġà°ķà±Ĥà°¡à°¿à°¨", "Ġà°ķà±Ĥà°¡à±ģà°ķà±Ĭà°¨à°¿", "Ġà°ķà±Ĥà°¡à±ģà°ķà±Ĭà°¨à°¿à°¨à°ªà±įà°ªà°Łà°¿à°ķà°¿à°¨à±Ģ", "Ġà°ķà±Ĥà°¡à±ģà°ķà±ģà°¨à±įà°¨à°¦à°¿.", "Ġà°ķà±ĥà°·à±įà°£,", "Ġà°ķà±ĥà°·à±įà°£à°¾", "Ġà°ķà±ĩà°Ĥà°¦à±įà°°à°¾à°²à±įà°²à±ĭ", "Ġà°ķà±ĩà°Ĥà°¦à±įà°°à±Ģà°ķà±ĥà°¤à°®à±Ī", "Ġà°ķà±Ĭà°¤à±įà°¤", "Ġà°ķà±Ĭà°¦à±įà°¦à°¿à°Ńà°¾à°Ĺà°Ĥ", "Ġà°ķà±Ĭà°¨à±įà°¨à°¿:", "Ġà°ķà±ĭà°µà°¾à°°à°Ĥà°Łà±ĭ,", "Ġà°ķà±ĭà°¸à°Ĥ", "Ġà°ķà±ĭà°Łà±įà°²", "Ġà°ķà±ĭà°Łà±įà°²à°ķà±ģ", "Ġà°ķà±ĭà°°à±įà°Łà±ģ,", "Ġà°ķà±ĭà°°à±įà°Łà±ģà°²à°ķà±ģ", "Ġà°ķà±ĭà°°à±įà°Łà±ģà°²à±ģ", "Ġà°ķà±ĭà°°à±įà°Łà±ģà°²à±ģ,", "Ġà°ķà±ĭà°²à±įà°ªà±ĭà°¤à±Ĥ", "Ġà°ķà±įà°°à°¿.", "<|reserved_0|>", "<|reserved_1|>", "<|reserved_2|>", "<|reserved_3|>", "<|reserved_4|>", "<|reserved_5|>", "<|reserved_6|>", "<|reserved_7|>", "<|reserved_8|>", "<|reserved_9|>", "<|reserved_10|>", "<|reserved_11|>", "<|reserved_12|>", "<|reserved_13|>", "<|reserved_14|>", "<|reserved_15|>", "<|reserved_16|>", "<|reserved_17|>", "<|reserved_18|>", "<|reserved_19|>", "<|reserved_20|>", "<|reserved_21|>", "<|reserved_22|>", "<|reserved_23|>", "<|reserved_24|>", "<|reserved_25|>", "<|reserved_26|>", "<|reserved_27|>", "<|reserved_28|>", "<|reserved_29|>", "<|reserved_30|>", "<|reserved_31|>", "<|reserved_32|>", "<|reserved_33|>", "<|reserved_34|>", "<|reserved_35|>", "<|reserved_36|>", "<|reserved_37|>", "<|reserved_38|>", "<|reserved_39|>", "<|reserved_40|>", "<|reserved_41|>", "<|reserved_42|>", "<|reserved_43|>", "<|reserved_44|>", "<|reserved_45|>", "<|reserved_46|>", "<|reserved_47|>", "<|reserved_48|>", "<|reserved_49|>", "<|reserved_50|>", "<|reserved_51|>", "<|reserved_52|>", "<|reserved_53|>", "<|reserved_54|>", "<|reserved_55|>", "<|reserved_56|>", "<|reserved_57|>", "<|reserved_58|>", "<|reserved_59|>", "<|reserved_60|>", "<|reserved_61|>", "<|reserved_62|>", "<|reserved_63|>", "<|reserved_64|>", "<|reserved_65|>", "<|reserved_66|>", "<|reserved_67|>", "<|reserved_68|>", "<|reserved_69|>", "<|reserved_70|>", "<|reserved_71|>", "<|reserved_72|>", "<|reserved_73|>", "<|reserved_74|>", "<|reserved_75|>", "<|reserved_76|>", "<|reserved_77|>", "<|reserved_78|>", "<|reserved_79|>", "<|reserved_80|>", "<|reserved_81|>", "<|reserved_82|>", "<|reserved_83|>", "<|reserved_84|>", "<|reserved_85|>", "<|reserved_86|>", "<|reserved_87|>", "<|reserved_88|>", "<|reserved_89|>", "<|reserved_90|>", "<|reserved_91|>", "<|reserved_92|>", "<|reserved_93|>", "<|reserved_94|>", "<|reserved_95|>", "<|reserved_96|>", "<|reserved_97|>", "<|reserved_98|>", "<|reserved_99|>", "<|reserved_100|>", "<|reserved_101|>", "<|reserved_102|>", "<|reserved_103|>", "<|reserved_104|>", "<|reserved_105|>", "<|reserved_106|>", "<|reserved_107|>", "<|reserved_108|>", "<|reserved_109|>", "<|reserved_110|>", "<|reserved_111|>", "<|reserved_112|>", "<|reserved_113|>", "<|reserved_114|>", "<|reserved_115|>", "<|reserved_116|>", "<|reserved_117|>", "<|reserved_118|>", "<|reserved_119|>", "<|reserved_120|>", "<|reserved_121|>", "<|reserved_122|>", "<|reserved_123|>", "<|reserved_124|>", "<|reserved_125|>", "<|reserved_126|>", "<|reserved_127|>", "<|reserved_128|>", "<|reserved_129|>", "<|reserved_130|>", "<|reserved_131|>", "<|reserved_132|>", "<|reserved_133|>", "<|reserved_134|>", "<|reserved_135|>", "<|reserved_136|>", "<|reserved_137|>", "<|reserved_138|>", "<|reserved_139|>", "<|reserved_140|>", "<|reserved_141|>", "<|reserved_142|>", "<|reserved_143|>", "<|reserved_144|>", "<|reserved_145|>", "<|reserved_146|>", "<|reserved_147|>", "<|reserved_148|>", "<|reserved_149|>", "<|reserved_150|>", "<|reserved_151|>", "<|reserved_152|>", "<|reserved_153|>", "<|reserved_154|>", "<|reserved_155|>", "<|reserved_156|>", "<|reserved_157|>", "<|reserved_158|>", "<|reserved_159|>", "<|reserved_160|>", "<|reserved_161|>", "<|reserved_162|>", "<|reserved_163|>", "<|reserved_164|>", "<|reserved_165|>", "<|reserved_166|>", "<|reserved_167|>", "<|reserved_168|>", "<|reserved_169|>", "<|reserved_170|>", "<|reserved_171|>", "<|reserved_172|>", "<|reserved_173|>", "<|reserved_174|>", "<|reserved_175|>"], "merges": [["t", "h"], ["a", "n"], ["i", "n"], ["th", "e"], ["Ġ", "the"], ["r", "e"], ["o", "n"], ["e", "r"], ["s", "t"], ["Ġ", "an"], ["e", "d"], ["Ġ", "a"], ["e", "n"], ["Ġ", "o"], ["Ġ", "I"], ["a", "l"], ["Ġ", "in"], ["n", "d"], ["Ġan", "d"], ["i", "t"], ["a", "t"], ["i", "s"], ["Ġo", "f"], ["Ġ", "w"], ["ĠI", "nd"], ["in", "g"], ["Ġ", "s"], ["o", "r"], ["i", "c"], ["Ġ", "c"], ["a", "r"], ["i", "on"], ["Ġ", "b"], ["Ġ", "p"], ["Ġ", "t"], ["i", "a"], ["Ġ", "f"], ["o", "m"], ["o", "u"], ["Ġ", "m"], ["Ġ", "e"], ["Ġ", "h"], ["Ġ", "B"], ["a", "s"], ["Ġ", "l"], ["l", "y"], ["Ġ", "n"], ["ĠInd", "ia"], ["Ġ", "re"], ["e", "s"], ["en", "t"], ["Ġ", "A"], ["Ġt", "o"], ["i", "v"], ["Ġ", "d"], ["Ġ", "r"], ["u", "r"], ["i", "st"], ["Ġ", "S"], ["c", "e"], ["o", "l"], ["e", "c"], ["i", "an"], ["i", "g"], ["i", "l"], ["u", "l"], ["a", "d"], ["Ġ", "T"], ["a", "m"], ["at", "ion"], ["i", "d"], ["Ġ", "C"], ["Ġ", "E"], ["Ġ", "M"], ["ĠT", "h"], ["0", "0"], ["e", "st"], ["i", "m"], ["l", "e"], ["o", "d"], ["u", "s"], ["Ġ", "g"], ["Ġ", "th"], ["ĠTh", "e"], ["a", "st"], ["an", "g"], ["is", "m"], ["m", "p"], ["Ġa", "r"], ["Ġf", "or"], ["a", "c"], ["e", "t"], ["i", "re"], ["o", "p"], ["o", "s"], ["r", "it"], ["r", "om"], ["t", "s"], ["Ġ", "P"], ["Ġ", "is"], ["Ġ", "it"], ["a", "v"], ["al", "ly"], ["e", "re"], ["er", "n"], ["i", "th"], ["iv", "er"], ["o", "c"], ["ou", "th"], ["u", "re"], ["Ġ", "H"], ["Ġ", "on"], ["ĠA", "s"], ["Ġb", "y"], ["a", "g"], ["e", "m"], ["i", "f"], ["mp", "ire"], ["the", "r"], ["Ġ", "1"], ["Ġw", "ith"], ["C", "E"], ["a", ","], ["a", "in"], ["d", "u"], ["i", "r"], ["s", ","], ["u", "b"], ["u", "m"], ["Ġ", "D"], ["ĠB", "CE"], ["Ġf", "rom"], ["Ġit", "s"], ["Ġn", "or"], ["a", "k"], ["an", "s"], ["c", "on"], ["il", "l"], ["it", "y"], ["o", "w"], ["u", "d"], ["u", "t"], ["Ġ", "G"], ["ĠE", "mpire"], ["ĠInd", "ian"], ["Ġin", "t"], ["Ġo", "r"], ["Ġw", "as"], ["am", "e"], ["an", "d"], ["c", "h"], ["e", "l"], ["ic", "al"], ["is", "h"], ["s", "."], ["t", "ed"], ["ul", "t"], ["Ġ", "("], ["Ġ", "st"], ["Ġe", "x"], ["Ġh", "ad"], ["Ġp", "l"], ["Ġre", "g"], ["Ġw", "h"], ["ang", "u"], ["angu", "ag"], ["e", ","], ["en", "ce"], ["ic", "h"], ["ig", "h"], ["in", "du"], ["ist", "an"], ["t", "er"], ["ther", "n"], ["Ġ", "v"], ["ĠAs", "ia"], ["ĠH", "indu"], ["Ġint", "o"], ["Ġl", "anguag"], ["Ġreg", "ion"], ["d", "h"], ["e", "v"], ["g", "h"], ["o", "t"], ["oc", "i"], ["r", "i"], ["u", "n"], ["u", "p"], ["y", "."], ["ĠC", "h"], ["ĠI", "n"], ["ĠIndia", ","], ["ĠS", "outh"], ["Ġa", "s"], ["Ġb", "ec"], ["Ġc", "on"], ["Ġe", "m"], ["Ġh", "as"], ["00", "0"], ["=", "="], ["a", "b"], ["a", "y"], ["ans", "k"], ["ansk", "rit"], ["ar", "y"], ["e", "ar"], ["e", "en"], ["er", "g"], ["i", "es"], ["o", "v"], ["om", "p"], ["or", "d"], ["r", "y"], ["Ġ", "=="], ["ĠInd", "us"], ["ĠS", "anskrit"], ["Ġa", "g"], ["Ġbec", "ame"], ["Ġc", "ent"], ["Ġem", "erg"], ["Ġg", "r"], ["Ġnor", "thern"], ["Ġp", "r"], ["Ġr", "iver"], ["Ġs", "oci"], ["Ġw", "ere"], ["Ġw", "est"], ["Ġwh", "ich"], [",", "000"], ["a", "p"], ["ak", "istan"], ["con", "om"], ["en", "n"], ["en", "s"], ["enn", "i"], ["enni", "um"], ["er", "s"], ["et", "t"], ["et", "w"], ["ill", "ennium"], ["in", "ce"], ["ism", ","], ["iv", "e"], ["l", "d"], ["o", "k"], ["od", "ern"], ["on", "g"], ["re", "at"], ["re", "d"], ["u", "c"], ["ud", "dh"], ["ur", "y"], ["us", "ed"], ["Ġ", "2"], ["Ġ", "R"], ["Ġ", "k"], ["ĠB", "uddh"], ["ĠB", "y"], ["ĠInd", "o"], ["ĠIndia", "'"], ["ĠP", "akistan"], ["Ġc", "h"], ["Ġe", "conom"], ["Ġin", "c"], ["Ġp", "ar"], ["Ġre", "l"], ["Ġs", "outh"], ["Ġs", "ub"], ["a", "j"], ["aj", "or"], ["ar", "g"], ["as", "ed"], ["at", "e"], ["c", "c"], ["con", "t"], ["cont", "in"], ["contin", "ent"], ["e", "f"], ["e", "g"], ["e", "p"], ["e", "w"], ["ear", "s"], ["ec", "t"], ["ed", ","], ["en", "d"], ["is", "ed"], ["ist", "or"], ["iver", "s"], ["n", "c"], ["n", "t"], ["o", "st"], ["om", "e"], ["om", "in"], ["ou", "gh"], ["ou", "nd"], ["ou", "s"], ["rit", "ish"], ["st", "em"], ["t", ","], ["ult", "ure"], ["ur", "ing"], ["w", "o"], ["y", "ears"], ["y", "stem"], ["Ä", "ģ"], ["Ġ", "N"], ["Ġ", "V"], ["Ġ", "years"], ["Ġ1", "9"], ["ĠB", "h"], ["ĠB", "ritish"], ["ĠM", "a"], ["Ġag", "o"], ["Ġar", "ch"], ["Ġc", "reat"], ["Ġe", "ast"], ["Ġex", "p"], ["Ġh", "um"], ["Ġl", "if"], ["Ġm", "id"], ["Ġm", "illennium"], ["Ġm", "odern"], ["Ġnor", "th"], ["Ġr", "ul"], ["Ġre", "f"], ["Ġrel", "ig"], ["Ġs", "ince"], ["Ġs", "ystem"], ["Ġsub", "continent"], ["Ġt", "wo"], ["Ġth", "at"], ["Ġwest", "ern"], ["a", "."], ["al", "l"], ["al", "le"], ["ang", "es"], ["ar", "ly"], ["as", "s"], ["at", "er"], ["av", "id"], ["avid", "ian"], ["c", "ri"], ["cri", "p"], ["e", "an"], ["e", "x"], ["em", "ent"], ["er", "i"], ["etw", "een"], ["i", "ed"], ["ic", "ally"], ["im", "al"], ["ist", "ic"], ["k", "s"], ["l", "ic"], ["l", "ud"], ["m", "ent"], ["o", "g"], ["ol", "v"], ["op", "ul"], ["os", "e"], ["os", "s"], ["ou", "r"], ["p", "l"], ["q", "u"], ["r", "at"], ["r", "avidian"], ["r", "ic"], ["re", "s"], ["t", "ion"], ["u", "ally"], ["ub", "lic"], ["â", "Ģ"], ["Ġ", "4"], ["Ġ", "5"], ["Ġ", "J"], ["Ġ", "O"], ["Ġ", "un"], ["ĠA", "f"], ["ĠBCE", ","], ["ĠD", "ravidian"], ["ĠI", "t"], ["ĠIndia", "."], ["Ġa", "d"], ["Ġan", "imal"], ["Ġb", "ut"], ["Ġc", "omp"], ["Ġc", "ou"], ["Ġc", "ulture"], ["Ġe", "th"], ["Ġemerg", "ed"], ["Ġex", "t"], ["Ġfor", "m"], ["Ġh", "igh"], ["Ġh", "istor"], ["Ġk", "ing"], ["Ġl", "ater"], ["Ġlanguag", "es"], ["Ġlif", "e"], ["Ġm", "ost"], ["Ġn", "on"], ["Ġp", "e"], ["Ġp", "opul"], ["Ġpar", "t"], ["Ġpl", "ain"], ["Ġr", "is"], ["Ġrelig", "ion"], ["Ġrul", "e"], ["Ġsoci", "al"], ["Ġth", "is"], ["Ġv", "ar"], [")", ","], ["0", ",000"], ["A", "ry"], ["Ary", "an"], ["E", "ur"], ["Eur", "op"], ["Europ", "ean"], ["a", "ce"], ["a", "the"], ["ad", "e"], ["ad", "ually"], ["alle", "y"], ["an", "ted"], ["ar", "at"], ["as", ","], ["as", "in"], ["ass", "ical"], ["at", "ive"], ["at", "ure"], ["ation", ","], ["b", "an"], ["d", "ay"], ["d", "le"], ["d", "om"], ["du", "c"], ["e", "qu"], ["ec", "on"], ["ed", "i"], ["el", "l"], ["er", "r"], ["ere", "d"], ["ett", "l"], ["h", "ok"], ["hok", "a"], ["i", "ent"], ["i", "ol"], ["if", "f"], ["igh", "ts"], ["il", "d"], ["in", "s"], ["ing", "s"], ["it", "ect"], ["it", "er"], ["it", "ies"], ["it", "ion"], ["ity", "."], ["l", "assical"], ["l", "in"], ["l", "ish"], ["l", "ow"], ["lud", "ing"], ["ly", ","], ["nc", "ient"], ["nt", "ry"], ["o", "ose"], ["o", "th"], ["od", "uc"], ["ol", "og"], ["olv", "ed"], ["omin", "ion"], ["op", "le"], ["ou", "the"], ["outhe", "ast"], ["ov", "ement"], ["ow", "n"], ["p", "ic"], ["re", "e"], ["re", "w"], ["ric", "a"], ["s", "l"], ["t", "a"], ["t", "y"], ["ur", "ban"], ["ury", "a"], ["ut", "ion"], ["v", "iol"], ["w", "est"], ["á", "¹"], ["Ġ", "3"], ["Ġ", "K"], ["Ġ", "U"], ["Ġ", "ed"], ["Ġ", "im"], ["Ġ", "urban"], ["Ġ", "used"], ["Ġ4", "00"], ["Ġ==", "="], ["ĠA", "ncient"], ["ĠAf", "rica"], ["ĠAs", "hoka"], ["ĠAsia", "."], ["ĠBh", "arat"], ["ĠBuddh", "ism"], ["ĠCh", "in"], ["ĠD", "uring"], ["ĠG", "anges"], ["ĠG", "ree"], ["ĠG", "up"], ["ĠHindu", "ism"], ["ĠI", "sl"], ["ĠI", "ts"], ["ĠJ", "ain"], ["ĠMa", "urya"], ["ĠSanskrit", ","], ["Ġa", "l"], ["Ġa", "re"], ["Ġa", "t"], ["Ġago", "."], ["Ġar", "t,"], ["Ġarch", "itect"], ["Ġb", "asin"], ["Ġb", "eg"], ["Ġb", "etween"], ["Ġb", "ord"], ["Ġc", "ities"], ["Ġcent", "ur"], ["Ġcent", "ury"], ["Ġcomp", "os"], ["Ġcon", "s"], ["Ġcou", "ntry"], ["Ġd", "iff"], ["Ġd", "ivers"], ["Ġd", "ominion"], ["Ġe", "v"], ["Ġeconom", "y"], ["Ġext", "ens"], ["Ġhum", "an"], ["Ġinc", "re"], ["Ġking", "dom"], ["Ġl", "iter"], ["Ġl", "ong"], ["Ġl", "oose"], ["Ġlanguag", "e"], ["Ġm", "ajor"], ["Ġm", "ovement"], ["Ġn", "ame"], ["Ġo", "cc"], ["Ġo", "v"], ["Ġp", "ol"], ["Ġp", "re"], ["Ġpe", "ople"], ["Ġre", "s"], ["Ġris", "e"], ["Ġs", "crip"], ["Ġs", "p"], ["Ġs", "up"], ["Ġt", "im"], ["Ġt", "r"], ["Ġw", "or"], [")", ";"], ["0", ","], ["1", "9"], ["2", "00"], ["2", "3"], ["4", "7"], ["47", ","], ["5", ",000"], ["5", "00"], ["E", ","], ["I", "nd"], ["Ind", "ia"], ["a", "em"], ["a", "ic"], ["a", "re"], ["a", "Ë"], ["ac", "es"], ["ac", "h"], ["ac", "ter"], ["ac", "y."], ["acter", "istic"], ["aem", "en"], ["ag", "es"], ["ajor", "ity"], ["ak", "ing"], ["al", "ist"], ["all", "av"], ["am", "m"], ["an", "ag"], ["an", "m"], ["an", "t"], ["an", "y"], ["and", "ar"], ["and", "ing"], ["and", "s"], ["andar", "d"], ["andard", "ised"], ["anm", "ar"], ["ar", "acteristic"], ["ar", "h"], ["ar", "l"], ["arg", "e"], ["arg", "ins"], ["arl", "i"], ["arli", "est"], ["at", "ed"], ["athe", "re"], ["athere", "r"], ["atherer", "s,"], ["ation", "alist"], ["ation", "s"], ["av", "e"], ["av", "ir"], ["aË", "Ĳ"], ["c", "luding"], ["c", "ord"], ["ce", "an"], ["ch", "aemen"], ["cord", "ed"], ["d", "ep"], ["d", "iv"], ["dep", "end"], ["e", "aking"], ["e", "al"], ["ec", "h"], ["ec", "lin"], ["ec", "ted"], ["ech", "n"], ["echn", "olog"], ["econ", "d"], ["edi", "ev"], ["ediev", "al"], ["el", "f"], ["el", "i"], ["em", "oc"], ["en", "g"], ["ent", "ly"], ["equ", "al"], ["er", ","], ["er", "ing"], ["er", "m"], ["eri", "od"], ["ers", "ian"], ["es", "."], ["ettl", "ed"], ["etw", "or"], ["etwor", "ks"], ["ev", "er,"], ["ev", "ot"], ["evot", "ion"], ["ew", "ed"], ["ex", "ist"], ["exist", "ing"], ["f", "ter"], ["g", "atherers,"], ["g", "lish"], ["gh", "al"], ["h", "m"], ["h", "Äģ"], ["hÄģ", "rat"], ["i", ","], ["i", "ally"], ["i", "k"], ["i", "x"], ["ian", "s"], ["ic", "ts"], ["ic", "ul"], ["icul", "ar"], ["id", "dle"], ["id", "e"], ["id", "ence"], ["if", "ied"], ["il", "is"], ["ill", "ion"], ["in", "cluding"], ["in", "ed"], ["ing", ","], ["ir", "on"], ["ir", "st"], ["is", "en"], ["it", "ary"], ["it", "e"], ["it", "ution"], ["ity", ","], ["iv", "ilis"], ["iv", "ing"], ["iv", "ity"], ["j", "ab"], ["j", "o"], ["k", "n"], ["kn", "it"], ["l", "im"], ["l", "our"], ["le", "ment"], ["lour", "ish"], ["m", "ajority"], ["n", "glish"], ["n", "ings"], ["n", "s"], ["o", "ast"], ["o", "re"], ["oc", "h"], ["ol", "ation"], ["ol", "id"], ["om", "en"], ["or", "ted"], ["ore", "st"], ["ou", "t"], ["ou", "thern"], ["ow", "er"], ["ow", "ever,"], ["pl", "anted"], ["r", "a"], ["r", "al"], ["r", "ation"], ["r", "o"], ["r", "oduc"], ["r", "ough"], ["st", "an"], ["st", "itution"], ["ty", "m"], ["u", "al"], ["u", "ghal"], ["ult", "an"], ["un", "jab"], ["un", "ter"], ["up", "ation,"], ["ur", "al"], ["ure", ","], ["us", "lim"], ["viol", "ence"], ["west", "."], ["y", "anmar"], ["¸", "Î"], ["¸Î", "½"], ["¸Î½", "Î"], ["¸Î½Î", "´"], ["¼", "¸Î½Î´"], ["Äģ", "y"], ["Ë", "Ī"], ["á", "¼¸Î½Î´"], ["á¹", "ĩ"], ["âĢ", "ĵ"], ["âĢ", "Ķ"], ["Ġ", "\""], ["Ġ", "7"], ["Ġ", "F"], ["Ġ", "L"], ["Ġ", "en"], ["Ġ", "er"], ["Ġ(", "including"], ["Ġ(", "á¼¸Î½Î´"], ["Ġ1", "200"], ["Ġ19", "47,"], ["Ġ19", "5"], ["Ġ2", "00"], ["Ġ5", "5,000"], ["ĠA", "chaemen"], ["ĠBCE", "."], ["ĠC", "E,"], ["ĠC", "ent"], ["ĠC", "ivilis"], ["ĠC", "lassical"], ["ĠCh", "r"], ["ĠChin", "a,"], ["ĠE", "arly"], ["ĠE", "nglish"], ["ĠEmpire", "."], ["ĠGree", "k"], ["ĠGup", "ta"], ["ĠHindu", "stan"], ["ĠIsl", "am"], ["ĠJain", "ism"], ["ĠM", "iddle"], ["ĠM", "ughal"], ["ĠM", "uslim"], ["ĠM", "yanmar"], ["ĠO", "cean"], ["ĠP", "allav"], ["ĠP", "ersian"], ["ĠP", "unjab"], ["ĠS", "outheast"], ["ĠThe", "ir"], ["ĠU", "S"], ["ĠV", "alley"], ["Ġa", "b"], ["Ġa", "fter"], ["Ġad", "op"], ["Ġago", ","], ["Ġal", "ong"], ["Ġanimal", "s"], ["Ġar", "isen"], ["Ġar", "ound"], ["Ġarch", "aic"], ["Ġarchitect", "ure,"], ["Ġas", "s"], ["Ġb", "ased"], ["Ġb", "een"], ["Ġb", "oth"], ["Ġbeg", "an"], ["Ġbord", "ers"], ["Ġc", "ast"], ["Ġcentur", "ies"], ["Ġcentury", ","], ["Ġch", "aracteristic"], ["Ġcompos", "ed"], ["Ġcon", "duc"], ["Ġcon", "t"], ["Ġcons", "olid"], ["Ġcreat", "ed"], ["Ġcreat", "ivity"], ["Ġculture", "s"], ["Ġd", "at"], ["Ġd", "eclin"], ["Ġd", "emoc"], ["Ġd", "evotion"], ["Ġd", "uring"], ["Ġdiff", "used"], ["Ġe", "arliest"], ["Ġe", "arly"], ["Ġe", "mpire"], ["Ġe", "pic"], ["Ġeast", "ern"], ["Ġeconom", "ic"], ["Ġed", "icts"], ["Ġeth", "ical"], ["Ġexp", "anding"], ["Ġextens", "ive"], ["Ġf", "irst"], ["Ġf", "lourish"], ["Ġf", "ound"], ["Ġg", "rew"], ["Ġgr", "adually"], ["Ġh", "ered"], ["Ġh", "is"], ["Ġh", "ub"], ["Ġh", "unter"], ["Ġhigh", "ly"], ["Ġhistor", "ical"], ["Ġhum", "ans"], ["Ġim", "m"], ["Ġin", "depend"], ["Ġin", "equal"], ["Ġin", "f"], ["Ġincre", "ased"], ["Ġis", "olation"], ["Ġkingdom", "s"], ["Ġl", "and"], ["Ġl", "arge"], ["Ġl", "oss"], ["Ġlanguag", "e,"], ["Ġliter", "ature"], ["Ġm", "ade"], ["Ġm", "ain"], ["Ġm", "argins"], ["Ġm", "ig"], ["Ġm", "ult"], ["Ġn", "ationalist"], ["Ġn", "e"], ["Ġn", "ear"], ["Ġn", "ew"], ["Ġnorth", "west."], ["Ġocc", "upation,"], ["Ġov", "er"], ["Ġp", "eriod"], ["Ġp", "ower"], ["Ġp", "rom"], ["Ġp", "ublic"], ["Ġpart", "icular"], ["Ġpart", "ition"], ["Ġpl", "ace"], ["Ġpl", "an"], ["Ġpopul", "ous"], ["Ġr", "ights"], ["Ġre", "corded"], ["Ġre", "n"], ["Ġregion", "s."], ["Ġreligion", "s"], ["Ġs", "econd"], ["Ġs", "ett"], ["Ġs", "h"], ["Ġs", "ome"], ["Ġs", "outhern"], ["Ġsouth", "."], ["Ġst", "andardised"], ["Ġst", "at"], ["Ġsup", "planted"], ["Ġt", "echnolog"], ["Ġth", "an"], ["Ġth", "ough"], ["Ġth", "rough"], ["Ġthe", "re"], ["Ġto", "day"], ["Ġto", "ok"], ["Ġtr", "ad"], ["Ġvar", "i"], ["Ġvar", "n"], ["Ġw", "ild"], ["Ġw", "omen"], ["Ġw", "rit"], ["Ġwh", "at"], ["Ġwor", "ld"], ["%", "."], ["'", ")"], ["'", "."], ["'", "E"], ["'", "the"], ["'E", "igh"], ["'Eigh", "t"], [",", "\""], [",", "6"], [",6", "0"], [",60", "1"], [",601", ","], [".", "4"], [".", "6"], [".6", "%"], ["0", "23"], ["023", "."], ["19", "00"], ["2", ",601,"], ["2", "0"], ["2", "0,"], ["23", "2"], ["4", "%."], ["5", "8"], ["58", "."], ["6", ".6%"], ["6", "1"], ["6", "4"], ["6", "8"], ["8", "0,000"], ["8", "58."], ["9", ",000"], ["B", "hÄģrat"], ["BhÄģrat", ";"], ["India", "\""], ["India", ","], ["N", "A"], ["W", "est"], ["Z", "or"], ["Zor", "oast"], ["Zoroast", "r"], ["Zoroastr", "ian"], ["Zoroastrian", "ism"], ["[", "É"], ["[", "ËĪ"], ["[É", "¦"], ["[É¦", "É"], ["[É¦É", "ª"], ["[É¦Éª", "nd"], ["[É¦Éªnd", "Ê"], ["[É¦ÉªndÊ", "Ĭ"], ["[É¦ÉªndÊĬ", "ËĪ"], ["[É¦ÉªndÊĬËĪ", "st"], ["[É¦ÉªndÊĬËĪst", "aËĲ"], ["[É¦ÉªndÊĬËĪstaËĲ", "n"], ["[É¦ÉªndÊĬËĪstaËĲn", "]"], ["[ËĪ", "b"], ["[ËĪb", "Ê"], ["[ËĪbÊ", "±"], ["[ËĪbÊ±", "aËĲ"], ["[ËĪbÊ±aËĲ", "É"], ["[ËĪbÊ±aËĲÉ", "¾"], ["[ËĪbÊ±aËĲÉ¾", "É"], ["[ËĪbÊ±aËĲÉ¾É", "Ļ"], ["[ËĪbÊ±aËĲÉ¾ÉĻ", "t"], ["[ËĪbÊ±aËĲÉ¾ÉĻt", "]"], ["a", "i"], ["a", "ig"], ["a", "il"], ["a", "im"], ["a", "ism,"], ["a", "red"], ["a", "res"], ["a", "ther"], ["a", "used"], ["a", "w"], ["a", "x"], ["a", "á¹ĩ"], ["ab", "ian"], ["ab", "il"], ["ab", "it"], ["ab", "le"], ["ab", "lish"], ["abil", "ity"], ["abit", "at"], ["abitat", "s."], ["ablish", "ed"], ["ac", "ed"], ["ac", "k"], ["ac", "ot"], ["ac", "r"], ["ac", "t"], ["ac", "tion"], ["ac", "y"], ["ace", ","], ["aces", ","], ["ach", "ed"], ["ach", "ings"], ["ack", "d"], ["ackd", "r"], ["ackdr", "op"], ["acot", "ta"], ["acr", "if"], ["acrif", "ic"], ["acrific", "es"], ["act", "or"], ["action", "al"], ["actional", "ism,"], ["ad", "es"], ["ad", "ivers"], ["ades", "h"], ["adivers", "e"], ["aig", "ai"], ["ail", "and"], ["aim", "ing"], ["ain", ";"], ["ain", "ed"], ["ak", "en"], ["ak", "h"], ["ak", "t"], ["akh", "ig"], ["akhig", "arh"], ["akhigarh", "i,"], ["akt", "i"], ["al", "a,"], ["al", "div"], ["al", "e"], ["al", "es"], ["al", "ing"], ["al", "ised"], ["al", "n"], ["al", "och"], ["aldiv", "es."], ["ales", "c"], ["alesc", "ence"], ["aling", "a,"], ["all", "ed"], ["all", "eng"], ["alle", "y."], ["alleng", "es"], ["alley", ","], ["aln", "ut"],
[...]
